#version: 0.2
Õ ¡
Õ¡ Õ
Ġ Õ
Ö Ģ
Õ ¸
Õ ¥
Õ ¶
Õ «
Ö Ĥ
Õ¸ ÖĤ
Õ¡Õ ¶
Õ¥ Õ
ÖĢ Õ
Õ¸ÖĤ Õ
Ö ģ
Õ¸ Õ
Õ µ
Ö Ħ
Õ¡Õ ¯
Õ¥ ÖĢ
Õ¡Õ µ
Õ ¿
ĠÕ °
Õ¸ÖĤÕ ´
Õ¡ ÖĢ
Õ« Õ¶
Õ¡ ÖĢÕ
Õ¥Õ ¬
Õ« Õ
Ġ Ô
Õ¸ÖĤÕ ©
Õ¸ÖĤÕ© Õµ
Õ ¨
ĠÕ §
ĠÕ ´
Õ¡Õ ´
Õ ¾
ĠÕ ¯
ĠÕ ¸
Õ¸ÖĤ Õ¶
ĠÕ ¥
Õ¡Õ ¿
Õ¡Õ ½
Õ¶ Õ¥ÖĢ
Õ ´
Ġ Ö
Õ¡Õ¯ Õ¡Õ¶
Õ¡Õ ¾
Õ ½
ĠÕ ¶
Õ¥ ÖĢÕ
Õ ¯
Õ¥ Õ¶
Õ¸ÖĤÕ©Õµ Õ¸ÖĤÕ¶
Õ¡ Öģ
Õ¥Õ ¿
Õ¸Õ ¾
Õ¸Õ ²
ĠÕ ¿
Õ ¤
Ġ Õ¡Õ
Õ¸ ÖĢ
Õ¸ ÖĢÕ
ĠÕ º
Ô ±
Õ¡Õ ®
ĠÕ «
ĠÕ £
ĠÕ ¤
Õ¡Õ £
Õ¸ÖĤÕ©Õµ Õ¡Õ¶
ĠÕ ¢
Õ¡Õ °
Õ ¬
ĠÔ ±
Õ¶Õ¥ÖĢ Õ«
ĠÕ Ģ
Õ¥Õ ½
Õ¡Õ ¬
Õ £
ĠÕ ½
ĠÕ¸ ÖĢ
Õ ¢
ĠÕ¸ ÖĤ
ĠÕ ¾
Õ º
ĠÖ ĩ
ĠÕ¥ Õ¶
Õ¡Õ¶ Õ«
Ġ Õ¡Õµ
Â »
Õ ¹
Â «
Õ¥ÖĢÕ ¨
Õ ©
Õ¡Õ Ń
Õ¡Õ º
Õ¡Õ ¼
Õ¥Õ ²
Ġ Õ¡Õ¶
Ö ĩ
Õ¸ Õ¶
Õ´ Õ¡Õ¶
ĠÕ ©
Õ Ģ
ĠÕ° Õ¡Õ´
Õ¡Õ ²
Õ« Öģ
Õ¡Õ½ Õ¿
Ô± Õ
Õ Ŀ
Õ Ń
Ġ ÖĦ
ĠÕ Ń
Õ¥ Öģ
Õ¡Õµ Õ«Õ¶
Õ¡Õ ¦
ĠÕ ¹
Õµ Õ¡Õ¶
Ö ī
Ġ Â«
Õ¾ Õ¡Õ®
Õ¥Õ ¯
ĠÕ ·
Õ¡Õ ¤
ĠÕ« ÖĢ
Õ« ÖĢ
Õ¡Õ ·
Õ¶ Õ¥ÖĢÕ¨
Õ¡ ÖĦ
Õ«Õ ½
ĠÕ¡Õ ¼
ĠÕ ¬
Õ ·
Õ«Õ ¯
Õ ²
Õ¸ÖĤÕ µ
ĠÕ Ħ
ĠÕ ¨
Õ¸ÖĢÕ ®
Õ¡ÖĢÕ ¤
Ġ 1
ĠÕ° Õ¥Õ¿
ĠÕ¨ Õ¶
Õ¥ÖĢ Õ«
Õ¡Õ ¢
ĠÖ ĥ
Ö ĥ
Õ Ĩ
Ġ 2
Ô µ
ĠÖ ħ
Õ¥Õ¬ Õ¸ÖĤ
ĠÕ į
Õ Ħ
Õ¡Õ¾ Õ¸ÖĢ
Õ« Õ¿
Õ¸Õ ½
ÖĢ Õ¡Õ¶
Õ¡ÖĢÕ ¿
Õ¶ Õ¹
Õ Ī
ĠÕ´ Õ¡Õ½
Õ¡ÖĢÕ ¯
Õ¸ÖĤÕ©ÕµÕ¸ÖĤÕ¶ Õ¨
Õ¸ÖĤÕ ½
Õ¡ÖĢÕ £
ĠÕº Õ¡Õ¿
Ô »
Õ¥Õ ´
ÖĦ Õ«
ĠÕ¶ Õ¡ÕŃ
Õ«Õ ´
â Ģ
Ô ¿
ĠÕ° Õ¡Õµ
Õ °
Õ¡Õ »
ĠÕ ¦
ÖĢÕ ¤
ĠÕ´ Õ«
Õ¡Õ¶ Õ¡Õ¯
ĠÕ¥ ÖĢÕ
Õ¸ÖĤ ÖĢ
Õ¾ Õ¥Õ¬
Ġ (
Õ¸Õ ¬
Õ¸ Öģ
ĠÔ µ
ĠÕ ®
Õ¡Õ´ Õ¢
Õ »
Õ¡Õµ Õ¶
ĠÕĢ Õ¡Õµ
ĠÕ£ Õ¸ÖĢÕ®
ĠÕ°Õ¡Õ´ Õ¡ÖĢ
Õ½ Õ¿
Õ¥Õ ¼
Õ¡Õ£ ÖĢ
ĠÕ ª
ĠÕ° Õ¡Õ¶
Õ¡ÖĢÕ ±
Õ¡Õ¶ Õ¸ÖĤÕ´
ÕĪ Õ
ĠÔ ¿
ĠÕ Ĩ
Õ«Õ »
. .
Õ¡Õµ Õ«
Õ¥ ÖĦ
ĠÕ¯ Õ¡ÖĢ
Õ ±
ĠÕ´ Õ¥Õ
Õ¸ÖĤ Öģ
Õ¥Õ¶ ÖĦ
Õ¥Õ¬ Õ«
Õ¾ Õ¸ÖĤÕ´
Õ¡Õ¯ Öģ
Õ¿ ÖĢ
· ÕŃ
ĠÕ¡Õ¼ Õ¡Õ»
0 1
Õ¡Õ¦ Õ´
ĠÕ« Õ¶Õ¹
ĠÔ ²
Õ¸ÖĢÕ ¤
ĠÔ ³
ĠÕ¿ Õ¥Õ²
ĠÕ ±
Õ¶ Õ¥Õ¬
ĠÕ¿ Õ¡ÖĢ
Õ¡Õ² Õ¡ÖĦ
ĠÕĢÕ¡Õµ Õ¡Õ½Õ¿
ÖĢ Õ¡
ĠÕ¸ÖĤ Õ¶
ÖĢÕ ¾
Ġ Õ¡Õ¾
Õ¡ÖĢ Õ¡ÖĢ
Õ¡Õº Õ¥Õ¿
Õ¶ Õ¸ÖĤÕ´
Ġ Õ¡Õ´
ĠÕ¡Õ ·ÕŃ
Õ¡Õ ª
Õ¶ Õ¤
Õ į
Õ«Õ ¾
ĠÕ¥ ÖĤ
ĠÕ§ ÖĢ
ĠÕ¡Õµ Õ¶
Õ Ĳ
Õ¸Õ ¿
ĠÕº Õ¥Õ¿
ĠÕ¥ÖĢÕ ¯
ÖĦ Õ¸ÖĤÕ´
Õ¡Õ¶ Öģ
Õ ®
Õ ¦
ĠÕ¶ Õ¥ÖĢÕ
Õ¸Õ Ń
Õ¸ÖĤÕ©ÕµÕ¸ÖĤÕ¶ Õ¶Õ¥ÖĢ
ĠÕ İ
Õ¡Õ¶ Õ¯
ĠÕ¶ Õ¡
ÖĢÕ ¨
Õ ı
ÖĢÕ »
ĠÕ´Õ¡Õ½ Õ«Õ¶
ĠÕ´ Õ«Õ»
ĠÕ½ Õ¿
Õ ŀ
ĠÕ¾ Õ¥ÖĢ
ĠÕ° Õ¡ÖĢ
ĠÕª Õ¡Õ´
Õ¡ Öĥ
Ġ Öģ
ÕµÕ¡Õ¶ Õ¨
ĠÕ¡Õµ Õ½
Õ¡Õ¶ ÖĦ
ĠÖĦ Õ¡Õ²Õ¡ÖĦ
Õ«Õ ¹
Õ¸ÖĤÕ©ÕµÕ¸ÖĤÕ¶ Õ¶Õ¥ÖĢÕ«
ÖĢ Õ¡Õ´
ÕĪÕ Ĵ
Õ«Õ ·
Õ¡Õ¶ Õ¨
Õ §
Ö ħ
ĠÖħ ÖĢ
ĠÔ »
Õ¡Õ ©
ĠÕ¥ ÖĢ
0 0
Õ½ Õ¯
ĠÕ¡Õ º
Õ¥Õ º
Ô±Õ Ĩ
Õ ¼
ĠÕ¡Õµ Õ¤
Õ¡Õ· Õ¿
Õ¸Õ ·
Õ¡Õ¶ Õ¤
ĠÕ Ĭ
ĠÔ ´
Ô ³
ĠÕ°Õ¡Õµ Õ¿
Õ¸ÖĤÕµ Õ¶
ĠÕ¯Õ¡ÖĢ Õ¸Õ²
Õº Õ¥Õ½
Õ¡Õ¶ Õ£
Õ ª
Õ«Õ ¬
Ġ -
Õº Õ¡Õ¶
ĠÕ¡Õ·ÕŃ Õ¡Õ¿
Õ¸ÖĤÕ©Õµ Õ¡Õ´Õ¢
Õ İ
ĠÕ´ Õ¥Õ¯
Õ¡ÖĢÕ ¾
¯ Õ¡Õµ
ĠÕ§ Õ¬
Õ¡Õ¤ ÖĢ
Ġ Õ¡Õ½
ÖĦ Õ¨
Õ¥ ÖĤ
Õ¡Õ¿ Õ¡ÖĢ
Õ¡Õ¾ Õ¡ÖĢ
ĠÕ© Õ¥
Ô ²
Õ¸ÖĢÕ °
ĠÕ¨Õ¶ Õ¤
Õ¸ÖĤÕ´ Õ¨
ĠÔ ¼
ĠÔ± Õµ
Ô ´
Õ ³
Õ¡ÖĢÕ ´
Õ¶Õ¥ÖĢ Õ«Õ¶
Ġ _
Ġ Õ¡ÖĢÕ¤
Ġ2 01
ĠÕ« Õ¶
ĠÕ ³
ĠÕĢ ÕĢ
ĠÕ¡Õµ Õ¬
Õ¶ Õ¡Õ¯
ĠÕ¯ Õ¡Õ´
Õ¥Õ ¦
ĠÕ¥ Õ´
Õ¶ Õ«
ĠÕ¡Õ ¦
Õ¡ÖĢÕ °
ĠÕ¹ Õ«
ĠÕ£ ÖĢ
ĠÕ° Õ¡Õ½
ĠÕ° Õ«Õ´
Õ¸Õ µ
Õ¸Õ² Õ´
ĠÕ ı
ĠÕ¶ Õ·
ĠÖ Ĩ
ÕŃ Õ¡Õ¶
Õ´ Õ¢
Õ¡Öģ Õ«
ĠÕ«ÖĢ Õ¡Õ¾
ĠÕĢÕ¡ÕµÕ¡Õ½Õ¿ Õ¡Õ¶Õ«
ĠÕ¶Õ¥ÖĢÕ ¯Õ¡Õµ
ĠÔ ¹
Ô ¼
Õ¸Õ £
ĠÕ ¼
Ö Ĩ
Õ«Õ º
Õ¸Õ² Õ¸Õ¾
Õ¶ Õ¡Õ¯Õ¡Õ¶
ĠÕ¶Õ¡ÕŃ Õ¡Õ£
Ô ¹
Õ¡ÖĢÕ ¦
Õ¡ÖĢ Õ«
Ġ Õ¡ÖĢÕ¿
Õ¸ÖĤÕ ¬
Õ Ĭ
Õ¡Õ£ Õ¸ÖĢÕ®
Õ¡Õ¯ Õ«
ĠÕªÕ¡Õ´ Õ¡Õ¶Õ¡Õ¯
.. .
Õµ Õ¡Õ¶Õ«
ĠÕ¸ Õ¹
ĠÕ¶Õ¡ Öĩ
Õ¸ÖĤÕ ¿
Õ¸Õ ´
ĠÕº Õ¡Õ·Õ¿
Öħ ÖĢ
ĠÕ°Õ¡ÖĢ Öģ
ĠÕ Į
ĠÕ¿ Õ¥Õ½
ĠÕº Õ¡Õ°
Õ« ÖĦ
ĠÕ¯ Õ¸Õ²Õ´
ĠÕ´ Õ¡ÖĢÕ¤
ĠÕ¯ Õ¡Õ¼
Õ¯ Õ¥ÖĢ
Õ¥Õ¶ Öģ
Õ¡Õ¶ ÖĢ
Õ¡ÖĢ Õ¡Õ¯
ĠÕ¶Õ¥ÖĢÕ¯Õ¡Õµ Õ¡Öģ
ĠÕ¯ Õ¡Õ¦Õ´
ĠÕ¶ Õ¸ÖĢ
Õ¡Õ ±
ĠÕ¶ ÖĢÕ¡Õ¶
Õ© Õ¡Öģ
ÖĢÕ ¢
Õ¥ÖĢÕ º
ĠÕ´Õ¡Õ½ Õ¶
Õ ħ
ÖĢ Öĩ
Õ¡ÖĢÕ ª
Õ¸ÖĤÕ¶ ÖĦ
Ġ 3
Õ£ Õ¡ÕµÕ«Õ¶
ĠÕ° ÖĢ
ÖĢÕ ¿
Õ¸Õ¬ Õ¸ÖĢ
Õ¾ Õ¡Õ¯Õ¡Õ¶
Õ¸Õ ¤
ĠÕ¸ÖĤ Õ²
ĠÕ° Õ¡Õ¾
ĠÕ¡Õ´ Õ¥Õ¶
ĠÕ¤ Õ¥Õº
Õ¸ÖĤÕ ²
ĠÕ´Õ¥Õ »
Õµ Õ¡Õ¬
ĠÕ¬ Õ«Õ¶
ĠÕºÕ¥Õ¿ ÖĦ
ĠÕ Ķ
Õ¶ Õ¶
Õ¸ÖĤÕµ Õ©
ÖĢÕ ¯
Õ¸ÖĤÕ ¯
ĠÕ¥Õ¶ ÖĦ
ĠÕ°Õ¡Õ¶ Õ¤
Õ¥Õ¬ Õ¸Õ¾
Õ¡ÖĢ Õ¡Õ¶
ĠÕ´ Õ¥ÖĢ
Õ£ Õ¡Õ´
ĠÕ Ī
Õ«Õ½ Õ¿
Â» ,
a m
Õ¡ÖĢÕ ¹
Õ¡Õ ³
ĠÖħ Õ£
ĠÕ· Õ¡Õ¿
Õ¥ÖĢÕ »
Õ¡Õº Õ¥Õ½
ÕĢ Õ¡Õµ
Õ«Õ ³
ĠÕº Õ¡Õµ
ÖĢ Õ«
ĠÕ¯ Õ¡Õµ
Õ¡Õ° Õ´Õ¡Õ¶
Õ¡Õ¯ Õ¡ÖĢÕ£
ĠÕ¢ Õ¡Öģ
Õ¸ÖĤÕ©ÕµÕ¸ÖĤÕ¶ Õ¶Õ¥ÖĢÕ¨
ÖĢ Öģ
Õ¥ÖĢ Õ«Õ¶
ĠÕ· ÖĢÕ»
ĠÕ ĵ
Õ¶Õ¥ÖĢ Õ¸ÖĤÕ´
Õ¾ Õ«
Õ¿ Õ¥Õ½
ĠÖĥ Õ¸ÕŃ
Õ¥Õ² Õ®
ĠÕ¸ÖĢ Õ¸Õ¶
ĠÕ¸ÖĢ Õ¸Õ·
Õ«Õ ¦
ĠÕ¶Õ¡ÕŃÕ¡Õ£ Õ¡Õ°
Õ¥Õ Ń
ĠÔ ·
Ô±Õ Ĳ
ÖĢ Õ¡Õ£ÖĢ
Õ¡Õ¾ Õ¸ÖĢÕ
Õ¡Õ ¹
ĠÕ¹ Õ§
Õ¸ÖĤÕµ Öģ
ĠÕ¡Õ¶ Öģ
Õ¡ÖĢÕ ¢
Õ© Õ¥
ĠÕ¡Õ¾ Õ¥Õ¬Õ«
ÖĢ Õ¥Õ¬
Õ¥ÖĢ Õ¸ÖĤÕ´
Õ¡Õµ Öģ
Õ¨ Õ¶
ĠÕ«ÖĢ Õ¡Õ¯Õ¡Õ¶
ĠÕŃ Õ¸Õ½
Ġ âĢ
Õ¡ÖĢÕ µ
Õ Ķ
Ô ¸
Õ¡Õµ Õ¸ÖĤÕ´
Ô± Õµ
Õ¥Õ´ Õ¢
Õ Ľ
Õ¡Öģ Õ¥Õ¬
Õ¿ÖĢ Õ¸Õ¶
ÖĢÕ º
ĠÕ¯ Õ¡Õ¶
Ġ1 9
ĠÕ¯ Õ¡Õº
Õ¶Õ¥ÖĢÕ« Öģ
ĠÕ¢ Õ¸Õ¬Õ¸ÖĢ
ĠÕ¥ Õ½
Õ¡Õ¯ Õ¥ÖĢÕº
ĠÕ¸ÖĤÕ¶ Õ¥Öģ
ĠÕ§ Õ«Õ¶
Õ¡Öģ Õ´Õ¡Õ¶
Õ¡Õ½ ÕŃÕ¡Õ¶
ĠÕ« Õ½Õ¯
Õ«Õ½ Õ«
ĠÕ© Õ¾Õ¡Õ¯Õ¡Õ¶
Ôµ ÕĲ
Õµ Õ¸ÖĤÕ¶
ĠÕ¯Õ¸Õ²Õ´ Õ«Öģ
Õ¡Õ¼ Õ¡Õµ
ÖĢÕ ´
Õ¶ Õ¡ÖĢ
ĠÕ¯ Õ¥Õ¶
ĠÕŃ Õ¡Õ²
ĠÕ¥ Õ²
ĠÕ¡Õ¶ Õ°
ÖĦ Õ¶
Õ¡Õ¶ Õ¡Õ¬
ĠÕŃ Õ¸ÖĢÕ°
ĠÕ¸ ÖĢÕ¨
Õ¡Õ¯ Õ¸ÖĤÕ´
Õ«Õ¶ Õ¹
ĠÔ ½
Õµ Õ¸ÖĤÕ©
Õ¾ Õ¸Õ²
ĠÕ¾ ÖĢÕ¡
ÖĢÕ ½
ĠÕ¿Õ¡ÖĢ Õ¡Õ®
ĠÕ«Õ¶Õ¹ ÕºÕ¥Õ½
ĠÕ´Õ¥Õ ®
ĠÕ°Õ¥Õ¿ Õ¸
ĠÕ½ Õ¯
ÖĢ Õ¡Õ½Õ¿
ÖĢ Õ¸ÖĤÕ´
Ô± Ô¿
Õ¥Õ µ
ĠÕ¶ Õ¯
Õ¡ÖĢÕ¢ Õ¥ÖĢ
ĠÕ´Õ«Õ» Õ¸Öģ
ĠÕŃ Õ¶Õ¤
ĠÕ¡Õ¶ Õ±
ĠÕ½ Õ¡Õ°Õ´Õ¡Õ¶
ĠÕ ĩ
ĠÕ´ Õ¿
Õ¥Öģ Õ«Õ¶
ĠÕ¾ Õ¡ÖĢÕ¹
ĠÕ· Õ¡ÖĢ
ĠÕ¡Õ¶ Õ¾
Õ« Õ¡ÕµÕ«
Õ¸ÖĢÕ ±
Õ¶ Õ¥Õ¬Õ¸ÖĤ
ĠÕŃ Õ´Õ¢
ĠÕĢ Õ¡Õ¶ÖĢ
ÖĢÕº Õ¥Õ½
ĠÕ¨Õ¶ Õ©Õ¡Öģ
ÖĢÕ ©
Õº ÖĢ
ĠÕ¤ Õ¸ÖĤ
Õ¸Õ º
ĠÕ¨Õ¶ Õ¿ÖĢ
Õ¶Õ¥ÖĢ Õ¸Õ¾
Õ¸Õ ¯
Õ¸ÖĢÕ ¿
ĠÕ° Õ¡Õ¿
Â Ń
Õ«Õ £
Õ¥Õ »
Õ¸Õ² Õ»
Õ¸ÖĤÕ©ÕµÕ¡Õ¶ Õ¨
ĠÕ´ Õ¡ÖĢÕ¦
ĠÕ¥ÖĢÕ ¢
Õ¡Õ¯ Õ¨
Õ¸ ÖĦ
ĠÕ¶Õ¡ÕŃ Õ¡ÖĢÕ¡ÖĢ
Õ¯ Õ¡Õ¯Õ¡Õ¶
Õ¥ÖĢÕ ©
ĠÕ¿ Õ¶
ÖĢÕ¡Õ¶ ÖĦ
Õ¡Õ¢ Õ¡Õ¶
ĠÕ«ÖĢ Õ¥Õ¶Öģ
ĠÕ¢ Õ¡Õ¶
âĢ ¤
ĠÕ¾ Õ¥ÖĢÕ»
ĠÕ¿Õ¥Õ² Õ¥Õ¯
Ġ 4
ĠÕ¸ ÖĢÕºÕ¥Õ½
Ô ½
Ġ 5
Õ¡Õµ ÖĢ
ĠÕ ķ
Õ¶Õ¡ÖĢ Õ¡Õ¾Õ¸ÖĢ
ĠÕ´ Õ¸Õ¿
Ġ Õ¡ÖĢ
2 01
ĠÕĢÕ¡Õ¶ÖĢ Õ¡ÕºÕ¥Õ¿
ĠÔµ ÖĢÖĩ
ĠÕ½ Õº
ĠÕ »
Õ¿ Õ¶
e r
ÖĢ Õ¡Õ£
ÖĢÕ¾ Õ¡Õ®
Õ¶Õ¥ÖĢ Õ¶
ĠÕ° Õ¥Õ¼
i n
ĠÕª Õ¸Õ²Õ¸Õ¾
ĠÕ¯Õ¡Õ¦Õ´ Õ¡Õ¯Õ¥ÖĢÕº
Õ« Õ¡
Õ¡Õº Õ¡Õ¿
Õ¥Õ¼ Õ¶
Õ¸Õ ¹
ĠÕ¥ ÖĦ
Õ¬ ÕŃ
Õ¸ÖĤÕ©ÕµÕ¸ÖĤÕ¶ Õ¶
ĠÕ® Õ¡Õ¼Õ¡Õµ
ĠÕ¡Õ¶ Õ¤
Õ¡Õ¢ Õ¥ÖĢ
Õ¥Õ ·
Õ«Õ ©
ĠÕ£ Õ«Õ¿
ĠÕ¶ ÖĢÕ¡
ĠÖĦÕ¡Õ²Õ¡ÖĦ Õ¡Õ¯Õ¡Õ¶
Õ¿ Õ¥Õ´Õ¢
Õ¡ÖĢÕ ®
ĠÕºÕ¡Õµ Õ´Õ¡Õ¶
ĠÕ° Õ¡Õ²
ĠÕ° Õ¶Õ¡ÖĢÕ¡Õ¾Õ¸ÖĢ
ĠÕ¥ Õ¯
ĠÖĥ Õ¸ÖĢÕ±
ĠÕ° Õ¡Õ·
ĠÔ±Õµ Õ½
ĠÖĦ Õ¶Õ¶
ĠÖĦ Õ¡Õ¶Õ«
ĠÕ´Õ« Õ¡ÕµÕ¶
Ô º
Õ¡Õ· Õ«Õ¶
Õ´ Õ¡Õ´Õ¢
Õ¡Õ¢ Õ¥ÖĢÕ
Õ¡Õ¿ Õ¡Õ¯
ĠÕ« Õ´
ĠÕ¡Õ¼Õ¡Õ» Õ«Õ¶
ĠÕŃÕ¸ÖĢÕ° ÖĢÕ¤
ĠÕ¡Õ·ÕŃÕ¡Õ¿ Õ¡Õ¶ÖĦ
Õ¥Õ ¤
ĠÕºÕ¡Õ·Õ¿ Õ¸Õ¶
ĠÕ¯ Õ¡ÖĢÕ£
ĠÕ¡Õ¶ Õ£Õ¡Õ´
Õ± Õ¶
Õ¡Õ¿ Õ¥Õ½
ĠÕ¸ÖĤ Õ½
ĠÕ¥ÖĢÕ¯ ÖĢ
ĠÕ¢ Õ¡ÕµÖģ
Õ¸Öģ Õ«
Õ¸ Öĥ
ĠÕ¢ Õ¡ÖĢÕ±
Õ¸ÖĤÕ ·
ĠÕ£ Õ¶
ĠÖħÕ£ Õ¿
ĠÕ¨Õ¶ Õ¯Õ¥ÖĢ
Õ¡Öģ Õ¡Õ®
Õ¡Õ½Õ¿ Õ¡Õ¶Õ«
ĠÕ¬ Õ¡Õ¾
âĢ ¦
Õ¡Õ¯ Õ¡Õ¬
Ġ Õ¡Õ¯
Õ¸ÖĤÕ ®
Õ¡Õ¼ Õ¶
ĠÕºÕ¡Õ¿ Õ´
Ô ¾
Õ¸ÖĤÕ °
ĠÕ¸ÖĤÕ¶ Õ¥Õ¶
ĠÕ¿ Õ¡ÖĢÕ¢Õ¥ÖĢ
Õ¡Õ¿ Õ¾
Õ¡Õ¯ Õ¡ÕµÕ¶
Õ¥ÖĢ Õ¸Õ¾
ĠÕį Õ¡ÖĢÕ£
a n
ĠÕ½Õ¿ Õ¥Õ²Õ®
ĠÕ¸ÖĢÕ¸Õ¶ ÖĦ
ĠÕ ²
Õ¥ÖĢ Õ¶
Õ¸ÖĤÕ´ Õ¶Õ¥ÖĢ
ĠÕ¹ Õ¥Õ¶
Õµ Õ¸ÖĤÕ²
Õ¸ÖĤÕ´ Õ¶Õ¥ÖĢÕ«
Õ¡Õµ Õ¿
ĠÕ¡Õ ²
ĠÕ¯ Õ¡Õ¿Õ¡ÖĢ
Õ¸Õ °
Õ¡Õ¶ Õ¶
Õ¡ÖĢÕ ¨
Õ«Õ¶ Õ¡Õ¯
ĠÕ¡Õ¦ Õ¡Õ¿
ĠÕº Õ¡ÖĢÕ¿
ĠÕ´ Õ·
ĠÕ¢ Õ¶Õ¡Õ¯
ĠÔ ¶
ĠÕ°Õ¡ÕµÕ¿ Õ¡ÖĢÕ¡ÖĢ
ĠÕ¶ Õº
Õ¥Õ½ Õ¿
ĠÕ¡Õ·ÕŃ Õ¡ÖĢÕ°
Õ¾ ÖĢ
ĠÕįÕ¡ÖĢÕ£ Õ½
ĠÕ°Õ¡Õ´ Õ¡Õ¯Õ¡ÖĢÕ£
ĠÕ«ÖĢÕ¡Õ¯Õ¡Õ¶ Õ¡Öģ
ĠÕ´Õ¡Õ½Õ¶ Õ¡Õ¯Öģ
ĠÕ¨Õ¶Õ¤ Õ¸ÖĤÕ¶
ĠÕ¨Õ¶Õ©Õ¡Öģ ÖĦÕ¸ÖĤÕ´
Õµ Õ¸ÖĤÖĢ
ĠÕ ĸ
ĠÕ¤ Õ«Õ´
Õ¾ Õ¥Öģ
Õ¥Õ· Õ¿
ÖĢÕ¡Õ¶ Öģ
ĠÕ³ Õ¡Õ¶
Õ Į
Õ¥Õ £
ÕĪÕĴ Ô¹
ĠÕ¯Õ¥Õ¶ Õ¿ÖĢÕ¸Õ¶
Õ« Õ¡Õ¶
ĠÕ® ÖĢÕ¡Õ£ÖĢ
ÖĢÕ¢ Õ¥Õ»
ĠÕ¸ÖĤÕ² Õ²
Õ¡Õ½ Õ¶
Õ ĩ
ĠÕºÕ¥Õ¿ Õ¡Õ¯Õ¡Õ¶
Õ¬ÕŃ Õ¡Õ¾Õ¸ÖĢ
ĠÕ¶ Õ¸ÖĤÕµÕ¶
Õ¸Õ ¢
ĠÕ² Õ¥Õ¯
Öĩ Õ¸ÖĢ
ĠÕ¤ Õ¡Õ¿
ĠÕ°Õ«Õ´ Õ¶
ĠÕ«ÖĢÕ¡Õ¾ Õ¸ÖĤÕ¶ÖĦ
Â» :
ĠÕ°Õ¡Õ¶Õ¤ Õ«Õº
Õ¡Õ° Õ¡Õ¿
Õ¥ÖĢÕ ´
Ô ¶
Ô±Õ ħ
Õ¡Õ£ Õ¸ÖĤÕµÕ¶
ÖĦ Õ¡Õ¶
ĠÖģ Õ¡Õ¶Õ¯
Õ¬ Õ«Õ¶
ĠÕ´ Õ«Õ¶Õ¹
Õ¡Õ¶ Õ»
Õ¸Õ ¼
Â» -
ĠÕ¿ Õ¡Õ¬
ĠÕĢÕ¡Õ¶ÖĢÕ¡ÕºÕ¥Õ¿ Õ¸ÖĤÕ©ÕµÕ¡Õ¶
Õ¸Õ¤ Õ¾Õ¡Õ®
ĠÕ¯Õ¡Õ¼ Õ¡Õ¾Õ¡ÖĢ
Õ¡Õ± Õ¡ÕµÕ¶
Õ¥ Öĥ
Õ¡Õ¬ Õ«
a t
ĠÕºÕ¡Õ¿ Õ¡Õ½ÕŃÕ¡Õ¶
ĠÕ¥ Õ©Õ¥
Õ¶ Õ¸ÖĢÕ°
ĠÕ¤ Õ¥Õ´
Ġ 6
1 9
ĠÕºÕ¡Õ·Õ¿ ÕºÕ¡Õ¶
Õ¡Õ¤ Õ¡ÖĢÕ±
ĠÕ¢ Õ¡Õª
ÖĢÕ µ
Õ¡Õ¦ Õ£Õ¡ÕµÕ«Õ¶
ĠÕ¿Õ¥Õ² Õ«
ĠÖģ Õ¸ÖĤÖģ
Õµ Õ¡
a r
Õ¡Õ¯ Õ«Öģ
Õ¯ Õ¡Öģ
ĠÕ¸ÖĤ Õª
Õ¡Õ¯Öģ Õ¸ÖĤÕ©ÕµÕ¡Õ¶
Õ¡Õº Õ¡ÖĢÕ¡Õ¯
ĠÕ´ Õ¥Õ¶ÖĦ
ĠÕ ģ
Õµ Õ¸ÖĤÕ½
o n
ĠÕ ī
Õ« Õ¸Õ¶
ĠÕ¶ÖĢÕ¡Õ¶ Öģ
Õ¸ÖĤ ÖĢÕ¤
ĠÕ´ ÖĢÖģ
Ġ Õ¡Õ´Õ¢
ĠÕ¦ Õ¡ÖĢÕ£
Ô±Õµ Õ½
ĠÕ¤ Õ¡
ÕĢ ÕĢ
o r
ĠÕ¾Õ¥ÖĢ Õ¡Õ¢Õ¥ÖĢÕ
ÕĪÕĴÔ¹ Õħ
ĠÕ¸ Õ¾
ĠÕ¿Õ¡ÖĢ Õ«
Õ¡Õ£ÖĢ Õ¥Õ¬
ĠÔ± Õ¶
ĠÕºÕ¡Õ¿ Õ³
Õ¿Õ¥Õ´Õ¢ Õ¥ÖĢÕ«
Õ¸ÖĤÕ´ Õ¶
ĠÕ¤ Õ¡Õ½
Õ¥ÖĢÕ ¿
ĠÕ¢ Õ¡ÖĢ
Õ¸Õ½ Õ¿
ĠÕ¢Õ¡ÖĢÕ± ÖĢ
Õ¥ÖĢ Õ¥Õ¶
ĠÕ¯ Õ¡ÖĢÕ®
ĠÕ§ Õ»
Õ«Õ· Õ¿
ĠÖĥ Õ¡Õ½Õ¿
Õ¸Õ ©
ĠÕ½Õ¯ Õ½
ĠÕ¶ Õ¥ÖĢ
Ô» ÕĨ
Õ¸ÖĤ ÖĢÕ»
Õ¸ÖĤÕ½ Õ¿
Õ¡Õ¾Õ¸ÖĢÕ ¾
ĠÕ¡Õ¶Õ¤ Õ¡Õ´
ĠÕ¶Õ¯ Õ¡Õ¿
ĠÕ¤ ÕºÖĢ
Â», -
Õ¡ÖĢ Õ¡Õ¶Õ«
Õ¡Õ¤ Õ«ÖĢ
Õ¿ Õ¡Õ¶Õ£
ĠÕ¡ÖĢÕ¤ Õ¥Õ¶
ĠÕ¸ÖĤÕ¶ Õ«
ĠÕ¯ ÕµÕ¡Õ¶
Õ¸ÖĤÕ¶ Õ¡Õ¯
ÖĦ Õ¥ÖĢ
Õ¡Õ£ Õ«Õ¿
ĠÕĪ ÖĤ
Õ ķ
Õ¡Õº Õ¡Õ°
ĠÕ¥Õ² Õ¥Õ¬
ĠÕ²Õ¥Õ¯ Õ¡Õ¾Õ¡ÖĢ
e n
Õ« ÖĢÕ¨
ĠÕ°Õ¡Õ¶ ÖĢ
Õ¥Õ ©
Õ«Õ¯ Õ¡Õ¶
Õ¥ÖĢÕ £
ĠÕŃÕ¶Õ¤ Õ«ÖĢ
ĠÕ¤ Õ¡ÖĢÕ±
) ,
ÖĦ Õ¸Õ¾
Õ¡ÖĢÕ´ Õ¡Õ¶
Õ¸ÖĤÕ©ÕµÕ¸ÖĤÕ¶ Õ«Öģ
ĠÕºÕ¡Õ¿Õ³ Õ¡Õ¼
ĠÕ« Õ·
Ġ A
ĠÕ°Õ¥Õ¿ Öĩ
ÕĦ ÕĨ
ĠÕ° Õ¡Õ¯
ĠÕ° Õ¸Õ£
Õ¡Õµ Õ¬
ĠÕ¤Õ¥Õº ÖĦÕ¸ÖĤÕ´
ĠÕ¥Õ¶ Õ©
ĠÕ± Õ¥Õ¼
ĠÕ¦ Õ«Õ¶
Ġ1 0
Õ¡Öģ Õ«Õ¶
ĠÕ¯ Õ¡Õ¿
Ġ201 8
Õ¡Õª Õ¸Õ²Õ¸Õ¾
Ġ 7
ĠÕ µ
Õ¸Õ² Õ¶Õ¥ÖĢÕ«
ĠÕ¤ ÖĢÕ¡Õ´
ĠÕ¨Õ¶ Õ¿
ĠÕ° Õ¡Õ½Õ¿
Õ¸Õ¾ Õ°
ĠÕ¥ÖĢ Õ¥ÕŃ
ĠÕ´ Õ¡ÖĢÕ´
Ġ Õ¡ÖĢÕª
Ô ·
ĠÕĵ Õ¡Õ·Õ«Õ¶
ĠÔ¿ Õ¡ÖĢ
ĠÕ¢ Õ¶
Õ¸ÖĤÖģ Õ«Õ¹
Õ ĳ
ĠÕ©Õ¾Õ¡Õ¯Õ¡Õ¶ Õ«
Õ¥ÖĢ Õ«Öģ
Õ¯ Õ¡
ĠÕ«Õ¶ ÖĦÕ¶
Õ¸ÖĢ Õ¥Õ¶
ĠÕ° Õ¸Õ¤Õ¾Õ¡Õ®
Õ¸Öĥ Õ¸ÕŃ
ĠÕ¥ÖĢÕ¯ Õ¸ÖĤ
ĠÖħÖĢ Õ¥Õ¶
Õ¡Õ· ÖĢÕ»
ĠÕ¶Õ· Õ¡Õ¶Õ¡Õ¯
ĠÕ¬ ÖĢ
ĠÕ£ Õ¿Õ¶
Õ¸Õ ¦
Õ¥ÖĢÕ ª
ÖĦ Õ«Õ¶
Õ¡Õ¶ Õ¡Õ¯Õ¡Õ¶
Õ«Õ ¤
ĠÕ¶ Õ´Õ¡Õ¶
ĠÕ´Õ¥Õ ¦
ĠÕĢÕ¡ÕµÕ¡Õ½Õ¿ Õ¡Õ¶Õ¸ÖĤÕ´
ĠÕ°Õ¡Õ· Õ¾
ÖĢÕ¡Õ¶ Õ½
ĠÕ°Õ¡Õ´ Õ¡Õ±Õ¡ÕµÕ¶
ĠÕ¤ ÖĢ
Õ¤ ÖĢÕ¢Õ¥Õ»
Õ¡Õ° Õ¸Õ¾
Õ¡Õ¶ ÕµÕ¸ÖĤÕ©
ĠÕ¡Õ´Õ¢ Õ¸Õ²Õ»
Õ¡Õ ¥
ĠÕºÕ¡Õ¿ ÖĢÕ¡Õ½Õ¿
Õ¡Õ¶Õ« Öģ
Õ¡ÖĢÕ¯ Õ¥Õ¬
l e
ĠÕ¡ÖĢÕ¤ ÕµÕ¸ÖĤÕ¶
ĠÕº Õ¡ÖĢÕ¦
ĠÕ½ Õ¡Õ¯Õ¡ÕµÕ¶
µ Õ¡Õ¬
ĠÕ´Õ· Õ¡Õ¯
ĠÕ°Õ¡ÕµÕ¿ Õ¶
ĠÕ«Õ· ÕŃÕ¡Õ¶
ÖĢ ÖĦ
ĠÕ£ ÕµÕ¸ÖĤÕ²
Ġ Õ¡ÖĢÕ±
ĠÕ¶Õº Õ¡Õ¿Õ¡Õ¯
o m
ĠÕ¿Õ¶ Õ¿Õ¥Õ½
ÖĢ Õ¡Õª
Ġ 8
Ô±Õ į
ĠÕ£Õ¸ÖĢÕ® Õ¨Õ¶
ĠÕ´Õ«Õ» Õ¡Õ¦Õ£Õ¡ÕµÕ«Õ¶
Ô±Õ Ħ
ĠÖĥ Õ¸ÖĥÕ¸ÕŃ
ĠÕ¡ÕµÕ½ ÖħÖĢ
Õ¡Öĥ Õ¸ÕŃ
âĢ ĵ
ĠÕ½ Õ«ÖĢ
Õ¸ÖĤ ÖĦ
ĠÕ£ Õ¬ÕŃÕ¡Õ¾Õ¸ÖĢ
ĠÕĮ Õ¸ÖĤÕ½
ĠÕ°ÖĢ Õ¡ÕºÕ¡ÖĢÕ¡Õ¯
ĠÕ¾Õ¥ÖĢÕ¡Õ¢Õ¥ÖĢÕ µÕ¡Õ¬
ÕµÕ¡Õ¶ Õ¶
Õ¡Öģ Õ¶Õ¥Õ¬
ÖĢÕ¾ Õ¥Õ¬
Õ¡Õ¶ Õ«Õ¶
Õ¸ÖĤÖĢ ÖĦÕ«
Õ¡Õº Õ¡ÖĢÕ°
Ġ 9
ĠÕ¾Õ¡ÖĢÕ¹ Õ¡ÕºÕ¥Õ¿
ĠÕ¡Õ¶ Õ¯
ĠÕ¾Õ¥ÖĢÕ» Õ«Õ¶
ĠÖħÕ£Õ¿ Õ¡Õ£Õ¸ÖĢÕ®
ĠÕ¶ Õ¾
ÖĢÕ £
Õ«Õ¿ Õ¡Õ½
Õ¸ÖĤÕ ª
Õ¸ÖĤÕ´ Õ¶Õ¥ÖĢÕ¨
Õ¡Õ£ Õ¥Õ¿
ĠÕ´Õ¥Õ¯ Õ¶
Õ¡Õ· ÕŃ
ÖĢÖģ Õ¡ÕŃ
Õ½Õ¿ Õ«Õ¯Õ¡Õ¶
ĠÕ´Õ¡ÖĢÕ¤ Õ¯
ĠÕ«Õ¶ Õ±
ĠÕ°Õ¡Õ½ Õ¡ÖĢÕ¡Õ¯
ĠÕ¡Õµ Öģ
ĠÔ± ÕĦÕĨ
ĠÕ¸ÖĢ Õ«
Õ«Õ¶ Õ¨
ĠÕºÕ¡Õ° Õ¡Õ¶Õ»
Õ¡Öģ Õ¾Õ¡Õ®
Õ¾ÖĢ Õ¸Õº
Õ¡Õ¢ Õ¡ÖĢ
ĠÕ°Õ¡Õ½Õ¿ Õ¡Õ¿
ĠÕ° Õ¥Õ²
ÖĢÕ´ Õ¥Õ¶
Ô» Õ¶Õ¹
i t
ĠÕ°Õ¡Õ¾ Õ¡ÖĦ
Õ¸ÖĤÕ¶ Õ¥
ĠÕ£ Õ¡Õ¬
Õ¡Õ½ Õ¡Õ¶
ĠÕ° Õ²
Ô±Õ ı
Õ¥Õ ®
ĠÔ ¸
Õ¡ÖĢÕ ½
Õ ĵ
Ġ C
ĠÕ¡Õº Õ¡Õ°Õ¸Õ¾
ĠÕ° Õ¡Õ»
Õ¥Õ² Õ¥Öģ
ĠÕ· Õ¶Õ¸ÖĢÕ°
ÕĪÕĴ ÕĨ
ĠÕ£Õ¸ÖĢÕ® Õ¸Õ²
Õ¡Õ° Õ¡ÕµÕ¿
Ġ2 00
Õ¥ÖĢÕ ½
Õ¡Õ¶ Õ½
ĠÔ± ÖĢ
Ô± Õ¶
Õ³ Õ¡ÖĢ
ĠÕ¦ Õ¢
Õ¡Õ¶Õ¯ Õ¡ÖĢ
ĠÕ® Õ¶
Õ«Õ¯ Õ¸Õ¬
ĠÕ Ĥ
Õ¡Õ¾ Õ¥Õ¬
ĠÕ¿ Õ¾
ĠÕ°Õ¡Õ´ Õ¡ÕµÕ¶
ĠÕ° Õ¡ÖĢÕ¯
Õ© Õ¥ÖĢ
ĠÕ¯ Õ¬Õ«Õ¶
Õµ Õ¡Õ¯
ĠÕ¡Õ½ Õ¡Öģ
Õ¯ Õ¡Õ¶
ĠÔ ¾
e s
ĠÕ¦ Õ£
ĠÕ°Õ¡Õ¶ Õ±Õ¶
ĠÕĦ Õ«
ĠÔ± Õ¬
Õ¾ Õ¥Õ¬Õ¸ÖĤ
ÖĢ Õ¥
Õ¡Õ¾Õ¸ÖĢÕ ´
Ġ2 0
ĠÕ¸ÖĤ ÖĢ
Ġ S
ĠÕ¡Õ¼Õ¡Õ» Õ¶
Õµ Õ¸ÖĤÕ
ÖĢÕ¡Õª Õ¥Õ·Õ¿
ĠÕ¤ÕºÖĢ Õ¸Öģ
ÖĢÕ¿ Õ¥Õ²
ĠÕ ĭ
Ô±Õ ¦
ĠÕ°Õ¡Õ² Õ¸ÖĢÕ¤
ÕĪ ÖĤ
ĠÕ´ Õ¥Õ²
Õ´ Õ«
Õ¯ Õ«Õ¶
Ġ 0
ĠÕ¤Õ¸ÖĤ ÖĢÕ½
ĠÖĦ Õ¡Õ¶
Õ« Õ¡Õ¯Õ¡Õ¶
ĠÕ¡Õ½ Õ¥Õ¬
Õ¡Öģ Õ¶Õ¸ÖĤÕ´
ÕĪÕ Ĳ
Õ° Õ¡Õ¶
ĠÕ¤ Õ¥Õ¼
Õ¡ÕŃ Õ¡Õ£
ĠÔ± Õ¤ÖĢÕ¢Õ¥Õ»
Õ«Õ¿Õ¡Õ½ Õ¡ÖĢÕ¤
ĠÕªÕ¸Õ²Õ¸Õ¾ ÖĢÕ¤
ĠÕ¹ Õ¡Öĥ
Õ· Õ¿
ĠÕ¡Õ¯ Õ¿
ÖĢ Õ¥Õ¶
ĠÕ¡ÖĢÕ¤ Õµ
Õ¡ÕŃ Õ¿
Õ¥ÕŃ Õ¶
ĠÔ± Õ¦
ĠÕ¯ ÖĢÕ©
Õ¡ÖĦ ÖĢÖĦ
ĠÕ¸ ÖĢÕ¿Õ¥Õ²
a l
ĠÕ± Õ¥ÖĢ
Õ ī
ĠÕ¸ Õ¬
Õ¸Õ¾ Õ¸ÖĢ
Õ¡ÖĢÕ¾ Õ¡Õ®
Õ Ĥ
ĠÕ£Õ¸ÖĢÕ® Õ¸ÖĤÕ¶Õ¥
Õ¥ Õ«
Â» .
ĠÕ´Õ«Õ¶Õ¹ Öĩ
ĠÕ¡Õº Õ¡
ĠÕ± Öĩ
Õ¥Õ¯ Õ¡Õ¶
ĠÕ¡Õ »
Õ¸Õ¶ Õ«
e d
ĠÕ ħ
ĠÕ¿Õ¡ÖĢ Õ«Õ¶
ĠÕ¯ Õ¶
Õ¡Õ¥ ÖĤ
Ġ1 8
ĠÕ½Õº Õ¡Õ½
ĠÔ³ ÖĢ
ÕµÕ¡Õ¶ Õ«Õ¶
ĠÕ¾ Õ«Õ³
ĠÕ¡Õ¼ Õ¡Õ¶Öģ
Õ¸ÖĤÕ £
Õ¡ÖĢÕ¯ Õ¸ÖĤÕ´
Ġ1 2
ĠÕ¡Õ¶Õ° ÖĢÕ¡ÕªÕ¥Õ·Õ¿
Õ ĸ
ĠÕ¸Õ¬ Õ¸ÖĢÕ¿
Õ¸Õ² Õ¡Õ¯Õ¡Õ¶
Õ´Õ¡Õ¶ Õ¨
Õ¸ÖĤÕµ Õ¬
ĠÕ¿ ÖĢÕ¡Õ´
ĠÕ¿Õ¾ ÕµÕ¡Õ¬
ĠÕ¹ Õ¸ÖĤÕ¶
ĠÕ® ÖĢÕ¡Õ£
Õ¥Õ¯ Õ¶
ĠÕ°Õ¡ÖĢ Õ¡Õ¢Õ¥ÖĢ
Õ¡Õ¶ Õ¹
ĠÖĥ Õ¸Õ²
ĠÔ± Õ¼
Ġ T
Õ¡Õ½Õ¿ Õ¡Õ¶
ĠÕ¶ ÕµÕ¸ÖĤÕ©
ĠÕĢ Õ¡ÖĢ
ĠÕ¡Õ¦ Õ£Õ¡ÕµÕ«Õ¶
ĠÕ¶ Õ¡Õ¥ÖĤ
ĠÕº Õ¡ÖĢ
ĠÕ·Õ¡ÖĢ Õ¸ÖĤÕ¶Õ¡Õ¯
Ġ ...
ĠÕ¹ Õ¥Õ´
Õ¸ÖĢÕ ¨
ĠÕ°Õ¡Õ´ Õ¡Õ¬
Ġ1 5
ĠÕ¾ Õ¡ÖĢ
Õ«Õ¶ Õ£
ĠÕ°Õ¡Õ² Õ©
ĠÕ³Õ¡Õ¶ Õ¡ÕºÕ¡ÖĢÕ°
ĠÕ· Õ¡Õ°
ĠÕ°Õ«Õ´ Õ¶Õ¡Õ¯Õ¡Õ¶
Ô±Ô¿ Ô±ÕĨ
ĠÔ± ÖĢÖģÕ¡ÕŃ
ĠÕ° Õ¡Õ³
Ġ /
ĠÕ´ Õ¡Õ°
Õ¸Õ½ Õ«
Õ¦ Õ«
Õ¸ÖĤÕ©ÕµÕ¸ÖĤÕ¶ Õ¸ÖĤÕ´
Õ¡Õ£ Õ«ÖĢ
ĠÕ¯Õ¡ÖĢ ÖĩÕ¸ÖĢ
Õ¥Õ ¢
ĠÕ´ Õ¶
Õ¡Õ¶ ÖĦÕ«
ĠÕ¢ Õ¡Õ¦Õ´
ĠÕ°Õ¡Õµ Õ¯Õ¡Õ¯Õ¡Õ¶
Õ¡Õ¼Õ¶ Õ¡Õ¬
ĠÕ±Õ¥Õ¼ ÖĦ
ĠÕ° Õ¡Õ¦
Õ¡Õ¯ Õ¡Õµ
ĠÕ¬ Õ¸ÖĤÕ®
Õ¡Õ¶ Õ±
Õ«Õ½ Õ¯
ĠÕ° Õ«Õ·
ĠÕ¯ Õ¸Õ´
Ġ M
Õ¶Õ¥Õ¬ Õ¸Õ¾
ĠÕĢÕ¡ÕµÕ¡Õ½Õ¿ Õ¡Õ¶
Õ¸Õ »
Ġ1 1
Õ¡Õ¾Õ¸ÖĢÕ´ Õ¡Õ¶
ĠÕ¡Õ¶Öģ Õ¯Õ¡Öģ
ĠÔ¹ Õ¸ÖĤÖĢÖĦÕ«
ÕºÕ¡Õ¶ Õ¸ÖĤÕ©ÕµÕ¡Õ¶
ĠÖħÖĢ Õ¥Õ¶ÖĦ
ĠÕ´Õ¡ÖĢÕ¤Õ¯ Õ¡Õ¶Öģ
ĠÕ¶Õ¯Õ¡Õ¿ Õ´Õ¡Õ´Õ¢
Õ¸ÖĤÕµÕ© Õ«
ĠÕ¸ÖĤÕ¶Õ¥Öģ Õ¥Õ¬
Õ¡Õ¶ Õ¥ÖĢÕ«
ĠÕ¯ Õ¸Õ¹
ÖĢ Õ¸ÖĤÕµÖģ
ĠÔ± Õ´
Õ¸ÖĤÕµ Õ½
ĠÔµ ÖĢ
ÕĨ ÔµÕĲ
âĢ Ķ
ĠÕ¥ÖĢÕ £
ĠÕĨ Õ«Õ¯Õ¸Õ¬
Õ¦ Õ¢
Õ«Õ¬ Õ«
Õ¸ÖĦ ÖĢ
ĠÕ¯ Õ¡
ÕĢÕ¡Õµ Õ¡Õ½Õ¿Õ¡Õ¶Õ«
Ġ P
ĠâĢ ĵ
ÖĢ Õ¡Õ¾
ĠÕ¸ Õ½Õ¿Õ«Õ¯Õ¡Õ¶
ĠÕ¬ Õ¸ÖĤÕ½
Õ¥Õ °
Õ¡Õ° Õ¡Õ¶
ĠÕ´ Õ¡ÖĢÕ¿
ĠÕ°Õ¡Õ´ Õ¡ÕºÕ¡Õ¿
ĠÕ¡Õ¾ Õ¥Õ¬
Õ¸ÖĤÕ ¦
ĠÕ¿ Õ²
Õ¡Õ´ ÕµÕ¡
ĠÔ±Õµ Õ¤
ĠÕ¶ Õ«Õ½Õ¿
ĠÕ¢ Õ¥ÖĢ
ĠÕ¯ Õ¸ÖĤÕ½
ĠÕ¡Õº ÖĢ
ĠÕĨ Õ¡
ĠÕ¿Õ¡Õ¬ Õ«Õ½
ĠÕ¢ Õ¡Õ¶Õ¡Õ¯
ĠÕ¶Õ¡ÕŃ Õ¡Õ¿Õ¥Õ½
ĠÕ¬ Õ¥Õ¦
ĠÕ© Õ¸Õ²
Õµ Õ¸ÖĤ
Õ¥ÖĢÕ ¢
ĠÕ© Õ¸ÖĤÕµÕ¬
ĠÕ¤ Õ¡Õ¿Õ¡ÖĢ
ĠÕ¥ÖĢ Õ«Õ¿Õ¡Õ½Õ¡ÖĢÕ¤
Õ¸ÖĤÕ©ÕµÕ¸ÖĤÕ¶Õ¶Õ¥ÖĢ Õ«Õ¶
1 0
ĠÕ£ Õ¡Õ²
Õ¡ÕŃÕ¡Õ£ Õ¡Õ°
ĠÕ·ÖĢÕ» Õ¡Õ¶Õ¡Õ¯
Õ°Õ¡Õ¶ Õ¸ÖĤÖĢ
ĠÕ¡Õ½ Õ¸ÖĤÕ´
ĠÕ¦Õ¡ÖĢÕ£ Õ¡ÖģÕ´Õ¡Õ¶
ÕĪÕĴ ÕĦ
Ġ N
ĠÕ· Õ¸ÖĤÖĢÕ»
ĠÕ¯ ÖĢ
ĠÕ¿ Õ¡ÖĢÕ¾
Õ¥ÖĦ Õ¥Õ¶
ĠÕ¯Õ¡Õ¼ Õ¸ÖĤÖģ
ĠÕ¬Õ«Õ¶ Õ¥Õ¬
ĠÕ¸ÖĢÕ¸Õ¶ Öģ
ĠÕ¾ Õ¡Õ²
ĠÕĬ Õ¥Õ¿
ĠÕ¡Õ¾ Õ¿
ĠÕ¯ Õ«ÖĢ
Õ¾ Õ¡ÖĢ
Õº Õ«Õ½Õ«
Ġ Õ¡Õ½Õ¿
ĠÕ°Õ¥Õ¿ Õ¡ÖĦÖĢÖĦ
Õ ģ
Ô± ÕĢ
ĠÕ¦Õ¢ Õ¡Õ²
ĠÕ°Õ¡Õ´ Õ¡Õ£Õ¸ÖĢÕ®
1 8
ĠÕ¼ Õ¡Õ¦Õ´
ÖĢ Õ¡Õ°
ĠÕ¶Õ¥ÖĢÕ ¤
Õ«Õ¶ Õ¡Õ¶Õ½
ĠÕ´ Õ¡Õ¯
ĠÕ½ Õ¸Õ¾Õ¸ÖĢ
ĠÕ¡Õ¾ Õ¡ÖĢÕ¿
Õ¥ÖĦ Õ½
Ġ201 7
ĠÕ´Õ¥Õ¯ Õ¨
ÕĪÕĴÔ¹Õħ ÕĪÕĴÕĨ
Õ¡ÖĦ Õ«Õ¶
Õ¦ Õ¸ÖĤÕ´
Õ¸ÖģÕ« Õ¡Õ¬
ĠÕ£ Õ¸ÖĤÕ´
ĠÕ°Õ¡Õ½ Öģ
Õ¸ÖĢ Õ«
Õ£ Õ¶
ĠÕµ Õ¸ÖĤÖĢ
ĠÕ¿Õ¶ ÖħÖĢ
ĠÔ º
ĠÕ¶ÖĢÕ¡Õ¶ ÖĦ
ÖĢ Õ¥Öģ
Ô±Õ ¼
ĠÕ¤Õ¸ÖĤ ÖĦ
ĠÔ± Õ½Õ¿
d e
s t
ĠÕ° Õ¸ÖĤÕ¶
Õ¡ÕŃ Õ¸Õ½
ĠÕ¨ Õ½Õ¿
ĠÕ¶Õ¡ÕŃ Õ¯Õ«Õ¶
Õ«Õ¯ Õ¡Õ¯Õ¡Õ¶
Õ¡Õ¼ Õ¸ÖĤÕ´
ĠÖĦ Õ¡ÕµÕ¬
Õ½Õ¿ Õ¥Õ²
) :
ĠÕ¬ Õ«
Ġ Â»
Õ«Õ ®
Õ¡Õ½ Õ«ÖĢ
ĠÕ¸ÖĤ Õ·
ĠÕ¬Õ«Õ¶ Õ«
ĠÕ¯Õ¡Õ¼Õ¡Õ¾Õ¡ÖĢ Õ¸ÖĤÕ©ÕµÕ¡Õ¶
Ġ1 6
ĠÕ¨Õ¶Õ¿ Õ¡Õ¶Õ«
ĠÕ¶Õ¥ÖĢÕ¯Õ¡ÕµÕ¡Öģ Õ¸ÖĤÖģÕ«Õ¹
ĠÕ«ÖĢÕ¡Õ¾ Õ«Õ³
Õ¢ Õ¸Õ¬
ĠÕ¡Õ¶Õ¾ Õ¿Õ¡Õ¶Õ£
ĠÕ¿ Õ¥ÕŃÕ¶
Õ¥Öĥ Õ¡Õ¯Õ¡Õ¶
Õ¡ÖĢÕ¾ Õ¸ÖĤÕ´
Õ¥ÖĢ Õ«Õ¯
ĠÕ¶Õ¯ Õ¡ÖĢ
Ġ1 3
ĠÔ±Õµ Õ¶
ĠÕ¤ Õ«Õ¿
ĠÔ» Õ¶Õ¹
Ô±Õ Ĭ
ĠÕ¸ Õ²
Õ¡Õ¶ Õ¡
ÖĢÕ´ Õ¡Õ¶
ÖĢÕ¥ Õ¡Õ¯Õ¡Õ¶
Ġ1 7
Õ¯ Õ¥Õ¿
Ô±Õ¦ Õ¡Õ¿
ĠÕ£ Õ¿
Õ¡ÖĢÕ£ Õ¥Õ¬
ĠÔ± ÖĢÕ´Õ¥Õ¶
ĠÔµÖĢÖĩ Õ¡Õ¶Õ«
Õį Õ¿
1 5
2 0
ĠÕ´ Õ¡Õ¿
ĠÕĨ Õ¸ÖĢ
Õ¡Õ¶ Õ«Õ·
Õ¡Õ° Õ¡ÖĢ
Õ«Õ¾ Õ¡Õ¶Õ¤
ĠÖħÖĢÕ¥Õ¶ Õ½
Õ¡Õ¿ Õ«
ĠÕģ Õ¥ÖĢ
ĠÕ©Õ¾Õ¡Õ¯Õ¡Õ¶ Õ«Õ¶
Õ¡Õ¾Õ¸ÖĢÕ¾ Õ¡Õ®
ĠÕ© Õ¥Õ´
Ôµ Õı
ĠÕ¡Õ¶ Õ¸ÖĤÕ¶
ĠÖĦÕ¶Õ¶ Õ¡ÖĢÕ¯
Õ¥Õ¿ Öĩ
ĠÕºÕ¡Õµ ÖĦ
Õ¡Õ¿ Õ¾Õ¡Õ¯Õ¡Õ¶
Õ£ Õ¿
ĠÕºÕ¡Õ¿ Õ£Õ¡Õ´
ĠÕ´Õ¡Õ½ Õ¶Õ¡Õ¯
Õ¸ÖĢ Õ¸Õ·
ĠÕ³Õ¡Õ¶ Õ¡Õ¹
Ġ B
ĠÕ°Õ¡Õ´Õ¡ÕºÕ¡Õ¿ Õ¡Õ½ÕŃÕ¡Õ¶
ĠÕ·ÖĢÕ» Õ¡Õ¶
Õ¡ÖĢ ÖĦ
ĠÔ± Õ¾
ĠÕº ÖĢ
Õ¸Õ¬ Õ¸Õ£
Õ¸ÖĤÕ¬ Õ«
Ġ ,
Öĩ Õ§
Õ¸ÖĤÖĢ ÖĦ
ÖĢÕ¾ Õ¸ÖĤÕ´
Õ¥Õ¬ Õ¨
ĠÕ¡ÕµÖģ Õ¥Õ¬
Õ¡Õ´ Õ¡ÖĢÕ¿
ĠÔµÖĢÖĩ Õ¡Õ¶
ĠÔµ Õ½
ĠÕ¯ Õ¸Õ¶
ĠÕ½Õ¿ Õ¸ÖĢ
Õ¡Õ¶ Õ±Õ¶
Õ² Õ©
Õ¸ÖĤÖĢ Õ¥ÖĢ
Ġ [
ĠÔµ Õ¾ÖĢÕ¸Õº
ĠÕ¿Õ¡ÖĢÕ¾ Õ¡
o l
ĠÕ¡Õ¼Õ¡Õ» Õ¡ÖĢÕ¯
Õ¼ Õ¶
ĠÔ» ÖĢ
ĠÕ¯Õ¡ÖĢ Õ¥Õ¬Õ«
ĠÕ·Õ¡ÖĢ ÖĦ
ĠÕ© Õ«Õ¾
ĠÕ°Õ¡ÕµÕ¿ Õ¶Õ«
ĠÕ½ Õ¥ÖĥÕ¡Õ¯Õ¡Õ¶
ĠÔµ Õ¾
Õ¡Õ¾ Õ¡ÖĢÕ´Õ¡Õ¶
Ġ1 4
1 1
Õ¡ÖĢÕµ Õ¡Õ¶Õ¨
Õ¡ÖĢ Õ¡Õ¢
Õ¡Õ£Õ«Õ¿ Õ¡Õ¯Õ¡Õ¶
Õ¥ÖĢ Õ¡Õ¦Õ´
ĠÖħ ÖĢÕ¨
Ġ Ð
ĠÕ£Õ¶ Õ¡Õ°Õ¡Õ¿
c h
ĠÕ¨Õ¶ Õ¯
ĠÕį Õ¥ÖĢÕª
Õ¿ Õ¥Õ²
ĠÕ°Õ¡Õ¦ Õ¡ÖĢ
ĠÕ¿Õ¶ÖħÖĢ Õ¥Õ¶
ĠÕ¢ Õ¡Õ¾
ĠÔ± ÖĢÕ¿
Õ¸Õ² Õ«
Õ¡Õ¤ Õ«
Õ¥ÖĢÕ ¯
ĠÕ°Õ¡Õ» Õ¸Õ²
ĠÖĥ Õ¸ÖĦÖĢ
ĠÕ° Õ«Õ¾Õ¡Õ¶Õ¤
Õ¡Õ³ Õ¡Õ¼
Õ¸ÖĤÕ ¢
ĠÕ¡Õ¯Õ¿ Õ«Õ¾
ĠÕ± Õ¥Õ¦
ĠÕ¶Õ¡ÕŃÕ¡Õ£ Õ®
Õ½Õ¿ Õ¡Õ°
Õ¡Õ¿ ÖĢ
ĠÕ¸ÖĤÕ¶Õ¥Öģ Õ¸Õ²
ĠÕ£ Õ¥ÖĢ
ĠÕ¡Õ´ Õ½
Õ¨ Õ¶Õ¤
Õ£ ÖĢ
Õ ĭ
ĠÕ° Õ¥Õ¶Öģ
Õ¸ÖĢÕ µ
Õ¥Õ¯ Õ¿
ĠÕ¼ Õ¸ÖĤÕ½
ĠÕ´ ÕµÕ¸ÖĤÕ½
Õ¡ÖĢÕ¾ Õ¥Õ½Õ¿
ĠÕ´Õ«Õ»Õ¸Öģ Õ¸Õ¾
ĠÕĢ Õ¡Õ´
Õ¡ÖĦ Õ¡Õ¶Õ¹
c om
00 0
ĠÕ½Õ¯ Õ¦Õ¢
Õ¡ÖĢÕ¡Õ¢ Õ¡Õ²
ĠÕ¢ Õ¡Õ¼
ĠÕ«ÖĢ Õ¥Õ¶
i k
ĠÔ± Õ·
Õ¥ÖĢÕ ¾
1 2
Õ¶ Õ¸Õ²
ĠÕ¤ ÖĢÕ¡
ĠÕ¡Õ¼ Õ¡Õ¾Õ¥Õ¬
Õ¡ÖĢ Õ«Õ¶
t t
ĠÕ¸ÖĢÕºÕ¥Õ½ Õ¦Õ«
ĠÕ¯ Õ¥ÖĢÕº
ĠÕ¢ Õª
ĠÕĦ Õ¡Õ¶
ĠÕ¸ÖĤÕ¶Õ¥Õ¶ Õ¡Õ¬
Õ¡Õµ Õ¥Õ¬
Ôµ Ô¼
201 8
i a
ĠÕ¤Õ¥Õº ÖĦ
ĠÕ¡ÖĢÕ¤Õµ Õ¸ÖĤÕ¶ÖĦ
Õ¸ÖĢÕ ´
ĠÕ¥ Õ¬
ĠÕ¸ÖĢ Õ¶
ĠÕ¡Õ¶ Õ¥Õ¬
ĠÕ¯ Õ´
ĠÕ¬Õ«Õ¶ Õ¥Õ¬Õ¸ÖĤ
ĠÖĨ Õ«Õ¶Õ¡Õ¶Õ½
Õ¥Õ¯Õ¶ Õ¡Õ®
ÖĢÕ¾ Õ¡
ĠÕ° Õ¥ÖĢÕ©
ĠÕºÕ¡Õ¿ Õ¾
ĠÕ¡Õ¶Õ¾ Õ¡Õ¶
ĠÕ¡Õ¼ Õ¸Õ²Õ»
Õ¥Õ ª
Õ¡ÖĢÕ ©
ĠÕ´Õ¡ÖĢÕ¤ Õ«Õ¯
Õ¸Õ¾Õ° Õ¡Õ¶Õ¶
ĠÔ³ÖĢ Õ«Õ£
ĠÕ¡Õ¦ Õ¤
ĠÕ°Õ¡Õ³ Õ¡ÕŃ
ĠÕ¸ÖĤ Õ¦Õ¸ÖĤÕ´
Õ¥ÖĢÕ ±
Ôµ Õ½
Õ¡Õ «
ĠÕ¤ Õª
Õ¸ÖĤÕ¿ Õ¢Õ¸Õ¬
Õ¡Õ¿ Õ¥Õ²
Õ¡Õ¶Õ¡Õ¬ Õ¸ÖĤ
Ôµ ÕĨ
ĠÕ¯ Õ¸Õ¤
Ô±Õ İ
Õ¸Õµ Õ«
ĠÕ¡Õ» Õ¡Õ¯Öģ
Õ¶ Õ¥Õ½
Õ¡Õ´ Õ¥Õ¶
Ġ I
Õ¡Õ¤ ÖĢÕ¡Õ´
ĠÕ¡Õ·ÕŃÕ¡ÖĢÕ° Õ«
Õ¶ Õ¡Õ½
ĠÕªÕ¡Õ´ Õ¨
e w
Õ¿Õ¥Õ½ Õ¡Õ¶ÕµÕ¸ÖĤÕ©
ĠÕį Õ¿
ĠÔ» Õ½Õ¯
Õ¾ Õ¥Õ¶
Õ« ÖĤ
ĠÖĦ ÖĢÕ¥Õ¡Õ¯Õ¡Õ¶
Õ¡Õ¶Õ¤ Õ¡Õ¯
ĠÕ¯ Õ°
Õ«Õ¶ Õ«
Õ¥ÖĢÕ» Õ«Õ¶
ĠÕ´ Õ¬
ĠÕįÕ¡ÖĢÕ£Õ½ ÕµÕ¡Õ¶Õ¨
ĠÕ°Õ¡Õ´Õ¡Õ¬ Õ½
ĠÕ¦ Õ¸Õ°
ĠÕ®ÖĢÕ¡Õ£ Õ«ÖĢ
ĠÕ¿ Õ¸Õ¯
ĠÕºÕ¡Õ¿Õ£Õ¡Õ´ Õ¡Õ¾Õ¸ÖĢ
o u
ĠÕ¸ÖĢ ÖĩÕ§
ĠÕ¿Õ¶Õ¿Õ¥Õ½ Õ¡Õ¯Õ¡Õ¶
ĠÕ¡Õ °
ÕĨ Õ¸ÖĢ
Õ¡ÖĢÕ± Õ¡Õ¯
ĠÕºÕ¡Õ° ÕºÕ¡Õ¶
Õ¡Õ ¸
ÖĦ Õ¶Õ¥ÖĢÕ«
Õ¡Õ´ Õ¡Õ½
ĠÕ¯Õ¡Õº Õ¾Õ¡Õ®
ÕĪÕĴÔ¹Õħ Ô±ÕĨ
ĠÕ© Õ¥Õ¯Õ¶Õ¡Õ®
ĠÕ¦ Õ¸ÖĢ
ĠÔ± Ôº
ÖĢ Õ¸ÖĢÕ¤
ĠÕºÕ¡Õ¿ Õ¥ÖĢÕ¡Õ¦Õ´
ĠÕ°Õ¡Õ¶Õ±Õ¶ Õ¡ÕªÕ¸Õ²Õ¸Õ¾
ĠÕ¥ÖĢÕ¯ÖĢ Õ¸ÖĢÕ¤
ĠÕ½ Õ¸ÖģÕ«Õ¡Õ¬
Õº Õ¥Õ¿
Õ¾ Õ¡
ĠÖĦ Õ¡ÖĢÕ¿
Õ«ÖĢ ÖĦ
Â» Öī
ĠÕºÕ¡Õ¿Õ³Õ¡Õ¼ Õ¸Õ¾
ĠÖĨ Õ«Õ¬
ĠÕ¥ÖĢÕ¯ ÖĢÕ«
ĠÕºÕ¡Õ·Õ¿ÕºÕ¡Õ¶ Õ¸ÖĤÕ©ÕµÕ¡Õ¶
Õ¶ Õ¯
ĠÕ¯Õ¬Õ«Õ¶ Õ«
Õ¡Õ¾ Õ¥Õ¿
Õ¾ Õ¥
Õ¡Õ¾Õ¸ÖĢ Õ¸ÖĤÕ´
Õ¸ÖĤÕ´ Õ¢
ĠÕ°Õ¡Õ¶ Õ£
ĠÕ¸Õ¾ ÖĦÕ¥ÖĢ
Õ¡Õ¦ Õ¤
ĠÕ¨Õ¶Õ¤ Õ°Õ¡Õ¶Õ¸ÖĤÖĢ
Õ¡ÖĦ Õ½
ĠÕ¢ Õ¡Õ¶Õ¯
Õ¸ÖĤ ÖĢÕ¢
Ġ F
ĠÕ¬ ÖĢÕ¡Õ£ÖĢ
ĠÕ¶Õ¡ÕŃÕ¡Õ£Õ¡Õ° Õ«
Ġ2 5
Õ¡ÖĦ Õ¶Õ¶
Õ¡ÖĢÕ¾ Õ¥Õ¬
Õ¯ Õ¡Õµ
Õ¡Õ¶ Õ¸Õ©
ÖĦ Õ¡ÕµÕ«Õ¶
Ôµ Õį
Õ¸ ÖĨ
Õ¡ÖĦÕ¡Õ¶Õ¹ ÕµÕ¸ÖĤÖĢ
Õ«Õ» Õ¸Öģ
ĠÕ¯Õ¡Õ¿Õ¡ÖĢ Õ¥Õ¬
ĠÕ¥ Õ¦
ĠÖĦÕ¡Õ²Õ¡ÖĦ Õ¡ÕºÕ¥Õ¿
ĠÕ¡Õ ³
ĠÕ¥ÖĢÕ¯ Õ¡ÖĢ
ĠÕ´ Õ«Õ·Õ¿
Õ¡ÖĢÕµ Õ¡Õ¶
ĠÕ¤ Õ¸Õ¬
ĠÕ¯Õ«ÖĢ Õ¡Õ¼
Õ¡Öģ Õ¡Õ¾
ĠÕ¨Õ¶Õ¤ Õ£
Õ¡Õ´ Õ¡Õ¶Õ¡Õ¯
Ġ2 1
Õ¡Öģ Õ¸ÖĤÕ´
Õ¥ Õ¡Õ¶
ĠÕ´ Õ¡Õµ
Õ¡Õ¢ Õ¡Õ©
Õ¥Õ² Õ¡Õ½
ĠÕ© Õ¾Õ¸ÖĤÕ´
Õ¶ Õ¥Õ¶ÖĦ
ĠÕ°ÖĢ Õ¡Õª
Õ«Õ ¢
ĠÕ¯ ÖĢÕ¯
ĠÕ¬ Õ½
ĠÕ¯Õ¸Õ¤ Õ¨
ĠÕ´ Õ¡Õ´
ĠÕ°Õ¥Õ² Õ«Õ¶Õ¡Õ¯
ĠÕ¾ Õ¶Õ¡Õ½
ĠÖĩ Õ½
Õ¡Öģ Õ¸Õ²
ĠÕ· Õ¡ÖĢÕª
ĠÔµ Õ©Õ¥
Ð °
ĠÕ¶Õ· Õ¥Õ¬
Õ¡Õ¤ÖĢ Õ¥Õ¬
ĠÕĮÕ¸ÖĤÕ½ Õ¡Õ½Õ¿Õ¡Õ¶Õ«
Õ¡Õ© Õ«Õ¾
ĠÕ½Õ¡Õ°Õ´Õ¡Õ¶ Õ¾Õ¡Õ®
Ôµ ÖĢ
ĠÕ´Õ¡ÖĢÕ´ Õ«Õ¶
ĠÕ¿ Õ¡Õ¯
Õ¸Õ½ Õ¯
Õ¸Õµ Õ¥Õ´Õ¢
ĠÕ°Õ¡Õ¿ Õ¸ÖĤÕ¯
Ôµ ÖĢÖĩ
Õ¥ Õ«Õ¶
ĠÕ¤ Õ¥Õ½
ĠÕĢ Õ¸Õ¾Õ°Õ¡Õ¶Õ¶
ÖĦ Õ«Öģ
. -
ĠÕ¯ Õ«Õ¶
ĠÖĦÕ¡Õ²Õ¡ÖĦ Õ¡ÖģÕ«Õ¶
ĠÕ¯Õ¡Õ¶ Õ¸Õ¶
Öĩ Õ½
Õ¥Öģ Õ«
ĠÕ´Õ¿ Õ¡Õ®
ĠÕ¯ Õ¿
ĠÕŃÕ´Õ¢ Õ¡Õ£ÖĢÕ¥Õ¬
ĠÖģ Õ¸ÖĤÕµÖģ
ĠÕ¹Õ§ ÖĢ
i l
Õ¶ Õ¿Õ¥Õ½
Ġ Õ¡
ĠÕ¿Õ¸Õ¯ Õ¸Õ½
Õ¡Õ´ Õ¡ÖĢÕ¤
Õ¾ Õ¸ÖĢ
ĠÕ£Õ¸ÖĢÕ®Õ¨Õ¶ Õ©Õ¡Öģ
ĠÕ¯Õ¡ÖĢÕ® Õ«ÖĦ
ĠÖĦÕ¡Õ²Õ¡ÖĦ Õ«
Ġ2 2
ĠÕ´Õ«Õ» Öĩ
ĠÔ±Õ¦ Õ£Õ¡ÕµÕ«Õ¶
ĠÕ¤ ÖĢÕ¡Õ¶Öģ
Õ¸Õ¶ Õ¨
ÕĢ Õ¡Õ´
ĠÕ¤Õ¥Õº Õ«
Õ¡Õ¤ÖĢ Õ¸ÖĤÕ©ÕµÕ¡Õ¶
ĠÕ¤ ÖĢÕ¡Õ¶ÖĦ
ĠÕŃ Õ¸ÖĢ
1 7
Õ¡ÖĢ Õ¡Õ¶Õ¸ÖĤÕ´
ĠÕ®Õ¡Õ¼Õ¡Õµ Õ¸ÖĤÕ©ÕµÕ¡Õ¶
ĠÕ¸Õ² Õ»
ĠÕ© Õ«Õ´
Ġ19 9
ĠÕ¶Õ¡ÕŃÕ¡Õ¿Õ¥Õ½ Õ¾Õ¡Õ®
Õ¿ Õ¶Õ«
ĠÕ¬Õ¡Õ¾ Õ¡Õ£Õ¸ÖĤÕµÕ¶
Õ¿ Õ¡ÖĢ
Õ¡Õ½ Õ¯
ĠÕ¡Õ¾ Õ¡Õ£
ĠÖĦÕ¡Õ²Õ¡ÖĦ Õ¡ÖģÕ«
ĠÕŃÕ¸ÖĢÕ°ÖĢÕ¤ Õ«
Õ¥Õ¶ Õµ
ĠâĢ Ķ
Ô± Ô³
ĠÕ¡Õ¶Õ± Õ¡Õ¶Öģ
ĠÕ ĳ
ĠÕ´ Õ¡Õ¶
ĠÕ¾ Õ³Õ¡ÖĢ
ÕŃ Õ´Õ¢
ĠÕ¶Õ¡ÕŃ Õ¡Õ±
ĠÕ¢ Õ¼Õ¶
ĠÕ¿Õ¥Õ½ Õ¡Õ¯
Õ¡Õ¯Õ¡Õ¶ Õ«
ĠÕ¥ÖĢ Õ¥ÖĦ
1 6
ÖĢ Õ«Õ½Õ¿
Õ«Õ¿ Õ«
i c
Ô± Ô¾
ĠÕ¡Õ¶Õ¾Õ¿Õ¡Õ¶Õ£ Õ¸ÖĤÕ©ÕµÕ¡Õ¶
3 0
ĠÕ¾ Õ½Õ¿Õ¡Õ°
ĠÔ² Õ¡ÕµÖģ
Õ¡Õ° Õ¡Õµ
ĠÕ¾ Õ«ÖĢ
ĠÕ°Õ«Õ´ Õ¡
ĠÕ´Õ«Õ»Õ¸Öģ Õ¡Õ¼
Õ¯ ÖĢ
Õ¡ÖĢÕµ Õ¡Õ¶Õ«
ĠÕ¨Õ¶Õ¤Õ¸ÖĤÕ¶ Õ¥Õ¬
ĠÕ°Õ¡ÕµÕ¿ Õ¶Õ¥Õ¬
ĠÕ± Õ¥Õ¼Õ¶
ĠÕ°Õ¶Õ¡ÖĢÕ¡Õ¾Õ¸ÖĢ Õ¸ÖĤÕ©ÕµÕ¸ÖĤÕ¶
ĠÕ§ Õ«
ÕĦ Õ«
Õ¡Öģ ÖĢÕ¥Õ¬
Õ¥Õ¿ Õ«
Õ¡Õ¶ Õ·
ĠÔ± Õ¢
ĠÕ¡Õµ Õ½Õ¿Õ¥Õ²
a c
i s
Õ¡Õ¶ Õ¿
1 4
Ġ L
ĠÖĨ Õ¸ÖĤÕ¿Õ¢Õ¸Õ¬
ĠÕ¡ÖĢÕ¿ Õ¡ÖĦÕ«Õ¶
ĠÕ´Õ¡Õ½Õ¶Õ¡Õ¯ Õ«Öģ
Õ«Õ ¼
Õ¡Õ° Õ¡Õ¶Õ£
Õ¸ÖĢÕ ½
Õ¸ÖĤÕ© Õ¡ÕµÕ«Õ¶
Õ¸Õ¶ Õ¡Õ¯Õ¡Õ¶
Õª Õ´
ĠÕİ Õ¡ÖĢÕ¤
ĠÕ°Õ¡Õ¶Õ¤ Õ¥Õ½
Õ«Õ¦ Õ¶Õ¥Õ½
Õ«Õ¯ Õ«
ĠÕ¡Õ¦ Õ£
Ô»Õ¶Õ¹ ÕºÕ¥Õ½
o o
Õ¡ÖĢ Õ¸ÖĤÕ´
ĠÕ°Õ¡Õ¶Õ¤ Õ«Õ½
Ġ Õ¡ÖĢÕ£Õ¥Õ¬
Õ«Õ¯ Õ¡
Õ¸ÖĤÕ º
ÕŃÕ´Õ¢ Õ¡Õ£ÖĢÕ¥Õ¬
h y
Õ¶ Õ¡Õ´
Â ©
Õ´ Õ¿
Ô± Õ´
ĠÕ¥ÖĢ Öĩ
ĠÖĥÕ¸ÕŃ Õ¡Õ¶Öģ
Õ¡Õ¼ Õ¶Õ¸ÖĤÕ´
Ġ2 4
ÕĦ Õ¥ÖĢ
ÖĢ Õ¡Õ®
Ġ3 0
ĠÕŃÕ¸ÖĢÕ° Õ¸ÖĤÖĢÕ¤
ĠÕ¤ Õ¥ÖĢ
Õ¡Õ¶ Õ¸Öģ
ĠÕ´ Õ¡ÕµÖĢ
ĠÕ¯ Õ¸ÖĢ
r e
ĠÔ´ Õ¡Õ¾
ĠÖĦ Õ¶
ĠÕ¿Õ¥Õ² Õ¡ÖĥÕ¸ÕŃ
ĠÕºÕ¡ÖĢÕ¿ Õ¡Õ¤Õ«ÖĢ
ĠÕ£ ÖĢÕ¡Õ¶Öģ
Õµ Õ¸ÖĤÕ´
ĠÕĦ Õ¡ÖĢÕ¿
ĠÖĥÕ¸Õ² Õ¸Öģ
Õ¥Õº Õ¿Õ¥Õ´Õ¢Õ¥ÖĢÕ«
Õ ľ
ĠÕ£Õ¡Õ¬ Õ«Õ½
ĠÕ°Õ¡Õ½ Õ¯
Ð ¾
ĠÕ¶Õ¥ÖĢÕ ¯
ĠÕ¿Õ¡ÖĢ Õ¥Õ¯Õ¡Õ¶
ĠÕ®ÖĢÕ¡Õ£ÖĢ Õ«
Ġ2 3
Õ¸ÖĤÕ¿ ÖĦ
ew s
ĠÕªÕ¡Õ´ Õ¯Õ¥Õ¿
ĠÔ±Õ¤ÖĢÕ¢Õ¥Õ» Õ¡Õ¶Õ«
Õ¸ÖĤÕ©ÕµÕ¸ÖĤÕ¶Õ¶Õ¥ÖĢÕ« Öģ
Õ¡Õ¶ÖĦ Õ¸Õ¾
ĠÕ¥Õ¯ Õ¥Õ¬
ĠÕ¯ Õ«Õ½
ÕĨ Õ¡ÕŃ
Õ¥ÖĢÕ ¬
ĠÕ¾ Õ¡ÖĢÕ¯
ÕĬ Õ¡Õ¿
Õ¸ÖĤÕ¶ Õ¤
Õ¡Õ¼ Õ¡Õ¯
ĠÕ¹ Õ¯Õ¡
ĠÕ© Õ¾
ĠÕĢÕ¡Õµ Õ¸Öģ
ĠÕ´Õ¡ÖĢÕ¤ Õ¸ÖĤ
Ô±ÕĨ Ô»
ĠÕ¡Õ¶Õ¯ Õ¡ÕŃ
ĠÖĦ Õ¥Õ¦
Ġ201 6
Õ¡Õµ ÖĦ
Õ¥ÖĢÕ ¤
ĠÕ¡Õ¶ Õ¸ÖĤÕ´
ĠÕ¡ÕµÕ¶ ÕºÕ¥Õ½
ĠÕ¶ÕºÕ¡Õ¿Õ¡Õ¯ Õ¸Õ¾
ĠÔ±ÖĢÖģÕ¡ÕŃ Õ«
ĠÕĢÕ¡ÖĢ Õ¸ÖĤÕ©ÕµÕ¸ÖĤÕ¶
ĠÕ¶Õ¡ÕŃÕ¡ÖĢÕ¡ÖĢ Õ¸ÖĤÕ©ÕµÕ¡Õ¶
Õ¥Õ¶ Õ¿
Ġ D
ĠÕĢÕ¡ÕµÕ¡Õ½Õ¿Õ¡Õ¶Õ« Öģ
Õ£ Õ¬
ÕĢ Õ¥Õ¿
ĠÔ½ Õ¡Õ¹
/ /
ĠÕ¯Õ¡Õ¼ Õ¡Õ¾Õ¡ÖĢÕ´Õ¡Õ¶
ĠÕ¯Õ¡Õ¶ ÕŃ
Ġ G
ĠÕ°Õ¡Õµ ÖĢÕ¥Õ¶
Õ¡Õ£ÖĢ Õ«
ĠÕºÕ¡Õ¿ Õ¯Õ¥ÖĢ
ĠÕ°Õ¡ÕµÕ¿Õ¡ÖĢÕ¡ÖĢ Õ¥Õ¬
Õ¡Õ¯ Õ¡
ĠÕŃ Õ¡ÕŃÕ¿
ĠÕ· Õ¡Õ¢Õ¡Õ©
ĠÕĢÕĢ Ô¿
Õ¸ÖĢÕ £
ĠÕĦ Õ¥Õ¶ÖĦ
ĠÕ«ÖĢÕ¡Õ¾Õ¸ÖĤÕ¶ÖĦ Õ¶Õ¥ÖĢÕ«
ĠÖĥÕ¡Õ½Õ¿ Õ¡Õ©
Õ¯ Õ¡ÖĢ
ĠÕ¡ÖĢÕ¤ÕµÕ¸ÖĤÕ¶ ÖĦÕ¸ÖĤÕ´
Õ¡Õ¤ Õ¡Õ¿
ĠÕ¶Õ¡ÕŃÕ¡Õ± Õ¥Õ¼Õ¶
ĠÔ± Õ½
ĠÕ°Õ¥Õ¼ Õ¸ÖĤÕ½Õ¿
ĠÕºÕ¡Õ¿Õ¡Õ½ÕŃÕ¡Õ¶ Õ¡Õ¿Õ¾
ĠÕ½Õ¸ÖģÕ«Õ¡Õ¬ Õ¡Õ¯Õ¡Õ¶
i on
Â °
ĠÕĢ Õ¡Õ¯
ĠÕ¥ÖĢ Õ¥Õ¯
Õ«ÖĦ Õ«Õº
ÖĢ Õ«Õ¶
ĠÕ´Õ« Õ¡Õ½
ĠÕ¸ÖĤÕ½ Õ¸ÖĤÕ´Õ¶
ĠÔ» Õ½
Õ¥Õ¶ Õ¿ÖĢÕ¸Õ¶
ĠÕ¢Õ¡Öģ Õ¡Õ¼
Õ¡Õ¾Õ¸ÖĢ Õ¡ÕºÕ¥Õ½
r o
: //
Õ¡Õ¦ Õ¸Õ¿
ĠÕĤ Õ¡ÖĢÕ¡Õ¢Õ¡Õ²
Õ« ÖĦÕ«
ĠÕ¸ÖĢ Õ¸Õ¾Õ°
tt p
h ttp
ĠÖħÖĢÕ¥Õ¶ ÖĦÕ«
ĠÕ¡ÖĢÕ¿ Õ¡Õ½Õ¡Õ¶
i d
ĠÕ¡Õ¼ Õ¡Õ¶Õ±Õ¶
ĠÕºÕ¡Õ·Õ¿Õ¸Õ¶ Õ¡Õ¯Õ¡Õ¶
ĠÕ°Õ¸Õ¤Õ¾Õ¡Õ® Õ«
Õ¥Õ¿ ÖĢÕ¾
Õ© Õ«
ĠÕ´Õ¡ÖĢÕ¦ Õ«
Ġ R
Õ¸ÖĤÕ©ÕµÕ¸ÖĤÕ¶Õ¶Õ¥ÖĢ Õ¸Õ¾
ĠÕ¶Õ· Õ¥Öģ
ĠÕ¡Õ´ Õ«Õ½
ĠÕ¯Õ¡Õ¦Õ´ Õ¸ÖĤÕ´
Õ¡Õ·ÕŃ Õ¡ÖĢÕ°
Õ¡ ÖĨ
ĠÕįÕ¡ÖĢÕ£Õ½ ÕµÕ¡Õ¶Õ«
Ô± Ô¼
ĠÕ½ Õ¡
Õ¡Õ¢Õ¡Õ¶ Õ¡Õ¯Õ¡Õ¶
ĠÕĢÕ¡ÕµÕ¡Õ½Õ¿ Õ¡Õ¶Õ¨
ĠÕ¥ÖĢÕ¯ÖĢ Õ¶Õ¥ÖĢÕ«
ĠÕ´Õ¡Õ¯ Õ¡ÖĢÕ¤
Õ¸ÖĤÕ° Õ«
ĠÕ£Õ¸ÖĢÕ®Õ¸ÖĤÕ¶Õ¥ Õ¸ÖĤÕ©ÕµÕ¡Õ¶
Õ¸ÖĤÕ Ń
Õ«Õ¯ Õ¨
ĠÕ¥ÖĢ Õ¡Õª
Õº Õ¥ÖĢ
ĠÖĥ Õ¡Õ¯
m en
ĠÔ» Õ¶
Õ¸Õ¯ Õ¿Õ¥Õ´Õ¢Õ¥ÖĢÕ«
ĠÕĵÕ¡Õ·Õ«Õ¶ ÕµÕ¡Õ¶Õ¨
Õ¾ Õ¥ÖĢ
Ġ O
Õ¸ÖĤÕ´ Õ¸Õ¾
ĠÕ£ Õ¸ÖĤÕµ
ĠÕİ ÖĢÕ¡Õ½Õ¿
Õ«ÖĦÕ«Õº Õ¥Õ¤
ĠÕ¶ Õ¾Õ«
ĠÕ ĥ
ĠÕ´ Õ¡Õ¶Õ¯
Õ¡Õ¸ ÖĤ
ĠÕ¡Õ¶ Õ´
ÕĦ Õ¥Õ¶ÖĦ
ĠÕ§Õ¬ Õ¥Õ¯
Õ«Õ¯ Õ¡ÕµÕ«
ÖĢ Õ¸Õº
Õº Õ«Õ½
ĠÕ°Õ¡Õ¾ Õ¡Õ¿
ĠÔ³ÖĢÕ«Õ£ Õ¸ÖĢÕµ
ĠÕ³ Õ«Õ·Õ¿
ĠÕ¯ÕµÕ¡Õ¶ ÖĦÕ«
Ġ H
Õ¥Õ¶ Õ«
1 3
ĠÔµ ÖĢÕ¯
Ġ p
Õ¶ Õ¥ÖĢÕ£
ĠÕ°Õ¡Õ¾ Õ¥Õ¬
Õ¥Õ´ Õ¡Õ¿
Õ¸ÖĢÕ¤ Õ¨
ĠÕ¡Õ² Õ»
ĠÕµÕ¸ÖĤÖĢ Õ¡ÖĦÕ¡Õ¶Õ¹ÕµÕ¸ÖĤÖĢ
e l
Õ¡Õ¾ Õ«ÖĢ
ĠÕ°Õ¥Õ¿ Õ¥ÖĤ
ĠÕ°Õ«Õ´Õ¶ Õ¡Õ¤ÖĢÕ¡Õ´
Ô±Õį Õı
w w
Õ¥Õ¶ Õ¤
ĠÕ¯Õ¸Õ´ Õ«Õ¿
Õ¸Õ² Õ¶Õ¥ÖĢÕ¨
ĠÕ½Õ¿ Õ¡ÖģÕ¥Õ¬
2 00
Õ¡ ÖĤ
ĠÕ¡ÖĢÕ¿ Õ¡Õ°Õ¡ÕµÕ¿
ĠÕ¸ ÖĢÕ¤
ĠÕ¿Õ¥Õ²Õ¥Õ¯ Õ¡Õ¿Õ¾
Ð ¸
ĠÕ¿ Õ¸ÖĤÕ¶
ĠÔ¿Õ¡ÖĢ Õ¡ÕºÕ¥Õ¿
Õ¸ÖĤÕ½ Õ¶
ÖĢ Õ¸Õ½
ÖĦ Õ¥ÖĢÕ¨
ĠÕ¢ Õ¸Õ²
ĠÕ´Õ¡Õ½Õ¶Õ¡Õ¯Öģ Õ¥Õ¬
ĠÕ£Õ¿Õ¶ Õ¾Õ¸ÖĤÕ´
Ġ1 00
ĠÖħÖĢ Õ«Õ¶Õ¡Õ¯
Õ¸Õµ Õ¡Õ¶
Õ¸ÖĤÕ¬ Õ«Õ½Õ«
ĠÕ¶Õ¾ Õ¡Õ¦
Õ¡Öģ Õ¾Õ¥Õ¬
Õ¥Õ¬Õ« ÖĦ
ĠÕ¡ÖĢÕ± Õ¡Õ¶
Õ¡Õµ Õ¸Õ¾
Õ¡Õµ Õ«Öģ
Õ¶ Õ¡ÕŃ
Õ«Õ¬ Õ«Õ¸Õ¶
ĠÕ¾ Õ¡Õ³Õ¡Õ¼
Õ¥ÖĦ Õ½Õ¿
ĠÕ¸ÖĤÕ½ Õ¡Õ¶
Õ¡Õ£ÖĢ Õ¡Õ¯Õ¡Õ¶
Õ¸ÖĤÕ©ÕµÕ¸ÖĤÕ¶Õ¶Õ¥ÖĢ Õ¶
ĠÕŃÕ¡Õ² Õ¡Õ²
Õ¡Õ¶ ÕµÕ¡Õ¶
Õ¸Õ¾ Õ«
Õ¡Õ¯Õ¸ÖĤÕ´ Õ¢
Õ¶Õ¹ Õ¡Õ¯Õ¡Õ¶
ĠÕ£Õ¿Õ¶ Õ¾Õ¸Õ²
ĠÕ£Õ¸ÖĢÕ®Õ¨Õ¶ Õ¯Õ¥ÖĢ
ĠÕ¯ Õ¡Õ¶Õ£
ĠÕ¶ Õ½Õ¿
e t
Ð µ
ĠÕ«ÖĢÕ¡Õ¾Õ¸ÖĤÕ¶ÖĦ Õ¶Õ¥ÖĢÕ¨
ĠÕ£Õ¸ÖĢÕ® Õ¡Õ¯Õ¡Õ¬
ĠÕ·ÖĢÕ»Õ¡Õ¶Õ¡Õ¯ Õ¶Õ¥ÖĢÕ¸ÖĤÕ´
Õ«ÖĢ Õ¡Õ¯
ĠÕ¸ÖĤÕ¶Õ¥Öģ Õ¡Õ®
ĠÕ¾Õ¡ÖĢÕ¹ Õ¡Õ¯Õ¡Õ¶
ÖĢÕµ Õ¡
Õ¡Õ¿ Õ¸ÖĤ
Ġ Õ¡ÖĢÕ¾Õ¥Õ½Õ¿
ĠÕ° Õ¥ÖĢ
Õ¸ÖĤÕ¶ Õ¡Õ¯Õ¸ÖĤÕ´
ĠÕ¡ÕµÕ¶ ÖĦÕ¡Õ¶
ĠÕ¿Õ² Õ¡Õ´Õ¡ÖĢÕ¤
Õ¡Õ¿ Õ¸ÖĤÕ¶
ÖĢ Õ¡Õ¯Õ¡Õ¶
Õ¸ÖĤÕ ¤
ĠÖĨÕ«Õ¬ Õ´
ĠÖĦ Õ«Õ¹
ĠÕ¥Õ¯ Õ¥Õ²Õ¥Öģ
ĠÕ¡Õ² Õ¢
ĠÕ¥ÖĢÕ¥ÕŃ Õ¡Õ¶
ĠÕ¡ÖĢÕ¤ Õ¡ÖĢ
Õ¬ Õ¡ÕµÕ¶
Õ¥Õ¯ Õ¿Õ¥Õ´Õ¢Õ¥ÖĢÕ«
ĠÕ¡Õ¶Õ¤ ÖĢ
ĠÕ¯ Õ£
Õ¸Õ² Õ¨
Õ¡Õ£ÖĢ Õ¸ÖĤÕ©ÕµÕ¡Õ¶
Õº Õ¸ÖĢÕ¿
Õ«ÖĤ Õ¶
Ġ Õ¡Õ¯Õ¸ÖĤÕ´Õ¢
ÖĦ Õ¥ÖĢÕ«
ĠÕ¿ Õ¾Õ¥Õ¬
ĠÖģÕ¡Õ¶Õ¯ Õ¡Õ¶Õ¸ÖĤÕ´
ÖĢÕ ³
Õ¡Õ£ Õ«ÖĢÕ¨
ĠÖĦ Õ¡ÖĢ
ĠÕ¸ÖĢÕ¸Õ· Õ¸ÖĤÕ´
ĠÕ£Õ¸ÖĢÕ® Õ¸ÖĤÕ´
ĠÕ´Õ¬ Õ¶
ĠÕ° ÖĢÕ¡Õ´
ĠÕ¡Õ·ÕŃÕ¡Õ¿Õ¡Õ¶ÖĦ Õ¡ÕµÕ«Õ¶
ĠÕ¢Õª Õ·
) Öī
Õ¡ÖĢ Õ¥Õ¶
ĠÕ¡Õ ·
Õ¡Õ¯ Õ¡Õ¦Õ´
ĠÕ¯Õ¸ÖĤÕ½ Õ¡Õ¯Öģ
ĠÕ£Õ¸ÖĤÕ´ Õ¡ÖĢ
ĠÕ¤Õª Õ¾Õ¡ÖĢ
ĠÕį Õ¡Õ¯Õ¡ÕµÕ¶
ĠÕ¨Õ¶Õ¯Õ¥ÖĢ Õ¸ÖĤÕ©ÕµÕ¡Õ¶
ĠÔ¹Õ¸ÖĤÖĢÖĦÕ« Õ¡ÕµÕ«
ĠÕ¡ÖĢ Õ¡Õ£
Õ¡ÖĢ Õ¡Õ¶Õ¨
Õ¾ Õ¡Õ¶
ĠÕ¾ Õ¿Õ¡Õ¶Õ£
ĠÕ°Õ¡Õ¶ Öģ
ĠÕ® Õ¡Õ¶Õ¸Õ©
ĠÕ¬Õ¸ÖĤÕ½ Õ¡Õ¶Õ¯Õ¡ÖĢ
ĠÖĦ Õ¸
Õ¡Õ¯Õ¡Õ¶ Õ¨
Õ¸ÖĤÕ©ÕµÕ¸ÖĤÕ¶Õ¶Õ¥ÖĢ Õ¸ÖĤÕ´
ĠÕ¾ Õ³
ĠÕ¶Õ¸ÖĤÕµÕ¶ Õ«Õ½Õ¯
ĠÕªÕ¸Õ²Õ¸Õ¾ÖĢÕ¤ Õ«
ĠÕ¸ÖĤÕ²Õ² Õ¸ÖĤÕ©ÕµÕ¡Õ´Õ¢
Õ¡Õ£ Õ¡ÕµÕ¸ÖĤÕ´
ĠÔ± ÖĢÕ
Õ¥Õ¬Õ¸ÖĤ Öģ
ĠÕ«Õ¶Õ¹ Õ¨
Õ¶Õ¯ Õ¡Õ¬
Õ¸ÖĤÕ¶ Õ¥Õ¶
ĠÕ°Õ¡Õ¿ Õ¾Õ¡Õ®
ĠÕ´ Õ«Õ¬Õ«Õ¸Õ¶
Õ¡Õ¾ Õ¡Õ¬
ĠÕŃÕ´Õ¢ Õ«
Õ¡Õ¯ Õ¡ÖĢ
ĠÖģ Õ¥Õ²Õ¡Õ½
Õ¹ Õ¸ÖĤÕ©ÕµÕ¡Õ¶
Õ¸Õ· Õ¸ÖĢ
ĠÕ¦Õ«Õ¶ Õ¾Õ¸ÖĢ
ĠÕ¡ÖĢÕª Õ¥ÖĦ
Õ¡ÖĢÕ ³
ĠÕ¶Õ¾Õ« ÖĢÕ¾Õ¡Õ®
Õ© Õ«Õ¾
Õ¶ Õ¿ÖĢ
ĠÔ² ÖĢ
Õ¡Õ¤ÖĢ Õ¸ÖĤÕ´
ĠÕ¢Õ¡Õ¾ Õ¡Õ¯Õ¡Õ¶
ĠÕ¤Õ¥Õ½ ÕºÕ¡Õ¶
ĠÕ¡Õ·ÕŃÕ¡Õ¿ Õ¡Õ¶ÖĦÕ«
ĠÕ¶Õ¥ÖĢÕ¯Õ¡ÕµÕ¡Öģ Õ¶Õ¸ÖĤÕ´
Õ° Õ¡Õ¿
ĠÖħÕ£ Õ¶
ĠÕ¶Õ¥ÖĢÕ¤ ÖĢÕ¸ÖĤÕ´
Ô±Õ¦Õ¡Õ¿ Õ¸ÖĤÕ©ÕµÕ¸ÖĤÕ¶
ĠÕ¾Õ¥ÖĢ Õ¡Õ°
ĠÕ£ÖĢ Õ¸ÖĤÕ´
Õ©Õ¥ÖĢ Öģ
Õ¡Öģ Õ¶Õ¥Õ¬Õ¸ÖĤ
Õ¥Õ´ Õ¶
ĠÕ°Õ¡ÖĢÖģ Õ¨
0 9
Ôµ Õİ
ĠÕ°Õ¡Õ¿ Õ¯
ĠÖĦ Õ¾Õ¥
Õ¡Õ¦ ÖĢÕ¸ÖĤÕµÖģ
ĠÕ°Õ¡ÕµÕ¿ Õ¶Õ¸ÖĤÕ´
ĠÕį Õ«ÖĢ
Õ¡Õ¾ Õ¸Õ¿
ĠÕ¦ Õ¡Õ¶Õ£
Ġ :
Õ¸ÖĤÕ© Õ«ÖĤÕ¶
ĠÕ± Õ¡ÕµÕ¶
ĠÕ¡Õ ¹
ĠÕ¿Õ¡ÖĢÕ¢Õ¥ÖĢ Õ¡Õ¯
ĠÕ¦ ÖĢÕ¸ÖĤÕµÖģ
ÖĢÕ© Õ¸ÖĤÖĢ
ĠÕ¡ÖĢÕ¤ÕµÕ¸ÖĤÕ¶ Õ¡Õ¾Õ¥Õ¿
ĠÕ¢Õ¡Õ¦Õ´ Õ¡Õ©Õ«Õ¾
a g
Õ° Õ¡ÖĢÕ¯
Õ¡Õ¿ Õ¥ÖĢ
Õ¸ÕµÕ¥Õ´Õ¢ Õ¥ÖĢÕ«
Ġ E
Õ¶ Õ¥Õ¶
Õ¸Õ² Õ¸ÖĤÕ©ÕµÕ¡Õ¶
ĠÖĥ Õ¸ÖĤÕ¬
Õ¡Õ¶ Õ¥Õ¬Õ«
ĠÕ¢Õ¡Öģ Õ¡Õ°Õ¡ÕµÕ¿
Õ¡Õ¶ Õ¥Õ¬
Õ¸Õ¾ Õ¡Õ¶Õ¤Õ¡Õ¯
ĠÕ¶Õ· Õ¾Õ¡Õ®
ĠÕ¸ÖĤÖĢ Õ«Õ·
Õ¡ÖĢÕ¹ Õ¡ÕºÕ¥Õ¿
ï »
ĠÕ¡Õ ¤
ï» ¿
a y
Õ· Õ¡Õ¯
ĠÕ«Õ¶ Õ¿
ĠÕ¤Õ¡ÖĢÕ± Õ¥Õ¬
ĠÕ¥Õ¶Õ© Õ¡ÖĢÕ¯
Õ¶ Õ¡Õµ
ĠÕ¯ Õ¸ÖĤÕ¶Õ¥Õ¶
Ô±Õ Į
ĠÕĬ Õ¡Õ¿
ÕµÕ¸ÖĤÕ½ Õ«Õ½
ĠÔµÖĢ Õ¥ÖĤ
ĠÔµÖĢÖĩ Õ¡Õ¶Õ¸ÖĤÕ´
i p
Õ½Õ¿ Õ«Õ¿
ĠÕ¢Õ¶Õ¡Õ¯ Õ«Õ¹
Õ¡Õ¢ Õ¥Õ¯
Õ¡Õ¾ Õ¡Õµ
Õ«Õ¶ ÖĦÕ¶
Õ¡Õº Õ¡ÖĢÕ¿
ĠÕ°Õ¡Õ´Õ¡Õ¯Õ¡ÖĢÕ£ Õ«
ĠÕ°Õ¡Õ´Õ¡Õ£Õ¸ÖĢÕ® Õ¡Õ¯Öģ
ĠÕ·ÖĢÕ» Õ¡Õ¶Õ¸ÖĤÕ´
Õ¾ Õ¡ÖĢÕ«
Õº Õ¥
Õ¡Õ²Õ¡ÖĦ Õ¡Õ¯Õ¡Õ¶
or g
ĠÔ¿Õ¡ÖĢ Õ¥Õ¶
ĠÕ¤Õ¸Õ¬ Õ¡ÖĢ
ĠÔ± ÕĲ
Õ¸ÖĤÕ ¼
ĠÕ´ Õ¥ÖĦÕ¥Õ¶
ĠÕ¶Õ¥ÖĢÕ¯Õ¡ÕµÕ¡Öģ ÖĢÕ¥Õ¬
Õħ Ô±ÕĨ
ĠÕ¥ÖĢÕ¡Õª Õ·Õ¿
ĠÕĸ ÖĢÕ¡Õ¶Õ½
ĠÕĢÕ¡Õ¯ Õ¸Õ¢
â Ĩ
Õ«Õ ²
ĠÕ¡Õ¾Õ¿ Õ¸Õ´
Õ« Õ«
ĠÕĶ Õ¸Õ¹
ĠÕ¿Õ¡ÖĢÕ¡Õ® Õ¡Õ·ÖĢÕ»
Ô± Ô¶
Õ¡ÖĦ Õ¥Õ¬
Õ¡Õ£ÖĢ Õ¸ÖĤÕ©ÕµÕ¸ÖĤÕ¶
Õ¨Õ¶ Õ©Õ¡Öģ
Õ¸ÖĤ ÖĢÕ£
ĠÕ½ ÕŃ
ĠÕ°Õ¡Õ¶ ÖĢÕ¡Õ£
Õ¸ÖĤ ÖĢÕ½
ĠÕĦ Õ¥Õ®
ĠÕ¸Õ½Õ¿Õ«Õ¯Õ¡Õ¶ Õ¸ÖĤÕ©ÕµÕ¡Õ¶
Õ¡Õ¯ Õ¥ÖĢÕ¿
Õ¡Õ¦ Õ¡Õ¶Öģ
Õ¡Õ·ÕŃÕ¡ÖĢÕ° Õ¡ÕµÕ«Õ¶
Õ¡Õ» Õ«Õ¶
ĠÕ¨Õ¶Õ¤ Õ¤
ĠÖħ Õ¤
Õ¡Õ¶ÖĦ Õ¨
Ġ #
a s
Õ¡Õ¯ Õ¶Õ¥ÖĢÕ«
ĠÕ¯Õ¡Õµ ÖĦÕ¸ÖĤÕ´
ĠÕ´Õ· Õ¿
Õ¡Öģ Õ¸ÖĤÕ´Õ¨
Õ¡Õ¤ÖĢ Õ¡Õ¯Õ¡Õ¶
Õ¡Õ¯ Õ¡Õ¿Õ¡ÖĢ
Õ¸ÖĢÕ° ÖĢÕ¤
Õ¡Õ¹ Õ¡Öĥ
ÕµÕ¸ÖĤÕ »
ĠÔ±Õ´ Õ¥Õ¶
Õ¡Õ¦ Õ¸ÖĢ
ĠÕ¼ Õ¡Õ¤Õ«
ĠÕ¯Õ¡Õ¼ Õ¸ÖĤÕµÖģ
ĠÕ¯Õ¥Õ¶ Õ½
ĠÕ¯Õ¡ÖĢÕ® Õ¸ÖĤÕ´
Õ¡Õ¶ Õ¸ÖĤ
Õ¸Õ¾ Õ«Õ¶
ĠÕ¬ Õ¸ÖĤÖĢÕ»
Ôµ ÖĢÕ¯
Õ¡ÖĢÕ¯ Õ´Õ¡Õ¶
ĠÕ¸ÖĤÕ²Õ² Õ¾Õ¡Õ®
ĠÕ°Õ¡Õ½Õ¡ÖĢÕ¡Õ¯ Õ¡Õ¯Õ¡Õ¶
Õ¡Õ¦ Õ£
ĠÕĨ Õ¡ÕŃ
ĠÕ¼ Õ¥Õª
Ô±ÕµÕ½ ÖħÖĢ
ĠÕ¡ÕµÕ¬ Õ¶
ĠÕĮ Ô´
ĠÕ¿Õ¥ÕŃÕ¶ Õ¸Õ¬Õ¸Õ£
Õ ĥ
ĠÕ´Õ¥Õ² Õ¡Õ¤
ĠÕ¡Õ¦Õ¤ Õ¥Öģ
ĠÕ£ Õ¶Õ¸ÖĤÕ´
Ôµ Õ©Õ¥
âĢ Ŀ
ĠÕ® Õ¡Õ¶ÖĢ
Õ« Õ¡ÕµÕ¸ÖĤÕ´
Õ¡Õ½Õ¿ Õ¡Õ¶Õ¸ÖĤÕ´
ÕµÕ¸ÖĤÕ ¼
Õ¡ÖĢÕ ·
ĠÕ£ Õ®
ĠÕ°Õ¡Õ´Õ¡ÕµÕ¶ ÖĦÕ«
Õ¡Õµ ÖĦÕ«
Õ¡Õ´ Õ«Õ»Õ¸Öģ
ĠÕ¢ Õ¸Õ¾Õ¡Õ¶Õ¤Õ¡Õ¯
ÕŃ Õ«Õ©
ĠÔ´ Õ¸ÖĤÖĦ
ĠÕ¡ÖĢ Öĩ
Õ«Õ¶ Õ¥ÖĢÕ«
Õ¥Öģ Õ¶Õ¥Õ¬
ĠÕ°Õ¡Õ´Õ¡Õ£Õ¸ÖĢÕ® Õ¡Õ¯ÖģÕ¸ÖĤÕ©ÕµÕ¡Õ¶
Õ¥ÖĤ Õ¸ÖĢ
ĠÕ¹Õ¸ÖĤÕ¶ Õ«
Õ¡Õ½ ÕŃ
Õ¡Õ¾ Õ«
ĠÕ¡Õ¼ Õ¯Õ¡
ĠÕ£ÖĢ Õ¥Õ¬
Õ«Õ¦ Õ´
ĠÕ° Õ¸ÖĤÕ·
ĠÕº Õ«Õ¿Õ«
Õ¸ÖĤÕ¶ ÖĦÕ«
Ġ Õ¡ÖĢÕ¡ÖĢ
Õ¡Õ¿ ÖĢÕµ
Õ¡ÕŃ Õ½
ĠÕ«ÖĢ Õ¡Õ¤Õ¡ÖĢÕ±
ĠÕ¡Õ¾ Õ¡Õ¶Õ¤
ĠÕ´Õ¡Õ´ Õ¸ÖĤÕ¬Õ«
ĠÕ£ Õ¥Õ²Õ¥Öģ
ĠÕ½ Õ¶
Õ¡Õ¶Õ¡Õ¬ Õ«
ĠÕ°Õ¡Õ¶ÖĢÕ¡Õ£ Õ«Õ¿
ĠÕ¡Õ ¬
ĠÕŃÕ¸Õ½ ÖĦÕ¸Õ¾
Õ¡Õ¼ Õ¡Õ¿
ĠÕ© Õ¸ÖĤÖĢÖĦ
Öĥ ÕµÕ¸ÖĤÕ¼
Õ°Õ¡ÖĢÕ¯ Õ¥
ĠÕ¯ Õ¥Õ¿
Õ¸Õ¾ Õ¡Õ¦Õ¤
ĠÖħ ÖĢÕ¾Õ¡
ĠÕ´Õ¡Õ½Õ¶ Õ¡Õ£Õ¥Õ¿
ĠÔ· Õ»
ĠÖĦÕ¶ Õ¶Õ¹Õ¡Õ¯Õ¡Õ¶
Õ¡Õ¶ ÕµÕ¡Õ¶Õ¨
ĠÖĥÕ¸ÖĥÕ¸ÕŃ Õ¸ÖĤÕ©ÕµÕ¸ÖĤÕ¶Õ¶Õ¥ÖĢ
Ñ Ģ
Õ¡Õ¯ Õ¿
ĠÕº Õ¬
ĠÕ¡Õ·ÕŃÕ¡ÖĢÕ° Õ¸ÖĤÕ´
Ġ W
ĠÕ°Õ¥Õ¿ Õ¡Õ¦Õ¸Õ¿
Õ¥ÖĢÕ ¯Õ¡Õµ
ĠÕ¾ Õ¡Õµ
Õ¸ÖĤÕ½ Õ¡Õ¶Õ¯Õ¡ÖĢ
ÕĪÕ Ĥ
ĠÕ¡Õ·ÕŃÕ¡Õ¿ Õ¡Õ¯Õ«Öģ
Õ¸Õ² Õ¶Õ¥ÖĢÕ«Õ¶
Õ¼ Õ¹
Õİ Õ¥ÖĢÕ»Õ«Õ¶
201 7
ĠÕ´Õ¥Õ¯Õ¶ Õ¡Õ¢Õ¡Õ¶
ĠÖģÕ¡Õ¶Õ¯ Õ¡ÖģÕ¡Õ®
ĠÕ¯Õ¡ÖĢÕ£ Õ¸Õ¾
ĠÕ¿Õ¡ÖĢÕ¡Õ® ÖĦÕ¸ÖĤÕ´
ĠÕ¹ Õ¥Õ¶ÖĦ
ĠÕ´Õ¡Õ½ Õ¨
Õ¥ÖĢÕ¬ Õ¸ÖĤÕ®
in g
w ik
ĠÕ¢Õ¡Õ¶Õ¡Õ¯ Öģ
ĠÕĢÕ¸Õ¾Õ°Õ¡Õ¶Õ¶ Õ«Õ½
ĠÔ± ÖĢÖĩ
ĠÕ¸ÖĤ Õ´
Õ½Õ¿ Õ¡Õ¯
ĠÔ¼ Õ¸ÖĤÖĢÕ¥ÖĢ
Õ½Õ¿Õ«Õ¿ Õ¸ÖĤÕ¿
ĠÕ¤ Õ«ÖĢÖĦ
Õ¡Õ¶Õ« Õ¡ÕµÕ«
ĠÕ°Õ¡Õ» Õ¸ÖĢÕ¤
ĠÕ¹ Õ°
Õ¡Õ¤ Õ¡Õ¼Õ¶Õ¡Õ¬
ÖĢ Õ¸ÖĤÖģ
ĠÕ¢Õ¶Õ¡Õ¯ Õ¡ÖĢÕ¡Õ¶
ĠÕ°Õ¡Õ¶Õ¤Õ«Õº Õ¸ÖĤÕ´
Õ¡Õ¤ ÖĢÕ¾Õ¡Õ®
ĠÕģ Õ¥Õ¦
Õ«Õ¶ ÖĦ
ĠÕĢ Ô±Õħ
Õ¶ Õ·
ĠÕĦ Õ¸Õ½Õ¯
Õ«Õ£ ÖĢÕ¡Õ¶
Õ¥Õ¬ ÕµÕ¡Õ¶
Õ¥ÖģÕ«Õ¶ ÖĦ
ĠÕºÕ¡ÖĢÕ¿ Õ¡Õ¾Õ¸ÖĢ
p h
ĠÕ¿ Õ¸Õ¶
ĠÕĢ Õ¥Õ¿
ĠÕºÕ¡Õ° Õ«Õ¶
ĠÕ¶Õ·Õ¡Õ¶Õ¡Õ¯ Õ¸ÖĤÕ´
ĠÕ¾ Õ¡Õ¿
ĠÕ¶Õ¥ÖĢ ÖĦ
, -
Õ¡Õ¦ Õ¡Õ¶
http s
Öĥ Õ¡Õ¯
ĠÕ´Õ¡ÖĢÕ¿ Õ«
2 1
ĠÕ¢Õ¡Õª Õ¡Õ¶
ĠÕ¸Õ¬Õ¸ÖĢÕ¿ Õ¸ÖĤÕ´
ĠÕ¸ÖĢÕ¸Õ¾Õ° Õ¥Õ¿Öĩ
Õ¡Õ° Õ¡Õ¯
Õ¡Õ¶Õ¤ Õ¥Õ½
ĠÕ°Õ¡ÖĢÖģ Õ¥ÖĢÕ«
Õ¡Õ£ Õ¶
ĠÕ½ Õ¸ÖĤÕµÕ¶
Õ¡Õ¶Õ¡Õ¯ Õ¨
ĠÕį Õ¡
ĠÕ¸ÖĤÕ½Õ¸ÖĤÕ´Õ¶ Õ¡Õ½Õ«ÖĢ
Ô±Õ ĳ
ĠÕ£ÖĢ Õ¡Õ½
ĠÕ°Õ¡ÖĢÖģ Õ¸ÖĤÕ´
Õ¥Õµ Õ½
ĠÕªÕ¸Õ²Õ¸Õ¾ Õ¸ÖĤÖĢÕ¤
ĠÕ½Õ¿Õ¥Õ²Õ® Õ¡Õ£Õ¸ÖĢÕ®
Õ¸Õ¾ Õ¨
ĠÕ¤ Õ¡Õ¼Õ¶Õ¡Õ¬
Õ¾Õ¡Õ® ÖĦ
ÕĦ Ô±ÕĨ
h e
ĠÕ¡Õ¼Õ¡Õ»Õ¶ Õ¸ÖĢÕ¤
Õ´Õ« Õ¡Õ®
Õ¡Õ¤ Õ¡ÖĢ
Õ¡Õ¿ Õ«Õ¾
ĠÕ¾ Õ¡ÕµÖĢ
ĠÕ· Õ«Õ¶
Ô± ÖĢÕ´Õ¥Õ¶
Õ¡Õ· Õ¶
Õ Ĵ
ĠÕĦ Õ¥ÖĢ
Ôµ Ô¿
ĠÖħ ÕºÕ¥ÖĢ
ĠÖĥÕ¸ÖĢÕ± Õ¸ÖĤÕ´
Õ¸ÖĢÕ ¾
ĠÕ© Õ¥ÖĢÕ©
ĠÕ¾Õ¥ÖĢ Õ¡Õ¯Õ¡Õ¶
Õ¸ÖĤÕµÕ© Õ¨
ĠÕ°Õ¡Õ¶ÖĢ Õ¡ÕºÕ¥Õ¿
Õ¡Õ½ Õ¡ÖĢÕ¡Õ¯
Õ¡Õ¶Õ± Õ«Õ¶
Ġ2 6
ĠÕ¼Õ¡Õ¦Õ´ Õ¡Õ¯Õ¡Õ¶
ĠÕ¾Õ«Õ³ Õ¡Õ¯
Õ¡Õ° Õ¥ÖĢÕ©
ĠÕ® Õ¡ÕŃÕ½
ÕĬ Õ¥Õ¿
Õ¥Õ¼Õ¶ Õ¡ÕµÕ«Õ¶
Õ´ Õ¸ÖĤÕ¶ÖĦ
ĠÕ¿ Õº
u r
Ñ Ĥ
Õ¡ÖĢ Õ¡Õ¿
Õ¡Õ¿ Õ¡Õ¯Õ¡Õ¶
Õ¸Õ¶ Õ¤
Õ¡Õ¾Õ¡ÖĢ Õ¸ÖĤÕ©ÕµÕ¡Õ¶
Õ¡Öģ Õ¸ÖĤÕµÖģ
ĠÕ°ÖĢÕ¡Õ´ Õ¡Õ¶
Õ¥Öģ Õ¶Õ¸ÖĤÕ´
Õ¥Õ© Õ¥
ĠÔ± ÖĢÕ©Õ¸ÖĤÖĢ
Õ¶ Õ¯Õ¥ÖĢ
ĠÕ¶ Õ¡Õ´
ĠÕ¡ÕºÖĢ Õ«Õ¬Õ«
ĠÔ±Õ· ÕŃ
ĠÕ¿ Õ¡Õ¶
ĠÕ£ Õ«Õ·
ĠÕŃ Õ¸ÖĤÕ´Õ¢
ĠÕ¯Õ¡Õ¿Õ¡ÖĢ Õ¥Õ¬Õ¸ÖĤ
ĠÕ£Õ¡Õ² Õ¡Öĥ
ĠÕ¢ Õ«Õ¦Õ¶Õ¥Õ½
ĠÕ· Õ¥Õ¶ÖĦ
Õ¡ÖĢÕ¡Õ¶ Õ¡Õ¯Õ¡Õ¶
Õ¡Õµ Õ¡Õ¯Õ¡Õ¶
ĠÕ½ ÕºÕ¡Õ¶
ĠÕ¿Õ¥Õ½ Õ¶Õ¸ÖĤÕ´
Õ¥Õ¿ÖĢÕ¾ Õ¡ÖĢÕ«
2 2
Ð ½
ĠÕ¢ Õ¸ÖĤÕª
ĠÕ°Õ¡Õ¶Õ±Õ¶Õ¡ÕªÕ¸Õ²Õ¸Õ¾ Õ«
Ġ2 7
Õ¡ÖĢÕ£ Õ´Õ¡Õ¶
ĠÖħÖĢÕ¥Õ¶Õ½ Õ¤
ĠÕ¡Õ¼ Öĩ
Õ® Õ¡Õ¼Õ¡Õµ
Õ¡Õ£ Õ¡
Õ¡ÖĢÕª Õ¥ÖĦ
ĠÕį Õ¸ÖĤÖĢÕ¢
ĠÕ°Õ¡Õ¶ Õ£Õ¡Õ´
ĠÕ¢Õ¥ÖĢ Õ¥Õ¬
ĠÕĨ Õ¡ÕŃÕ¡Õ£Õ¡Õ°
ĠÕ¬Õ¥Õ¦ Õ¸ÖĤÕ¶
Õ¡Õ¤ ÖĢÕ¾Õ¥Õ¬
ĠÕŃÕ¸Õ½ Õ¿
ĠÕ¬ÖĢ Õ¡Õ¿Õ¾Õ¡Õ¯Õ¡Õ¶
ĠÕ°Õ¡Õ´ Õ¡Õ¿Õ¥Õ²
Ġ Õ¡Õ¿
Õ¡Õ¶ Õ¡Õ¶
Õ£ Õ¸ÖĢÕ®
Õ¡Õ¾Õ¸ÖĢ Õ¥Õ¬
Ô» Õ´
ĠÕ£Õ¸ÖĢÕ® Õ¥Õ¬
ÖĢÕ¡Õ´ Öĥ
ĠÔ´ Õ¡
Õ¡Õ¤ÖĢ Õ¸ÖĤÕ©ÕµÕ¸ÖĤÕ¶
ĠÕ¯Õ¸ÖĤÕ½ Õ¡Õ¯ÖģÕ¸ÖĤÕ©ÕµÕ¡Õ¶
Ġ V
Õº Õ¡Õ¿
ĠÕ· Öĥ
. ,
Ô¿ Õ¡Õº
Õ«Õ³ Õ¡Õ¶
ĠÕ¤ÕºÖĢ Õ¸ÖģÕ«
Õ«Õ¶ Õ¡Õ¯Õ¡Õ¶
Õ¥ÖĢÕ´ Õ¡Õ¶
ĠÕ°Õ¡Õ¿Õ¯ Õ¡ÕºÕ¥Õ½
Õ¸ÖĤÕ¬ Õ¿
Õ¡Õ½Õ¯ Õ¡Õ®
Ô· Õ¬
Ġ "
ĠÕ°Õ¡Õ¯ Õ¡Õ´Õ¡ÖĢÕ¿
ĠÕ¢ Õ¶Õ¡Õ¯Õ¡Õ¶
ĠÕŃ Õ¸Õ·Õ¸ÖĢ
ĠÕ«Õ¶ ÖĦÕ¨
Ô±Õħ Ô»ÕĨ
ĠÕ¢Õ¡ÖĢ Õ¥Õ¯
Õ¸ÖĤÕ´ Õ¶Õ¡Õ¯Õ¡Õ¶
Õ½ Õ«
ĠÕ¤ Õ¡Õ·Õ¿
Õ¡Õ¬ Õ¸ÖĤ
Õ¡Õº Õ¶Õ¤
Õ¿ÖĢÕ¸Õ¶ Õ¡ÕµÕ«Õ¶
ĠÕ§Õ» Õ«Öģ
ĠÔ±Õ½Õ¿ Õ¾Õ¡Õ®
ĠÕ±Õ¥Õ¼Õ¶ Õ¡ÖĢÕ¯
ĠÕ© Õ¡Öĥ
Õ«Õ¹ Õ¨
Õ¡Õ¾Õ¡ÖĢ Õ¡Õ¯Õ¡Õ¶
ĠÕ¡ÖĢÕª Õ¡Õ¶
ĠÕ°Õ¡ÖĢÕ¡Õ¢Õ¥ÖĢ Õ¸ÖĤÕ©ÕµÕ¸ÖĤÕ¶Õ¶Õ¥ÖĢÕ«
ĠÔ´Õ¡Õ¾ Õ«Õ©
5 0
ÕĮ Õ¸ÖĤÕ½
ĠÕ¿ ÖĢÕ¡Õ¶Õ½
ĠÕ¡Õ´ Õ¥ÖĢÕ«Õ¯
Õ¡Õ¢Õ¥ÖĢÕ ¾
ĠÕ´Õ¡Õ¶ ÖĢÕ¡Õ´
ĠÕ¯ Õ¥Õ½
Õ¡ÕŃ Õ¡Õ¦
ĠÕ¤Õ«Õ´ Õ¥Õ¬
ol d
ĠÕºÕ¡Õ¿Õ´ Õ¸ÖĤÕ©ÕµÕ¡Õ¶
ĠÕ·Õ¶Õ¸ÖĢÕ° Õ«Õ¾
Ġ t
Õ¸ÖĤÕ¶ ÖĦÕ¨
ĠÕ£ Õ¸Õµ
Ô±Õ ·ÕŃ
ĠÕ°Õ¡Õ½Õ¡ÖĢÕ¡Õ¯ Õ¸ÖĤÕ©ÕµÕ¡Õ¶
Õ¡Õ½Õ¿ Õ¡Õ¶Õ¨
Ñ ģ
ĠÔµ ÕĦ
ĠÕ¾Õ¡ÖĢÕ¹Õ¡ÕºÕ¥Õ¿ Õ«
ĠÕ¸ÖĢ Õ¡Õ¯
ÕĢ Õ¡ÖĢ
Õ¡ÖĢÕ º
Õ¡Õ´Õ¥Õ¶ Õ¨
Õ¡Õ¢ Õ¥ÖĢÕ¸ÖĤÕ´
Õ¿ÖĢ Õ¡Õ¯Õ¡Õ¶
ĠÕ¾Õ¥ÖĢ Õ¡Õ¤Õ¡ÖĢÕ±
ĠÕ¯Õ¥Õ¶ Õ¤
ĠÕ¶Õ¥ÖĢÕ £
âĢ¤ âĢ¤
ĠÕ¡Õº ÖĢÕ¡Õ¶ÖĦ
Õ¶ Õ¿
Õ¾ Õ¥ÖģÕ«Õ¶
ĠÔ· Õ¤
u n
ĠÕ½ Õ¥ÕºÕ¿Õ¥Õ´Õ¢Õ¥ÖĢÕ«
ĠÕ¾Õ¥ÖĢÕ¡Õ° Õ½Õ¯
ĠÕ¾Õ¥ÖĢ Öģ
ĠÕ¡Õ·ÕŃÕ¡Õ¿ Õ¸ÖĤÕ´
ĠÕ¯ÖĢÕ© Õ¸ÖĤÕ©ÕµÕ¡Õ¶
ĠÖĨÕ«Õ¶Õ¡Õ¶Õ½ Õ¡Õ¯Õ¡Õ¶
ĠÕ° Õ¸Õ²
ĠÕ· Õ¿
Õ¥Õ´ Õ«
ĠÕ´ÖĢÖģ Õ¡Õ¶Õ¡Õ¯
ĠÕĢ ÖĢ
ĠÕ¸ÖĢ Õ¸ÖĤÕ´
ĠÕĨ ÖĢÕ¡
ĠÕİ Õ¡Õ¶
ĠÕ½Õ¯Õ½ Õ¥Õ¬
ĠÔ±Õ¬ Õ¥ÖĦÕ½
ĠÖĦÕ¡Õ²Õ¡ÖĦÕ¡ÖģÕ« Õ¡Õ¯Õ¡Õ¶
a v
Õ¡Õµ Õ©
Ô±Õµ Õ¬
ĠÕĵÕ¡Õ·Õ«Õ¶ ÕµÕ¡Õ¶Õ«
ĠÕ¤ Õ«Õ¾
ĠÕ£ÖĢ Õ¡Õ¯Õ¡Õ¶
ĠÕ¶Õº Õ¡Õ½Õ¿
ĠÕ® Õ¡Õ¾Õ¡Õ¬
ÕĢÕ¡Õµ Õ¡Õ½Õ¿Õ¡Õ¶
ĠÕ¯Õ¡Õ¦Õ´Õ¡Õ¯Õ¥ÖĢÕº Õ¸ÖĤÕ©ÕµÕ¡Õ¶
Õ¡Õ¯ Õ¡Õ¿
ĠÕ¥ Õ¼
ĠÕ¥ÖĢÕ¯ ÖĢÕ¸ÖĤÕ´
Õ¸ÖĤÕ© Õ¥Õ¡Õ¶
Ô± ÖĢ
Õ¡Õ° Õ¡Õ´
ĠÕ°Õ¡Õ´ Õ¸Õ¦
ĠÕ¡Õ¼ Õ¡Õ¶Õ±Õ«Õ¶
ĠÕ°Õ¡Õ´Õ¡ÖĢ Õ¸ÖĤÕ´
ĠÕ·Õ¡ÖĢ Õ¸ÖĤÕ¶Õ¡Õ¯Õ¸ÖĤÕ´
Õ¡ÖĢÕ´ Õ¡ÖĢ
Õ¸Õ¶ Õ¥
ĠÖĥ ÖĢÕ¯
Ġ2 8
Õ¡Õ½ Õ«
Õ¡Õ£ Õ«Õ¯
Õ¡Õ¯Öģ Õ¸ÖĤÕ©ÕµÕ¡Õ´Õ¢
Õ¡ÖģÕ« Õ¡ÕµÕ«
ĠÕ¯Õ¶ Õ¸Õ»
ĠÔ·Õ» Õ´Õ«Õ¡Õ®
Õ¥Õ¶ ÕµÕ¡Õ¯
Õ¢ Õ¥ÖĢÕ¸ÖĤÕ´
ĠÖģ Õ¡Õ¶Öģ
ĠA r
ĠÕ¬Õ« Õ¡Õ¦Õ¸ÖĢ
ĠÖħÖĢÕ¥Õ¶Õ½ Õ£ÖĢ
Õ¡Õ¿ Õ¶Õ¿Õ¥Õ½
ĠÕ«Õ¶ Õ½Õ¿Õ«Õ¿Õ¸ÖĤÕ¿
ÕµÕ¸ÖĤ ÖĢÕ¨
ĠÕ½ÕŃ Õ¡Õ¬
a d
Õ¡Öģ ÕµÕ¡Õ¬
Õı Õ¥Õ½
ĠÕ¯Õ¡Õ¶ Õ¡Õ¶Öģ
Õ¸Õ¢ Õ¥ÖĢÕ¿
ĠÕ¶Õ¥ÖĢ ÖĦÕ«Õ¶
ĠÖĥÕ¡Õ½Õ¿Õ¡Õ© Õ²Õ©
Õ¹ Õ¡Õ¯Õ¡Õ¶
Õ¸ÖĤÖĢ Õ«
Õ¡Õª Õ¡Õ´
ed ia
ĠÕ£Õ¸ÖĢÕ® Õ¸Õ¾
ĠÕ¶Õ¥ÖĢÕ¯ Õ¡
Õ«Õ¯ Õ¶Õ¥ÖĢÕ«
ĠÕ¶Õ¡ÕŃÕ¡Õ£Õ¡Õ° Õ¨
ĠÕ¥ÖĢÕ¥ÕŃ Õ¡Õ¶Õ¥ÖĢÕ«
ĠÕ¤Õ¡Õ¿Õ¡ÖĢ Õ¡Õ¶Õ«
ĠÕ©Õ¥Õ¯Õ¶Õ¡Õ® Õ¸ÖĤ
ĠÕ¡Õ¤ ÖĢÕ¢Õ¥Õ»
ĠÕºÕ¡Õ·Õ¿ÕºÕ¡Õ¶ Õ¾Õ¡Õ®
ĠÕ´Õ·Õ¡Õ¯ Õ¸ÖĤÕµÕ©Õ«
de x
ĠÕ¶Õ¡ÕŃ Õ¸ÖĢÕ¤
ĠÕ«ÖĢÕ¡Õ¾ Õ¡Õ¯Õ¡Õ¶
ĠÕ¡ÖĢÕ± Õ¡Õ£
2 3
ĠÕ¢ ÕµÕ¸ÖĤÕ»
ĠÔ± ÖĢÕ¡Õ´
ĠÕ½Õ¿ Õ¡Õ¶Õ¡Õ¬
Õ¸ÖĤÕ° Õ«Õ¶
ÕĪÕ İ
Õ¥ÖĢÕ¢ Õ¡Õ¯Õ¡Õ¬
ĠÔ² Õ¸Õ¬Õ¸ÖĢ
ĠÔ³ ÕµÕ¸ÖĤÕ´
ĠÖħÖĢÕ¥Õ¶ÖĦ Õ¸Õ¾
Õ¶Õ¡Õµ Õ¡Õ®
2 5
ÕįÕ¿ Õ¡ÖģÕ¾Õ¡Õ®
ĠÕ¢ Õ¸Õ¬
ĠÕ¾ ÖĢ
Õ¡Õ¼ Õ¸ÖĤÕ¯
ĠÕ¡Õº ÖĢÕ¸ÖĤÕ´
Õ¸Õµ Õ¡Õ¶Õ¨
ĠÕ«ÖĢÕ¡Õ¯Õ¡Õ¶ Õ¡ÖģÕ´Õ¡Õ¶
ĠÕ¯Õ¥Õ¶Õ¿ÖĢÕ¸Õ¶ Õ«
ĠÕ¦ÖĢÕ¸ÖĤÕµÖģ Õ¸ÖĤÕ´
t s
Õ¡Õ¿ Õ¸ÖĢ
Õ¡Õ½ Õ¡ÖĢ
Ô± ÖĢÕ¿
Õ«Õ¿ Õ¡Õ¯
ĠÔ± ÖĢÕ¤
ĠÕ¯Õ¡ÖĢ Õ«ÖĦ
ĠÕ¿Õ¥Õ² Õ¡Õ¯Õ¡Õ¬
ĠÕ¾Õ¡ÖĢÕ¹ Õ¸ÖĤÕ©ÕµÕ¡Õ¶
ĠÕº Õ¡ÖĢÕ¢Õ¥ÖĢ
ĠÖĦÕ¡Õ²Õ¡ÖĦ Õ¸ÖĤÕ´
Õ½ Õº
ĠÕ¤ Õ¥Õ¯Õ¿Õ¥Õ´Õ¢Õ¥ÖĢÕ«
Õ¡ÕŃ Õ´Õ¢
ĠÕºÕ¥Õ¿ Õ¸ÖĤÕ©ÕµÕ¡Õ¶
ĠÕ¡ÖĢÕ± Õ¡Õ¯
Õ¡Õ² Õ©
ĠÕ¹ Õ£
Õ¾ Õ¡Õ¦
ĠÕ¿ Õ«ÖĢ
ĠÕĢÕ¡Õµ Õ¯Õ¡Õ¯Õ¡Õ¶
ĠÕ¶Õ¸ÖĤÕµÕ¶ ÕºÕ¥Õ½
Ô» ÕĲ
ĠÕºÕ¡ÕµÕ´Õ¡Õ¶ Õ¡Õ¾Õ¸ÖĢÕ¾Õ¡Õ®
ĠÕ¡Õ¯ Õ¶
ĠÕ¢Õ¡Õª Õ«Õ¶
Õ¸Õ ¯Õ¡Õµ
ĠÕ«Õ¶Õ¹ Õ«
ĠÕ¶Õ¡ÕŃÕ¡Õ£ Õ«Õ®
Õ¿Õ¥Õ´Õ¢ Õ¥ÖĢ
ĠÕ¨Õ¶Õ¤Õ£ Õ®
Õ¡Õµ Õ´Õ¡Õ¶
ĠÕ¯ Õ¡ÖĢÕ¤
ĠÕ¡Õ´ Õ¸ÖĤÕ½Õ¶
ĠÕ°Õ¡ÖĢ Õ¸ÖĤÖģ
Öħ ÖĢÕµÕ¡
ĠÕ¡Õ¾Õ¿Õ¸Õ´ Õ¥ÖĦÕ¥Õ¶
ĠÕ¯ Õ¡Õ©
Õ¡Õ¬ Õ¸Õ¾
Õ¡ÖĢÕ¯ Õ«
ĠÕ¡ÕµÕ¤ ÕºÕ¥Õ½
Õ¡Õ£Õ¸ÖĢÕ® Õ´Õ¡Õ¶
ĠÔ±ÕµÕ½ ÖħÖĢ
ĠÕ¯ÖĢÕ¯ Õ«Õ¶
ĠÕ£ Õ¡Õ¦
ĠÕĢ Õ¸ÖĤÕ¶
Õ¸Õ½Õ¿ Õ¸Õ½Õ«
ĠÕ¿ Õ¡Õ½Õ¶
ĠÕ¢ Õ¡Õ²
Õ¡ÖĢ Õ¡ÖĢÕ¨
ĠÕ´ Õ¥Õ¶
ĠÕ¯ Õ¡Õ¬
ĠÕĢ Õ«Õ´
ĠÕ°Õ¥Õ¿Õ¡ÖĦÖĢÖĦ Õ«ÖĢ
ĠÕ¤ ÖĢÕ¡Õ¶
ĠÔµ Õİ
Ġ ÖĢÕ¸Õº
Õ¡Õ¶ Õ¶Õ¥ÖĢÕ«
ĠÕ° Õ½Õ¿Õ¡Õ¯
Õ¥Õ¶ Õ½
Õ¡Õ¼ Õ¨
ĠÕ¡Õ·ÕŃÕ¡Õ¿ Õ¥Õ¬
ĠÕ¤Õ¡Õ¿ Õ¡Õ¯Õ¡Õ¶
ph p
i r
Õ¹ Õ«
ÕĪ ÕĨ
ĠÕ¸ÖĤÕ¶ Õ¥Õ¶ÖĦ
ĠÕ¡Õ´ ÖĢ
Ġ201 5
ĠÕ´Õ¸Õ¿ Õ¥Öģ
Õ«Õ Ń
ĠÕ¡ÖĢ Õ¥Õ¬
ĠÕ¯Õ¸Õ´Õ«Õ¿ Õ¥Õ«
ĠÕ¾ Õ¡ÕŃ
ĠÕİ Õ«ÖĦÕ«ÕºÕ¥Õ¤
ĠÕ¸ÖĢÕ¸Õ· Õ¡Õ¯Õ«
Ô± Ô½
ĠÕ½Õ¿Õ¥Õ²Õ® Õ¥Õ¬
ĠÕ¾Õ¡Õ² Õ¨
ĠÕ° Õ¶Õ¹
ĠÕ¥Õ² Õ¢
it le
Õ¥Õ¶ ÖĦÕ«
ĠÕ¤ Õ¡Õ·Õ«Õ¶
Õ¡ÖĦ Õ¡Õ²Õ¡ÖĦ
ĠÔ² Õ¡Õ¢
e b
Õ¯ Õ«
ÕĬ ÕĢ
ĠÕ¬Õ«Õ¶ Õ¸ÖĤÕ´
ĠÕ¯ Õ¤
ĠÕĦ Õ«Õ¶
ĠÕ¿Õ¡ÖĢÕ¡Õ® ÖĦ
ĠÕ¯Õ¥Õ¶Õ¿ÖĢÕ¸Õ¶ Õ¸ÖĤÕ´
ĠÕ°Õ¥Õ¿Öĩ ÕµÕ¡Õ¬
in dex
ÕĨÔµÕĲ Ô»
t itle
Õ¡Õ´ Õ¸ÖĤÕ¿
ĠÔ¿ Õ¥Õ¶Õ¿ÖĢÕ¸Õ¶
ĠÕ°Õ¡ÖĢÖģ Õ¥ÖĢ
ĠÕ¡Õ¶Õ± Õ«
Õ¡Õ¶ Õ¡ÕµÕ«Õ¶
ĠÕ°Õ¥Õ¿Öĩ Õ¡Õ¶ÖĦÕ¸Õ¾
2 4
ĠÕ¡Õ´Õ¢Õ¸Õ²Õ» Õ¡Õ¯Õ¡Õ¶
ĠÕ° Õ¸Õ¯Õ¿Õ¥Õ´Õ¢Õ¥ÖĢÕ«
ÕĢ ÖĢ
ĠÔ»ÖĢ Õ¡Õ¶Õ«
ÖĢ Õ¡Õ¯
Õ¡Õ¶ Õ¥ÖĢ
ĠÕ¸ÖĢ ÖĦÕ¡Õ¶
ĠÕ½Õ¿ Õ«Õº
ĠÕ´Õ¡Õ¿ Õ¸ÖĤÖģ
ĠÕ£ Õ¸Õ¿
ĠÕ¡Õ·ÕŃÕ¡Õ¿ Õ¡Õ¯Õ¡Õ¦Õ´
ĠÕ¿Õ¥Õ½ Õ¡Õ¶ÕµÕ¸ÖĤÕ©
ĠÕ½Õ«ÖĢ Õ¸ÖĤÕ´
ĠÕ¤ Õ¡Õ¼Õ¶Õ¸ÖĤÕ´
ĠÕ¹ Õ¥ÖĦ
ĠÖģ Õ¡Õ¾
Õ¡Õ± Öĩ
ĠÕ£Õ¸ÖĢÕ® Õ«
ĠÕ¡ÕµÕ¶ Õ¿Õ¥Õ²
Õ¸Õ´ Õ½
ĠâĢ ľ
ÖĢ Õ¥Õ½
Õ¶ Õ¸ÖĢÕ¤
ĠÕ© Õ¡Õ¿ÖĢ
ĠÕį Õ¡Õ°Õ´Õ¡Õ¶
Õ¡Öĥ Õ¡Õ¯
Õ¡Õ© Õ¥ÖĢÕ©
t er
ĠÕ¸ÖĤÕ¶Õ¥Öģ Õ¡Õ¾
ĠÕ» Õ¥ÖĢÕ´
Õ¾ÖĢÕ¸Õº Õ¡Õ¯Õ¡Õ¶
ĠÕ°Õ¥ÖĢÕ© Õ¡Õ¯Õ¡Õ¶
ĠÕ°Õ¡Õ¶Öģ Õ¡Õ£Õ¸ÖĢÕ®
0 5
Õ¡Õ½Õ¿ Õ¥Õ²Õ®
ĠÖĦ Õ¡Õ²
ĠÕªÕ¸Õ²Õ¸Õ¾ Õ«
Õ¡ÕºÕ¡Õ¿ ÖĢÕ¡Õ½Õ¿
ĠÕ´Õ¡Õµ Õ«Õ½Õ«
Õ¡Õ¯ Õ¡Õ¼
ĠÕ¬ Õ¡ÕµÕ¶
ĠÕ§ Õ¶Õ¥ÖĢÕ£
Õ«Õ¡Õ¶ Õ¥ÖĢÕ«
ĠÕ¶ Õ¡Õ¾
ÕĨ Õ¡
old id
Öģ Õ«
19 9
ĠÕ¡Õ· Õ¡Õ¯Õ¥ÖĢÕ¿
Ô± Õ¬
ĠÕ¾ Õ¥ÖĢÕ¬Õ¸ÖĤÕ®
ĠÕ¥ÖĢÕ¢ Õ¥ÖĦ
Õ¥Õ£ Õ¸ÖĢ
ĠÖĦÕ¡ÖĢÕ¿ Õ¸ÖĤÕ²
Õ¡Õ¶ Õ´Õ¡Õ¶
ĠÕ° Õ¸ÖĢ
Õ«Õ¶ Õ¥
ĠÕ½ Õ¥ÖĢ
ĠÕį Õ¡Õ´
ĠÕ¥ÖĢÕ ©
ĠÕºÕ¡Õ¿Õ¾ Õ«ÖĢÕ¡Õ¯
ĠÕ´Õ«Õ¡Õ½ Õ«Õ¶
ĠÕ¤ ÖĢÕ½
ĠÕ¡Õµ ÕªÕ´
ĠÕ°Õ¡Õ´ Õ¡Õ·ÕŃÕ¡ÖĢÕ°Õ¡ÕµÕ«Õ¶
ĠÕİ Õ¥ÖĢ
Õ¥ Õ¶Õ¥ÖĢ
ĠÕ«Õ´ Õ¡Õ½Õ¿
ĠÕ¦Õ«Õ¶ Õ®Õ¡Õ¼Õ¡Õµ
ĠÕ´Õ·Õ¡Õ¯ Õ¸ÖĤÕ©Õ¡ÕµÕ«Õ¶
Õ¡Õ¤ Õ¥Õ´
ĠÕ¡Õ¾Õ¡Õ£ Õ¡Õ¶Õ¸ÖĤ
ĠÕ°Õ¥ÖĢ Õ¸Õ½
ĠÕ°Õ¡Õ¶ÖĢÕ¡Õ£Õ«Õ¿ Õ¡ÖĢÕ¡Õ¶
Õ¥ÕµÕ½ Õ¢
Õ¡Öģ Õ¸ÖĤ
ÕĢ Ô±Õħ
u s
ĠÕ´ Õ¥Õ¿
Õ¡Õ¯Õ¡Õ¶ Õ¶Õ¥ÖĢÕ«
ĠÖħ Õ¿Õ¡ÖĢ
Õ¡Õ¾ Õ¡ÕµÖĢ
ĠÕ¡Õ¼ Õ©Õ«Õ¾
Ôµ ÕĦ
ĠÕ´Õ« Õ¸ÖĤÕ©ÕµÕ¡Õ¶
ĠÕ¯Õ¸ÖĢ Öģ
ĠÕ°Õ¡Õ· Õ¾Õ«
l o
ĠÕ¡ÕµÕ¶ ÕºÕ«Õ½Õ«
ÕĢÕ¡Õµ Õ¯Õ¡Õ¯Õ¡Õ¶
ĠÕ¤Õ¡Õ¿ Õ¡ÕŃÕ¡Õ¦
ĠÔ½Õ¡Õ¹ Õ¡Õ¿ÖĢÕµ
ĠÕŃÕ¸Õ½ Õ¥Õ¬
ĠÕķ ÖĢ
ĠÕ°Õ¥Õ¼ Õ¡ÕŃÕ¸Õ½
ĠÕ¢ÕªÕ· Õ¯Õ¡Õ¯Õ¡Õ¶
ĠÕ¨Õ¶Õ¤Õ¤ Õ«Õ´
ĠÕ¯ Õ¡ÕŃ
Ô±Õ Ĥ
ĠÕ´Õ« Õ¡Õ¾Õ¸ÖĢ
ĠÕ«Õ¶Õ¹ Õ¸ÖĤ
ĠÕ§Õ«Õ¶ ÖĦ
Öĥ Õ¸Öĥ
ĠÕ¾Õ¥ÖĢ Õ¡Õ¶
Õ¶ Õ¡
ĠÕ£ Õ¬
ĠÔµ ÖĢÕ¢
ĠÖĨ Õ«Õ¦
ĠÕŃÕ¸Õ½ Õ¸ÖĤÕ´
ĠÕ¡Õ¶ Õ¿
ĠÕį Õ¡Õ°Õ¡Õ¯
a b
Õ¡Õ¤ Õ¥Õº
ĠÕ± Õ¥ÖĢÕ¢Õ¡Õ¯Õ¡Õ¬
Ġ201 4
ĠÕ¨Õ¶Õ¿ÖĢ Õ¸ÖĤÕ©ÕµÕ¸ÖĤÕ¶Õ¶Õ¥ÖĢÕ«
Õ¡Õ£ Õ¡Õ¾Õ¸ÖĢ
ĠÕĦ Õ¡ÖĢÕ£
ĠÕı Õ«Õ£ÖĢÕ¡Õ¶
Õ¡Õ°Õ¡Õ¿ Õ¾Õ¡Õ®
ĠÔ¸ Õ¶Õ¤
ĠÕ¸ÖĤÖĢ Õ¡ÕŃ
Õ¡Õ¶ ÕµÕ¡Õ¶Õ«
Õ¡Õ½Õ¿ Õ«
ĠÕ´Õ¥Õ¯ Õ«
ĠÕŃÕ¶Õ¤Õ«ÖĢ Õ¶Õ¥ÖĢ
Õ¯ÖĢ Õ¡Õ«
ĠÖĨÕ¸ÖĤÕ¿Õ¢Õ¸Õ¬ Õ«Õ½Õ¿
Õ¡ÖĢ Õ¸Õ¶
Õ¬ Õ¸ÖĤÕ½Õ¡Õ¶Õ¯Õ¡ÖĢ
ĠÕĨ ÖĢÕ¡Õ¶ÖĦ
Õ¡Õ¿Õ¡ÖĢ Õ¡Õ¯
ĠÕ¨Õ¶Õ¤ Õ¡Õ´Õ¥Õ¶Õ¨
ĠÕ£ÖĢ Õ¥Õ©Õ¥
ĠÕ» ÖĢ
ĠÖĦÕ¡ÖĢ Õ¸Õ¦
ĠÕ¼Õ¡Õ¤Õ« Õ¸Õ¯Õ¡Õµ
Õ¸ÖĤÕ´ Õ«Öģ
ĠÕ® Õ¡Õ¼
Ô³ Õ¬ÕŃÕ¡Õ¾Õ¸ÖĢ
ĠÕ°Õ¡Õ¶ÖĢ Õ¡ÕµÕ«Õ¶
oo k
0 4
Õ¡Õ´ Õ¿
ĠÕ¸ÖĤÕ½ Õ¸ÖĤÖģ
Õµ Õ¥Õ¯Õ¿
Õ¸Õ² Õ¸ÖĤÕ©ÕµÕ¸ÖĤÕ¶
ĠÕ© Õ¡ÖĢÕ£Õ´Õ¡Õ¶
Õ¡Õ¦ Õ¡Õ¿
ĠÕ¯Õ¡Õº Õ¡Õ¯ÖģÕ¸ÖĤÕ©ÕµÕ¡Õ´Õ¢
ĠÕ¡Õ¶Õ± Õ¶Õ¡Õ¯Õ¡Õ¶
0 6
Õ¿ Õ¡Õ¬
Õ¡Õ¾ Õ¡ÖĦ
ĠÕ¤ Õ¡Õ¤Õ¡ÖĢ
ĠÕ«ÖĢ Õ¥Õ¶ÖĦ
a k
Õ¡Õ° Õ¡Õ¶Õ¤Õ¥Õ½
ĠÕºÕ¡ÕµÕ´Õ¡Õ¶ Õ¶Õ¥ÖĢ
Õ¥ Õ¡Õ¬
Õ« ÖĦÕ¨
ĠÕ½ ÖĢÕ¿
ĠÕ½Õ¿ Õ¸ÖĤÕ£
Õ¡Õ¶Õ¤ Õ«Õº
Õ¬ Õ«Õ´
ĠÔ± Õ¶Õ¤
ĠÕĦ Ô»
Õ¸ÖĤÕ½ Õ«
ĠÔ»Õ¶Õ¹ ÕºÕ¥Õ½
ĠÕ¡Õ¶Õ´ Õ«Õ»
ĠÕİÕ«ÖĦÕ«ÕºÕ¥Õ¤ Õ«Õ¡
Õ¡Öģ Õ¾Õ¸ÖĤÕ´
Õ¡Õ¤ÖĢ Õ¸ÖĤÕ©ÕµÕ¸ÖĤÕ¶Õ¨
ĠÕ´ Õ«Õ¿
ĠÔ± Õ²
ĠÔ± Ô³
ĠÖĦÕ¡Õ²Õ¡ÖĦÕ¡Õ¯Õ¡Õ¶ Õ¸ÖĤÕ©ÕµÕ¸ÖĤÕ¶
ĠÕ¢Õ¡Õª Õ¶Õ«
ĠÕ¶ Õ¸ÕµÕ¥Õ´Õ¢Õ¥ÖĢÕ«
ĠÕ¡Õ¼ Õ¸ÖĤÕ´Õ¸Õ¾
ĠÕ£Õ¸ÖĢÕ® Õ«Õ¹
ĠÕ°Õ¡Õ´Õ¡Õ¬Õ½ Õ¡ÖĢÕ¡Õ¶Õ«
ĠÕ¨Õ¶Õ¤Õ£ ÖĢÕ¯
Õ¡Õ¶ Õ¥ÖĢÕ¨
ÕĢ Õ¸Õ¤Õ¾Õ¡Õ®
Õ¡ÖģÕ« Õ¸Õ¶
ĠÕĶ ÖĢÕ«Õ½Õ¿
ĠÕ¥ÖĢ ÖĢÕ¸ÖĢÕ¤
ĠÕ° Õ¡Õ£
ĠÕ°Õ¡Õ´ Õ¡ÖĢÕ¾Õ¸ÖĤÕ´
ĠÔ¿ Õ¡Õ¶
ĠÕ°Õ¡Õ¶Õ¤Õ«Õº Õ¥Õ¬
ĠÕ®ÖĢÕ¡Õ£ Õ«ÖĢÕ¨
ĠÕĬÕ¥Õ¿ ÖĢÕ¸Õ½
Õ¡Õ£ ÖĢÕ¾Õ¥Õ¬
ĠÕĢÕ¡Õµ ÖĢ
Õ¡Õ£ÖĢ Õ¸Õ¾
Ô¸ Õ¶Õ¤
Õ¡Õ¾ Õ¡ÖĢÕª
Õ¸Õ² Õ«Õ¯
ĠÕ¤ Õ¥Õ²
ĠÕ¼Õ¸ÖĤÕ½ Õ¡Õ¯Õ¡Õ¶
ĠÕ¡Õ²Õ¢ ÕµÕ¸ÖĤÖĢ
0 2
ĠÕ¶Õ· Õ¸ÖĤÕ´
a il
Õ¬ Õ«
ĠÕ£ÖĢ Õ¡Õ¾
ĠÕ°Õ¡Õ¯ Õ¡Õ¼Õ¡Õ¯
Ô±ÕĦ ÕĨ
Õ¯ ÖĢÕ¿
ĠÕ¸ÖĢ Õ«Õ¶
Õ¡Õ¼ Õ¡Õ¶Õ£
Õ¡Õ¤ Õ«Õ´
Öĥ Õ¸Õ½Õ¿
ĠÔ³ Õ¥ÖĢÕ´
ĠÔ¹ ÖĢÕ¡Õ´Öĥ
Õ¸Õ¼ Õ¸ÖĤÕº
Õ¡Õ½ Õº
ĠÕ£ Õ¬ÕŃ
ĠÕ¶Õ¥ÖĢÕ¯Õ¡ÕµÕ¡Öģ Õ¾Õ¡Õ®
ĠÕ°Õ¸ÖĤÕ¶ Õ¾Õ¡ÖĢÕ«
ĠÕ¡ÕµÖģÕ¥Õ¬ Õ¥Õ¬
Ô± Ô´
Öĩ Õ¡Õ¶
Õ«Õ· Õ¯
Õ½Õ¯ Õ«
ĠÔ¼ Õ¥Õ¼Õ¶Õ¡ÕµÕ«Õ¶
Õ¸ÖĤÕ¶ Õ«
Õ¥Öģ Õ¶Õ¥Õ¶ÖĦ
ĠÕĦ Ô±Õį
ĠÔ² Õ¡Õ²
ĠÕ½Õ¿ Õ¡Õ¶Õ¡Õ¬Õ¸ÖĤ
0 3
ĠÕ¯ Õ¡Õ½Õ¯Õ¡Õ®
ĠÕ¡Õ¶Õ¾ Õ³Õ¡ÖĢ
ĠÕ«Õ·ÕŃÕ¡Õ¶ Õ¸ÖĤÕ©ÕµÕ¡Õ¶
ĠÕ¥Õ¬ Õ¸ÖĤÕµÕ©
ĠÕ° Õ«
ĠÕ° Õ¸ÖĤÕ¬Õ«Õ½Õ«
ĠÕĪ ÖĢ
ĠÕ¸ÖĤÕ²Õ² Õ¡Õ¯Õ«
ĠÕ´Õ«Õ¶Õ¹ Õ¥ÖĤ
ĠÕ¶Õ¥ÖĢ Õ¡Õ¼
0 7
ĠÕº Õ¶Õ¤
ĠÕĢ Ô±ÕĦ
ĠÕ¨Õ¶ Õ©Õ¥ÖĢÖģ
Õ½Õ¿ Õ«
ÖĢÕ¡ ÖĥÕ¡Õ¯
Õ¡Õ¯ Õ¸Õ¾
ĠÕ¾Õ¥ÖĢ Õ¡Õ¢Õ¥ÖĢÕ¸ÖĤÕ´
ĠÕ¤ÖĢ Õ¡Õ¯Õ¡Õ¶
0 8
ĠÕ¾ Õ¡ÖĢÕ±
ĠÕ¥ÖĢ Õ¡Õ¦
ĠÕ´Õ¡Õ½Õ¶ Õ¡Õ¾Õ¸ÖĢÕ¡ÕºÕ¥Õ½
ĠÕ´Õ¡ÖĢÕ´ Õ¶Õ«
ĠÕ¤Õ¥ÕºÖĦ Õ¥ÖĢÕ¸ÖĤÕ´
ĠÕ° Õ½Õ¯
ĠÕ´Õ¥Õ ¤
ĠÕ¢ Õ¬
ĠÕ«Õ¶ ÖĦ
ĠÕ¤Õ«Õ´ Õ¸ÖĤÕ´
ĠÕ¯ Õ¸Õ²
ĠÕ¶Õ¡ÕŃÕ¡ÖĢÕ¡ÖĢ Õ«
ĠÕ¤Õ¡Õ¿ Õ¡ÕºÕ¡ÖĢÕ¿
ĠÕ¡Õ¶Õ¸ÖĤÕ¶ Õ¨
ĠÕ¬ Õ¸ÖĤÕµÕ½
ĠÔ³ Õ¡Õ£Õ«Õ¯
ĠÕ¡Õ¾Õ¥Õ¬ Õ«Õ¶
Õ¡Öģ Õ¸ÖĤÖģ
ĠÕĢ Õ¸Õ¾
ĠÕ¡Õ¼ Õ¶Õ¹
ĠÕ¯ÕµÕ¡Õ¶ ÖĦÕ¨
ĠÕ¬ÖĢ Õ¡Õ¿Õ¾
ĠÕ¿Õ¡ÖĢÕ«Õ¶ Õ¥ÖĢÕ«Õ¶
ĠÕ° Õ¸ÖĤÕµÕ½
ĠÔµ Õ²
ĠÕ£Õ¸ÖĢÕ® Õ¥ÖĢÕ«
Õ«Õ» Õ¡Õ¦Õ£Õ¡ÕµÕ«Õ¶
ÔµÕĲ Ô»
ĠÕºÕ¡ÕµÖĦ Õ¡ÖĢ
ĠÕ£ Õ¶Õ¤
ĠÔ¸ Õ½Õ¿
ÖĤ Õ´
ĠÕ° Õ«Õ¶
ĠÕ°Õ«Õ´ Õ¡Õ¶
ĠÕ°Õ¡Õ¶Õ¤ Õ¥Õº
ĠÖĦÕ¡Õ²Õ¡ÖĦÕ¡Õ¯Õ¡Õ¶ Õ¸ÖĤÕ©ÕµÕ¡Õ¶
Õ¸Õ¼Õ¸ÖĤÕº Öģ
Õ¡ÖĢ Õ¡Õ¯Õ¡Õ¶
Õ¡Õ¾Õ¸Õ¿ ÕµÕ¡Õ¶
Õ¸ÖĢÕ¤ Õ«
ch at
ÕĨÕ¸ÖĢ Õ¸ÖĤÕ©ÕµÕ¸ÖĤÕ¶Õ¶Õ¥ÖĢ
ĠÕĢ Ô±ÕĨ
ĠÕ´Õ« Õ¡Õ¯
Õ¸ÖĤÖģ Õ¥
Õı Õ¥Õ²
ĠÖħÖĢ Õ¥ÖĢÕ«Õ¶
ĠÕ° Õ¡ÖĢÕ±Õ¡Õ¯
Õ¸Õ² Õ¶Õ¥ÖĢ
Õº Õ«Õ¸Õ¶
ĠÕĮ Õ¸Õ¢Õ¥ÖĢÕ¿
ĠÕ°Õ¥Õ² Õ¡ÖĥÕ¸ÕŃ
ĠÕ¢Õ¸Õ² Õ¸
Õ° Õ¡Õ¶ÖĢ
ĠÕ®Õ¶ Õ¶Õ¤
ĠÔ±Õ½Õ¿ Õ®
ĠÕ¡Õ¼ Õ¡ÖĢÕ¯
Ôµ Õ¾
Ô» Õ½Õ¯
ÕĪÕĴ ÕĲ
ĠÕĪ ÕĴ
ĠÔ±Õ· Õ¸Õ¿
Õ¡Õ° Õ¸Õ£
Ô´ Õ¸ÖĤÖĦ
Ġ201 3
ĠÕ°Õ¡Õ·Õ¾ Õ¥Õ¿
ĠÕ°Õ¸ÖĤÕ¶ Õ«Õ½Õ«
i m
o t
ÖĢÕ °
Ô± Ôº
Ô² Ô¸
ĠÕ°Õ² Õ¸ÖĤÕ´Õ¨
ĠÖĦÕ¾Õ¥ Õ¡ÖĢÕ¯
ĠÕ½ Õ¥Õ²
ĠÕĦ ÕŃÕ«Õ©
Õ¸ÖĤÕ½ Õ¡Öĥ
ĠÕ¸Õ¹ Õ«Õ¶Õ¹
Õ¿ Õ«
Õ¡Öģ Õ¥ÖĦ
ĠÕ¸ÖĤÕª Õ¥ÖĢÕ«
ĠÕºÕ¡ÖĢÕ¦ Õ¡ÕºÕ¥Õ½
ĠÕ¡Õ¶Õ¤ÖĢ Õ¡Õ¤Õ¡ÖĢÕ±
Õ¡Õ¾ Õ¥ÖĢ
Ġ19 8
ĠÕ§Õ¬Õ¥Õ¯ Õ¿ÖĢÕ¸Õ¶Õ¡ÕµÕ«Õ¶
Öĩ Õ¸ÖĢÕ£
ĠÕ°Õ¡Õ²Õ¸ÖĢÕ¤ Õ¸ÖĤÕ´
ĠÔµÕ¾ÖĢÕ¸Õº Õ¡ÕµÕ«
Õ¡Õ£ ÖĢÕ¾Õ¡Õ®
ÕĪ ÖĢ
ĠÕ¯Õ¡ÖĢÕ¸Õ² Õ¡Õ¶Õ¸ÖĤÕ´
e m
ĠÕ± Õ¥ÖĤ
Ô¸ Õ½Õ¿
Õ¡Õ¯Õ¡Õ¬ Õ¸ÖĤÕ©ÕµÕ¸ÖĤÕ¶
ĠÕįÕ¿ Õ¥Öĥ
Õ© Õ©
Ġ5 0
ĠÕ®ÖĢÕ¡Õ£ÖĢ Õ¥ÖĢÕ«
ĠÕ¢Õ¡Õ¾ Õ¡ÖĢÕ¡ÖĢ
ĠÖģÕ¥Õ²Õ¡Õ½ ÕºÕ¡Õ¶Õ¸ÖĤÕ©ÕµÕ¡Õ¶
ĠÕ¤Õ«Õ¾ Õ¡Õ¶
ĠÕ° Õ«Õ¶Õ£
ĠÕ· Õ¸ÖĤÕ¿
ĠÕºÕ¡Õ¿ Õ¯
ĠÕ¤Õ«Õ´ Õ¡Öģ
Õ¡Õ¾Õ¸ÖĢÕ¾ Õ¥Õ¬
ĠÕ¦Õ¢ Õ¸Õ½
ĠÕ©Õ«Õ¾ Õ¨
Ô¿ Õ¡ÖĢ
Õ° Õ¡ÕµÕ¿
ĠÕ£Õ¸ÖĢÕ® Õ«ÖĦ
Õ¡Õ¶Öģ Õ«
ĠÕ¼Õ¥Õª Õ«Õ´
Õ¥ ÖĨ
ĠÕ° Õ¡ÖĢÕ½
ĠÕ¦ Õ¥Õ¯
Õ¥Õ¼ Õ¶Õ¥Õ¬
Õ¥ÖĤ Õ§
Õ¡Õ¤ ÖĢÕ¾
Õ¾Õ¥Õ¬ Õ«
Ġ201 2
Õ«Õ¶ Õ¥ÖĢÕ¨
Õ¸ÖĢ Õ¸ÖĤÕ´
ĠÕ¡Õ¼ Õ»
Õ¥ÖĢÕ¶ Õ¥Õ¿
Õ¡Õ· Õ¾
ĠÕ´Õ¡Õ½Õ¶ Õ¡Õ£Õ«Õ¿Õ¡Õ¯Õ¡Õ¶
ĠÕ° Õ¡ÖĢÕ£
ĠÕ© Õ¥ÖĢ
Ô² Õ¸Õ¬Õ¸ÖĢ
ĠÕŃÕ¶Õ¤ Õ«ÖĢÕ¨
i de
ĠÕ¤ Õ¡ÖĢ
Õ¡Õ¼Õ¶ Õ¡
ĠÕ°Õ¡Õ²Õ© Õ¡Õ¶Õ¡Õ¯
Õ¡Õ¾ Õ¡ÖĢÕ±
ÖĢÕ¡Õ° Õ¡Õ´
Ô±ÕįÕı Ô±ÕĨÔ»
Õ¶ Öģ
Õ¡Õ´ Õµ
Õ¡Õ¾ Õ«Õ³
ÕĢ Õ«Õ·
ĠÕŃ Õ¡Õ¹
ÕĪÕĴ Õħ
ĠÕ© Õ¡Õ²
Õ«Õ¯ Õ¶
ĠÕ¯Õ¡Õ¦Õ´Õ¡Õ¯Õ¥ÖĢÕº Õ¸ÖĤÕ©ÕµÕ¸ÖĤÕ¶Õ¶Õ¥ÖĢÕ«
ĠÕ° Õ¸Õ½
ĠÕ´ Õ¡ÖĦ
ĠÕ© Õ©
Ġ2 9
ĠÕªÕ¡Õ´Õ¡Õ¶Õ¡Õ¯ Õ¡Õ°Õ¡Õ¿Õ¾Õ¡Õ®
Ôº Õ¸Õ²Õ¸Õ¾
ip edia
Õ¡Õ¾ Õ¡Õ¼
Õ¸ÖĤÕ¬ Õ«Õ½
ĠÕ·ÖĢÕ» Õ¡Õ¶Õ«
ĠÕŃÕ¸ÖĢÕ°ÖĢÕ¤ Õ¡ÖĢÕ¡Õ¶Õ¡Õ¯Õ¡Õ¶
ĠÕ¸ÖĤÕ¶Õ¥Õ¶ Õ¸ÖĤÕ´
ĠÕŃÕ¶Õ¤Õ«ÖĢ Õ¶Õ¥ÖĢÕ«
ĠÕ° Õ¥Õ·Õ¿
Õº Õ¡ÖĢÕ¿
ĠÕ¡Õ¼ Õ«Õ©
Õ° Õ¡Õ´
Õ¡Õª Õ¡Õ¶
ÖĢÕ¡Õ£ Õ¸ÖĤÕµÕ¶
ĠÕ¸ÖĤÕ½ Õ¸ÖĤÕ´Õ¶Õ¡Õ¯Õ¡Õ¶
ĠÕ¡Õ¼Öĩ Õ¿ÖĢ
ÖĢ Õ¡Õ¶Õ«Öģ
ĠÕ¢ Õ¥ÖĢÕ¾
ĠÕĬ Õ¸ÖĤÕ¿
ĠÔ¿ Õ¡Õ¼
ĠÕºÕ¡Õ¿Õ´ Õ¸ÖĤÕ©ÕµÕ¸ÖĤÕ¶Õ¨
Õ¥Öĥ Õ¸ÕŃ
ĠÕºÕ¡Õ¿Õ¥ÖĢÕ¡Õ¦Õ´ Õ«
ĠÕ¯Õ¡Õ¶Õ£ Õ¶
ÕµÕ¸ÖĤÕ½Õ«Õ½ Õ¡ÕµÕ«Õ¶
ĠÕ© Õ¡Õ¶Õ£
ĠÕĦ Õ¡ÖĢÕ¤
Õ¸Õ½ ÕµÕ¡Õ¶Õ¨
ĠÕ¡Õ·ÕŃÕ¡Õ¿Õ¡Õ¶ÖĦ Õ¶Õ¥ÖĢÕ«
Ô±ÕĢ Ô¿
Õ¡Õ¶ Õ¸ÖĤÕ¶
Õ¡Õ¶ Õ¥Õ¯Õ¡Õ¶
Ô± ÖĢÕ¤
Õ¡Õ· Õ¡ÖĢ
Õ¡Õ£ÖĢ Õ¸ÖĤÕ©ÕµÕ¸ÖĤÕ¶Õ¨
Õ¡ÕªÕ¸Õ²Õ¸Õ¾ Õ«
ĠÕ´Õ¡ÕµÖĢ Õ¡ÖĦÕ¡Õ²Õ¡ÖĦ
wik ipedia
ĠÕ°Õ¡Õ¶ Õ±
ĠÕ¸ÖĤÕ² Õ¡ÖĢÕ¯
Õ¡Õ¾Õ¸ÖĢÕ ¨
Öĩ Õ¸Õ¶
ĠÕ¡ÕµÕ¬ Öĩ
ĠÕ³ Õ·
ĠÕŃÕ¡Õ² Õ¸ÖĤÕ´
) .
ĠÕ´ Õ¸Õ¤
Õ¸Õ¾ Õ¡Õ¶
ĠÕ¢ Õ¡ÕŃ
Ð¾ Ð
ĠÕ¯ ÖĢÕ¸ÖĤÕ´
ĠÔ¼ ÕĤ
ĠÕ¯Õ¸ÖĤÕ¶Õ¥Õ¶ Õ¡
2 6
ĠÕ°Õ¡Õµ Õ¥ÖĢÕ¥Õ¶
i v
ĠÕı Õ¥ÖĢ
ĠÕ°Õ¡Õ´Õ¡ÕµÕ¶ ÖĦ
Ô±ÕĬ ÔµÕı
ĠÕ¶Õ¥ÖĢÕ£ ÖĢÕ¡Õ¾
ĠÕ° Õ¡ÖĢÕ©
ĠÕ¢ Õ¡ÖģÕ«
ĠÕ¶Õ¥ÖĢÕ¯Õ¡ÕµÕ¡Öģ Õ¶Õ¥Õ¬
ĠÕ¿Õ¥Õ²Õ¥Õ¯ Õ¡ÖģÕ¶Õ¸ÖĤÕ´
ĠÕĦÕ¸Õ½Õ¯ Õ¾
Õ¤ Õ¡Õ´
ĠÕº Õ¡Õ¯
ÖħÖĢ Õ«Õ¶Õ¡Õ¯
ĠÕ¸ÖĢÕ¸Õ· Õ¸ÖĤÕ´Õ¨
ĠÕ°Õ¡Õ¶Õ¤Õ«Õº Õ´Õ¡Õ¶
ĠÕ¿ÖĢÕ¡Õ¶Õ½ ÕºÕ¸ÖĢÕ¿
ĠÕ¯ Õ¯
Õ¡Õ¬ Õ¤
ĠÕ¡Õ¶ Õ¨Õ¶Õ¤
ĠÕ¥ÖĢÕ¯ Õ«ÖĢ
ĠÕ° ÕµÕ¸ÖĤÖĢ
Õ¡Õ´ ÕµÕ¡Õ¯
Ôµ ÕĤ
ĠÕ´Õ«Õ» Õ«Õ¶
ĠÕ¸ÖĢÕ¸Õ· Õ´Õ¡Õ¶
Ô±Õµ Õ¶
ĠÖĥ Õ¥Õ¿ÖĢÕ¾Õ¡ÖĢÕ«
Õ¸ÖĤÕ¶ Õ¥ÖĢÕ«
ĠÔ± ÖĢÕ´
Öĩ Õ«
Õ¡Õ± Õ£
ĠÕ°Õ¡ÕµÕ¿Õ¶ Õ¾Õ¥Õ¬
Õ´Õ¿ ÕµÕ¡Õ¶
Õ¡Õ¤Õ¡Õ¿ Õ¸ÖĤÕ©ÕµÕ¡Õ¶
ĠÕ¿ Õ¥ÖĦÕ½Õ¿
Õ¡Õ¢ Õ©Õ«
Õ¦ Õ¸ÖĢ
ĠÕ¶Õ· Õ¡Õ¶
ĠÕŃÕ¶Õ¤Õ«ÖĢ Õ¶Õ¥ÖĢÕ¨
ĠÕ¶ Õ¸ÖĢÕ´
Õ¸ÖĢ Õ¸Õ£
ĠÕ¥ Õ¾ÖĢÕ¸ÕºÕ¡Õ¯Õ¡Õ¶
Õ¥Õ² Õ¥ÖģÕ«Õ¶
ĠÕ¢Õ¡ÖĢÕ¥Õ¯ Õ¡Õ´
ĠÕ¢ Õ¡ÖĢÕ¤
ĠÕ· Õ¸ÖĤÕ¯
ÕĨ Õ·
ĠÕĢÕ¡Õµ Õ¯
ĠÕ½Õ¯Õ¦Õ¢ Õ¸ÖĤÕ¶ÖĦ
ĠÕ°ÖĢ Õ¡Õ¾Õ«ÖĢ
ĠÕ¤Õ¡ÖĢÕ± Õ¡Õ¾
Õ¡Õ¶ Õ¡ÕºÕ¡ÖĢÕ°
Öģ Õ¡Õ¶Öģ
ĠÕ¿ Õ¸ÖĤÕª
ÕĢ Ô¿
ĠÕ°Õ¡ÕµÕ¿Õ¶ Õ¡Õ¢Õ¥ÖĢÕ¾
Ġ Â©
ĠÕ¸ÖĢ Õ«Öģ
ĠÕ°Õ¡Õ´ Õ¥Õ´Õ¡Õ¿
ĠÕ¯Õ¡Õµ ÖĦÕ¨
ĠÕ´Õ¡ÖĢÕ´Õ«Õ¶ Õ¶Õ¥ÖĢÕ«
Õ¡ÖĢÕ¡ÖĢ Õ¡Õ¯Õ¡Õ¶
ĠÕ¯Õ¡Õ¼Õ¡Õ¾Õ¡ÖĢ Õ¸ÖĤÕ©ÕµÕ¸ÖĤÕ¶Õ¨
. ÕĿ
Õ¶ Õ¸ÖĤÕµÕ¶
ĠÕ´Õ¡ÖĢÕ¦ ÕºÕ¥Õ¿
ĠÕ©Õ¥Õ´ Õ¡ÕµÕ¸Õ¾
ĠÕ¯ Õ¡ÖĢÕ³
ĠÕ¡Õº ÖĢÕ¥Õ¬
ĠÕ´Õ«Õ»Õ¸Öģ Õ¶Õ¥ÖĢÕ«
ĠÕºÖĢ Õ¸ÖĨ
ĠÔ±Õ¾ Õ¥Õ¿
ĠÕ°Õ«Õ´Õ¶Õ¡Õ¤ÖĢÕ¡Õ´ Õ«
Õ¥ÖĢ Õ¥Õ¯
Õ¡ÖĢÕ Ń
ĠÕ¡Õ¶Öģ Õ¥Õ¬
Õ«Õ¯ Õ«Õ¶
Õ¡Õª Õ¡Õ´Õ¡Õ¶Õ¡Õ¯
ĠÖĥÕ¸ÕŃ Õ¡ÖĢÕ¥Õ¶
ĠÕ£Õ¥Õ²Õ¥Öģ Õ«Õ¯
ĠÕĦ Ô±Ô¿
ĠÕºÕ¡Õ¿ Õª
ĠÔ³ ÖĩÕ¸ÖĢÕ£
Õ¡ÕºÕ¥Õ¿ Õ¡Õ¯Õ¡Õ¶
ĠÕĬ Õ¡Õ·Õ¿
ĠÕ¨Õ¶Õ¿Õ¡Õ¶Õ« ÖĦÕ«
ĠÕ¿Õ¥Õ½Õ¡Õ¯ Õ¥Õ¿
h at
ÕĢ Õ¡Õ¶ÖĢ
ĠÕºÕ¡Õ¿ Õ¡Õ°
ĠÕ´Õ¡Õ½Õ¶ Õ¡Õ£Õ«Õ¿
ĠÕ¢Õ¡ÖĢ Õ¥ÖĥÕ¸ÕŃ
. )
ĠÕ´Õ¡Õ½ Õ«
ĠÕ¯Õ¡Õµ ÖĦ
201 6
ĠÕ°ÖĢÕ¡ÕºÕ¡ÖĢÕ¡Õ¯ Õ¥Õ¬
ĠÕ¡Õ½Õ¿ Õ²
ĠÕ¡Õ° Õ¡Õ¢Õ¥Õ¯
ĠÕĤÕ¡ÖĢÕ¡Õ¢Õ¡Õ² Õ«
u t
Õ¥Õ¶ Õ¸ÖĤÕ´
ĠÕ°Õ¸Õ£ Õ¥Õ¢
ĠÕ°Õ¡ÖĢÖģ Õ¡Õ¦ÖĢÕ¸ÖĤÕµÖģ
ĠÕ» Õ¡Õ¶ÖĦ
ĠÕ¸ÖĤÕª Õ¥Õ²
ĠÕ¡ÖĢÕ¤Õµ Õ¸ÖĦ
ĠÔ±Õ¢ ÖĢÕ¡Õ°Õ¡Õ´
Õ¶Õ¡ÕŃ Õ¡ÖĢÕ¡ÖĢ
ĠÔ± Õ©
Õº Õ¡Õ¶Õ«
Õ¡Õ¤ ÖĢÕ´Õ¡Õ¶
ĠÕ£Õ¸ÖĢÕ® Õ¡ÖĢÕ¡ÖĢ
ÖĢÕ½ Õ¥Õ¶
ĠÕ¡ÕµÕ½ ÕºÕ¥Õ½
Õ¡Õ¶Õ¤ ÖĢ
ĠÕ¡ÖĢÕ¿ Õ¡Õ°Õ¥ÖĢÕ©
Õ¨Õ¶ Õ¯
ĠÕŃÕ¸Õ½ ÖĦ
ĠÕ¯Õ¡ÖĢÕ£ Õ¡Õ¾Õ¸ÖĢÕ´Õ¡Õ¶
ĠÕİÖĢÕ¡Õ½Õ¿ Õ¡Õ¶Õ«
ĠÖĢÕ¸Õº Õ¥
c t
Õ¸ÖĤ ÖĢÕ¨
ĠÕ¯ Õ¢
ĠÕ½ Õ¥Õ¶Õµ
ÕĦ Õ¸ÖĤÕ¿ÖĦ
ĠÔ½ Õ¡Õ²
ĠÕ°Õ¡Õ·Õ¾ Õ¡ÖĢÕ¯
ĠÕ°Õ«Õ´Õ¶Õ¡Õ¯Õ¡Õ¶ Õ¸ÖĤÕ´
ĠÖħÖĢÕ¥Õ¶Õ½Õ£ÖĢ ÖĦÕ«
Õ¸Õ ³
ĠÕ¥Õ² Õ¡Õ¶Õ¡Õ¯
ĠÕ¦Õ«Õ¶ Õ¾Õ¡Õ®
ĠÕ¯ÖĢÕ© Õ¡Õ¯Õ¡Õ¶
ww w
ĠÕ© Õ¡Õ¶Õ¯
ĠÕ¡Õ¼ Õ¶
ĠÕ´Õ¥Õ ©
ĠÕĦÕ¡Õ¶ Õ¸ÖĤÕ¯
ĠÖĦÕ¡Õ²Õ¡ÖĦÕ¡ÖģÕ«Õ¶ Õ¥ÖĢÕ«
i g
o f
Ô±Õµ Õ¤
ĠÕ¯Õ¶ ÖĦ
Õ¡Öģ ÖĢÕ¥Öģ
Õ¡Õº Õ¡Õ·Õ¿
Õ¡ÖĢÕ¿ Õ¡ÖĢ
ĠÕ¡Õ´ ÖĥÕ¸Öĥ
ĠÕ°Õ¡ÖĢÖģ Õ«Õ¶
ĠÕĤ Õ¡Õ¦
ĠÕ£Õ¿ Õ¶Õ¥Õ¬
Õ© Õ¶
ĠÕ´Õ¡Õ½ Õ¸Õ¾
ĠÕ³ Õ¡Õ¯Õ¡Õ¿
ĠÕ¸ÖĤÕª Õ«
Õ¡Õ¶ Õ¡Õ¾
ĠÕ« Õ´Õ¡Õ¶
ĠÔ± ÕĨ
Õ¥Öģ ÖĢÕ¥Õ¬
Ôµ ÖĢÕ¢
ĠÕ¶Õ¡ÕŃ Õ¨Õ¶
Õ¡ÕºÕ¡Õ° Õ¸ÖĤÕ©ÕµÕ¡Õ¶
ĠÕ´ Õ¡ÖĦÕ½
Õ¡Öģ Õ¡Õ¯Õ¡Õ¶
ĠÕį ÕĬ
ĠÕ´Õ¡Õ½Õ¶Õ¡Õ¯Öģ Õ¥Õ¬Õ¸ÖĤ
% -
Õ¡Õ½ Öģ
ÂŃ ÂŃ
ĠÕ¬ÖĢ Õ¡Öģ
ĠÕ°Õ¡Õ½Öģ Õ¥
ĠÕ½ Õ¡ÖĢÖĦ
ĠÔ³ Õ«Õ¿
Õį ÕĢ
ĠÕ½Õº Õ¸ÖĢÕ¿
ĠÕ§Õ» Õ¸ÖĤÕ´
ĠÕ£ÕµÕ¸ÖĤÕ² Õ¡Õ¿Õ¶Õ¿Õ¥Õ½
ĠÕ´Õ¥Õ¯Õ¶ Õ¡ÖĢÕ¯
ĠÕ¯ÖĢ Õ¡Õ¯
ĠÕ¬ÖĢÕ¡Õ£ÖĢ Õ¸Õ²Õ¶Õ¥ÖĢÕ«
ĠÕ£ÖĢÕ¡Õ½ Õ¥Õ¶Õµ
ĠÕ´Õ¥Õ© Õ¸Õ¤
ĠÕ¶ Õ¡Õ°Õ¡Õ¶Õ£
ĠÖĥ Õ¸Õ½Õ¿
ĠÕ¿Õ¥Õ² Õ¡Õ¯Õ¡Õ¶
Ġ201 1
ĠÖĦÕ¶Õ¶ Õ¡ÖĢÕ¯Õ¥Õ¬
at ion
ĠÕİÕ¡ÖĢÕ¤ Õ¡Õ¶
ĠÕ° Õ¶
ĠÕ¯ Õ½Õ¿
Ô± Õ¾
ĠÖĦ Õ¡Õ·
ĠÕ°ÖĢ Õ¡Õ¿Õ¡ÖĢÕ¡Õ¯
ĠÕŃÕ´Õ¢ Õ¡Õ¯ÖģÕ¸ÖĤÕ©ÕµÕ¡Õ¶
ĠÕ¦Õ«Õ¶Õ¾Õ¸ÖĢ Õ¡Õ¯Õ¡Õ¶
ÕŃ Õ¸Õ½
Ô´ Õ«Õ¿
ĠÕºÕ¡Õ¿Õ´ Õ¡Õ¯Õ¡Õ¶
ĠÕ°Õ¡Õ¶Õ¤Õ«Õº Õ¸ÖĤÕ´Õ¨
ĠÕ¿Õ¡ÖĢÕ«Õ¶ Õ¥ÖĢÕ«
ide o
ĠÕ¸ Õ£
ÕĦ Õ¡ÖĢÕ¤
ĠÕ°Õ¡Õ½ Õ¡Õ¶Õ¥Õ¬Õ«
ĠÕ´Õ¡Õ½Õ¶Õ¡Õ¯Öģ Õ¸ÖĤÕ´
Õ¸Õ¶ Õ¸ÖĤÕ´
ĠÕ¬ Õ¸ÖĤÖĢÕ¥ÖĢ
ĠÕ´Õ¡ÖĢÕ¦ Õ¸ÖĤÕ´
ĠÖģÕ¸ÖĤÖģ Õ¡Õ¶Õ«Õ·
ĠÕ°Õ¡ÖĢÕ¡Õ¢Õ¥ÖĢ Õ¸ÖĤÕ©ÕµÕ¸ÖĤÕ¶Õ¶Õ¥ÖĢÕ¨
Õ«Õ¿ Õ¡Õ¬
ĠÕ½Õ¿ Õ¡Õ¶Õ¸ÖĤÕ´
ĠÔ³ÕµÕ¸ÖĤÕ´ ÖĢÕ«
ĠÕºÕ¡Õ¯ Õ¡Õ½
Ġ m
Õ¥Õ¬ Õ«Õ½
ĠÕ¡Õ¶ Õ£Õ¬
ĠÕ¯Õ¡ÖĢ Õ¥ÖĤÕ¸ÖĢ
ĠÕ°Õ¡Õ· Õ«Õ¾
Ġ s
ĠÕ¸ Õ½Õ¯
Õ¸Õ² Õ¸ÖĤÕ©ÕµÕ¸ÖĤÕ¶Õ¨
ĠÕ®ÖĢÕ¡Õ£ÖĢ Õ¥ÖĢ
ĠÕ£Õ¡Õ² Õ¿Õ¶Õ«
ĠÕ¡ÖĢÕ¿Õ¡Õ½Õ¡Õ¶ Õ¸ÖĤÕ©ÕµÕ¸ÖĤÕ¶
ĠÕ¸ Õ¿
ĠÕ«ÖĢ Õ¡ÖĢ
ĠÕı Õ¥Õ²
ĠÔ¾ Õ¡Õ¼Õ¸ÖĤÕ¯
ĠÕ´Õ¿ Õ¡Õ°Õ¸Õ£
ĠÕ®Õ¡Õ¼Õ¡Õµ Õ¸ÖĤÕ©ÕµÕ¸ÖĤÕ¶Õ¶Õ¥ÖĢÕ«
eb ook
Õ¯ÖĢÕ¡Õ« Õ¶
Ġ .
ĠÕ´ Õ¶Õ¸ÖĤÕ´
ĠÕĦ Õ¯ÖĢÕ¿
ĠÖĥ Õ¡Õ¼Õ¡Õ¿
ÕĪÕ į
ĠÕ¡Õ½ Õ¡Õ®
ĠÕ¨Õ¶Õ¯Õ¥ÖĢ Õ¸ÖĤÕ©ÕµÕ¸ÖĤÕ¶Õ¨
ÖĢÕ ®
ĠÖĥ Õ¡ÕŃ
ĠÕ¡Õ·ÕŃÕ¡Õ¿ Õ¡Õ¾Õ¡ÖĢÕ±
ĠÕĦ Õ¡ÖĢ
ĠÕ£Õ«Õ¿ Õ¡Õ¯Õ¡Õ¶
ĠÕ°Õ¡Õ½Õ¯ Õ¡Õ¶Õ¸ÖĤÕ´
Õ¶ Õ»
Õ¡Õ¯ Õ¶
Ô± ÖĢÖģÕ¡ÕŃ
Õ¡Õ¬ Õ«Öģ
ĠÔ² Õ¡ÖĦ
ĠÔ²ÖĢ Õ«Õ¿
ĠÕ¯Õ¡Õ¦Õ´ Õ¥Õ¬
ĠÖħÕ£Õ¿Õ¡Õ£Õ¸ÖĢÕ® Õ´Õ¡Õ¶
ĠÕ£Õ¸ÖĢÕ®Õ¸Õ² Õ¸ÖĤÕ©ÕµÕ¸ÖĤÕ¶Õ¶Õ¥ÖĢÕ«
ĠÕ° Õ¡ÖĢÕ¾Õ¡Õ®
Õ¥Õ¯ Öģ
Ô» Ô¿
ĠÕ½Õº Õ¡Õ¼
ĠÕ¤Õ¥ÖĢ Õ¡Õ½Õ¡Õ¶
ĠÕĦÔ±Õį Ô»ÕĨ
ĠÕ¯ Õ¿ÖĢ
Õ¡Õ¾ Õ¡ÕµÕ«Õ¶
ĠÕĦ Ôµ
Ô» ÖĢ
ĠÕºÕ¡ÕµÖĦ Õ¡ÖĢÕ«
Õ¸ÖĤ Õ«
ĠÕº Õ¡ÖĢÕ£
Ô±Õ Ķ
ĠÕ¾Õ¥ÖĢ Õ¡Õ®
ac ebook
Ġ Õ¡Õ¯Öģ
Ġ in
Öģ Õ¶Õ¥Õ¬
Ô±Õ ĩ
ĠÕºÕ¡Õ¿ Õ¡Õ½ÕŃ
ĠÕ¯Õ¡Õµ Õ¸ÖĤÕ¶
ĠÕ¯Õ¡ÖĢÕ£ Õ¡Õ¾Õ«Õ³
ÕµÕ¸ÖĤ ÖĢÕ¡Õ¶
ĠÕ°Õ¡Õµ Õ¸Öģ
Ô¹ Õ¸ÖĤÖĢÖĦÕ«
ĠÕ¡Õ·ÕŃÕ¡Õ¿Õ¡Õ¶ÖĦ Õ¨
ĠÕ¹Õ¸ÖĤÕ¶ Õ¥Õ¶
ĠÕ·ÖĢÕ»Õ¡Õ¶Õ¡Õ¯ Õ¸ÖĤÕ´
Õ¬Õ¸ÖĤÕ½Õ¡Õ¶Õ¯Õ¡ÖĢ Õ¶Õ¥ÖĢ
Õ¡Õ£ Õ®
ĠÕ® Õ¡Õ²
ĠÕĩ Õ¡Õ¿
ĠÕ¶Õ¾ Õ«ÖĢ
ÔµÖĢÖĩ Õ¡Õ¶Õ«
ĠÕ¶Õ¥ÖĢÖĦ Õ¸
ĠÕ¢ ÖĢ
Â° ,
ÕĢÕ¡ÖĢ Öģ
2 7
2 8
2 9
ĠÕ¯ Õ«Õ¶Õ¨
ĠÕ« Õ°Õ¡ÖĢÕ¯Õ¥
ĠÕı Õ¥Õ½
ĠÕŃÕ¡Õ² Õ«
ĠÕ£Õ¶ Õ¡Õ¬
ĠÕ¢Õª Õ«Õ·Õ¯
Õ¸ÖĤÕµ ÖĢ
ĠÕ¦ ÖĢÕ¸ÖĤÖģ
ĠÕ¨Õ¶Õ¤ Õ¬Õ¡ÕµÕ¶
ĠÔ¹ Õ¥ÖĢÕ©
ĠÔ· Õ¬
Õ¥ ÖĦÕ«
Õ¡Õ· Õ¡ÖĢÕª
ĠÕŃÕ¡Õ² Õ¨
ĠÖĦÕ¶Õ¶ Õ¡ÖĢÕ¯Õ¸ÖĤÕ´
ĠÕ°Õ¡ÖĢÕ¯ Õ¡ÕµÕ«Õ¶
Õ¢ Õ¥ÖĢ
ĠÕŃ Õ´
ĠÕ¡Õ¼ Õ¡ÖĦÕ¥Õ¬
ĠÕªÕ¡Õ´Õ¡Õ¶Õ¡Õ¯ Õ¡Õ¯Õ«Öģ
ĠÕ¯Õ¡Õ¿ Õ¡ÖĢÕ¾Õ¡Õ®
ÕĢÕ¥Õ¿ Õ¡Õ¤Õ¡ÖĢÕ±
ĠÕ¢Õ¡Õ¾Õ¡Õ¯Õ¡Õ¶ Õ«Õ¶
ĠÕ´ Õ¥ÖĢÕª
Õ¸Õ½ Õ¨
Õ¡Õ£ÖĢ Õ¸ÖĤÕ´
ĠÕºÕ¡Õ¿ÖĢÕ¡Õ½Õ¿ Õ¾Õ¸ÖĤÕ´
es s
ĠÕ¡ÖĢÕ±Õ¡Õ£ Õ¡Õ¶ÖĦ
Õ¡ÖĢ Õ¡Õ®
Õ¡Õ° Õ¡Õ½
Õ«ÖĢ Õ¡Õ¯Õ«
ĠÕį Õº
ĠÕ¿Õ¥Õ½ Õ¡Õ¯Õ«
ĠÖħÕ£Õ¿Õ¡Õ£Õ¸ÖĢÕ® Õ¥Õ¬
ĠÕ°Õ² Õ¸ÖĤÕ´
Õ¼Õ¹ Õ¡Õ¯
4 5
ĠÕ¡Õµ Õ£
Õ¥Õ² Õ«Õ¶Õ¡Õ¯
Õ¾Õ¥Õ¬ Õ¸Õ¾
ĠÕ¯Õ¡Õµ ÖĦÕ«
in e
ÕºÕ«Õ½ Õ«Õ¶
ĠÕ¾Õ¥ÖĢÕ¡Õ¯Õ¡Õ¶ Õ£Õ¶
ĠÕ£Õ¡Õ²Õ¡Öĥ Õ¡ÖĢ
ĠÕ¯Õ¡ÕŃ Õ¾Õ¡Õ®
i an
Õ¡Õ¯ Õ¶Õ¥ÖĢ
Õ¡ÖĢÕ´ Õ«ÖĢ
ĠâĢ ¦
ĠÕ¶Õ¡ÕŃÕ¡Õ£Õ® Õ«
ĠÕ°Õ¥Õ¿Õ¥ÖĤ ÕµÕ¡Õ¬
ĠÕĢÔ±ÕĨ ÕĲ
ĠÕ° Õ¡ÖĢÕ´Õ¡ÖĢ
Õı Õº
ĠÔ» ÖĢÕ¡Õ¶
ĠÕ¿Õ¥Õ²Õ¥Õ¯ Õ¡Õ¿Õ¾Õ¡Õ¯Õ¡Õ¶
ĠÕ¯Õ¡ÖĢÕ®Õ«ÖĦ Õ¸Õ¾
Õ¥Õ½ Õ«
ĠÕ¡Õ¶Õ± Õ«Õ¶ÖĦ
ĠÕ¿Õ¡Õ¬ Õ¸ÖĤ
ĠÕ¤Õ¥Õ¼ ÖĩÕ½
Õ¡ÖĢ Õ¥Õ¯
ĠÕ°Õ¡Õ´ Õ¥ÖĢÕ£
ĠÕ´Õ«Õ» Õ¶Õ¸ÖĢÕ¤
ĠÔ´ Õ¡Õ·Õ¶
ĠÕ¯Õ¡Õº Õ¥ÖĢÕ«
ĠÕ¤ÖĢ Õ¡Õ¶Õ«Öģ
ĠÕ´Õ¡Õ° Õ¡ÖģÕ¥Õ¬
Ġ â
Õ¶ Õ±
ĠÕ¸ÖĢÕ¸Õ· Õ¥Õ¬
ĠÕ¡Õ¯ Õ¡Õ¤Õ¥Õ´
ĠÔ±Õ¼ Õ¡Õ»Õ«Õ¶
Õ¥ÖĢÕ¢ Õ¸ÖĤÖĢÕ£
] :
ĠÕ¸ÖĢ Õ¥ÖĤÕ§
ĠÕŃ Õ«Õ½Õ¿
ĠÕ¡Õ·ÕŃÕ¡Õ¿Õ¡Õ¶ÖĦ Õ¶Õ¥ÖĢÕ¨
ĠÖħÖĢÕ¥Õ¶Õ½Õ¤ ÖĢ
Õ¯ Õ¡Õ´
ÖĢÕ¤ Õ¸Õ²
ĠÕİ Õ¡Õ°
ĠÕ°Õ¥ÖĢÕ© Õ«Õ¶
ÔºÕ¸Õ²Õ¸Õ¾ Õ¸ÖĤÖĢÕ¤
ĠÕ°Õ¡Õ¾ Õ¡Õ½Õ¡ÖĢ
ĠÕ¸Õ¬Õ¸ÖĢÕ¿ Õ«
] Öī
Ġ f
Õ¬ Õ¡Õ¤Õ«Õ´
Õ«Õ¯ Õ¶Õ¥ÖĢÕ¨
ĠÕ¦ Õ¡ÖĢÕ´
Õ» Õ»
Õ§ Õ»
Õ¡ÖĢÕµ Õ¸ÖĤÖĢ
ĠÕ¥Õ¯ Õ¡Õ´Õ¸ÖĤÕ¿
ĠÕ§Õ» Õ¨
Õ¥Õ ¾
ĠÕ¡Õ¶ Õ·
ĠÔ¼ ÖĩÕ¸Õ¶
Õ¡Õ¢Õ¥ÖĢ Õ¥Õ¬
ĠÖģÕ¸ÖĤÖģ Õ¡Õ°Õ¡Õ¶Õ¤Õ¥Õ½
ĠÕ½ÕºÕ¡Õ½ Õ¸ÖĤÕ´
Ġ on
Õ¡Õ¯ Õ«Õ¶
Õ¡Õ¯ Õ¡ÕµÕ«Õ¶
ĠÕ¯ Õ¡Õ½
ĠÕ¸ÖĢ Õ¸Õ¾
ĠÔ³ Õ¡ÖĢ
Õ¨Õ¶ Õ¿
ÔµÖĢÖĩ Õ¡Õ¶
ĠÕ°Õ¡Õ¶Õ£Õ¡Õ´ Õ¡Õ¶ÖĦ
Õ¥ÖĢ Õ¡ÕµÕ«Õ¶
ĠÕ¸ÖĤÕ¶Õ¥Õ¶Õ¡Õ¬ Õ¸ÖĤ
ĠÕ´Õ¥Õ²Õ¡Õ¤ ÖĢÕ¡Õ¶ÖĦ
ĠÕ¢Õ¸Õ¬ Õ¸ÖĢÕ¨
Õ¬Õ¡Õ¤Õ«Õ´ Õ«ÖĢ
ÕĢ Õ«Õ´
Õ¡Õ² Õ¸ÖĢÕ¤
Ô» Õı
ĠÕ¡ÕµÕ¬ ÖĩÕ½
ÕĶ Õ¡Õ²Õ¡ÖĦ
Ôº Õ¡Õ´Õ¡Õ¶Õ¡Õ¯
ĠÕ´ÖĢÖģ Õ¸ÖĤÕµÕ©
ĠÔ±Õ´ Õ¥ÖĢÕ«Õ¯
ĠÔ± Ô±Ô¾
ar d
ĠÕ£ÕµÕ¸ÖĤÕ² Õ«
ĠÕ¢Õ¡Õ¶Õ¯ Õ«
3 7
ĠÕ¥ÖĢÕ¥ÕŃ Õ¡ÕµÕ«
ĠÕįÕ¡Õ´ Õ¾Õ¥Õ¬
Õ½ ÖĢ
ĠÖĨ Õ¥ÕµÕ½Õ¢
ĠÕ¾Õ«ÖĢ Õ¡Õ¾Õ¸ÖĢ
ĠÕ¿Õ¥Õ²Õ¥Õ¯Õ¡Õ¿Õ¾ Õ¸ÖĤÕ©ÕµÕ¡Õ¶
ĠÕ¾ Õ¯Õ¡Õµ
Õ© Õ¡ÖģÕ«
ĠÕ¿Õ¥Õ² Õ¸ÖĤÕ´
ĠÕ¢Õ¶Õ¡Õ¯ Õ¹Õ¸ÖĤÕ©ÕµÕ¡Õ¶
ÕįÕ¿ Õ¥Õ²Õ®
ĠI n
Õ¡Öģ Õ¶Õ«
ĠÔ¿ Õ¡Õº
ĠÕ«ÖĢÕ¡Õ¯Õ¡Õ¶Õ¡Öģ Õ¶Õ¥Õ¬
ĠÕ¹Õ¡Öĥ Õ¸Õ¾
ĠÕ¥ÖĢÕ¥Õ¯ Õ¸ÕµÕ¡Õ¶
ĠÕ¤Õ«ÖĢÖĦ Õ¸ÖĢÕ¸Õ·
Õ¬Õ«Õ´ Õº
Õ¡Õ¯ Õ¸ÖĤÕ¬Õ¿
Õ· Õ¶Õ¡Õ´
Õ¡ÖĢÕ± Õ¡Õ¯Õ¸ÖĤÕ´
ĠÕ«ÖĢÕ¡Õ¾Õ«Õ³ Õ¡Õ¯Õ¨
ĠÕ£ Õ¥Õ²
ĠÕ«ÖĢÕ¡Õ¾ Õ¸ÖĤÕ¶ÖĦÕ«
ĠÕ¯Õ¡Õ¿ Õ¡ÖĢÕ¾Õ¸ÖĤÕ´
ĠÕ¯Õ¡Õ¼Õ¸ÖĤÖģ Õ¾Õ¡Õ®
ĠÕ¥Õ¦ ÖĢÕ¡ÖĥÕ¡Õ¯
ĠÕ´Õ«Õ»Õ¸ÖģÕ¡Õ¼ Õ¸ÖĤÕ´Õ¶Õ¥ÖĢÕ«
ĠÕ£Õ¸ÖĤÕµ ÖĦÕ«
ĠÕ¿ Õ¸ÖĤÖĢ
Ô» Õį
Õ¡Õ¶Õ¸ÖĤÕ´ Õ¨
ĠÖħÕ£ Õ¸Õ½Õ¿Õ¸Õ½Õ«
ĠÕ¢Õ¡Õ¶ Õ¡Õ½Õ¿Õ¥Õ²Õ®
ĠÕ´Õ·Õ¿ Õ¡Õ¯Õ¡Õ¶
Ġ J
Ô± Õ¤ÖĢÕ¢Õ¥Õ»
ĠÕ¡Õ¼ Õ¶Õ¥Õ¬Õ¸Õ¾
ĠÕºÕ¡Õ°Õ¡Õ¶Õ» Õ¸ÖĤÕ´
Ô±Õı ÕĦ
ĠÕĦÕ« Õ¡ÖģÕµÕ¡Õ¬
ĠÕ¡ÖĢÕ¤ÕµÕ¸ÖĤÕ¶ÖĦ Õ¶Õ¥ÖĢÕ¨
Õ°Õ¡Õ¶ÖĢ Õ¡ÕºÕ¥Õ½
ĠÕº Õ¡Õ¬
ĠÕ½ Õ¥Õ¼
ĠÕ¹ Õ¡ÖĢ
ĠÕ£Õ¸ÖĢÕ® Õ¨
ĠÕ¥Õ¶Õ© Õ¡Õ¯Õ¡
ĠÕ¹Õ£ Õ«Õ¿
f o
Õ«ÖĢ ÖĦÕ¨
ĠÕ¦ Õ¸ÖĤÕ£
ĠÖħÖĢ Õ¡Õ¯Õ¡ÖĢÕ£
ĠÕ¥ÖĢ Õ¡Õ·ÕŃ
ĠÕ³ Õ¶Õ·
Õ¡Õ£Õ«Õ¿ Õ¸ÖĤÕ©ÕµÕ¡Õ¶
ĠÕ°Õ¡Õ¾Õ¡ÖĦ Õ¡Õ¯Õ¡Õ¶Õ«
ĠÕºÕ¡Õ¿Õ¡Õ½ÕŃÕ¡Õ¶Õ¡Õ¿Õ¾ Õ¸ÖĤÕ©ÕµÕ¸ÖĤÕ¶
Öģ Õ¾Õ¡Õ®
ĠÕ¥ Õ¾ÖĢ
Õ¡Õ¢ Õ¡Õª
ĠÕ¡Õ¼Õ¡Õ» Õ¡ÖĢÕ¯Õ¸ÖĤÕ´
ĠÕ¿Õ¥Õ½ Õ¶Õ¥Õ¬
ĠÕ¶Õ¸ÖĢ Õ«Öģ
ĠÕºÕ¡ÕµÕ´Õ¡Õ¶ Õ¶Õ¥ÖĢÕ¸ÖĤÕ´
ĠÕ¯Õ¬Õ«Õ¶ Õ¥Õ¶
ĠÕĦÕ¡ÖĢÕ¿ Õ«ÖĢ
ÕĢÕ«Õ· Õ¥ÖģÕ¶Õ¥Õ¶ÖĦ
Õ¡Õ¶ Õ«Õ¦Õ´
Õ«Õ¶ Õ¥ÖĢ
ĠÕ¿ ÖĢÕ¾Õ¸ÖĤÕ´
Ô±Õ ²
Ġ3 1
Õ¸Õ¹ Õ¨Õ¶Õ¤
al l
ĠÕ¡Õ½Õ¿ Õ«Õ³Õ¡Õ¶
ĠÕ¦Õ¡Õ¶Õ£ Õ¾Õ¡Õ®
ĠÕ¡Õ Ń
Õį Õ«ÖĢ
ĠÕ£Õ«Õ¿ Õ¸ÖĤÕ©ÕµÕ¡Õ¶
ĠÕ¤Õ¡Õ½ Õ¨Õ¶Õ©Õ¡Öģ
ĠÕ°Õ¸Õ£ ÖĩÕ¸ÖĢ
ĠÕ¿Õ¶Õ¿Õ¥Õ½ Õ¸ÖĤÕ©ÕµÕ¡Õ¶
ĠÕ¼Õ¡Õ¤Õ«Õ¸Õ¯Õ¡Õµ Õ¡Õ¶Õ«
Õ¸Õ¹Õ¨Õ¶Õ¤ Õ¸Õ¿
4 0
ĠÕ£ Õ¸Õ¬
Õ¶Õ¤ Õ«
ĠÕİ Õ¥ÖĢÕ»Õ«Õ¶
ĠÕ¢Õ¡ÖĢ Õ¥Õ¬
Ġ Õ¡Õ¯Õ¡Õ¶
ĠÕ´ Õ¸Õ¼
ĠÕ£ Õ¸Õ¾Õ¡Õ¦Õ¤
Õ¥Õ½ Õ¸ÖĤÖĢÕ½
Õ¸ÖĤÕµ ÖĦ
ĠÔ³ Õ¸ÖĢÕ®
ÕĬ ÕĲ
ĠÕ¿Õ¾ÕµÕ¡Õ¬ Õ¶Õ¥ÖĢÕ«
Õ»Õ» Õ¡ÕµÕ«Õ¶
Ġ19 7
ĠÕ°Õ«Õ¾Õ¡Õ¶Õ¤ Õ¡Õ¶Õ¸Öģ
Õ¥ÖĢÕ µ
ĠÕ´Õ«Õ» Õ¡Õ¾Õ¡Õµ
ĠÕ«ÖĢÕ¡Õ¯Õ¡Õ¶Õ¡Öģ Õ¶Õ¸ÖĤÕ´
Õ¿ Õ¸ÖĢ
ĠÕ¬ÖĢÕ¡Õ¿Õ¾ Õ¡Õ´Õ«Õ»Õ¸Öģ
A M
ĠÔ² Õ¥Õ¬
ĠÔ¼ Õ¸ÖĤÕ½
ĠÕ¸ÖĤÕ² Õ«Õ²
Ġ4 0
ĠÕ¶ÕµÕ¸ÖĤÕ© Õ¥ÖĢ
Õ¡Õ¯ Õ¶Õ¥ÖĢÕ¨
ĠÕ¿ Õ¾Õ¥Öģ
Õ«Õ¹ Õ¶Õ¥ÖĢÕ«
Õİ Õ¡ÖĢÕ¹Õ¡ÕºÕ¥Õ¿
ĠÕ½ÕºÕ¡Õ½ Õ¾Õ¸ÖĤÕ´
ĠÕ¬Õ½ Õ¥Õ¬
ĠÕ°Õ¡Õ·Õ¾Õ¥Õ¿ Õ¾
ĠÕĢÔ±ÕĨÕĲ Ô±ÕĬÔµÕı
ÖĢ Õ¸ÖĤ
ĠÕŃ Õ¸ÖĤÕ½Õ¡Öĥ
Õ¡Õ¦ Õ¡Õ¶Õ£
ÕµÕ¡Õ¶ Öģ
ĠÕĬ ÕĨ
ĠÕ°Õ¡Õ½ Õ¯Õ¡Öģ
ĠÕ¿ÖĢÕ¡Õ´ Õ¡Õ¤ÖĢ
ĠÕ° Õ¦Õ¸ÖĢ
Ô³ ÖĢ
ĠÕ°ÖĢ Õ¡Õ·
Õ¸ÖĤÖĦ ÕµÕ¡Õ¶
ĠÕ¡ÕºÖĢ Õ«Õ¬
ĠÕºÖĢÕ¸ÖĨ Õ¥Õ½
Õ¡Õ£ Õ¡Õ©
ÕĢ Õ¸ÖĤÕ¶
o v
Õ«Õ¯ Õ¶Õ¥ÖĢ
ĠÕ¶Õ¥ÖĢÕ ½
ĠÕ¡ÖĢÕ¿ Õ¡Õ¯Õ¡ÖĢÕ£
ĠÕºÕ¡Õ¿Õ´ Õ¸ÖĤÕ©ÕµÕ¸ÖĤÕ¶
Õ¯Õ¡ÖĢ Õ¸Õ²
ĠÕ¥Õ¯Õ¥Õ²Õ¥Öģ Õ¸ÖĤ
Ô¿ Õ¡Õ¿
ÕĪÕ ĳ
ĠÕ´Õ¡ÖĢÕ¤ Õ¨
ĠÕºÕ¡ÕµÕ´Õ¡Õ¶ Õ¡Õ£ÖĢ
ĠÕ£Õ¥ÖĢ Õ¡Õ¦Õ¡Õ¶Öģ
ÕĢÖĢ Õ¡ÕºÕ¡ÖĢÕ¡Õ¯
Õ¶ Õ¬Õ¡ÕµÕ¶
ĠÕ§ Õ½
Õ¬ Õ¡Õ´
Õ¢ ÕµÕ¥Õ¯Õ¿
Õ¡Õ¼ Õ´Õ¡Õ¶
Õ¡Õ¦ ÖĢÕ¯
ĠÕ¦ Õ¥Õ¶ÖĦ
Õ¡Õ¯Öģ Õ¸ÖĤÕ©ÕµÕ¸ÖĤÕ¶Õ¨
Õ¡Õ¶Õ¯ Õ¿
ĠÕ°Õ¡Õ½ Õ¥Õ¬
Õ«Õ½Õ¿ Õ¡Õ¯Õ¡Õ¶
ĠÕ¯Õ¡Õµ Õ¡ÖģÕ¡Õ®
ĠÕ¨Õ¶Õ¿ÖĢ Õ¡Õ¯Õ¡Õ¶
ĠÕ¥Õ¯ Õ¥Õ²Õ¥ÖģÕ«Õ¶
ĠÕ¿Õ¥ÕŃÕ¶ Õ«Õ¯Õ¡Õ¯Õ¡Õ¶
ĠÕ¡ÕµÕ½ Õ«Õ¶ÖĦÕ¶
Ô¼ ÕĦ
ĠÔ±Õ¬ Õ«
Ð° Ð
ĠÕ¡ÖĢÕ¾Õ¥Õ½Õ¿ Õ«
ĠÕİÕ¡Õ¶ Õ¡Õ±
Õ¸ÖĤÕ° Õ¥Õ¿
Õ¡Õ¿ Õ«Õº
ĠÕ¥ÖĢÕ »
ĠÕ¢Õ¡Õª Õ¶
ĠÕ´Õ¡Õ¶ÖĢÕ¡Õ´ Õ¡Õ½
Õ¥Õ¬ ÖĦ
ĠÕ¢ Õ¡Õ¦
Õ¡Õ¬ Õ¨
Õ¡ÖĢÕ½ Õ¥Õ¬
Ô±Õ´ Õ¥Õ¶
ĠÕ¢Õ¸Õ² Õ¸ÖĦ
ĠÕ¡Õ·ÕŃÕ¡Õ¿Õ¡Õ¯Õ¡Õ¦Õ´ Õ«
Ġ Õ¡ÖĢÕ°
Õ¥Õ¿ Õ«Õ¯
ĠÕ« Õ¢
Õ¡Õ· Õ¥Õ¶
ĠÔ¿ Õ¸Õ¶
r u
Õ¥Öģ Õ¶Õ¥Õ¬Õ¸ÖĤ
ĠÕĨ Õ·
ĠÕ¸ÖĤÕ² Õ¡ÖĢÕ¯Õ¥Õ¬
ÕºÕ¥Õ¿ ÖĦ
ĠÕ¯ Õ¥Õ²Õ®
Õ¡Õ½ Õ¡Õ¯Õ¡Õ¶
ĠÕ· Õ¥Õ¶ÖĦÕ«
ĠÕ¶Õ¡ÕŃ Õ¡ÖĢÕ¡ÖĢÕ¨
ĠÕ°Õ¡Õ¾ Õ¡Õ¶Õ¡Õ¯Õ¡Õ¶
ĠÕįÕ¡ÖĢÕ£Õ½ ÕµÕ¡Õ¶
ĠÕ¸ ÖĦ
Õ¡Õ¾ Õ¡Õ¶Õ¤
ĠÕĢ Ô¿
Õ¡Õ¯Öģ Õ¸ÖĤÕ©ÕµÕ¸ÖĤÕ¶
ĠÔ³ Õ¥Õ²
Ô³ Õ«Õ¿
Õİ Ô±Ô¾
ÕºÖĢ Õ¥Õ½
Õ¸ÖĤÕ· Õ«
Õ« ÖĢÕ¿
Õ© Õ¡ÖĢ
ĠÔµ Ô±ÕĢÔ¿
ĠÕ¡Õ´Õ¥Õ¶ Õ¨
ĠÕ¨Õ¶Õ¿ÖĢ Õ¸ÖĤÕ©ÕµÕ¸ÖĤÕ¶Õ¶Õ¥ÖĢÕ«Õ¶
ĠÕ´ Õ¸ÖĤÕ¿ÖĦ
Õ¸Õ¾ Õ¯
ÕĨ Õ«Õ¯Õ¸Õ¬
Õ¡Õ½Õ¿Õ¡Õ¶ ÕµÕ¡Õ¶
ĠÕ¶ÕµÕ¸ÖĤÕ© Õ¥ÖĢÕ«
ĠÕ°Õ¡Õ´Õ¡Õ¬Õ½ Õ¡ÖĢÕ¡Õ¶
ĠÕ°Õ¡Õ¯Õ¡Õ´Õ¡ÖĢÕ¿ Õ¸ÖĤÕ©ÕµÕ¡Õ¶
Õ¡Õ ¨
ĠÕ¯ Õ·
Ôµ Õ¬
Õ¡Õ© Õ¸Õ·
ĠÕĬ Õ¸Õ²
ĠÕ¡Õ¼Õ» Öĩ
Ġ b
Õ¡Õ¿ Õ¡Õ¶ÖĦ
ĠÕ® Õ¡Õ£
Õ¡Õ¯Öģ Õ«
ĠÖĨ ÖĢÕ¡Õ¶Õ½
ĠÕ¯ÕµÕ¡Õ¶ ÖĦÕ¸ÖĤÕ´
Õ¡Õ´ Õ½
Õ¸Õ¶ Õ¡Õ¬Õ¤
ÕĦ ÔµÕĨ
ĠÕ«ÖĢÕ¡Õ¯Õ¡Õ¶Õ¡Öģ Õ¾Õ¸ÖĤÕ´
ĠÕ£Õ¸ÖĢÕ®Õ¸ÖĤÕ¶Õ¥ Õ¸ÖĤÕ©ÕµÕ¸ÖĤÕ¶Õ¨
ĠÕĬÕ¥Õ¿ Õ¥ÖĢÕ¢Õ¸ÖĤÖĢÕ£
Ô±ÕĬ Ô¿
ĠÕ¦Õ¢Õ¸Õ½ Õ¡Õ·ÖĢÕ»
Õ¸ÖĢÕ¤ Õ¶Õ¥ÖĢÕ«
ĠÕ¬Õ«Õ¶ Õ¥Õ¶
ĠÕĢÕ¸Õ¾Õ°Õ¡Õ¶Õ¶ Õ¥Õ½
ĠÕ¸ Õ³
ĠÕŃ Õ¸Õ¹Õ¨Õ¶Õ¤Õ¸Õ¿
ÖĢÕ¡ ÖĨ
Õħ Ô´
ĠÕ²Õ¥Õ¯Õ¡Õ¾Õ¡ÖĢ Õ«
Õ¸Õ² Õ«Õ¶
Õ¶Õ¡Õ¯ Õ«Öģ
ĠÕ¤Õ¥Õº ÖĦÕ«
ĠÕ´Õ¡Õ½Õ¶Õ¡Õ¯ Õ«
ĠÕ¿Õ¥Õ²Õ¡ÖĥÕ¸ÕŃ Õ¾Õ¥Õ¬
r a
Ġ Y
ĠÕ¯ Õ¡Õ¶Öģ
ĠÕ¤ Õ¡ÖĢÕ«
ĠÖĦ Õ¡Õ¶Õ¡Õ¯
Õ¸Õ½ ÕµÕ¡Õ¶
âĢ Ļ
Ô¿ Õ¡Õµ
ĠÔµ Õ¯
ĠÕª Õ¡Õ¼Õ¡Õ¶Õ£
ĠÕ¼ Õ¥Õ½Õ¸ÖĤÖĢÕ½
Ô±Õ¶ Õ±
ĠÕ¿Õ¥ÕŃÕ¶Õ¸Õ¬Õ¸Õ£ Õ«Õ¡Õ¶Õ¥ÖĢÕ«
Õ«Õ ª
ĠÕ°Õ¥Õ¿ Õ¡Õ£Õ¡
ĠÕ¡Õ´Õ¥ÖĢÕ«Õ¯ ÕµÕ¡Õ¶
ĠÕ¯ Õ¸Õ¼Õ¸ÖĤÕºÖģ
ĠÕ© Õ·Õ¶Õ¡Õ´
ĠÕį Õ«Õ´
ĠÔ¿ Õ¡Õµ
ĠÕ¢Õ¶ Õ¡Õ£
ĠÕ°Õ¥Õ¿Õ¡ÖĦÖĢÖĦ ÖĢ
ÕĪÕĴÔ¹ÕħÕĪÕĴÕĨ ÕĨÔµÕĲ
Õ¥Öģ Õ¾Õ¡Õ®
ĠÕ¹ Õ¸ÖĢ
ĠÕ¹ Õ¸ÖĢÕ½
ÕĦ Õ¡ÖĢÕ¿
ÖĢÕ¾ Õ¸Õ²
ĠÕ¯Õ¡Õ¿Õ¡ÖĢ Õ¸ÖĤÕ´
ĠÕįÕ¡ÖĢÕ£Õ½ ÕµÕ¡Õ¶Õ¶
ĠÔ±ÖĢÕ¿ Õ¡Õ½Õ¡Õ¶
ĠÕ¢Õ¬ Õ¸Õ£
Õ¡Õ¶ Õ¸ÖĤÕ©
Õ¡Õ¿ Õ¡Õ¯Õ¨
ĠÔ½ Õ¸ÖĢÕ°ÖĢÕ¤
ĠÕ¯Õ¡ÖĢÕ£ Õ«
ĠÕ´Õ¶ Õ¡Õ¬
u b
ĠÕ´ Õ²
ĠÕº Õ¸Õ²
ĠÕ¡ÕµÕ¤ ÕºÕ«Õ½Õ«
ĠÕ¯ÕµÕ¡Õ¶ ÖĦ
ĠÕ«Õ·ÕŃÕ¡Õ¶ Õ¸ÖĤÕ©ÕµÕ¸ÖĤÕ¶Õ¶Õ¥ÖĢÕ«
ĠÕ°Õ¡Õ´Õ¡Õ¬ Õ«ÖĢ
ĠÕ¡Õ¼Õ¡Õ¶Õ±Õ¶ Õ¡Õ°Õ¡Õ¿
3 5
3 8
Õ¥Õ ³
Õ¸ÖĤÕ ¯Õ¡Õµ
Õ¸Õ¶ ÕµÕ¡Õ¶
ĠÖħ Õ¢ÕµÕ¥Õ¯Õ¿
ĠÕ¡Õ¼Õ¡Õ» Õ¡Õ¿Õ¡ÖĢ
ĠÕ³ Õ¡ÖĢÕ¿Õ¡ÖĢ
Ġ U
Õ¢ Õ¥ÖĢÕ£
ĠÕ© Õ²Õ©
ĠÕ© Õ¡Õ£Õ¡Õ¾Õ¸ÖĢ
ĠÕį Öĩ
Õ¡Õ© Õ¥Õ©
ĠÖĨ Õ¡Õ¯Õ¸ÖĤÕ¬Õ¿
ÕĶ Ô»
ĠÕ¿Õ¡ÖĢÕ¡Õ® ÖĦÕ¡ÕµÕ«Õ¶
Õ¸ÖĤÕ° Õ¥Õ¿Öĩ
Õ¡ÖĦÕ¶Õ¶ Õ¸ÖĤÕ©ÕµÕ¡Õ¶
ĠÕĢÔ±ÕĨÕĲÔ±ÕĬÔµÕı ÕĪÕĴÔ¹ÕħÔ±ÕĨ
> >
ĠÕ¹ Õ¯
ĠÕ«ÖĢÕ¡Õ¾ Õ¡Õ½
ĠÔ±Õ¦ Õ¡Õ¿
ĠÕ¡Õ¤ÖĢÕ¢Õ¥Õ» Õ¡Õ¶Õ¡Õ¯Õ¡Õ¶
Õ¥Õ£Õ¸ÖĢ Õ«Õ¡
Õ¡Õ¼ Õ¡Õ»
ĠÕŃ Õ¶Õ¡Õ´
ÖĢÕ¡Õ£ÖĢ Õ«
ĠÕ¡Õ¶Õ± Õ¶
ĠÕ½Õ¡Õ°Õ´Õ¡Õ¶ Õ¶Õ¥ÖĢÕ¸ÖĤÕ´
Õ¡Õ¾Õ¸ÖĢ Õ¸ÖĤÕ´Õ¨
ĠÕ¥ÖĢÕ¯ Õ«ÖĢÕ¨
ĠÖĥÕ¸ÖĢÕ± Õ¡Õ£Õ¥Õ¿
ĠÕ½Õ¿Õ¥Õ²Õ® Õ¾Õ¡Õ®
ĠÕħ Õ¸ÖĤÕ¶
Õ¸ÖĤÕ¢ Õ¥Õ¶
ĠÕĢÕ¡ÖĢÕ¸ÖĤÕ©ÕµÕ¸ÖĤÕ¶ ÕµÕ¡Õ¶Õ¨
ĠÕ¡Õ´ÖĢ Õ¡ÕºÕ¶Õ¤
ĠÕ´ Õ«Õ´
ĠÕİ Õ¬Õ¡Õ¤Õ«Õ´Õ«ÖĢ
ĠÕ¥Õ¯ Õ¡Õ¾
ĠÖĥÕ¸ÖĢÕ± Õ¥Õ¬
ĠÕ¯Õ¡Õ¿ Õ¡ÖĢÕ¾Õ¥Õ¬
ĠÔ»Õ½ ÖĢ
Õ¡Öģ Õ¡Õ¶
Õ¡Õ° Õ¡Õ¾Õ¡ÖĦ
ĠÕ°Õ¡Õµ Õ¥ÖĢÕ«
ĠÖħÖĢ Õ«Õ¶
ĠÕ¸ÖĤÕ½ Õ¸ÖĤÖģÕ«Õ¹
ĠÕ°Õ¡Õ¶Õ£ Õ«Õ½Õ¿
ĠÖĦÕ¡ÖĢÕ¿Õ¸ÖĤÕ² Õ¡ÖĢ
Õ¡Õ¯ Õ¥Õ¿
ĠÕĦ Õ¡ÖĢÕ«
ÖĢÕ¡Õ¶ ÖĦÕ«
Ġ X
Õ¡Õ¿ Õ¨
Õ¡Õ¾ Õ¡ÖĢÕ¨
ĠÕ£ Õ¡Õ£Õ¡Õ©
ĠÔµ Õ¾ÖĢ
ĠÕĨ Õ¡Õ°Õ¡Õ¶Õ£
ĠÖĥÕ¸ÕŃ Õ¡ÖĢÕ«Õ¶
ĠÕ¶Õ¡ÕŃÕ¡Õ£Õ«Õ® Õ¨
Õ¡Õ¿ Õ«ÖĢ
Õ¡Õº Õ¡ÖĢ
ĠÖĥ Õ¶Õ¿ÖĢ
ĠÕ´Õ¥Õ¯ Õ«Õ¶
ĠÕºÕ¡ÖĢÕ¿ Õ¡Õ¯Õ¡Õ¶
Õ«Õ¸Õ¶ Õ¡Õ¬
ĠÕ¡Õ¶Õ¤Õ¡Õ´ Õ¶Õ¥ÖĢÕ«
Ô±Õ¦ Õ£Õ¡ÕµÕ«Õ¶
ĠÕ¯Õ¥ÖĢÕº Õ¸Õ¾
ĠÕ¢Õ¸Õ²Õ¸ ÖĦÕ«
ĠÕ¢ Õ¥ÖĢÕ¸ÖĤÕ´
ĠÕ½ ÖĥÕµÕ¸ÖĤÕ¼
ĠÕ¾ Õ¡Õ½Õ¿
ĠÕĦ Õ«ÖĦ
ÖĢÕ¤ Õ¥Õ°
ĠÕ¸ÖĤÕ¶ Õ¥Õ´
ĠÔ» Õ´
Õ¡Õ¶Õ£ Õ¬
ĠÕ¡Õ¼Õ¡Õ»Õ¶ Õ¸ÖĤÕ©ÕµÕ¡Õ¶
ĠÕ´Õ¶ Õ¡ÖģÕ¥Õ¬
ĠÕ´Õ«Õ¡Õ½ Õ¶Õ¡Õ¯Õ¡Õ¶
ĠÕĦ Õ¡ÕµÖĢ
ĠÕ´Õ«Õ» Õ¥ÖĤ
Õ¡Õ© Õ«Õ¼
ĠÕ¤Õ¡Õ¿ Õ¡Õ¾Õ¸ÖĢ
3 6
ĠÕ° ÕµÕ¸ÖĤÖĢÕ¡Õ¶
ĠÔ± Õ¯
ĠÖĦ ÖĢÕ«Õ½Õ¿
ĠÕ¬ Õ«Õ£
ĠÕĦ Õ«Õ¶Õ¹
ĠÕ´Õ¥Õ Ń
Õį Õ¡
Ô½ Õ¡Õ²
ĠÕ¡Õ¯ Õ¶Õ¯Õ¡Õ¬
Õģ Õ¥ÖĢ
Õ¾Õ¡Õ¦ Õ¶
ĠÕ¿Õ¥Õ½ Õ¥Õ¬
ĠÕ½Õ¯Õ½ Õ¸ÖĤÕ´
ĠÕ°Õ² Õ¸ÖĤÕ´Õ¶Õ¥ÖĢ
ÕĪÖĤ Õ²
ĠÕ®Õ¶Õ¶Õ¤ ÕµÕ¡Õ¶
e v
Õ¡Õ¾ Õ¡ÖĢÕ¿
ĠÕ¡Õ¼ Õ¡Õ¾Õ¸Õ¿ÕµÕ¡Õ¶
ĠÕ£Õ¸Õµ Õ¸ÖĤÕ©ÕµÕ¸ÖĤÕ¶
Õ¡Õµ Õ½
ĠÕĦ Ô±ÕĲ
ĠÕºÕ¡Õ¿ Õ¯Õ¡Õ¶
âĢ ķ
ĠÕ°Õ¡ÖĢ Õ¡Õ¦Õ¡Õ¿
ĠÕ¡Õº Õ¡Õ£
Ô² Õ¡ÕµÖģ
ĠÕ°Õ¡Õ¾ Õ¡Õ¶
Ġ19 6
ĠÕ¾Õ¥ÖĢÕ¡Õ¢Õ¥ÖĢÕ ´
Ġ200 8
ĠÔµÕ¾ÖĢÕ¸Õº Õ¡Õ¯Õ¡Õ¶
ĠÔ¿Õ¡ÖĢÕ¡ÕºÕ¥Õ¿ ÕµÕ¡Õ¶Õ¨
ĠÕ£Õ¬ Õ¸ÖĤÕŃ
A r
ĠÕ° Õ¡ÖĢÕµÕ¸ÖĤÖĢ
ĠÕ¹ Õ¬Õ«Õ¶
ĠÖħ ÖĢÕ£
Õ¡ÖĢÕ± ÖĢ
Õ¡Õ¶Õ¯ ÕµÕ¸ÖĤÕ¶
ĠÕ£ÖĢ Õ¡Õ¤
ĠÕ°Õ«Õ´ ÖĦ
ĠÕ´Õ¿ Õ¥Õ¬
ĠÕºÕ¡Õ·Õ¿Õ¸Õ¶ ÕµÕ¡Õ¶
ĠÕ«ÖĢÕ¡Õ¯Õ¡Õ¶Õ¡Öģ Õ¶Õ¥Õ¬Õ¸ÖĤ
ĠÔ±ÖĢ Õ¡ÖĢÕ¡Õ¿
ĠÕ°Õ«Õ· Õ¡Õ¿Õ¡Õ¯
ÔµÔ¼ ÕĪÕĴ
ĠÕ©Õ¸ÖĤÖĢÖĦ Õ¡Õ¯Õ¡Õ¶
Õ¡Õ¯ ÖĢÕ©
Õ¡Õ½ Õ¨
Öĩ Õ¶Õ¸ÖĤÕµÕ¶
ĠÕ¶Õ¡ÕŃ Õ¡ÕºÕ¡Õ¿ÖĢÕ¡Õ½Õ¿
ĠÕ«Õ¶Õ¹ Õ¸
ĠÔ² Õ¡ÖģÕ«
ĠÕ¯Õ¡Õº Õ«
ĠÕ¡ÖĢ ÖĦ
ĠÕ¥ÖĢÕ¯ÖĢ Õ¶Õ¥ÖĢÕ¸ÖĤÕ´
ĠÕ´Õ¡ÖĢÕ¤Õ¯ Õ¡ÕµÕ«Õ¶
ĠÕ¤ÕºÖĢÕ¸Öģ Õ¸ÖĤÕ´
Õ£Õ¿ Õ¡Õ£Õ¸ÖĢÕ®Õ´Õ¡Õ¶
3 1
Õ¡Õ° Õ¬
Õ¡Õ¾Õ¸ÖĢ Õ¡Õ¯Õ¡Õ¶
ĠÕ«Õ¶Õ¹ ÕºÕ¥
ĠÕ£Õ«Õ¿ Õ¶Õ¡Õ¯Õ¡Õ¶
Ô±Õ·ÕŃ Õ¡ÖĢÕ°
5 5
Õ¡Õ½ Õ¸ÖĤÕ¶
Õ¸Õ¾ Õ½
Õ¸Õ¶ Õ«Õ¡ÕµÕ«
ĠÕ¡Õº ÖħÖĢ
Õ«Õ¦ Õ´Õ«
ĠÕ½Õ¡Õ°Õ´Õ¡Õ¶ Õ¡ÖĥÕ¡Õ¯
ĠÕ°Õ¥Õ¿Öĩ Õ¡Õ¶ÖĦ
ĠÕ¥ÖĢÕ£ Õ¹
ĠÕ£Õ¸ÖĢÕ®Õ¨Õ¶Õ©Õ¡Öģ Õ¨
ĠÕĸÖĢÕ¡Õ¶Õ½ Õ«Õ¡ÕµÕ«
I I
Õ¥Õ¶ Õ¦
Öħ ÖĢÕ¾Õ¡
Õ¡ÖĢÕ¾ Õ¸Õ²
ĠÔ±Õµ Õ¬
Ġ201 0
en t
Õ¡Õ¶Õ¹ Õ¥Õ½
Õ¡Õ¤Õ¡Õ¼Õ¶Õ¡Õ¬ Õ¸Õ¾
Ġ Õ¡ÖĢÕ´
ĠÕ¸ÖĤÕ² Õ¥ÖĢÕ±
ĠÕ¨Õ¶Õ¿Õ¡Õ¶Õ« ÖĦ
ĠÖĥÕ¸Õ²Õ¸Öģ Õ¸ÖĤÕ´
Ġ chat
ĠÕ£ Õ«ÖĢÖĦ
ÕĦ Õ¥Õ®
Õ¶Õ¤ Õ«ÖĢ
Õ¥ÖĤ Õ½
ĠÔ· ÖĢÕ¤Õ¸Õ²
ĠÕ¡Õ¶Öģ Õ¶Õ¸ÖĤÕ´
Õ¡ÖĢÕ® Õ¸ÖĤÕ´
ĠÕĪÖĤ Õ¯ÖĢÕ¡Õ«Õ¶
ĠÕ¯Õ¡Õ¬ Õ¡Õ¶
ĠÕ½Õ¿Õ«Õº Õ¾Õ¡Õ®
o p
Ñ ı
Õ¸Õ¾ ÕµÕ¡Õ¶
ĠÕº Õ¥Õ½
Õ¬ Õ¡Õ¶Õ¤
ĠÕ¹ Õ¶Õ¡ÕµÕ¡Õ®
ÕĨ Õ¡ÕŃÕ¡Õ£Õ¡Õ°
ĠÔ³ Õ¡Õ¬
ĠÖĨÕ«Õ¦ Õ«Õ¯Õ¡Õ¯Õ¡Õ¶
o s
Ð º
Õ¡Õ¶ Õ¡ÖĦ
Õ¡Õ¶ Õ«Õ¯
ĠÕ¬ Õ¸ÖĤÖĢ
ĠÕĦ Õ¡Õµ
ĠÕ¥ÖĤ Õ½
ĠÕ¸Õ¹ Õ¶Õ¹
Õ¡Õ¢Õ¡Õ¶ Õ¸ÖĤÕ©ÕµÕ¡Õ¶
Õ«Õ¡Õ¶ Õ¥ÖĢ
ÕĪÕĲ Ô¾
ĠÕ¿Õ¡ÖĢÕ«Õ¶ Õ¥ÖĢ
âĨ ĳ
Õ¡Öģ Õ¡Õ¶Öģ
Ô± Ô²
ĠÕ¢ Õ¥Õ´
Ô¿ Õ¡ÕµÖĦÕ«
ĠÕŃÕ¸Õ½ ÖĦÕ¨
ĠÕ¢Õ¶ Õ¡ÕºÕ¡Õ°
ĠÕ´Õ¡Õ° Õ¾Õ¡Õ¶
ÕºÕ«Õ½ Õ¸Õ¾
ĠÖģÕ¥Õ²Õ¡Õ½ ÕºÕ¡Õ¶
Õ¡Õ¬ Õ¢
Õ¸Õ» Õ¨
Õ¯ Õ¡Õ¶Öģ
ĠÕ¿ Õ¡Õ¶Õ¨
Õ¸Õ¶ Õ½
ĠÕ· Õ¥Õ·Õ¿
ĠÔ¿ Õ¸Õ´
ÕĢÕ¡Õµ Õ¡Õ½Õ¿Õ¡Õ¶Õ¸ÖĤÕ´
ĠÕ¯Õ¡Õ¿Õ¡ÖĢ Õ¡Õ®
ĠÕĢÕ¸Õ¾Õ°Õ¡Õ¶Õ¶Õ«Õ½ ÕµÕ¡Õ¶Õ¨
ĠÕ«Õ¶ÖĦ Õ¶Õ¡Õ¯
Õ¡Õ°Õ¬ Õ«Õ³
ÖĦ Õ½
Õ¡Õ½ ÖĢÕ¡Õ°
Õ¡Õ¾ Õ¡Õ¶
ĠÕ© Õ¡ÖĢÕ´
Õ· Õ¡Õ¢Õ©Õ«
Õ½Õ¿ ÖĢ
Õ¡Õ¶Õ£ Õ¡Õ´
Õ¡Õ¶Õ£ Õ½Õ¿
ĠÕ°Õ¡Õ¿ Õ¯Õ¡Öģ
ĠÕ°Õ¡Õ´Õ¡Õ¯Õ¡ÖĢÕ£ Õ¨
19 8
ĠÕ®Õ¶ Õ¾Õ¥Õ¬
ĠÕ¯ Õº
ĠÕ¡ÕµÕ¤ ÖĦÕ¡Õ¶
ĠÕ¡ÖĢÕ¿ Õ¸Õ¶
ĠÕ°Õ¡ÖĢÖģ Õ«
ĠÕ¤ÖĢÕ¡Õ´ Õ«
ĠÕ°Õ¡ÕµÕ¿Õ¶Õ¡Õ¢Õ¥ÖĢÕ¾ Õ¥Õ¬
Õ¡Õ½Öģ Õ¥
Ġ v
Õ¸ÖĤ Õ¡Õ¬
Õ¡Õ½ Õ¸ÖĤÕ´
Õ¥Õ¶ Õ¨
ĠÕ¹ ÕºÕ¥Õ¿ÖĦ
ĠÕ¾Õ¿Õ¡Õ¶Õ£ Õ¡Õ¾Õ¸ÖĢ
Õ¡ÖĢÕ½Õ¥Õ¬ Õ¸Õ¶
Ġ K
Õ¡Õ¿ Õ¡Õ¶
ĠÕ© Õ¡ÖĦ
ÖĢÕ¡Õ´ Õ«
ĠâĢ º
ĠÕ®Õ¡Õ¼Õ¡Õµ Õ¸ÖĤÕ©ÕµÕ¸ÖĤÕ¶
ĠÖĦÕ¶Õ¶ Õ¡Õ¤Õ¡Õ¿
ĠÕ¯Õ¡ÖĢÕ£ Õ¨
Õ¥Õ£ Õ¸ÖĢÕ®
ĠÕ¾Õ¡ÖĢÕ¹Õ¡ÕºÕ¥Õ¿ Õ¨
ĠÕ¤Õ¡Õ¿Õ¡ÖĢ Õ¡Õ¶
ĠÔµÕ¾ÖĢÕ¸Õº Õ¡
ĠÖĥÕ¸ÖĦÖĢ Õ«Õ¯
ĠÕ¥Õ¦ ÖĢÕ¡Õ¯
ĠÕ°Õ¡Õ¶Õ¤Õ«Õ½ Õ¡Õ¶Õ¸ÖĤÕ´
ÔµÕİ Ô±ÕĨ
Õ¡ÖĢÕ· Õ¡Õ¾
ÖĢ Õ¥ÖĦ
ĠÕ¯ Õ¬
Õ¡Õ® Õ¯
Õ¡Õ¬ Õ«ÖĢ
Ôµ ÕĶ
Ô¿ Õ¡Õ¼
ĠÔ¿ Õ¡Õ©
ĠÕ¡Õ´Õ¢Õ¸Õ²Õ» Õ¸ÖĤÕ©ÕµÕ¡Õ´Õ¢
o c
Õ¡ÖĢ Öĩ
Õ§ Õ½
ĠÕ©Õ¾Õ¡Õ¯Õ¡Õ¶ Õ«Öģ
ĠÕ¶Õ¡ÕŃÕ¡ÖĢÕ¡ÖĢ Õ¸ÖĤÕ©ÕµÕ¸ÖĤÕ¶Õ¨
ĠÕ¡ÕºÕ¡Õ°Õ¸Õ¾ Õ´Õ¡Õ¶
ÖĢ Õ«Õ¯
ĠÕ§ Õ¤
ĠÕĦ Õ¡Õ¯
ĠÕ£Õ¸ÖĢÕ® Õ¡Õ¼
ĠÔ±Õ¶ Õ£Õ¬
ĠÕ¯Õ¡ÖĢÕ® Õ¥Õ½
Ô±Õİ ÕĪÕĲ
ĠÕ³Õ· Õ´
ĠÕĦÕ¯ÖĢÕ¿ Õ¹
ĠÕ¾ Õ¡Õ¼
ĠÕ¡Õ¶Öģ Õ¡Õ®
ĠÕ¡Õ¶Õ± Õ¨
ĠÕ¤Õ¡Õ½ Õ¡ÖĢÕ¡Õ¶
ĠÕ´Õ¶ Õ¡ÖģÕ¡Õ®
ĠÕ¶Õ«Õ½Õ¿ Õ¨
ĠÕĨÕ¸ÖĢ Õ¸ÖĤÕ©ÕµÕ¸ÖĤÕ¶Õ¶Õ¥ÖĢ
u m
Ġ h
Õ¡Õµ Õ¡Õ¶
Õ¡Õ¾ Õ¡Õ©
ĠÕĢ Õ¡Õ»
Õ¡ÕŃ Õ´
ĠÕ°Õ¡Õ½ Õ¶Õ¥Õ¬
ĠÕ«ÖĢÕ¡Õ¾ Õ¸ÖĤÕ¶ÖĦÕ¨
ĠÕ°Õ¡ÖĢÖģ Õ¥ÖĢÕ¸Õ¾
Õ¡ÖģÕ´Õ¡Õ¶ Õ¨
an d
Õ¡Õ¾Õ¸ÖĢÕ¾ Õ¸ÖĤÕ´
Õ¡ÖģÕ¶Õ¥Õ¬ Õ¸Õ¾
Õ·Õ¡Õ¯ Õ¸ÖĤÕ©Õ¡ÕµÕ«Õ¶
ĠÕªÕ¸Õ²Õ¸Õ¾Õ¸ÖĤÖĢÕ¤ Õ¨
- -
Õ¥Õ¬ Õ¶
Õ¾ Õ¡ÖĢÕ¤
Õ¸Õ¬ Õ¸ÖĢÕ¿
Õ¼ Õ¸Õ´
ĠÕ«ÖĢÕ¡Õ¯Õ¡Õ¶ Õ¸ÖĤÕ´
ĠÕ°Õ¡ÕµÕ¿Õ¡ÖĢÕ¡ÖĢ Õ¥Öģ
ĠÕºÕ¡Õ¿Õ¡Õ½ÕŃÕ¡Õ¶ Õ¡Õ¿Õ¸ÖĤ
Ġ0 9
ĠÕ´Õ¬ ÖĢÕ¤
Õ¡Õ¶Õ· Õ¡Õ¶Õ¡Õ¯
i st
Ġ c
ÖĢ Õ¡Õ¢
Õ¡Öģ Õ¾Õ«
ĠÕ¤Õ¡Õ¿Õ¡ÖĢ Õ¡Õ¶Õ¨
Ô±Õ¼ Õ¡Õ»Õ«Õ¶
Ġ <
ÖĢ Õ¶
Õ¸Õ¬ Õ¸Õ¾
Õİ Õ«ÖĦÕ«ÕºÕ¥Õ¤
ÕįÕ¿Õ¥Õ²Õ® Õ¥Õ¬
Õ¡ÖĢ Õ¶
Õ¯ Õ¸Õ¶
ĠÕŃ Õ¥Õ¬
ĠÖĥ Õ¡Õ©Õ¥Õ©
Õ¡Õ¦Õ´ Õ¡Õ¯Õ¥ÖĢÕº
Õ¡ÖģÕ« Õ¡Õ¶
ĠÕī Õ«Õ¶
ĠÕ¡Õ´Õ¢ Õ«Õ¸Õ¶
ĠÕ¡Õ¶Õ¤Õ¡Õ´ Õ¶Õ¥ÖĢÕ¨
ĠÕ¶ÕºÕ¡Õ¿Õ¡Õ¯ Õ¶
Õĵ Õ¡Õ½Õ¿
Õ¯ÖĢ Õ¥Õ¿
Õ¢Õ¥ÖĢÕ¸ÖĤÕ´ Õ¶Õ¥ÖĢ
ĠÔ± Õº
ĠÖģ Õ¡Õ®
Õ¸Õ¼ Õ¸ÖĤ
ĠÕºÕ¡Õ¿Õ³Õ¡Õ¼ Õ¨
ĠÕ¯Õ¡Õ¿ Õ¡ÖĢÕ´Õ¡Õ¶
ĠÖĨÕ¥ÕµÕ½Õ¢ Õ¸ÖĤÖĦÕµÕ¡Õ¶
e g
ĠÕ¤ Õ«
ĠÕ¡ÖĢÕ¿ Õ¡Õ¤
ĠÕ´Õ«Õ»Õ¸Öģ Õ¶Õ¥ÖĢ
ĠÕ¹Õ¥Õ´ ÕºÕ«Õ¸Õ¶
ĠÕ¶Õ¥ÖĢÕ¯Õ¡ÕµÕ¡ÖģÕ¸ÖĤÖģÕ«Õ¹ Õ¶Õ¥ÖĢÕ«
, âĢĶ
Õ¥Öģ Õ´Õ¡Õ¶
ĠÕºÕ¡Õµ Õ©
ĠÕ¢Õ¡Öģ Õ¡Õ¯Õ¡Õµ
ĠÕĵ Õ¡ÖĢ
ĠÕ» Õ¸ÖĤÖĢ
ĠÖħÕ£Õ¿ Õ¡Õ¯Õ¡ÖĢ
ĠÕºÕ¡Õ¿Õ¡Õ½ÕŃÕ¡Õ¶ Õ¥Õ¬
ĠÕ¬Õ¥Õ¦ Õ¾
ĠÕ¥Õ¶Õ©Õ¡ÖĢÕ¯ Õ¾Õ¥Õ¬
u l
Õ¡Õ° Õ¥Õ²
ĠÕ¸ÖĤ Õ¿
ĠÕ°Õ¡Õµ Õ¡Öģ
ĠÔ² Õ¡Õ¶Õ¯
ĠÖħÖĢ Õ«Õ¶Õ¡Õ¯Õ¡Õ¶
Õ¡ÖģÕ« Õ¡Õ¯Õ¡Õ¶
ĠÕ¸ÖĢÕ¸Õ· Õ´Õ¡Õ´Õ¢
ĠÕºÕ¡Õ°ÕºÕ¡Õ¶ Õ´Õ¡Õ¶
ĠÕ°ÖĢÕ¡Õ´Õ¡Õ¶ Õ¡Õ¿Õ¡ÖĢ
ĠÕ¡Õ¼Õ¶ Õ¾Õ¡Õ¦Õ¶
ĠÕºÕ¡ÖĢÕ£ Öĩ
Ġ +
Õ¡Õ¯Õ¡Õ¶ Õ¸Öģ
Ô± Õ½
ĠÕ¡Õ¶ Õ¥Õ¬Õ¸ÖĤ
Õ¡Õ· Õ¶Õ¸ÖĢÕ°
ĠÕ¨Õ¶ Õ©
ĠÕ® Õ¥Õ®
Õ«Õ· Õ«
ĠÕ°Õ¡ÕµÕ¿Õ¡ÖĢÕ¡ÖĢ Õ¸ÖĤÕ©ÕµÕ¸ÖĤÕ¶Õ¨
ĠÕ©Õ¸ÖĤÕµÕ¬ Õ¡Õ¿
ĠÕ£Õ¡Õ² Õ¿Õ¶
ĠÕ¤Õ«Õ¿ Õ¡ÖĢÕ¯
ĠÕ¡Õ¶Õ´Õ«Õ» Õ¡ÕºÕ¥Õ½
ĠÕ°Õ¡Õ´ Õ¡Õ¶
ĠÕ¬ Õ¡ÖĢÕ¾Õ¡Õ®
Ô¿ Õ¡Õ¶
ĠÔµ ÕĲ
Õ¸ÖĤÖģ Õ´Õ¡Õ¶
ĠÕ¿Õ¥Õ² Õ¨
ĠÕºÕ¡Õ¿Õ¡Õ½ÕŃÕ¡Õ¶ Õ¥Öģ
Ġ Õ¡Öĥ
ĠÕ¢ Õ»Õ»Õ¡ÕµÕ«Õ¶
ĠÕ¸ÖĤ Õ¶Õ¥ÖĢ
ĠÕ¨Õ¶Õ¤ Õ°Õ¡Õ¶ÖĢÕ¡ÕºÕ¥Õ½
ÕĢÕ¡Õµ Õ¸Öģ
Õ«Õ¦ Õ¢
Ġ6 0
Õ Ļ
Õ¡Õ¿ Õ¸ÖĤÖĢ
ĠÔ± ÖĢÕ¡
Õ¡Õ¼ Õ¸ÖĤÕ©ÕµÕ¡Õ¶
ĠÕ· Õ¸ÖĤÕ¯Õ¡Õµ
ĠÕ°Õ¥Õ¿ Õ¡Õ£Õ¡ÕµÕ¸ÖĤÕ´
ĠÕ± Õ¡ÕŃ
Õ¶Õ¡Õ¯ Õ«
ĠÕ¡Õ¶Õ° Õ¡Õ¿Õ¡Õ¯Õ¡Õ¶
ĠÕ¯Õ¥Õ¶Õ¿ÖĢÕ¸Õ¶ Õ¡Õ¯Õ¡Õ¶
ĠÔµÖĢÕ¥ÖĤ Õ¡Õ¶Õ«
ĠÕ´Õ·Õ¿ Õ¡ÕºÕ¥Õ½
ĠÕ°Õ¡ÖĢÕ¸ÖĤÖģ Õ¾Õ¥Õ¬
ĠÕªÕ¡Õ´Õ¡Õ¶Õ¡Õ¯Õ¡Õ°Õ¡Õ¿Õ¾Õ¡Õ® Õ¸ÖĤÕ´
4 8
ĠÖĦ Õ¡Õ¼
âĢ ĭ
ĠÕ¤ÖĢ Õ¸ÖĤÕ©ÕµÕ¡Õ´Õ¢
ĠÕªÕ¸Õ²Õ¸Õ¾ÖĢÕ¤ Õ«Õ¶
ĠÕ¢Õ¡Õ¶Õ¡Õ¯ Õ«
ĠÕ¨Õ¶Õ¯ Õ¡Õ®
âĢ¤âĢ¤ âĢ¤
Õ ļ
ÖĢ Õ¡ÕŃ
ĠÕ« Õ»
ĠÕ¢ Õ¡ÖĢÕ«
ĠÕ¬ Õ«Öģ
Õ¸ÖĤÕ½ Õ¨
ĠÕ½Õ¿ Õ¡ÖģÕ¾Õ¥Õ¬
ĠÕ°Õ¥Õ² Õ«Õ¶
ĠÔ±Õ© Õ¸Õ¼
Ġ of
ĠÔ± ÕĮ
Õ¡Õ¼ Õ¡ÕµÕ«Õ¶
Õ° Õ¡Õµ
ĠÕĵ Ô²Ô¸
ĠÕ¾Õ³ Õ¼
ĠÕĨ Õ¸ÖĤÕµÕ¶
ĠÕĪ Õ½Õ¿Õ«Õ¯Õ¡Õ¶
ĠÕ¯Õ¡Õ¶ Õ¡ÕµÖĦ
ĠÕŃÕ¶Õ¤ ÖĢÕ¸ÖĤÕ´
ĠÕĩ Õ¡Õ°
ĠÕ¢Õ¡ÖĢÕ± ÖĢÕ¡Õ£Õ¸ÖĤÕµÕ¶
ĠÖħÕºÕ¥ÖĢ Õ¡Õ¿Õ«Õ¾
Õ¡ÖĢ Õ¡Õ¿Õ«
Õ¡Õ¾ Õ¡Õ¿
ĠÕ± Õ£Õ¿
ĠÖħÖĢ Õ¡Õ©Õ¥ÖĢÕ©
ÕºÖĢ Õ¸Öģ
ĠÕ¾Õ«Õ³ Õ¡Õ¯Õ¸ÖĤÕ´
ĠN ews
Õ¡Õ´Õ¥Õ¶ Õ¡ÕµÕ¶
ĠÕįÕĬ Ô¸
o st
Õ¸ÖĤÕ ¹
Õ¡ÖģÕ« Õ¡
ĠÕ¡Õ·ÕŃÕ¡Õ¿Õ¡Õ¶ÖĦ Õ¶Õ¥ÖĢ
ĠÕ¨Õ¶Õ¤Õ¸ÖĤÕ¶ Õ¸ÖĤÕ´
ĠÕ½Õ¯Õ½ Õ¡Õ®
ĠÔ±ÖĢ Õ¡Õ¢
ĠÖĥÕ¸ÖĤÕ¬ Õ¸ÖĤÕ´
ĠÕ¡Õ¯Õ¶ Õ°Õ¡ÕµÕ¿
ĠÕ½ Õ¡ÖĢ
ĠÕ¡Õº Õ¡ÖģÕ¸ÖĤÖģ
201 5
ĠÕ´Õ¿Õ¡Õ® Õ¸ÖĤÕ´
ĠÕ£Õ¸ÖĢÕ®Õ¡Õ¯Õ¡Õ¬ Õ¸ÖĤÕ©ÕµÕ¸ÖĤÕ¶
ĠÕ¿ Õ¥ÖĢ
ĠÕ¸ÖĤÕ² Õ¥Õ¯Öģ
Õ¡Õ³ Õ¡ÕŃ
ÖĢÕµ Õ¡Õ¬
ĠÕ¶Õ¾ Õ¡Õ³
ĠÕ¾Õ«Õ³ Õ¡Õ¯Õ¨
ĠÔ³ÖĢÕ«Õ£ Õ¸ÖĢ
ĠÕ©Õ¥Õ¯Õ¶Õ¡Õ® Õ¸ÖĤÕ¶
ÔµÖĢ Õ¥Õ¯
ĠÔ¼ÕĤ ÕĢ
ĠÕ¡ÕºÖħÖĢ Õ«Õ¶Õ«
ĠÕ´ Õ¸ÖĤÕ¿
ĠÕ¶ Õ¡Õµ
Õ¸ÖĤÕ² Õ©
Õ¥Õµ Õ¶
ĠÕ°Õ¡ÕµÕ¿Õ¶ Õ¥Öģ
Õ¡Õ½Õ«ÖĢ Õ¡Õ¯Õ¡Õ¶
ĠÕĦÕ«ÖĦ Õ¡ÕµÕ¥Õ¬
n ews
Õ«Õ °
ĠÕ¯ Õ¸ÖĤÕ¿
Õİ Õ¥ÖĢ
ĠÕ¡Õ¶Öģ ÕµÕ¡Õ¬
ĠÕ«Õ½Õ¯ Õ¡ÕºÕ¥Õ½
ĠÕ½Õ¡Õ°Õ´Õ¡Õ¶ Õ¡Õ¤ÖĢÕ¡Õ¯Õ¡Õ¶
ĠÕ¾Õ¥ÖĢÕ» Õ¶Õ¡Õ¯Õ¡Õ¶
ĠÕ°Õ¥Õ¼ Õ¸ÖĤ
ĠÕ°Õ¸ÖĤÕ· Õ¡ÖĢÕ±
Õ¡Õ´ Õ«
Õ¡Õ´ Öĥ
ĠÕ¯ Õ¼
Õ¡Õ½ Õ¡Öģ
ĠÕ¿ Õ¡Õ¼
ĠÕ½ Öĩ
ĠÕĦ Õ¡Õ½
ĠÕĦ Õ¡Õ½Õ¶
ĠÔ¹ Õ¸ÖĤÕ´
ÖĨ Õ¸ÖĢÕ´
Õ¸ÖĤÕµÕ© Õ¶Õ¥ÖĢÕ«
ĠÕ¹Õ§ Õ«Õ¶
ĠÕ¸ÖĤÕª Õ¥ÖĢÕ¨
ĠÕ¦Õ¡ÖĢÕ£ Õ¡Öģ
ĠÕ¦Õ£ Õ¡Õ¬Õ«
ĠÖĦÕ¡ÖĢÕ¿ Õ¥Õ¦
ĠÕº Õ¡Õº
Ô± Õ½Õ¿
ĠÕĪ Õ¹
Õ¡Õ·ÖĢÕ» Õ¡Õ¶
ĠÕ¡ÕºÕ¡Õ°Õ¸Õ¾ Õ¥Õ¬
ĠÕ¯Õ¸Õ¶ ÖĨ
ĠÕ¯Õ¸Õ¶ Õ¯ÖĢÕ¥Õ¿
5 4
ĠÕ¯ Õ¥ÖĢ
Õ½ Õ¡Õ¶
ĠÕ¹ Õ¥Õ½
ĠÖħ Õª
Ô» ÖĢÕ¡Õ¾
Ġ( Â«
Õ«Õ¬ Õ«Õ½
ĠÕĶ Õ¡Õ²Õ¡ÖĦ
ĠÖĥÕ¸ÕŃ Õ¥Õ¬
Õ¥Õ£ Õ«Õ¶
ĠÔ³ÖĢÕ«Õ£Õ¸ÖĢÕµ Õ¡Õ¶Õ¨
ĠÕ¥ÖĢÕ¡ÕªÕ·Õ¿ Õ¡Õ¯Õ¡Õ¶
ĠÕĶÕ¸Õ¹ Õ¡ÖĢÕµÕ¡Õ¶Õ«
Õ¥ÖĢÕ¥Õ¯ Õ¡ÕµÕ«Õ¶
Õ¡Õ³ ÕµÕ¸ÖĤÕ²
Õ¡Õ¢Õ¥ÖĢ Õ¸Õ²
Ô±Õı Õķ
ĠÕ¦Õ£ Õ¸ÖĤÕ´
ĠÔ±Õ¤ÖĢÕ¢Õ¥Õ» Õ¡Õ¶Õ¨
ĠÔ±Õ¼ Õ¡ÖĦÕ¥Õ¬
ĠÕ¡Õ´Õ½ Õ¾Õ¡
ĠÕ¦Õ¥Õ¯ Õ¸ÖĤÕµÖģ
ĠÕ½Õ¥Õ¶Õµ Õ¡Õ¯Õ¡Õ¶Õ¸Öģ
Õ¡Õ´ Õ¡Õ½Õ¶
ĠÕ« Õ½
Õ¡Õ¾Õ¸ÖĢ Õ¸ÖĤÕ©ÕµÕ¡Õ¶
ĠÕºÕ¡Õ¿ Õ·
âĢ İ
ĠÕ´Õ¥Õ¯ Õ¶Õ¥Õ¬
ĠÕ´Õ¿ Õ¶Õ¸ÖĤÕ´
ĠÕ¯Õ¡Õ¦Õ´Õ¡Õ¯Õ¥ÖĢÕº Õ¥Õ¬
ĠÕ«ÖĢÕ¡Õ¯Õ¡Õ¶Õ¡Öģ Õ¶Õ¸Õ²
ĠÕĵÕ¡Õ·Õ«Õ¶ ÕµÕ¡Õ¶
Õ¡Õ¨ Õ¶Õ¯Õ¥ÖĢ
ĠÕ¯ Õ¸Õ¿
ĠÕ¬ Õ¼
Õ¸ÖĤÕµ Õ£
ĠÕ¡Õ¼Õ¡Õ» Õ«Õ¯Õ¡
ĠÕŃÕ¸ÖĢÕ°ÖĢÕ¤ Õ¡ÖĢÕ¡Õ¶Õ«
ĠÕ£ÕµÕ¸ÖĤÕ² Õ¸ÖĤÕ´
ĠÕĢÕ«Õ´ Õ¡
Õ¶ Õ¥Õ´
Õ¸ÖĤÕ¶ Õ¹
ĠÕ£ Õ¥Õ¿
ĠÕĢ Ô±ÕĬÔ¿
ĠÕ¾ Õ¡Õ¾Õ¥ÖĢ
ĠÕ°Õ¡ÖĢÖģ Õ¥ÖĢÕ¨
ĠÕ°ÖĢÕ¡ÕºÕ¡ÖĢÕ¡Õ¯ Õ¸ÖĤÕ´
ĠC om
Õ«Õ¶Õ£ Õ«
ĠÕ¡Õ° Õ¡
ĠÔ±Õ·ÕŃ Õ¡ÖĢÕ°
ĠÔ¿Õ¥Õ¶Õ¿ÖĢÕ¸Õ¶ Õ¡Õ¯Õ¡Õ¶
Ô¿Õ¡Õ¿ Õ¥Õ£Õ¸ÖĢÕ«Õ¡
Õ¸ÖĤ Õ¡Õ´Õ¥Õ¶Õ¡ÕµÕ¶
ĠÕ¯Õ¸Õ²Õ´ Õ¨
Ô±ÕĲ Ô³
ĠÔ¹Õ¸ÖĤÖĢÖĦÕ« Õ¡Õ¶
ĠÕ¶Õ¯Õ¡ÖĢ Õ¡Õ°Õ¡Õ¶
ĠÕ¡ÖĢÕ¤Õ¡ÖĢ Õ¡Õ¤Õ¡Õ¿Õ¸ÖĤÕ©ÕµÕ¡Õ¶
ĠÕ¢Õ¸Õ¾Õ¡Õ¶Õ¤Õ¡Õ¯ Õ¸ÖĤÕ©ÕµÕ¡Õ¶
ĠÕ¢Õ¡ÖĢÕ¥Õ¬ Õ¡Õ¾
ĠÕ¿Õ¡ÖĢ Õ¥Õ¬
ĠÕ¶Õ¥ÖĢÕ ´
ĠÕĩ Õ¾
ĠÖĦÕ¡Õ²Õ¡ÖĦÕ¡ÕºÕ¥Õ¿ Õ«
ĠÕ¥Õ²Õ¢ Õ¡ÕµÖĢ
ĠÕ° Õ¸ÖĤÕ½
Õ¸Õ¶ Õ«Õ¶
ÖĢÕ¾ Õ¥Öģ
Õ¶Õ¶ Õ¡
ĠÕķ Õ½
ĠÕ» ÖĢÕ«
ĠÕ°Õ¡Õ¶ÖĢ Õ¸ÖĤÕ©ÕµÕ¡Õ¶
Õ£Õ¶ Õ¡ÕªÕ¡Õ´
Õ¸ÖĤÖĢÖĦ Õ¡Õ¯Õ¡Õ¶
ĠÕºÕ¬ Õ¡Õ¶
Õ¨Õ¶Õ¿ ÖĢÕ¡Õ¶ÖĦ
Õ¸ÖĤÕ¡Õ´Õ¥Õ¶Õ¡ÕµÕ¶ Õ«Õ¾
Õ«Õº Õ¿
ĠÕ¥ÖĢÕ¢ Õ¥Õ´Õ¶
ĠÕ¡Õ° Õ¡Õ¦Õ¡Õ¶Õ£
ĠÕ¾Õ¶Õ¡Õ½ Õ¾Õ¡Õ®ÖĦ
Õ¡Õ°Õ¡Õ´ Õ¡Õ¬Õ«ÖĢ
ĠÕĢÕ¡ÕµÖĢ Õ¡ÕºÕ¥Õ¿
Õ©Õ¶ Õ¸Õ¬Õ¸ÖĢÕ¿
3 9
Õ¡Õ¯ Õ«ÖĢ
Õ¸ÖĤÕ¶ Õ¨
Õ¡Õ½ ÕµÕ¡Õ¶Õ¨
Õ¸ÖĢ Õ¸Õ¶
ĠÕ¤ Õ«ÖĢ
ĠÕ¤ Õ¡Õ°Õ¬Õ«Õ³
ĠÔ± Õ°
ĠÕį ÕµÕ¸ÖĤÕ¶
Õ¡ÖĢÕ¯ Õ¡ÕµÕ«Õ¶
ĠÕ´Õ« Õ¡Õ¶Õ£Õ¡Õ´
Õ¡Õ·ÖĢÕ» Õ¡Õ¶Õ«
ĠÕ¬Õ¥Õ¦ Õ¾Õ«
Õ¡Õ°Õ¡Õµ Õ¯Õ¡Õ¯Õ¡Õ¶
ĠÔ±Õ¬Õ¥ÖĦÕ½ Õ¡Õ¶Õ¤ÖĢ
ĠÔ·Õ»Õ´Õ«Õ¡Õ® Õ¶Õ«
ÕıÕ¥Õ² Õ¥Õ¯
4 6
o w
Õ¸ÖĤ ÖĢÕ
ĠÕ¡Õ¶ Õº
ĠÕºÕ¡ÕµÕ´Õ¡Õ¶ Õ¡Õ£Õ«ÖĢ
Õ¡ÖģÕ«Õ¶ Õ¥ÖĢÕ«
ĠÕ«Õ·ÕŃÕ¡Õ¶ Õ¸ÖĤÕ©ÕµÕ¸ÖĤÕ¶Õ¨
ĠÕ¡Õ» Õ¡Õ¯ÖģÕ¸ÖĤÕ©ÕµÕ¡Õ¶
Õ¥ÖĢÕ± Õ¡Õ¾Õ¸ÖĢ
Ô±ÖĢÕ´Õ¥Õ¶ ÕºÖĢÕ¥Õ½
ĠÕ¶Õ¡Õ´ Õ¡Õ¯
Õ«Õ¶ Õ½
Õ¡Õ½ Õ¥ÖĢ
Õ¡Õ® Õ«Õ¶
Õ¡ÕŃ Õ¸ÖĤÕ¦
ĠÕ¦ Õ¡Õ¾
Õį Õ¥ÖĢÕª
ĠÕºÕ¥Õ¿ Õ¸ÖĤÕ©ÕµÕ¸ÖĤÕ¶Õ¶Õ¥ÖĢÕ«
ÕºÕ¡Õ¶ Õ¡Õ¯Õ¡Õ¶
ĠÕºÕ¡Õ° Õ¥Õ¬
Ô¸ Õ¶
ĠÕ½Õ¿Õ¥Õ²Õ® Õ¾Õ¥Õ¬
ĠÕ´Õ¡ÖĢÕ¿ Õ¡Õ¯Õ¡Õ¶
ĠÔ±Ô³ ÕĨ
ĠÕºÕ¶Õ¤ Õ¸ÖĤÕ´
5 7
ĠÕ´ Õ¡Õ¿Õ¡Õ¯
Õ¡Õ´ Õ©Õ¥ÖĢ
ĠÕ¢ Õ¼
ĠÕ¡Õ¼ Õ¯Õ¡Õµ
Õ² Õ»
Õ¡Õ» Õ¸Õ²
ĠÕĪ ÕĲ
ĠÕ¡Õ¶Õ° Õ¡Õ¿
ĠÕ¶Õ·Õ¡Õ¶Õ¡Õ¯ Õ¾Õ¥Õ¬
5 6
ĠÕ¡Õ £
Õ´Õ¡Õ¶ Õ¤Õ¡Õ´
ĠÕ°Õ¡Õµ Õ¡Õ½Õ¿Õ¡Õ¶ÕµÕ¡Õ¶
ĠÕĢÕ¡ÕµÕ¡Õ½Õ¿ Õ¡Õ¶Õ«Õ¶
ĠÖħÖĢ Õ¶
ĠâĢ ¢
ĠÕ£Õ«Õ¿ Õ¡Õ¯Öģ
ĠÕįÕ¡ÖĢÕ£Õ½ ÕµÕ¡Õ¶Õ«Õ¶
Õ¥ÖĢÕ£ Õ¥Õµ
ĠÕ·Õ¡ÖĢÕ¸ÖĤÕ¶Õ¡Õ¯ Õ¾Õ¸ÖĤÕ´
Õ¡Õ¶Õ¹Õ¥Õ½ Õ©Õ¥ÖĢ
Õ¥Õ¿ Õ¥ÖĤ
ÕĪ Õ¹
Õ¡Õ¶Õ¡Õ¬ Õ¸Õ¾
Ġ200 9
ĠÕ¡Õ¶Õ¥Õ¬ Õ«Õ½
ĠÕ¡ÖĢÕ£Õ¥Õ¬ Õ¾Õ¸ÖĤÕ´
ĠÖħÕ¤ Õ¡Õ¶Õ¡Õ¾
ĠÕ¾Õ¥ÖĢÕ¡Õ¯Õ¡Õ¶ Õ£
ĠÖĦÕ¡Õ² Öģ
ĠÕ´Õ«Õ´ ÕµÕ¡Õ¶Öģ
4 9
Ġ 000
Õ¶ Õ¡ÕŃÕ¡Õ£Õ¡Õ°
Õ¡Õ¯ Õ¸Õ¹
Õ«Õ¶ Õ¡
ĠÕ¯ Öģ
Õ¯ Õ½
Õ¡Õ· Õ¡Õ¼
ĠÕ¦ ÖĢÕ¯
ĠÔµ ÕĨ
ĠÔ±Õµ Õ½Õ¿Õ¥Õ²
Õ¡ÕŃÕ¡Õ£ Õ®
ĠÕ¤ÖĢÕ½ ÖĩÕ¸ÖĢ
Õ¶ Õ¡Õ¾
ĠÕº Õ¿
Õ¡Õ¢ Õ¡Õ·ÕŃ
ÖĢÕ¡Õ´ Õ¡Õ½Õ¶
Õ¸ÖĤÕµÕ© Õ¶Õ¥ÖĢÕ¨
ĠÕķ ÕĲ
Õĩ Õ¡Õ¿
ĠÕ²Õ¥Õ¯ Õ¡Õ¾Õ¡ÖĢÕ¨
ĠÕ¹Õ¡Öĥ Õ¡Õ¦Õ¡Õ¶Öģ
Õ¸ÖĢÕ ©
ĠÕ¢Õ¡Õ² Õ¡Õ¤ÖĢ
ĠÕ¾Õ¥ÖĢÕ¡Õ¶ Õ¸ÖĢÕ¸Õ£
4 7
â ĸ
ĠÕĢ Ô±ÕĲ
Ô» Õİ
ĠÕ£ÖĢ Õ¡Õ¼
Ô±ÕĲ Ô±ÕĲ
ĠÕ¦Õ¸Õ° Õ¥ÖĢÕ«
ÕįÕĢ ÕĦ
ĠÔ¿Õ¡Õ© Õ¸Õ²Õ«Õ¯
ĠÕ¿ Öĩ
Õ¡ÖĢÕ¤ ÕµÕ¸ÖĤÕ¶
ÕĦ Ô»
Õ«Õ¬Õ« Õ¡ÖĢÕ¤
ĠÕ©Õ«Õ´ Õ«
ĠÕ´Õ¡Õ¶ÖĢÕ¡Õ´ Õ¡Õ½Õ¶
ĠÕ¡Õ¶Õ¨Õ¶Õ¤ Õ°Õ¡Õ¿
Ô±Õ¶Õ± Õ¶Õ¡Õ¯Õ¡Õ¶
Õ¡Õ¿ Õ¸ÖĤÕ´
Õ¤ Õ¡Õ½
ĠÕŃ Õ¡Õ¶Õ¸ÖĤÕ©
ĠÕ¼ Õ«Õ½Õ¯
ĠÕ®Õ¡Õ¼Õ¡Õµ Õ¸ÖĤÕ©ÕµÕ¸ÖĤÕ¶Õ¨
Õ¥Õ¤ Õ¥ÖĢ
ĠÕ¯Õ¡ÖĢÕ® Õ«ÖĦÕ¨
ĠÕ¿Õ¾ÕµÕ¡Õ¬ Õ¶Õ¥ÖĢÕ¨
ĠÕ¸ÖĢÕ¤ Õ«Õ¶
ĠÕ¯Õ¡Õ¶Õ£Õ¶ Õ¡Õ®
ĠÔ±ÖĢÕ´ Õ¡Õ¾Õ«ÖĢ
ĠÔ±Õ¾Õ¥Õ¿ Õ«Õ½
ĠÕ£ Õ¸Õ¶Õ¥
Õ¡Õ² Õ¿Õ¶Õ«
ÖĢÕ¡Õ¶ ÖĦÕ¨
ĠÕ·ÖĢÕ» Õ¡ÕºÕ¡Õ¿
ĠÕ¨Õ¶Õ¿ÖĢ Õ¥Õ¬
ĠÔ±ÕµÕ½ Õ«Õ¶ÖĦÕ¶
ĠÕ°Õ¡ÕµÕ¿Õ¡ÖĢÕ¡ÖĢ Õ¸ÖĤÕ©ÕµÕ¸ÖĤÕ¶
ar t
ĠÕ¿Õ¾ÕµÕ¡Õ¬ Õ¶Õ¥ÖĢÕ¸Õ¾
ĠÔ±Õ¼ Õ¡Õ»
f f
Õ¥ÖĢ Õ¡Õ¶
ĠÕ° ÖĢÕ¤Õ¥Õ°
Õ¥Õ¶ Õ£
Õ¡Õ£ Õ¸ÖĤÕ´
ĠÕ¡Õ¶ Õ¢
Õ§ Õ¶
ĠÕ«ÖĢÕ¡Õ¾ Õ¡Õ¢Õ¡Õ¶Õ¡Õ¯Õ¡Õ¶
ĠÕ¡ÖĢÕ¿ Õ¡Õ½
ĠÕ¡ÖĢÕ¿ Õ¡Õ¤ÖĢ
Õ¡ÕºÕ¡Õ° Õ¡Õ¯Õ¡Õ¶
ĠÕ¶Õ«Õ½Õ¿ Õ«
ĠÕ¶Õ¡ÕŃÕ¯Õ«Õ¶ Õ¸ÖĤÕ´
ĠÕ¯Õ¿ Õ¡
ĠÕ¡ÖĢÕ±Õ¡Õ¶ Õ¡Õ£ÖĢ
Ðµ Ð
ĠÕ¿Õº Õ¡Õ¾Õ¸ÖĢ
Õ¶ Õ¥ÖĢÕ½
ĠÕ´ Õ©Õ¶Õ¸Õ¬Õ¸ÖĢÕ¿
ĠÕ¢ Õ¡Õ¬
ĠÕ°Õ¡Õ´ Õ¡ÕªÕ¸Õ²Õ¸Õ¾
ĠÖĥÕ¸ÕŃ Õ¡Õ¶Õ¡Õ¯
ĠÕ¸ÖĤÕ¶Õ¥Õ¶ Õ¡
ĠÕ°Õ¡Õ·Õ¾ Õ¸Õ¾
ĠÖĦÕ¡ÕµÕ¬ Õ¨
ĠÕºÕ¸Õ² Õ¸Õ¿
ÖĢ Õ«ÕŃ
ĠÕ´ Õ¡Õ¶ÖĢ
ĠÕ¯ Öĥ
Õ¤ Õ«
ĠÕŃ Õ©
ĠÕºÕ¡Õ·Õ¿Õ¸Õ¶ Õ¸ÖĤÕ´
ĠÕ´Õ¡Õ½Õ¶Õ¡Õ¯Öģ Õ¸ÖĤÕ©ÕµÕ¡Õ´Õ¢
ĠÖĥÕ¡Õ½Õ¿ Õ¡Õ¢Õ¡Õ¶
ĠÔº Õ¸Õ²Õ¸Õ¾
Õ¡Õ¬Õ¢ Õ¡Õ¶Õ¤
ĠÕ¶Õ¥ÖĢÕ´ Õ¸ÖĤÕ®
ÖĢ Õ¸
Õ¡Õ½ ÕµÕ¡Õ¶
Õ¡Õ¾ Õ¡Õ³
Õ¥Õ½ Õ¨
ĠÕ¹ Õ¯Õ¡Õ¶
ĠÕĦ Õ«Õ»
Õ¸ÖĤÕ½ Õ¡Õ¯Õ¡Õ¶
ĠÔ¸ ÕĨ
ĠÕ¥ÖĢÕ«Õ¿Õ¡Õ½Õ¡ÖĢÕ¤ Õ¡Õ¯Õ¡Õ¶
ĠÕ£Õ¸ÖĤÕ´ Õ¡ÖĢÕ¨
ĠÕ§Õ¬Õ¥Õ¯ Õ¿ÖĢ
ĠÕŃÕ¸ÖĤÕ´Õ¢ Õ¨
ĠÕ¥Õ¦ÖĢÕ¡Õ¯ Õ¡Öģ
Õ«Õ½ Õ¿ÖĢ
ĠÕ£Õ¸ÖĢÕ® Õ¶Õ¡Õ¯Õ¡Õ¶
Õ¡ÕºÕ¥Õ¿ Õ¸ÖĤÕ©ÕµÕ¡Õ¶
Öħ Õ£Õ¶
Õ¡Õ¿Õ¡ÖĢ Õ¡Õ®
ĠÖħÕ£ Õ¶Õ¥Õ¬
ĠÕ°Õ¡Õ¿ Õ¯Õ¡Õ¶
ĠÕ³Õ¡Õ¶Õ¡ÕºÕ¡ÖĢÕ° Õ¨
ĠÕ¬Õ¸ÖĤÕ® Õ¸ÖĤÕ´
ĠF acebook
ĠÕ¡ÖĢÕ¿Õ¡Õ½Õ¡Õ¶ Õ¥Õ¬
ĠÕ° Õ¡Öģ
ĠÕ½ Õ¡Õ¯
Õ¡Õ¤ ÖĢÕ¾Õ¸ÖĤÕ´
Õ¡Õ¢ Õ¶Õ¡Õ¯
Õ«Õ¬ Õ´
ĠÕ´Õ¡Õ½Õ¶ Õ¡Õ³ÕµÕ¸ÖĤÕ²
ĠÕ°Õ¡Õ´Õ¡Õ¯Õ¡ÖĢÕ£ Õ¸ÖĤÕ´
ĠÕ°Õ¡ÖĢÕ¯ Õ¡Õ¾Õ¸ÖĢ
ĠÕºÕ¡ÖĢ Õ¡Õ£Õ¡ÕµÕ¸ÖĤÕ´
Õ¡Õ°Õ¡ÖĢ Õ¥Õ¬
ĠÕ´Õ¿Õ¡Õ® Õ¥Õ¬
ĠÕ¡Õ¶Õ¤ÖĢÕ¡Õ¤Õ¡ÖĢÕ± Õ¥Õ¬
Õ¬Õ«Õ´Õº Õ«Õ¡Õ¯Õ¡Õ¶
ĠÕ¾Õ¡Õ½Õ¿ Õ¡Õ¯
Õ¥ Õ¡Õ¯Õ¡Õ¶
ĠÕ£ Õ¥Õ¶Õ¥ÖĢ
Õ¬ Õ¡Õ¾
ÕŃ Õ¿
ÕĦ Õ¡Õ¶Õ¹Õ¥Õ½Õ©Õ¥ÖĢ
ĠÕ¥Õ² Õ¡Õ®
ĠÔ¶ Ô¼ÕĦ
ĠÕ¥ÖĢÕ¥ÕŃ Õ¡
Õ¡ÖĦÖĢÖĦ Õ«ÖĢ
ĠÕ¡Õ¼Õ¡Õ¾Õ¥Õ¬ Õ¡Õ£Õ¸ÖĤÕµÕ¶
Õ¸ÖĤÕ ¾
ĠÕ¿ Õ¡Õ²
ĠÕ´Õ« Õ¡ÕªÕ¡Õ´Õ¡Õ¶Õ¡Õ¯
Õ¡ÖĢÕ¡ÖĢ Õ¸ÖĤÕ©ÕµÕ¡Õ¶
Õ¸Õµ Õ¡Õ¶Õ«
ĠÕ¶Õ¥ÖĢÕ¯Õ¡ÕµÕ¡Öģ Õ¶Õ¥Õ¬Õ¸ÖĤ
ĠÕ¡Õ´Õ¥Õ¶ Õ¡Õ´
ĠÕŃÕ¸Õ½ Õ¶Õ¡Õ¯
ĠÕ¨Õ¶Õ¿ÖĢ Õ¸ÖĤÕ©ÕµÕ¡Õ¶
ĠÕ¤Õ¡Õ½ Õ¡ÕŃÕ¸Õ½
ĠÖĥÕ¸ÖĥÕ¸ÕŃ Õ¸ÖĤÕ©ÕµÕ¸ÖĤÕ¶Õ¶Õ¥ÖĢÕ«
ÕĨÕ· Õ¥Õ¶ÖĦ
p er
Õ¤ Õ¥Õ¼
Õ¹ Õ¸ÖĤÕ©ÕµÕ¸ÖĤÕ¶Õ¨
ĠÖħ Õ¶Õ¬Õ¡ÕµÕ¶
ĠÕ°Õ¡Õµ Öģ
ĠÕĨ ÖĢÕ¡Õ¶Öģ
Õ«Õ¹ Õ«
ĠÕ´Õ¥Õ¯ Õ¸ÖĤÕ´
Ô¼ Õ¡Õ¾
Ġ3 5
ĠÕ«ÖĢÕ¡Õ¯Õ¡Õ¶Õ¡Öģ Õ¾Õ¸Õ²
Õĩ Õ¶Õ¸ÖĢÕ°
Õ¡ÖĢÕ¡Õ¶Õ« Öģ
ĠÕ½Õ«ÖĢ Õ¥Õ¬Õ«
ĠÕ£Õ¿ Õ¶Õ¸ÖĤÕ´
Õ¡ÖĤ Õ¸ÖĢ
ĠÕ¡ÖĢÕ° Õ¥Õ½Õ¿
Õ«Õ½ Õ¨
ĠÕ® Õ¸Õ¾
ĠÕ£Õ¸ÖĢÕ® Õ¡Õ¤Õ«ÖĢ
Õ¡Õ¯Öģ Õ¡Õ¯Õ¡Õ¶
ĠÕ¾Õ¥ÖĢ Õ¡Õ¢Õ¥ÖĢÕ¸Õ²
ĠÕ¿Õ¥Õ²Õ¥Õ¯ Õ¸ÖĤÕ©ÕµÕ¸ÖĤÕ¶Õ¶Õ¥ÖĢ
Õ¿Õ¥Õ´Õ¢ Õ¥ÖĢÕ«Õ¶
ĠÕªÕ¸Õ²Õ¸Õ¾ÖĢÕ¤ Õ¡Õ¯Õ¡Õ¶
ĠÕ£Õ® Õ¸Õ¾
4 4
ĠÕ¶ ÖĢÕ¡Õ¶Õ«Öģ
Õ¥Õ² Õ«
ÕĢ Õ¡Õ¶Õ¤Õ«Õº
ÕĢ Õ¡Õ½ÖģÕ¥
ĠÕŃ Õ¸Õ°
Õį Õı
ÕºÖĢ Õ«Õ¬Õ«
Õ«Õ© Õ«
ĠÕ°Õ¡ÕµÕ¿Õ¡ÖĢÕ¡ÖĢ Õ¸ÖĤÕ´
ĠÕ¬Õ¸ÖĤÕ® Õ´Õ¡Õ¶
ĠÕ·Õ¿ Õ¡Õº
ĠÕ´Õ¡ÖĦÕ½ Õ¡ÕµÕ«Õ¶
Õ¶ Õ«Õ¶
Õ¡Õ¶Õ« Õ¡
Õ«Õ½ Õ¸ÖĢ
ÕĪÕĴ Ô¼
ĠÕŃÕ´Õ¢ Õ¡Õ£ÖĢÕ¸ÖĤÕ©ÕµÕ¡Õ¶
ĠÕ¤Õ¡ÖĢÕ± Õ¶Õ¥Õ¬
ĠÕ¶Õ«Õ½Õ¿ Õ¸ÖĤÕ´
ĠÖĨÕ«Õ¬ Õ´Õ«
Õ« Õ¡ÕµÕ«Öģ
Õ£ Õ¸Õ°
Õ¡Õ· Õ¯
ĠÕĦ Õ¡Õ´
ĠÕ¡Õ¼Õ¡Õ» Õ¡Õ¤ÖĢÕ¾Õ¥Õ¬
Ô±ÕĲ Ô´
Õ¡ÖĢÕµ Õ¡Õ¶Õ«Õ¶
Ġ7 0
ĠÕ«Õ·ÕŃÕ¡Õ¶ Õ¸ÖĤÕ©ÕµÕ¸ÖĤÕ¶Õ¶Õ¥ÖĢÕ¨
ĠÕ£Õ¡Õ¬ Õ¸ÖĤ
ĠÕ·Õ¶Õ¸ÖĢÕ° Õ¡Õ¯Õ¡Õ¬Õ¸ÖĤÕ©ÕµÕ¸ÖĤÕ¶
ĠÕ·Õ¡ÖĢÕ¸ÖĤÕ¶Õ¡Õ¯ Õ¥Õ¬
Õ¸Õ³ Õ¡Õ¶Õ¡ÕºÕ¡ÖĢÕ°
ĠÕ°ÕµÕ¸ÖĤÖĢÕ¡Õ¶ Õ¸Öģ
ĠÕĦ Õ¸Õ¾Õ½
ĠÕ°Õ¥Õ¿ Õ¡ÕºÕ¶Õ¤
.. ..
Õ¡Õ© Õ¥Õ´Õ¡Õ¿
ĠÕ¢Õ¡Öģ Õ¡Õ¿
ĠÕ°Õ¥Õ¼ Õ¡Õ¶Õ¯Õ¡ÖĢ
ĠÕ®Õ¡Õ¼Õ¡Õµ Õ¸ÖĤÕ©ÕµÕ¸ÖĤÕ¶Õ¶Õ¥ÖĢ
ĠA n
ĠÕ¸ÖĢÕ¸Õ¶Öģ Õ«Öģ
ĠÔ»Õ¶ Õ¿
Ô±Ô¶ Ô³
ĠÕ¡Õ¶Õ£Õ¬ Õ¥ÖĢÕ¥Õ¶
Õ¸ÖĤ Õ¡ÖĢÕ¤
Õ¸ÖĤÕ´ Õ½
ĠÔ± ÖĨ
ĠÕ¹Õ§ Õ«
ĠÕ´Õ¡ÖĢÕ¦ Õ«Õ¹
ĠÕ½Õ¿Õ¥Õ²Õ® Õ¸ÖĤÕ´
ĠÕ®Õ¶ Õ¾Õ¡Õ®
Õ¥Õ¯Õ¶ Õ¡Õ¢Õ¡Õ¶
ĠÕ¶ÕµÕ¸ÖĤÕ© Õ¥ÖĢÕ¨
ĠÕ¡Õ¾Õ¿ Õ¸Õ³Õ¡Õ¶Õ¡ÕºÕ¡ÖĢÕ°
ĠÕ¨Õ¶Õ¯ Õ¡Õ¬
ĠÕ°Õ¡Õ¶ÖĢÕ¡ÕºÕ¥Õ¿ Õ¸ÖĤÕ©ÕµÕ¡Õ¶
ÖĥÕ¸Õ½Õ¿ Õ¸Õ¾
ĠÕ¤Õ«Õ¾Õ¡Õ¶ Õ¡Õ£Õ«Õ¿Õ¡Õ¯Õ¡Õ¶
Õ¡ÕºÕ¡Õ·Õ¿ ÕºÕ¡Õ¶
3 2
ĠÕ Ŀ
ĠÕ° Õ¸ÖĤÕ¦
ĠÕ¯ Õ¨
Õ¥ÖĢÕ ®
Ô± Õ¶Õ¤
ÕĢ Õ¡Õ»
ÕĬ Õ¡Õ·Õ¿
ĠÕªÕ¡Õ´Õ¡Õ¶Õ¡Õ¯ Õ¨
ĠÕ¶Õ·Õ¡Õ¶Õ¡Õ¯ Õ¸ÖĤÕ©ÕµÕ¸ÖĤÕ¶
ĠÕ£Õ¸ÖĢÕ®Õ¸ÖĤÕ¶Õ¥ Õ¸ÖĤÕ©ÕµÕ¸ÖĤÕ¶
ĠÕºÕ¡Õ¿Õ¡Õ½ÕŃÕ¡Õ¶Õ¡Õ¿Õ¾ Õ¸ÖĤÕ©ÕµÕ¡Õ¶
ĠÕ´Õ¡Õ¶Õ¯ Õ¡Õ¾Õ¡ÖĢÕª
ĠÔ±ÕĲ ÕĦÔµÕĨ
ĠÕ©Õ¥ÖĢÕ© Õ¨
ĠÕĦÔµ Ô¶
Ġ i
Õ¿ Õ¾
Õ¾ Õ¡ÖĢÕ³
ĠÕ£ Õ«Õ¶
Õº Õ¿
ÕĢ ÔµÕı
Õ¡Õ¤ Õ¡Õ·Õ¿
Õ¡Õ¶Õ¡Õ¯ Õ¥ÖĢÕ¿
ĠÕ¶Õ· Õ¥Õ¬Õ¸Õ¾
ĠÕĵÕ¡Õ·Õ«Õ¶ ÕµÕ¡Õ¶Õ«Õ¶
Ġ8 0
ĠÕ½Õ¿Õ¸ÖĢ Õ¡Õ£ÖĢ
Ġ *
ĠÕ¾ Õ¡ÖĢÕª
ÕĢÕ¡Õµ Õ¥ÖĢÕ¥Õ¶
ĠÕ¶Õ¾Õ¡Õ¦ Õ¡Õ£Õ¸ÖĤÕµÕ¶
Õ´ Õ¸ÖĤÕ¿
Õ¡ÖĢÕ¤ Õ¡ÖĢ
Ôµ Õ²
ÖĢÕ¾ Õ«
Õ¡Õ¾Õ¡ÖĢ Õ¸ÖĤÕ©ÕµÕ¸ÖĤÕ¶Õ¨
ĠÔ¼ Õ¡Õ¾
ĠÕ¶Õ¥ÖĢÕ¯Õ¡ÕµÕ¡Öģ Õ¸ÖĤÖģ
ĠÔ½ Õ¸Õ½
ĠÕ´Õ¥Õ® Õ¡Õ´Õ¡Õ½Õ¶
ar y
ĠÕĮÕ¸ÖĤÕ½ Õ¡Õ½Õ¿Õ¡Õ¶Õ¨
ĠÖĦÕ¡Õ²Õ¡ÖĦÕ¡ÕºÕ¥Õ¿ Õ¡ÖĢÕ¡Õ¶Õ«
ĠÕ´Õ«Õ»Õ¸ÖģÕ¡Õ¼ Õ¸ÖĤÕ´Õ¶Õ¥ÖĢ
ĠÕ¢Õ¡ÖģÕ¡Õ¼ Õ«Õ¯
ĠÕ¡Õ¯Õ¸ÖĤÕ´Õ¢ Õ«
ĠÕ¨Õ¶Õ¤Õ¤Õ«Õ´ Õ¡Õ¤Õ«ÖĢ
_ _
ĠÕ° ÕµÕ¸ÖĤÖĢÕ¨
Õ¸ÖĢÕ º
Öĩ Õ¥Õ¯
Õ¸Õ¿ Õ¸
ĠÕ¶Õ· Õ¾Õ¸ÖĤÕ´
ĠÕªÕ¡Õ´Õ¡Õ¶Õ¡Õ¯ Õ«Õ¶
ĠÕºÕ¡Õ·Õ¿Õ¸Õ¶ Õ¨
ĠÕ¡Õ¦Õ¡Õ¿ Õ¸ÖĤÕ©ÕµÕ¡Õ¶
ĠÔ¶ Õ¸Õ°
ĠÕ¶Õº Õ¡Õ¿Õ¡Õ¯Õ¨
ĠÕ´Õ¡ÖĢÕ´ Õ«Õ¶Õ¨
ĠÕ¯Õ¶ Õ¥ÖĢÕ¯Õ¡Õµ
Ô±Ô³ ÕĲ
ĠÔ³ÖĢÕ«Õ£Õ¸ÖĢÕµ Õ¡Õ¶Õ«
ĠÖģÕ¡Õ® ÖĢ
âĸ º
ĠÕĢ Õ¡Õ½Õ¡ÖĢÕ¡Õ¯
ĠÕĢ ÕħÔ´
Õ¸Õ½ ÕµÕ¡Õ¶Õ«
ÕĪÕ ı
ĠÕ¶Õ¥ÖĢÕ¯Õ¡ÕµÕ¡Öģ Õ¾Õ¥Õ¬
ĠÕ´Õ¡Õ½Õ¶ Õ¡Õ¾Õ¸ÖĢ
Õ¸Õ¯ ÖĢ
ĠÕ¾Õ¥ÖĢÕ» Õ¸
ĠÖĥÕ¸ÖĥÕ¸ÕŃ Õ¸ÖĤÕ©ÕµÕ¸ÖĤÕ¶
ĠÖĥÕ¸Õ² Õ¸ÖģÕ«
ĠÕ´Õ¡Õ¯Õ¡ÖĢÕ¤ Õ¡Õ¯Õ«
Ô± Õº
ĠÕĢ Õ«Õ½
ĠÕ½ ÖĢÕ¡Õ°
ĠÕ¾ Õ¡ÕµÕ¥Õ¬
ĠÕį Õ¸ÖĤÕµÕ¶
ĠÕ¶Õ¡ÕŃ Õ¶Õ¡Õ¯Õ¡Õ¶
ĠÔ³ Ô±
ĠÔ» ÖĢÕ¡Õ¾
ĠÕ°Õ¡Õ¶Õ£ Õ½Õ¿
ĠÕ¤Õ¸Õ¬ Õ¡ÖĢÕ«
Õ¡ÕµÕ© Õ¥Õ¤
ĠÕ°Õ¡Õ´Õ¡Õ¶ Õ¡ÕŃÕ¡Õ£Õ¡Õ°
ÖĢ Õ¸Õ¶
ĠÕ° Õ¸ÖĤÕ´
ĠÕĢ ÕµÕ¸ÖĤÕ½Õ«Õ½Õ¡ÕµÕ«Õ¶
ÕŃ Õ¸Õ²
Ô» ÕĦ
ĠÕ«Õ¶Õ¹ Õ¶
ĠÕ¥ÖĢÕ¯ ÕŃÕ¸Õ½
ĠÕªÕ¡Õ´Õ¡Õ¶Õ¡Õ¯ Õ«
ĠÖĦÕ¶Õ¶ Õ¸ÖĤÕ©ÕµÕ¡Õ¶
ĠÕ¶Õ¾ Õ¡Õ£
ĠÕ°Õ¡Õ¶Õ±Õ¶ Õ¡ÖĢÕ¡ÖĢ
ĠÕ¯Õ¡Õ¶ÕŃ Õ¡ÖĢÕ£Õ¥Õ¬
ĠÕ°Õ¡Õ¾Õ¥Õ¬ ÕµÕ¡Õ¬
ĠÕ¯Õ¸Õ² ÖĦÕ«Õ¶
ĠÕºÕ¡Õ¿Õ¯ Õ¡Õ¶Õ¸ÖĤÕ´
Õ´ Õ¥Õ¼
Õ¯ Õ¡ÕŃ
ÕĦ Õ¡Õµ
ÖĢÕ¡Õ¶ Õ¯
ĠÕĢÕ¡Õ¶ÖĢ Õ¡ÕµÕ«Õ¶
ĠÖĦÕ¡Õ²Õ¡ÖĦÕ¡Õ¯Õ¡Õ¶ Õ¸ÖĤÕ©ÕµÕ¸ÖĤÕ¶Õ¨
ĠÕ¨Õ¶Õ¯Õ¥ÖĢ Õ¸ÖĤÕ©ÕµÕ¸ÖĤÕ¶Õ¶Õ¥ÖĢÕ«
ĠÕ£Õ¸ÖĢÕ®Õ¨Õ¶ Õ©Õ¡ÖģÕ«
ĠÕ¿Õ¾ÕµÕ¡Õ¬ Õ¶Õ¥ÖĢ
ĠÕ³Õ¡Õ¶Õ¡ÕºÕ¡ÖĢÕ° Õ¸Õ¾
ĠÕ³Õ¡Õ¶Õ¡Õ¹ Õ¸ÖĤÕ´
ĠÕ¡Õ¶Õ¯Õ¡ÕŃ Õ¸ÖĤÕ©ÕµÕ¡Õ¶
ÕĢÔ±Õħ Ô±ÕįÕıÔ±ÕĨÔ»
Õ¡Õ´Õµ Õ¡Õ¯Õ«
ĠÕ´ Õ«Õ¬Õ«Õ¡ÖĢÕ¤
ĠÕ£ Õ¸ÖĤÖģÕ¥
ĠÕŃ Õ¡Õ¶Õ£
Õ¡Õ¢ Õ¡Õ¶Õ¸ÖĤÕ´
Õı ÕĲ
Õ¥Õ¦ Õ¥ÖĢ
ĠÕ°Õ¡Õ¾Õ¡ÖĦ Õ¡Õ¯Õ¡Õ¶
ĠÕĦÕ¡Õ¶ Õ¾Õ¥Õ¬
ĠÕ¡Õ¼Õ¸Õ²Õ» Õ¡ÕºÕ¡Õ°Õ¸ÖĤÕ©ÕµÕ¡Õ¶
ĠÕ°Õ¡Õ¾Õ¥Õ¬ Õ¾Õ¡Õ®
Õ¡ÕªÕ¡Õ´ Õ¯Õ¥Õ¿
Ô±ÕĤ Ô±ÕĶ
ĠÔ³Õ¥ÖĢÕ´ Õ¡Õ¶Õ«Õ¡ÕµÕ«
3 3
5 8
Õ¶ ÖĦ
ĠÕ° Õ¼Õ¹Õ¡Õ¯
ĠÕ¯ Õ¸Õ·
Õ¡Õ° Õ¡Õ¶Õ»
ĠÕ© Õ¼Õ¹
ĠÖħ ÖĢÕ¾
ÕĦ Õ¡Õ½Õ¶
ĠÕºÕ¥Õ¿ Õ¸ÖĤÕ©ÕµÕ¸ÖĤÕ¶
ĠÕ°Õ¡ÖĢ ÖĩÕ¡Õ¶
ĠÕ¡ÕµÕ½ ÖħÖĢÕ¾Õ¡
Ô² Õ¡ÖĢÕ½Õ¥Õ¬Õ¸Õ¶
Õ¸Õµ Õ¡Õ¯Õ¡Õ¶
ĠÕĩ Õ«ÖĢÕ¡Õ¯Õ«
ĠÕ¾Õ«Õ³ Õ¡Õ¯Õ«
men ts
Ġp p
ig h
ĠÕ§ Õ¸ÖĤÕ©ÕµÕ¡Õ¶
Öĩ Õ¨
Õ«Õ¿ Õ¸ÖĢ
ĠÕ°Õ¡Õ½ Õ¶Õ¥Õ¬Õ¸ÖĤ
ĠÕŃÕ¶Õ¤ ÖĢÕ«
ĠÕ¯Õ¥Õ¶Õ¿ÖĢÕ¸Õ¶ Õ¨
ĠÕ¯ÖĢÕ© Õ¸ÖĤÕ©ÕµÕ¸ÖĤÕ¶
ĠÕĢÕ¡ÖĢ Öģ
ĠÕ°ÖĢÕ¡Õª Õ¡ÖĢÕ¾Õ¥Õ¬
ĠÕ·Öĥ Õ´Õ¡Õ¶
Õ¡Õ½Õ¿Õ« Õ¡ÖĢÕ¡Õ¯
ĠÕ¢Õ¥ÖĢÕ¾ Õ¡Õ®
N ews
Õ¶ Õ¥
Õ« ÖĨ
Õ¸Õ¶ ÕµÕ¡Õ¶Õ¨
ĠÕĦ Õ¶
ÕĦ Õ«Õ»Õ¡Õ¦Õ£Õ¡ÕµÕ«Õ¶
ĠÔµ ÕĬÕĢ
ĠÕĨ Õ¡Õ¬Õ¢Õ¡Õ¶Õ¤
ĠÕ¡Õ´ Õ¸ÖĤÕ½
ĠÕ¿Õ¥Õ½ Õ¡Õ¶Õ¯ÕµÕ¸ÖĤÕ¶
ĠÕ½Õº Õ«Õ¿Õ¡Õ¯
ĠÕ¿Õ¡ÖĢÕ¢Õ¥ÖĢ Õ¡Õ¯Õ¨
ĠÕ¡ÕºÕ¡Õ°Õ¸Õ¾ Õ¸ÖĤÕ´
ĠÕ¸ÖĤÖĢ Õ¥Õ´Õ¶
Õĸ ÖĢÕ¡Õ¶Õ½
ĠÕ¡Õ¾Õ¡ÖĢÕ¿ Õ¥Õ¬
ĠÕ¡Õ»Õ¡Õ¯Öģ Õ¸ÖĤÕ©ÕµÕ¸ÖĤÕ¶
ĠÕ¯Õ¡Õ¶ÕŃ Õ¡Õ¿Õ¥Õ½
Õ¡ÕŃÕ´Õ¢ Õ«
ĠÕ¤Õ¡Õ·Õ«Õ¶ ÖĦÕ«
ĠÕ£ÖĢÕ¡Õ½Õ¥Õ¶Õµ Õ¡Õ¯Õ«
5 9
Õ¡Õ¶ Õ¡Õ¶ÖĦ
ĠÕ§ Õ¯
Õ¡Õ´ Õ«Õ¶
Õ¡Õ¬ Õ½
ĠÔ¿ Õ¡Õ´
ĠÕĨ Õ¡Õ¦
Õ¡Öĥ Õ¡Õ¯Õ¸ÖĤÕ´
ĠÔ» Õ¿Õ¡Õ¬
Ô³ Õ¸ÖĢÕ®
Õ¡Õ¯Õ¡ÖĢÕ£ Õ«
ĠÕºÕ¡ÕµÕ´Õ¡Õ¶ Õ¡Õ£ÖĢÕ«
Ô· Õ»
ĠÕ±Öĩ Õ¸Õ¾
ĠÕ¶Õ¥ÖĢÕ¯Õ¡ÕµÕ¡ÖģÕ¸ÖĤÖģÕ«Õ¹ Õ¶Õ¥ÖĢÕ¨
ĠÕ£Õ¿ Õ¥Õ¬
ĠÕ©Õ¥Õ´ Õ¡Õ¶
ĠÖĦÕ¶Õ¶Õ¡ÖĢÕ¯ Õ´Õ¡Õ¶
ĠÕ¿Õ¸Õ¯Õ¸Õ½ Õ¨
ĠÕ°Õ¡Õ½Õ¯ Õ¡Õ¶Õ¡Õ¬
ÖĢÕ ¦
ĠÕ½ ÕºÕ¡Õ¶Õ¸ÖĤÕ©ÕµÕ¡Õ¶
Õ¹ Õ¡Öĥ
Õ«Õ¯ Õ¡ÕµÕ¸ÖĤÕ´
Õ½Õ¿ Õ¡Õ¶Õ«
ĠÕ¡Õ¾ Õ«
ĠÕ¡ÖĢÕ¿ Õ¡Õ°Õ¡Õ¶
ĠÕ¢Õ¸Õ¬Õ¸ÖĢ Õ«Õ¶
ĠÕºÕ¡Õ¿Õ´ Õ¥Õ¬
ĠÕ½Õ¯Õ½ Õ¥Öģ
ĠÕ£Õ¿Õ¶ Õ¾Õ¥Õ¬
ĠÕ½Õ¿Õ¸ÖĢ Õ¡Õ¢Õ¡Õª
ĠÕ¿Õ¥Õ²Õ¥Õ¯Õ¡Õ¿Õ¾ Õ¸ÖĤÕ©ÕµÕ¸ÖĤÕ¶
ĠÕ£Õ¥Õ²Õ¥Öģ Õ¯
ĠÕ¬Õ¥Õ¦Õ¸ÖĤÕ¶ Õ¥ÖĢÕ¸Õ¾
ĠÕ¡ÕºÖĢÕ¡Õ¶ÖĦ Õ¶Õ¥ÖĢÕ«
ĠÕ¬ÖĢÕ¡Öģ Õ¸ÖĤÖģÕ«Õ¹
ĠÕ¡Õ¼ ÖģÕ¡Õ¶Öģ
ĠÔ² ÕĢÔ¿
Õį Õº
ĠÕ¡Õº Õ¡ÖģÕ¸ÖĤÕµÖģ
ĠÕ³ Õ£Õ¶Õ¡ÕªÕ¡Õ´
ĠÕ¡ÕµÕ¬ Õ¨Õ¶Õ¿ÖĢÕ¡Õ¶ÖĦ
ĠÖĥÕ¸ÕŃ Õ¶Õ¡ÕŃÕ¡Õ£Õ¡Õ°
ÔµÕĲ ÔµÕİÔ±ÕĨ
ĠÕŃÕ¡Õ² Õ¡Õ¬
ĠÕ¡Õ¶Õ° Õ¶Õ¡ÖĢ
ĠÕºÕ¡Õ¿Õ´ Õ¸ÖĤÕ´
ĠÔ¶ ÖĢÕ¸ÖĤÖģ
ĠÕĵÕ¡Õ·Õ«Õ¶ ÕµÕ¡Õ¶Õ¶
ĠÕºÕ¡ÖĢ Õ¸Õ¶
ĠÕ´Õ¡Õ¯ Õ¶
ĠÔ±ÖĢÕ ·
ĠÕ«Õ¶Õ¿ Õ¥ÖĢÕ¶Õ¥Õ¿
ĠÕ£ÖĢÕ¡Õ½ Õ¥Õ¶ÕµÕ¡Õ¯
ĠÕ¶Õ¡ÕŃÕ¨Õ¶ Õ¿ÖĢÕ¡Õ¯Õ¡Õ¶
ĠÕ° Õ¸ÖĢÕ¤
Õ¡Õ¾ Õ¡Õ¼Õ¸ÖĤÕ´
ĠÔ± Õ¾Õ¥Õ¬
Õ¡Õ¢ Õ¸ÖĢ
ĠÕį Õ¸ÖĤÖĢ
ĠÕ® Õ¡Õ¶
ĠÕ¿Õ¡ÖĢ Õ¸ÖĤÕ´
ĠÕ¡Õº Õ¡Õ£Õ¡
ĠÕĮ Õ¸ÖĤÕ¢Õ¥Õ¶
201 4
ÖĦÕ¥ÖĢ Õ«Öģ
ĠÕ°Õ¡Õ£ Õ¸ÖĤÕ½Õ¿
Õ¹ Õ¥Õ¬Õ«
Õ¥Õ´ Õ«Õ¶
ĠÕı Õ¶Õ¿Õ¥Õ½
ĠÕ£Õ«Õ¿ Õ¸ÖĤÕ©ÕµÕ¸ÖĤÕ¶Õ¶Õ¥ÖĢÕ«
ĠÕºÕ¡Õ·Õ¿Õ¸Õ¶ Õ¡Õ¯Õ¡Õ¿Õ¡ÖĢ
Õ¡Õ½Õ¶ Õ¡
ĠÕ¢Õ¡Õª Õ¶Õ¸ÖĤÕ´
ĠÖħÕ£Õ¿Õ¡Õ£Õ¸ÖĢÕ® Õ¸ÖĤÕ´
ĠÕ«ÖĢÕ¡Õ¾Õ«Õ³ Õ¡Õ¯
ĠÕ½Õ¿Õ¸ÖĢ Õ¡Õ£ÖĢÕ¥Õ¬
ĠÕ£Õ¶Õ¡Õ°Õ¡Õ¿ Õ¸ÖĤÕ´
ĠÕ¨Õ¶Õ¤Õ£Õ® Õ¥Õ¬
Õ¡Õ¯Õ¡Õ¼ Õ¸ÖĤÖģ
ĠÔ±Õ½Õ¿Õ® Õ¸
ĠÕ¡ÕŃ Õ¿
4 1
Ġ `
ĠÕ½ ÖĢÕ¢
Õ© Õ¡ÖĢÕ«
ĠÕį Õ¥ÖĢÕ£Õ¥Õµ
ĠÕ¡Õ¶Õ° Õ¡ÕµÕ¿
ĠÕ½Õº Õ¡Õ¼Õ¶Õ¡Õ¬
19 7
ĠÕ°Õ¡Õ½Õ¿Õ¡Õ¿ Õ¥Õ¬
ĠÕ¤Õª Õ£Õ¸Õ°
ĠÕ¯ÖĢÕ¯ Õ¶
ĠÕ°Õ¡Õ¿Õ¯Õ¡Õ¶ Õ«Õ·
4 3
Õ¸ÖĤ Õ¡Õ®
Õ¡Õ¿ Õ¸Õ´Õ½
ÕĦ Õ¡Õ¶
ÕĦ Õ¡Õ´
ÖĢÕ¡Õ¶ Õ¸ÖĤÕ´
âĢ ¢
Õ¶Õ¡Õ¯ Õ¡ÖĢÕ£
201 3
ĠÕ» Õ¡Õ¶
Õ¡ÖĢÕ½ Õ¡Öĥ
men ia
ĠÕ¡ÖĢÕ¡ÖĢ Õ¸Õ²
Ô´Õ«Õ¿ Õ¥Õ¬
ĠÕ¯ Õ¡Õ¤ÖĢ
ĠÕ¯ ÖĢÕ³
ĠÕ¿ Õ¡ÖĦ
ĠÕ½ Õ¥Õ¶ÕµÕ¡Õ¯
ÕĨ ÖĢÕ¡
ĠÔ¿ ÖĢ
ĠÕ°Õ¡ÖĢ Õ¡Õ¯Õ«Öģ
Õ¡ÖĢÕ¾ Õ«
Õ¸ÖĤÕµÕ© Õ¶Õ¥ÖĢ
ĠÕ¢Õ¡Öģ Õ¡Õ½Õ¡Õ¯Õ¡Õ¶
ĠÕ¢Õ¸Õ¬Õ¸ÖĢ Õ«
ĠÕ¡ÖĢÕ¤ÕµÕ¸ÖĤÕ¶ Õ¡Õ¢Õ¥ÖĢ
ĠS h
ĠÖħÖĢÕ¥Õ¶ÖĦ Õ¨
ĠÕ¡Õ¼Õ¡Õ¶Õ±Õ¶Õ¡Õ°Õ¡Õ¿ Õ¯
ĠÕ´ Õ¸Õ¬Õ¸ÖĢ
ĠÕ¡Õ¼Õ¡Õ» Õ¡ÖĢÕ¯Õ¥Õ¬
ĠÕ½Õ¿ Õ¡ÖģÕ¡Õ®
ĠÕ£ÖĢ Õ¡Õ¾Õ¸ÖĢ
Ġ5 00
ĠÕ¡ÕºÕ¡Õ°Õ¸Õ¾ Õ¥Õ¬Õ¸ÖĤ
ĠÕ¸Õ¬Õ¸ÖĢÕ¿ Õ¶Õ¥ÖĢÕ¸ÖĤÕ´
ĠÕ¡Õ¼Õ¸Õ²Õ» Õ¸ÖĤÕ©ÕµÕ¡Õ¶
ĠÕ¯Õ¥Õ¶Õ¤ Õ¡Õ¶Õ«Õ¶
ĠÔ³Õ¡ÖĢ Õ¥Õ£Õ«Õ¶
ĠÕ° Õ´Õ¿
Õ´ Õ¡Õµ
ĠÕ¿ Õ¾Õ¡Õ®
ĠÕ¿ Õ¸ÖĤÕ£
ĠÕ¡Õ¶ Õ½
ĠÖħ ÖĢÕ°
ĠÕ´Õ« ÖĩÕ¶Õ¸ÖĤÕµÕ¶
ĠÕ® Õ¡Õ®Õ¯
ĠÔ³ Õ¬ÕŃÕ¡Õ¾Õ¸ÖĢ
ĠÕ¥ÖĢÕ¯ Õ¡Õ©
ĠÕİ Õ¡Õ¬
ĠÕ¡ÖĢÕ¿ Õ¡Õ¤ÖĢÕ¸ÖĤÕ©ÕµÕ¡Õ¶
Õ¥Õµ Öģ
ĠÕĮÕ¸ÖĤÕ½ Õ¡Õ½Õ¿Õ¡Õ¶
ĠT he
Ô±Õİ Ô±ÕĲ
ĠÕĬÕ¡Õ¿ Õ´
ĠÕ½Õ¥Õ¼ Õ¡Õ¯Õ¡Õ¶
ÕĬÕĲ ÔµÕį
t e
Â ´
Ö Ĭ
Õ£ Õ«ÕºÕ¿
Â» âĢ¤
ĠÕ© Õ¥Õ©
Õ¡ÖĦ Õ¡ÖĢ
ÕĦ Õ«Õ¶Õ¹
ĠÕ´Õ«Õ»Õ¸Öģ Õ¡Õ¼Õ¸ÖĤÕ´
Õ¥Õ¢ Õ¡Õ½Õ¿
ĠÕ¢Õ¥ÖĢ Õ¥Õ¬Õ¸ÖĤ
ĠÕ·ÖĢÕ»Õ¡Õ¶ Õ¶Õ¥ÖĢÕ«
Õ¥ÖĢÕ¯ ÖĢÕµÕ¡
ĠÕ¡Õ²Õ» Õ«Õ¯
ĠÕ¥ÖĢÕ© ÖĩÕ¥Õ¯
ĠÕ´Õ«Õ»Õ¡Õ¾Õ¡Õµ ÖĢÕ«
ĠÕĵÕ¡ÖĢ Õ«Õ¦
Õ¶ Õ«Öģ
ĠÕ¥ Õ¿
Õ¡Õ¿ Õ«Õ¯
Ô± Ô¹
ĠÕį ÖĥÕµÕ¸ÖĤÕ¼
ĠÕĶ Ô¿
ĠÕ¯Õ¡Õ¦Õ´Õ¡Õ¯Õ¥ÖĢÕº Õ´Õ¡Õ¶
ĠÕ°Õ«Õ´Õ¶ Õ¡ÕŃ
ĠÕ´ÖĢÖģ Õ¸ÖĤÕµÕ©Õ«
ÕĢÕĢ Ô¿
Õĵ Õ¸ÕŃ
ĠS p
ĠÕ½Õ¸Õ¾Õ¸ÖĢ Õ¥Õ¬
Ð¸ Ð
ĠÕ¯Õ¥Õ¶Õ½ Õ¡Õ©Õ¸Õ·
ĠÕ£Õ«Õ· Õ¥ÖĢ
Ġ< <
ĠÕ¯ Õ¸
ĠÕ¶ Õ¥Õ¿
ĠÕ¤ Õ¡Õ·
ĠÕ¹ Õ´
ĠÕ® Õ¡ÕµÖĢ
Õ¡Õ¶Öģ Õ«Õ¯
ÖĢÕº Õ¡Õ£
ĠÕ¯Õ¡Õ¶ Õ¹
Õ¥Õ¤ Õ«Õ¡
ĠÕ¡Õ¶Õ¯ Õ¥Õ²Õ®
Ô»Õ¶Õ¹ ÕºÕ¥
ĠÕ£Õ¸ÖĢÕ®Õ«ÖĦ Õ¶Õ¥ÖĢ
ĠÕ¿Õ¸ÖĤÕª Õ¡Õ®
Õ¬Õ¡Õ´ Õ¡Õ¯Õ¡Õ¶
ĠÕħÕ¸ÖĤÕ¶ Õ¡ÕµÕ©Õ¥Õ¤
ĠÕ´Õ¡Õ¯Õ¶ Õ«Õ·Õ«
Ñ ĥ
ĠÕ° ÕºÕ¡ÖĢÕ¿
ĠÕ´ Õ¸ÖĢ
Õ¯ Õ¸Õ²Õ´
ĠÕ¿ Õ¡ÖĢÕ¢
ĠÕ¸ÖĤ Õ½Õ¿Õ«
ĠÕĦ Õ¥Õ¬Õ«ÖĦ
Õ° Õ¡ÖĢ
Ô½ Õ´Õ¢
Õ¡Õ¿Õ¾ Õ¸ÖĤÕ©ÕµÕ¸ÖĤÕ¶
ĠÕ¨Õ¶Õ¤Õ¸ÖĤÕ¶ Õ¾Õ¥Õ¬
ĠÕ®ÖĢÕ¡Õ£ÖĢ Õ¥ÖĢÕ¨
ĠÕ¤ÖĢ Õ¸Õ·
ĠÕ¦Õ¸Õ° Õ¾Õ¥Õ¬
ĠÕ¦Õ¸ÖĢ Õ¡Õ´Õ¡Õ½
ÕĬÕ¥Õ¿ ÖĢÕ¸Õ½
ÔµÕ¬ ÖĦ
ĠÕ´Õ¥ÕŃ Õ¡Õ¶Õ«Õ¦Õ´
ĠÕ¤ Õ«Õ¦
ĠÔ½ ÕįÕĢÕĦ
ĠÕĢÕ¡ÖĢ Õ¡Õ¾Õ¡ÕµÕ«Õ¶
ĠÕ¬Õ¸ÖĤÕ® Õ¥Õ¬
ĠÕ¡Õ½Õ¿ Õ¾Õ¡Õ®
ĠÕ¿Õ¶ÖħÖĢÕ¥Õ¶ Õ«
ĠÕ·Õ¡ÖĢÕª Õ´Õ¡Õ¶
ĠÕ¢Õ¡ÖĢÕ¥ÖĥÕ¸ÕŃ Õ¸ÖĤÕ´Õ¶Õ¥ÖĢÕ«
ĠÕ¡Õ¶Õ· Õ¡ÖĢÕª
a z
Õ¸Õ ®
Õµ Õ¡Öģ
Õ¡Õ¯ Õ¸Õ²Õ´
Õ¡Õ£ Õ«Õ®
ÖĢÕ¡Õ¶ Õ¿
Öħ Õ£
ĠÕ½Õ¯ Õ«Õ¦Õ¢
ĠÕ¿Õ¥Õ²Õ¥Õ¯ Õ¡Öģ
ĠÕ¨Õ¶Õ¤Õ¸ÖĤÕ¶ Õ¾Õ¡Õ®
Ô±Õħ ÕĨ
ĠÕ«Õ¶ÖĦÕ¶ Õ¡Õ©Õ«Õ¼
ĠÕ°Õ¡Õ·Õ¾ Õ«Õ¶
ĠÕ°Õ¡Õ´Õ¡ÕµÕ¶ ÖĦÕ¶Õ¥ÖĢÕ«
ĠÕ¯Õ¸Õ´ Õº
ĠÕ¦Õ¢Õ¡Õ² Õ¾Õ¥Õ¬
ĠÕ¸ÖĤÕ· Õ¡Õ¤ÖĢÕ¸ÖĤÕ©ÕµÕ¸ÖĤÕ¶
ĠÕ¿Õ¡ÖĢÕ¡Õ®Õ¡Õ·ÖĢÕ» Õ¡Õ¶Õ¸ÖĤÕ´
ĠÔ·Õ»Õ´Õ«Õ¡Õ® Õ«Õ¶
ĠÕ¢Õ¡ÕªÕ¶ Õ¥Õ¿
ĠÕ¿Õ¥Õ½Õ¡Õ¶Õ¯ÕµÕ¸ÖĤÕ¶ Õ«Öģ
i f
Öģ Õ¥Õ¶
Õ¸ÖĤÕ¶ Õ¯
ĠÕ¿ Õ¡
ĠÕ°Õ¡Õ´ Õ¡ÖģÕ¡Õ¶Öģ
Ôµ Õĳ
ĠÕ¿Õ¥Õ² Õ¡Õ¯Õ¡Õµ
ĠÕ± Õ¡Õµ
Õ¡Õ¤ÖĢ Õ«Õ¤
ĠÕ¡Õ·ÕŃÕ¡ÖĢÕ° Õ¨
ĠÕºÕ¡ÖĢÕ¦ Õ¥Õ¬
Ô±Õ¼ Õ¡Õ»
ĠÖĨÕ¸ÖĤÕ¿Õ¢Õ¸Õ¬ Õ«
ĠÖħÕ£Õ¶ Õ¸ÖĤÕ©ÕµÕ¡Õ¶
ĠÕ¡Õ¹ ÖĦ
ĠÔ±ÖĢÕ¿Õ¡Õ½Õ¡Õ¶ Õ¥Õ¬
ĠÕ¶ Õ¥Õ²
Õ¡Öģ Õ¶Õ¸Õ²
Õ¸ÖĤÖĢ Õ¡ÖĦÕ¡Õ¶Õ¹ÕµÕ¸ÖĤÖĢ
ĠÔ´ Õ¡Õ¶Õ«
ĠâĢ ĭ
ĠÕĩ Õ¶Õ¸ÖĢÕ°
ĠÕ¨Õ¶Õ¿ÖĢ Õ¸ÖĤÕ©ÕµÕ¸ÖĤÕ¶Õ¶Õ¥ÖĢÕ¨
ĠÕ´Õ¡ÖĢÕ¦ Õ¡ÕµÕ«Õ¶
âĢ¦ ]
ĠÕ°Õ«Õ´Õ¶ Õ¡Õ¤Õ«ÖĢ
Õķ ÖĢ
Õ¡Õ´Õ¡ÖĢÕ¿ Õ«
ĠÕ°ÖĢÕ¡Õª Õ¡ÖĢ
ĠÕ¡Õ¦Õ¤Õ¥Öģ Õ¸ÖĤÕ©ÕµÕ¸ÖĤÕ¶
Õ«Õ¬Õ«Õ½ Õ¸Öĥ
ĠÕ¡Õ´Õ¥Õ¶Õ¡Õ´ Õ¥Õ®
Õ· ÕŃÕ¡Õ¶
Õ¡Õ¶Õ¯ Õ¡ÖĢÕ¨
ĠÕ°Õ¡ÖĢ Õ¸ÖĤÕ½Õ¿
Õ«Õ¹ Õ¶Õ¥ÖĢÕ¨
ĠÕ¡Õ¶Õ° Õ¡Õ¶Õ£Õ½Õ¿
Õ¸ÖģÕ«Õ¡Õ¬ Õ¡Õ¯Õ¡Õ¶
ĠÕ¸ÖĤÕ· Õ¡Õ¤ÖĢÕ¸ÖĤÕ©ÕµÕ¡Õ¶
ĠÕ¡Õ¹ ÖĦÕ«
âĨ Ĵ
ĠÕķÖĢ Õ«Õ¶Õ¡Õ¯
ĠÖĨÕ¡Õ¯Õ¸ÖĤÕ¬Õ¿ Õ¥Õ¿
y an
Ġ Õ¡ÖĢÕµ
Õ« Õ¡ÖģÕ«
Õ« Õ¥Õ¦Õ¥ÖĢ
Õ¡Õ¶ Õ¸ÖĤÕ©ÕµÕ¡Õ¶
ĠÕ´ Õ¡Õ¦
ĠÕĨ Ô±ÕıÕķ
ĠÕ£Õ¸ÖĢÕ®Õ¸Õ² Õ¸ÖĤÕ©ÕµÕ¸ÖĤÕ¶Õ¶Õ¥ÖĢ
ĠÕ¦Õ¢Õ¡Õ² Õ¾Õ¸ÖĤÕ´
ĠÕ¸Õ²Õ» Õ¸ÖĤÕ¶
ĠÕ©Õ¾ Õ¸Õ¾
Õ¸ÖĤÕ¼ Õ¶
ĠÕ£Õ«Õ· Õ¥ÖĢÕ¨
Õ¡Õ¶ Õ¶Õ¥ÖĢ
ĠÕ¿ ÖĢÕ¾Õ¡Õ®
Ô± ÖĢÕ´
ĠÕ¾ Õ¯
Õº Õ¡Õ½Õ¿
ĠÕ´Õ«Õ» Õ¡Õ´Õ¿
ĠÕ©Õ¾Õ¡Õ¯Õ¡Õ¶ Õ¶Õ¥ÖĢÕ«Õ¶
ĠÕ¡Õ»Õ¡Õ¯Öģ Õ¸ÖĤÕ©ÕµÕ¡Õ´Õ¢
ĠÕ´Õ¡Õ´ Õ¸ÖĤÕ¬
Õ¡ÖĢÕº Õ¥Õ¿
Õ¡ÖĢ Õ«Õ¿
ĠÕĦ Õ«Õ»Õ¡Õ¦Õ£Õ¡ÕµÕ«Õ¶
ĠÕ¦ Õ¾Õ¡ÖĢÕ³
ĠÕ´Õ«Õ» Õ¡Õ¤Õ¥Õº
ĠÕ¾Õ¥ÖĢ Õ¡Õ¤Õ¡Õ¼Õ¶Õ¡Õ¬
ĠÕĬ Õ¡Õº
ĠÕ°Õ¡ÖĢÖģ Õ¥ÖĢÕ«Õ¶
Õ¶Õ¶ Õ¡ÖĢÕ¯
ĠÕ½Õ¿Õ¥Õ²Õ® Õ´Õ¡Õ¶
ĠÕ«ÖĢÕ¡Õ¾Õ«Õ³ Õ¡Õ¯Õ«
ĠÔ±Õ´Õ¥Õ¶ Õ¡ÕµÕ¶
ĠÔ¶ÖĢÕ¸ÖĤÖģ Õ¡ÖĢÕ¡Õ¶
r ess
ĠÕ´ Õ¸Õ¶
Õ½ Õ«Õ¶
ĠÕ£ Õ¡Õ¾Õ¡Õ©
ĠÕĦ Õ¥Õ½
ÕĦ Õ¥Õ»
ĠÕ°Õ¡Õ´Õ¡ÖĢ Õ¥Õ¬
ĠÕ¾Õ¥ÖĢ Õ¡Õ¤
Õ¡ÖĢÕ´ Õ¡Õ¦Õ¡Õ¶
Õħ ÕĪÕĴÔ¹
ĠÕ´Õ«Õ»Õ¸Öģ Õ¶Õ¥ÖĢÕ¨
an g
ĠÕ¶Õ¥ÖĢ Õ¡Õ¼Õ¸ÖĤÕ´
ĠÕ°Õ¡Õ³ Õ¥Õ¬Õ«
ĠÔ¹Õ¸ÖĤÖĢÖĦÕ« Õ¡ÕµÕ¸ÖĤÕ´
ĠÕ¶Õ¡ÕŃÕ¡Õ±Õ¥Õ¼Õ¶ Õ¸ÖĤÕ©ÕµÕ¡Õ´Õ¢
ĠÔ¿Õ¡ÖĢÕ¡ÕºÕ¥Õ¿ ÕµÕ¡Õ¶Õ«
ĠÕºÕ¡Õ¿Õ· Õ¡Õ³
5 3
A N
Ġ g
Õ¡Õ´ Õ¨
ĠÕ¶ Õ¡ÕµÕ¸ÖĤÕ´
Ô± Õ¾Õ¥Õ¬Õ«
ĠÕ½ Õ´
ĠÕ½ Õ¸ÖĤÕ¢
Õ¹ Õ¡ÕµÕ«Õ¶
ĠÕ· Õ¡ÕŃÕ´
Õ¸Õ¬ Õ¤
ĠÔ¿ Õ¸Õ¿
ĠÕĨ Õ¡ÖĢÕ¥Õ¯
ÕĪÕĴ ÕĦÕĨ
ĠÕ³ Õ¡Õ·
ĠÕºÕ¡ÕµÕ´Õ¡Õ¶ Õ¶Õ¥ÖĢÕ¨
ĠÖĥÕ¸ÖĢÕ± Õ¨
ĠÕ«ÖĢÕ¡Õ¯Õ¡Õ¶Õ¡Öģ Õ¾Õ¥Õ¬
Õ¡Õ·ÖĢÕ» Õ¡Õ¶Õ¸ÖĤÕ´
Õ·Õ¿ Õ¡Õ¯Õ¡Õ¶
Õ¡ÖĢÕ© Õ¶
ĠÕ©Õ«Õ´ Õ¨
ÕĬÕ¡Õ¿ Õ´
ĠÕ¥ÖĢÕ¥ÕŃÕ¡Õ¶ Õ¥ÖĢÕ«Õ¶
g le
ÖĦ Õ¶Õ¥ÖĢ
ĠÕ¿ Õ¡Õº
ĠÕ°Õ¡Õ´ Õ¨Õ¶Õ¯
Õ¡ÕµÕ¶ Õ¸ÖĤÕ©ÕµÕ¡Õ¶
ĠÔ³ Õ¡Õ½Õº
ĠÕ¥Õ² Õ¡Õ¾
ĠÕ¡Õ¶Õ¾ Õ¡Õ¶Õ¸ÖĤÕ´
ÖĢÕ¡Õ£ Õ¡Õ®
ĠÕ°Õ¡Õ· Õ´Õ¡Õ¶Õ¤Õ¡Õ´
Õ¡ÖģÕ«Õ¶ Õ¥ÖĢÕ¨
ĠÕ°Õ¡ÖĢÕ¡Õ¢Õ¥ÖĢ Õ¸ÖĤÕ©ÕµÕ¸ÖĤÕ¶Õ¶Õ¥ÖĢ
Ô±ÖĢÖģÕ¡ÕŃ Õ«
ÖĢ Õ¸Õ¾
Õ¡Õ¯ Õ¸
Õ¡Õµ Õ¡Õ¶Õ¨
Õ¡ÖĢ Õ¸ÖĤÕ¶Õ¡Õ¯
ĠÕ´ Õ§Õ»
Õ¡Õ½ Õ«Õ¡Õ¯Õ¡Õ¶
ĠÕ¤ Õ¥ÖĢÕ¨
Õ¡Õ° Õ¡Õ¯Õ¡Õ¶
ĠÕĢ Õ¥Õ¶
Öĩ Õ¸ÖĢÕ¾
ĠÕ© Õ¼
Ô» Ô±
ĠÕ°Õ¡Õ½ Õ¶Õ¸ÖĤÕ´
Ô±ÕĲ Ô¿
ĠÕĢÕ¡Õ¶ÖĢÕ¡ÕºÕ¥Õ¿ Õ¸ÖĤÕ©ÕµÕ¸ÖĤÕ¶
er t
ĠÕ¦Õ¡ÖĢÕ£ Õ¡ÖģÕ¸ÖĤÕ´
ĠÕ¥Õ¶Õ© Õ¡ÖĢÕ¯Õ¥Õ¬
ĠÔ±ÖĢÖģÕ¡ÕŃ Õ¸ÖĤÕ´
ĠÕ´Õ¶ Õ¡Öģ
Õ¸ÖĤÕ©Õ«ÖĤÕ¶ Õ¨
ĠÕ°ÕµÕ¸ÖĤÖĢÕ¨ Õ¶Õ¯Õ¡Õ¬
Õ¸ Õ¸ÖĤ
Õ¡Õ¯ Õ¡Õ´
Õ¸ÖĤÕ´ Õ¶Õ¥ÖĢÕ¸Õ¾
Õ¥Õ¬ Õ«Õ¶
ĠÕ¥ Õ©
ĠÕ¤ Õ¥
ĠÕĢ Õ¡Õ¿
Ô» ÕĶ
Õ¡Õ¶Õ¡Õ¯ Õ«
ĠÕ¬Õ«Õ¶ Õ¥Õ¬Õ¸Õ¾
ĠÕĢÕ¡Õ¶ÖĢÕ¡ÕºÕ¥Õ¿ Õ¸ÖĤÕ©ÕµÕ¸ÖĤÕ¶Õ¸ÖĤÕ´
Õ¸ÖĤÕ° Õ¸ÖĤ
ĠÔ±Õ¶ Õ¾
Õ¥ÕŃÕ¶ Õ«Õ¯Õ¡Õ¯Õ¡Õ¶
Ô±Õ¦Õ¡Õ¿ Õ¸ÖĤÕ©ÕµÕ¡Õ¶
ĠÕ¤Õ¥ÕºÖĦ Õ¥ÖĢÕ«
ĠÕ½Õ¶ Õ¶Õ¤
ĠÕ´Õ¥Õ¤ Õ¡Õ¬
ĠÕ£ÕµÕ¸ÖĤÕ²Õ¡Õ¿Õ¶Õ¿Õ¥Õ½ Õ¸ÖĤÕ©ÕµÕ¡Õ¶
Ġ âĨĴ
Õ« Õ¥Õ¶
ĠÕ£ Õ¸Õ²
Õ¡ÕŃ Õ¸ÖĤÕ´Õ¢
ĠÕ¹ Õ¥Õ²
Õ¸Õ¬ Õ«
ĠÕ°Õ¡Õ¶ Õ¸ÖĤÕ¶
Õį Õ¡Õ¯Õ¡ÕµÕ¶
ĠÔ´ Õ«Õ¿
Ô±ÕĲ Ô±ÕĨ
or t
ĠÔ¸ Õ¶Õ¯Õ¥ÖĢ
ĠÕ½Õ¸Õ¾Õ¸ÖĢ Õ¡Õ¯Õ¡Õ¶
is h
ĠÕ¸ÖĢÕ¸Õ¾Õ° Õ¥Õ¿Õ¥ÖĤ
ĠÕ¡ÖĢÕªÕ¥ÖĦ Õ¨
ĠÕĢÕ¡Õ¯Õ¸Õ¢ ÕµÕ¡Õ¶Õ¨
ĠÕ©Õ¡Õ² Õ¡Õ´Õ¡Õ½
ĠÕĦÕ¸Õ½Õ¯Õ¾ Õ¡ÕµÕ«
4 2
ÖĦ Õ¡Õ¿
Õ¡Õ¾ Õ¸ÖĤÕ·Õ«
ĠÕ¿ Õ¡Õ¶Õ¸ÖĤÕ´
Ô± ÖĢÕ½Õ¥Õ¶
Ô¿ Õ¡Õ´
ĠÔ´ ÖĢÕ¡
ĠÕ¾Õ¥ÖĢÕ¡Õ¢Õ¥ÖĢÕ ¾
ĠÕ¡ÖĢÕ¤ÕµÕ¸ÖĤÕ¶ÖĦ Õ¶Õ¥ÖĢÕ«
ĠÕ¡Õ·ÕŃÕ¡Õ¿Õ¡Õ¯Õ«Öģ Õ¶Õ¥ÖĢÕ«
ĠÕ«Õ¶Õ½Õ¿Õ«Õ¿Õ¸ÖĤÕ¿ Õ«
ĠÕ½Õ¥Õ² Õ´
ĠÕ°Õ¡ÖĢÕ½ Õ¿
Õµ Õ¡Õ¯Õ«
ĠÕ¯ Õ²
ĠÔ± ÖĢÕ´Õ¡Õ¶
ĠÕ¸ÖĢ Õ¡Õ¯Õ«
Õ¡ÕŃ Öģ
ĠÔ¿ Õ¸ÖĢ
ĠÔ³ ÖĢÕ¡Õ¶Öģ
ĠÕ¯Õ¡Õµ Õ½ÖĢ
ĠâĢ İ
ĠÕ¦Õ£ Õ¡Öģ
ĠÕ¿Õ¸Õ¯Õ¸Õ½ Õ¸Õ¾
ĠÕ¢ÕµÕ¸ÖĤÕ» Õ¥Õ«
ĠÕºÕ¡Õ¿Õª Õ¡Õ´Õ«Õ»Õ¸Öģ
i am
Ġ d
ĠÕ¯ Õ¸ÖĢÕ®
Ô± Õ¯
ĠÔ± ÖĢÕ½Õ¥Õ¶
Õ¡Õ¤ ÖĢÕ¡Õ¶ÖĦ
ĠÔ² Õ¡Õ¬
ĠÔ³ ÕĲ
Ô² Õ¡Öģ
ĠÕ¶Õ¥ÖĢÕ¯Õ¡ÕµÕ¡Öģ ÖĢÕ¥Öģ
201 2
Ô±Õ¶ ÖģÕ¶Õ¥Õ¬
ĠÕ¾Õ¡ÖĢ Õ¸ÖĢÕ¤
ĠÕ³Õ¡Õ¶Õ¡ÕºÕ¡ÖĢÕ° Õ«Õ¶
ĠÕ©Õ¸ÖĤÕµÕ¬ Õ¿Õ¾
Õ«Õ® Õ¡Õ²
oo gle
ĠÕ¡Õ¶Õ´Õ«Õ» Õ¡Õ¯Õ¡Õ¶
5 2
a p
Õ¡Õ· Õ¡ÖĢÕ«
ĠÕ¨ Õ´Õ¢
ĠÕ¥ÖĢÕ¯ Õ¶
ĠÔ¼ Õ¸Õ¼Õ¸ÖĤ
ĠÕ¯Õ¸Õ²Õ´ Õ«
ĠÔ· Õ´
Õ«Õ£ Õ¥Õ¶
ĠÕ¡Õ² Õ¸Õ©
ĠÔ±ÖĢ Õ¥ÖĤ
ĠT V
Õ¡ÖĢÕ¾Õ¥Õ½Õ¿ Õ¡Õ¯Õ¡Õ¶
ĠÕ¸ÖĤÕ¶Õ¥Õ¶Õ¡Õ¬ Õ¸Õ¾
ÔµÖĢ Õ¥ÖĤ
ĠÕ«ÖĢÕ¡Õ¤Õ¡ÖĢÕ± Õ¸ÖĤÕ©ÕµÕ¸ÖĤÕ¶Õ¶Õ¥ÖĢ
ĠÕįÕ¡Õ°Õ¡Õ¯ ÕµÕ¡Õ¶Õ¨
ĠÕ©Õ¡Õ¶Õ£ Õ¡ÖĢÕ¡Õ¶
ĠÔ¶Õ¸Õ° ÖĢÕ¡Õ¢
Õ¸ Õ«Õ¤
ĠÕ° Õ¡
ĠÕ§ Õ¡Õ¯Õ¡Õ¶
Õ¡Õ£ ÖĢÕ´Õ¡Õ¶
ĠÕ£Õ¸ÖĢÕ® Õ¸Õ¶
ĠÕ°Õ¡Õ¶ Õ¥Õ¬
ĠÕ«Õ¶Õ¹ ÖĦÕ¡Õ¶
ĠÕ¥ÖĢÕ¯ ÖĢÕºÕ¡Õ£
ĠÕ·Õ¡Õ¿ Õ¥ÖĢÕ¨
ĠÕ¨Õ¶Õ¿ÖĢ Õ¸ÖĤÕ©ÕµÕ¸ÖĤÕ¶Õ¶Õ¥ÖĢÕ¸ÖĤÕ´
ĠÕ¶Õ¡ÕŃÕ¡ÖĢÕ¡ÖĢ Õ¸ÖĤÕ©ÕµÕ¸ÖĤÕ¶
ĠÕ£Õ¶ Õ¡Öģ
ĠÕ¡ÖĢÕª Õ¡Õ¶Õ«
ĠÕ°Õ¡Õ´Õ¡ÕºÕ¡Õ¿ Õ¡Õ½ÕŃ
ĠÕ¬Õ« Õ¡ÖĢÕªÕ¥ÖĦ
ĠÕºÕ¡ÕµÖĦ Õ¡ÖĢÕ¸ÖĤÕ´
ĠÕ°ÖĢÕ¡Õª Õ¡ÖĢÕ¡Õ¯Õ¡Õ¶
Ô±Õ´ Õ¥ÖĢÕ«Õ¯
ĠÕ¢ÕµÕ¸ÖĤÕ» Õ¥
ĠÕĦÕ«Õ¶ Õ½Õ¯Õ«
ĠÕįÕ¿Õ¥Öĥ Õ¡Õ¶Õ¡Õ¯Õ¥ÖĢÕ¿
ĠÕ¿ÖĢÕ¡Õ¶Õ½ÕºÕ¸ÖĢÕ¿ Õ¡ÕµÕ«Õ¶
ÕĦÕ¡ÖĢÕ¿ Õ«
ĠÕ³Õ·Õ´ Õ¡ÖĢÕ¿
ĠÔ±ÕĲÕĦÔµÕĨ ÕĬÕĲÔµÕį
ĠÕ¿Õ¡ÖĢÕ¢ Õ¥ÖĢÕ¾
Õ¶ Õ¥ÖĦ
ĠÕ° Õ¶Õ¡ÖĢ
ĠÕ¤ ÖĢÕ¾Õ¡Õ®
ĠÕ¢ Õ¥Õ¼Õ¶
Õ¡Õ° Õ´
Õ¹ Õ¸ÖĤÕ©ÕµÕ¸ÖĤÕ¶
ĠÕ°Õ¡Õµ ÖĢ
ĠÕ¡ÖĢÕ¿ Õ£Õ¸ÖĢÕ®
ĠÕ¯Õ¸Õ²Õ´ Õ¶
Õ¡ÖĢÕµ Õ¡Õ¶Õ¶
ĠÖħÕ£Õ¿ Õ¡Õ¿Õ¥ÖĢ
ĠÕ¨Õ¶Õ¿ Õ¡Õ¶Õ¥Õ¯Õ¡Õ¶
ĠÕĬÕ¥Õ¿ ÖĦ
ĠÕįÕ«ÖĢ Õ«Õ¡ÕµÕ«
ĠÕ¡ÖĢÕªÕ¡Õ¶ Õ¡ÖģÕ¥Õ¬
Õ½Õº Õ¡Õ½
ĠÕ½Õ¥ÖĢ Õ¸ÖĤÕ¶Õ¤
ĠÕ¡Õ¶Õ¿ Õ¡Õ¼
Õ¸ÖĤ Õ¥Õ¶
ĠÕ§ Õ¶
Õ´ Õ¥ÖĢ
Õ¥Õ¶ Õ¡Õ¯Õ¡Õ¶
ĠÕ¤ Õ¼
Õ¡Õ¦ Õ¥Õ¯
Ô» Õ¶
ĠÕ´Õ«Õ» Õ¶Õ¡Õ¯Õ¡ÖĢÕ£
ĠÕĬ ÖĢ
ĠÕĬ Õ¡ÖĢÕ¦
ĠÕı Õ¸Õ¶
ĠÕ°Õ¶Õ¡ÖĢÕ¡Õ¾Õ¸ÖĢ Õ¸ÖĤÕ©ÕµÕ¸ÖĤÕ¶Õ¶Õ¥ÖĢÕ¨
ĠÕ°Õ¥Õ¿Öĩ Õ¸ÖĤÕ´
ĠÕ¾Õ¡Õ² Õ¸ÖĤÖģ
ĠÕ¡Õ½Õ¿ Õ«Õ³
Õ«Õ¢ Õ¡Õ¶
ĠÕ¡Õ¾Õ¡Õ¶Õ¤ Õ¡Õ¯Õ¡Õ¶
ĠÕ©Õ¡Õ¿ÖĢ Õ¸Õ¶Õ«
Ħ ĸ
ĠÕ° ÕµÕ¸ÖĤÕ½Õ«Õ½
Õ¡Õ´ Õ«Õ¿
ĠÕ¢ Õ¡Õ¶Õ«
Õ¡Õ° Õ¸Õ¬Õ¸Õ¾
Õ¡ÖĢÕ£ Õ¥Õ¬Õ«
ĠÕĨ Õ´Õ¡Õ¶
Õ¡Õ¶ÖĦ Õ¶Õ¥ÖĢ
ĠÕŃÕ¡Õ² Õ¥ÖĢ
ĠÕ¿Õ¡ÖĢÕ¡Õ® Õ¥Õ¬
ĠÕ¡ÖĢ Öģ
ĠÕ£Õ¬ÕŃÕ¡Õ¾Õ¸ÖĢ Õ¸ÖĤÕ©ÕµÕ¡Õ´Õ¢
Ġ9 0
ĠÕ¡Õ¶Õ¯ ÕµÕ¸ÖĤÕ¶
ĠS t
ĠÕĬÕ¥Õ¿ Õ¡Õ¯Õ¡Õ¶
ĠÔµÕ¾ ÖĢÕ¡Õ´Õ«
ĠÕŃÕ¸ÖĢÕ°Õ¸ÖĤÖĢÕ¤ Õ¨
ĠÕĨÕ¡ÕŃÕ¡Õ£Õ¡Õ° Õ«
im es
Õ«Õ ·ÕŃ
ĠÕ£ ÖĢÕ¾Õ¡Õ®
ĠÕ£ Õ¸Õ°
ĠÕ¾ Õ¥Öģ
ĠÕ© Õ´
Õ¡Õ¢ Õ«
Õ¡Õ£ÖĢ Õ¡Õ¾
Ô³ ÕµÕ¸ÖĤÕ´
ĠÕı Õ¡ÖĢÕ¸Õ¶
Õħ ÕĪÕĴ
Ġ3 6
ĠÕ¢Õ¡Öģ Õ´Õ¡Õ¶
ĠÔ· ÖĢ
ÕĮ Õ¥Õ¡Õ¬
ĠÕ¢Õ¶ Õ¸ÖĤÕµÕ©
ĠÕ½Õ«ÖĢ Õ¸
ĠC hat
ĠÕ¶Õ¥ÖĢÕ¤ÖĢÕ¸ÖĤÕ´ Õ¶Õ¥ÖĢÕ«
lo g
ĠÕ·Õ¸ÖĤÕ¿ Õ¸Õ¾
Õ¡Õ¾ Õ«Õ©
ĠÕĢ Õ¸Õ£
ĠÕ½ Õ¥ÖĦÕ½
Õº Õ¡Õ¶Õ¸ÖĤÕ´
Õº Õ¡Õ¶Õ¨
Õ©Õ¡Öģ Õ«Õ¯
ĠÕĶ Ô±ÕĤÔ±ÕĶ
ĠÕ¡Õ¶Õ± Õ¡Õ´Õ¢
ĠÕ½Õ¡Õ°Õ´Õ¡Õ¶ Õ¡ÖĥÕ¡Õ¯Õ¸ÖĤÕ´
ĠÕ¡Õ³ Õ¥Õ¬
ĠÕ¸ÖĤÕ½Õ¡Õ¶ Õ¸Õ²Õ¶Õ¥ÖĢÕ«
ĠÕ°Õ¡Õ´Õ¡Õ£Õ¸ÖĢÕ®Õ¡Õ¯Öģ Õ¸ÖĤÕ©ÕµÕ¸ÖĤÕ¶Õ¨
ĠÕ¡ÖĢÕ´ Õ¡Õ¿
Ñ Į
Õ¯ Õ¡ÖĢÕ®
ĠÕ£ Õ¶Õ¥Õ¬
ĠÕ¤ Õ¸ÖĤÖĢ
Õ¡Õ° ÖĢÕ¡Õ¾
ĠÔ³ Õ¸Õ¾Õ¡Õ¦Õ¤
Õį Õ¥ÕºÕ¿Õ¥Õ´Õ¢Õ¥ÖĢÕ«
Õ¡Öĥ Õ¶
Õ¡ÖĢÕ¾ Õ¥Öģ
ĠÖĨ Õ¸Õ¶Õ¤
ĠÕ«ÖĢÕ¡Õ¾ Õ¡ÕºÕ¡Õ°
ĠÕ¯Õ¡Õµ Õ¡Õ¶Õ¡Õ¬
ĠÕ¿Õ¥Õ²Õ¥Õ¯ Õ¸ÖĤÕ©ÕµÕ¸ÖĤÕ¶Õ¶Õ¥ÖĢÕ¸Õ¾
ĠÕ¡Õ¶ÖģÕ¯Õ¡Öģ Õ¶Õ¥Õ¬
ĠÕ¦Õ¡ÖĢÕ£Õ¡ÖģÕ´Õ¡Õ¶ Õ¨
ĠÕºÕ¡Õ°ÕºÕ¡Õ¶ Õ¥Õ¬
ĠÕ¬ÖĢÕ¡Õ£ÖĢ Õ¸Õ²
ĠÕ¿Õ²Õ¡Õ´Õ¡ÖĢÕ¤ Õ¯Õ¡Õ¶Öģ
ĠÕ¿Õ¡ÖĢÕ¡Õ®Õ¡Õ·ÖĢÕ» Õ¡Õ¶Õ¡ÕµÕ«Õ¶
ĠÕ£Õ¡Õ¦ Õ«
ĠÕ´Õ¸Õ¤ Õ¥Õ¬
ĠÕºÕ¡Õ¿Õ¡Õ½ÕŃ Õ¡Õ¶Õ¨
Õ¡Õ¿Õ¡Õ¶ÖĦ Õ¡ÕµÕ«Õ¶
Õ¥ Õ¸
ĠÕ£ Õ«Õ¶Õ¨
ĠÕ¤ ÖĢÕ¥Õ¬
Õ¡Õ° Õ¥Õ¼
Õ¬ Õ¸
ĠÕ¬ Õ¥Õ¼
Õ¸ÖĤÖģ Õ¸ÖĤÕ´
Õ¡Õ¤ÖĢ Õ¥Õ¬Õ¸ÖĤ
ĠÕªÕ¡Õ´Õ¡Õ¶Õ¡Õ¯ Õ¡Õ¾Õ¸ÖĢ
Õ¥Õ¶Öģ Õ«
ĠÕ¢Õ¡Öģ Õ¡Õ¿ÖĢ
ĠÕŃÕ¶Õ¤ ÖĢÕ¥Õ¬
Õ¸Õ¯ Õ¿Õ¥Õ´Õ¢Õ¥ÖĢ
ĠÕī Õ¥Õ´
ĠÕ¢Õ¶ Õ¸ÖĤÕ©
ĠÕ½ÕºÕ¡Õ½ Õ¡ÖĢÕ¯Õ´Õ¡Õ¶
ĠÕºÕ¡ÖĢ Õ¸ÖĤÕ¶Õ¡Õ¯Õ¸ÖĤÕ´
ĠÕ°Õ«Õ· Õ¸ÖĤÕ´
ĠÕ´Õ¡Õ½Õ¶Õ¡Õ¯Õ«Öģ Õ¶Õ¥ÖĢÕ«
Ô±ÖĢÕ¿ Õ¡ÖĦÕ«Õ¶
Õ¡ÕªÕ¡Õ¶ Õ¸ÖĢÕ¤
ĠÕ¢Õ¡ÕŃ Õ¾Õ¥Õ¬
ĠÕıÕ¥Õ² Õ¥Õ¯
ĠÕ¯ ÖĢÕ®
ĠÕ¤ Õ¶Õ¸ÖĤÕ´
ĠÕ¤ Õ¡Õ½Õ¿Õ«Õ¡ÖĢÕ¡Õ¯
ĠÕĢ Õ«Õ·
ĠÕ¡Õ¼ Õ´Õ¡Õ´Õ¢
ĠÕ¡Õ·ÕŃÕ¡Õ¿ Õ¥Õ¬Õ¸ÖĤ
Õ«ÖĦ Õ¶Õ¥ÖĢ
ĠÕĶ Õ¡Õ²Õ¡ÖĦÕ¡Õ¯Õ¡Õ¶
ĠÕ¶Õ¡ÕŃÕ¡Õ£Õ¡Õ° Õ«Õ¶
ĠÕ¡Õ¶Öģ Õ¯
ÕĽ ,
ĠÕĩ Õ¡ÖĢÕ´Õ¡Õ¦Õ¡Õ¶
ĠÕ¯Õ¡Õ¦Õ´Õ¡Õ¯Õ¥ÖĢÕº Õ¾Õ¡Õ®
ĠÕ¡Õ¦Õ¡Õ¿ Õ¡Õ¦ÖĢÕ¯
ÖĢÕµ Õ¡Õ¶
ĠÕ¨Õ¶Õ¿ ÖĢÕ¾Õ¥Õ¬
ĠÕ°Õ¡Õ½Öģ Õ¥Õ¶
ĠÕ¶Õ¥ÖĢÕ¯Õ¡ÕµÕ¡ÖģÕ¸ÖĤÖģÕ«Õ¹ Õ¶Õ¥ÖĢ
ĠÕ°Õ¡Õ¾Õ¡Õ¿ Õ¸ÖĤÕ´
ĠÕ¶Õ¥ÖĢÕ¤ÖĢÕ¸ÖĤÕ´ Õ¡ÕµÕ«Õ¶
ĠÕ¶Õ¥ÖĢÕ£ÖĢÕ¡Õ¾ Õ¾Õ¡Õ®
Õ¡Õ´ÕµÕ¡Õ¯ Õ«Õ¶
Õ¥ÖĦÕ« Õ¡Õ©
ÖĢÕ §
Õ¸ÖĤÕ´ Õ«
ĠÕĦ Õ¥Õ¯
ÕĦ Õ¥Õ¯
ÕĪ Õ½Õ¿Õ«Õ¯Õ¡Õ¶
ĠÕĨ Ô±Ô½
ĠÕ¨Õ¶Õ©Õ¡Öģ Õ«Õ¯
ĠÕ¾Õ¥ÖĢÕ» Õ¥ÖĢÕ½
ĠÔ¸ Õ¶Õ¿ÖĢ
ĠÕ£Õ¸ÖĢÕ®Õ¸Õ² Õ¸ÖĤÕ©ÕµÕ¸ÖĤÕ¶Õ¶Õ¥ÖĢÕ¨
ĠÔ±ÖĢ Õ¡ÖĢÕ¡Õ¿Õ«
ĠÕ·Õ¡Õ° Õ¥ÖĢÕ«
ĠM ed
ĠÕĳ Õ¥Õ²Õ¡Õ½
ĠÕ¥Õ¯Õ¥Õ²Õ¥Öģ Õ«
ĠÕ¿Õ«ÖĢ Õ¡ÕºÕ¥Õ¿
ÕĪÕĴÕħ Ô¹
ĠÖħÕ¤Õ¡Õ¶Õ¡Õ¾ Õ¡Õ¯Õ¡Õµ
Õ¡Õ²Õ¿Õ¶Õ« Õ¸ÖĤÕ©ÕµÕ¡Õ¶
a st
Õ¢ ÕµÕ¸ÖĤÖĢ
ĠÕ¹ Õ¾
ĠÖĥ Õ¡Õ¼
Ôµ ÕĮ
ĠÕ¦ Õ¸ÖĤÕµÕ£
Õİ ÖĢÕ¡Õ½Õ¿
ĠÔ¹ Õ¥
ĠÕºÕ¡Õ°Õ¡Õ¶Õ» Õ¶Õ¥ÖĢÕ¨
tt e
ĠÔ´Õ¡Õ¾ Õ©
ĠÕ°Õ¡Õ¶ÖĢÕ¡ÕºÕ¥Õ¿ Õ¡Õ¯Õ¡Õ¶
ĠÕ¯Õ¡ÖĢÕ¤ Õ¡Õ¬
Õ¡Õ¿ Õ¥Õ¬
Õ¡Õ· Õ¡Õ¿
Ô¿ ÖĢÕ©
ĠÕºÕ¥Õ¿ Õ«
ĠÕ¡Õ½ Õ¸ÖĤÕ¬Õ«Õ½
ĠÕ¸ÖĤÕ² ÖĩÕ¸ÖĢ
ĠÕ¡Õ´Õ¥Õ¶ Õ¡
ĠÕķ Õ£
ĠÕ¯Õ¡ÖĢÕ£ Õ¡Õ¾Õ¸ÖĢ
ĠÕ¢Õ¡ÖĢ Õ¥Õ£Õ¸ÖĢÕ®
ĠÕ°Õ¸Õ¤Õ¾Õ¡Õ® Õ¶Õ¥ÖĢÕ«
es t
ĠÕ¹Õ¡Öĥ Õ¡Õ¶Õ«Õ·
ĠÕ¿ÖĢÕ¡Õ´ Õ¡Õ¤ÖĢÕ¥Õ¬
ĠÕ¿Õ² Õ¡Õ¶
ĠÕ¶Õ¥ÖĢÕ¤ ÖĢ
ĠÕªÕ¡Õ´Õ¯Õ¥Õ¿ Õ¸ÖĤÕ´
ĠÕ¬Õ¸ÖĤÕ½Õ¡Õ¶Õ¯Õ¡ÖĢ Õ¶Õ¥ÖĢ
ĠÔ²Õ¡Õ² Õ¤Õ¡Õ½
Õ¡Õ¢Õ¸ÖĢ Õ¡Õ¿Õ¸ÖĢ
ĠÕ° Õ¸Õ¾
ÕĢ Õ¥Õ²Õ«Õ¶Õ¡Õ¯
ĠÕĦ Õ¡Õ¬
ĠÕºÕ¡Õ¿ Õ¸ÖĤÕ°
Õ¡Õ£ÖĢ Õ¸ÖĤÕ©ÕµÕ¸ÖĤÕ¶Õ¶Õ¥ÖĢ
ĠÕĨ Õ¥ÖĢÕ¯Õ¡Õµ
Õ¶Õ¤ ÖĢÕ¸ÖĤÕ´
ĠÕ¥ÖĢ Õ¥ÖĤ
ĠÕ£ÖĢ Õ¡Õ¼Õ¸ÖĤÕ´
ĠÖĥÕ¸ÖĢÕ± Õ«
ĠÕ´Õ¥Õ² Õ¡Õ¾Õ¸ÖĢ
ĠÕ¶Õ¡ÕŃÕ¡Õ¿Õ¥Õ½ Õ¾Õ¸ÖĤÕ´
ĠÕ¥ÖĢÕ«Õ¿Õ¡Õ½Õ¡ÖĢÕ¤ Õ¸ÖĤÕ©ÕµÕ¡Õ¶
ĠÕ³Õ¡Õ¶Õ¡Õ¹ Õ¥Õ¬
ĠÔ»Õ¶ Õ±
ĠÕ¯Õ¤ Õ¡Õ¼Õ¶Õ¡
ĠÔ¹ÖĢÕ¡Õ´Öĥ Õ«
r ou
Ġ www
Õ¥ÖĢ Õ¸ÖĢÕ¤
Õ¾ Õ¡ÖĢÕ¹Õ¡ÕºÕ¥Õ¿
Õ© Õ¸Õ²
ĠÖĦ Õ«Õ´
Õ¡Õ¦ Õ«Õ¶
Õ· Õ¼
ĠÔ³ ÕĪÕĲÔ¾
Õį Õ¡Õ¶Õ¯Õ¿
ĠÕ½Õ¿ Õ¡ÖģÕ¾Õ¡Õ®
ÖĢÕ¡Õ´ ÕµÕ¡Õ¶
ĠÔ» ÕĲ
Õ«Õ¬ Õ«Õ©
ĠÕ¢Õ¡Õ¶ Õ¿
ĠÕ¿Õ¡ÖĢÕ¢Õ¥ÖĢ Õ¸ÖĤÕ©ÕµÕ¸ÖĤÕ¶
ĠÕ«ÖĢÕ¡Õ¯Õ¡Õ¶Õ¡Öģ Õ¾Õ¡Õ®
Ġ[ âĢ¦]
ou r
ĠO ff
ĠÕ¿Õ¡Õ½Õ¶ ÕµÕ¡Õ¯
ĠÕ£Õ¥Õ¶Õ¥ÖĢ Õ¡Õ¬
Õµ Õ¸ÖĤÕ¬
Õ½ Õ¨
Õ¬ Õ«Õ¯
Õ¸ÖĤÕµ Õª
ĠÕĦ Õ¸ÖĤÖĢ
Õ¡ÖĢÕ¤ Õ¡Õ¬
ÖĢÕ¤ Õ¡Õ¯Õ¡Õ¶
ĠÕ¿Õ¥Õ² Õ¡Õ¤ÖĢÕ¾Õ¡Õ®
ĠÔ» Õ°Õ¡ÖĢÕ¯Õ¥
ĠÕ¡Õ½ Õº
ĠÕ«Õ½Õ¯ Õ¡Õ¯Õ¡Õ¶
ĠÕĦÕ¡ÖĢÕ¿ Õ«
ĠÕ»Õ¥ÖĢÕ´ Õ¡Õ½Õ¿
ĠÕ´Õ¥Õ¿ ÖĢ
Ô±Ô´ ÕĲ
ĠÕ¥Õ¾ÖĢ Õ¸
ĠÕ·Õ¸ÖĤÕ¯Õ¡Õµ Õ¸ÖĤÕ´
ĠCom ments
5 1
P h
Õ¡Õ¿ Õ¥ÖĦÕ½Õ¿
ĠÕ¤ Õ¥Õ¯
ĠÕ½ Õ«ÖĢÕ¿
Õ¡Õ¼ Õ¬
ĠÕ¬ Öģ
Õ«Õ´ Õ¶
ĠÕ¯Õ¡ÖĢ Õ«
Õ¡ÕºÕ¥Õ¿ Õ«
ĠÕ£ÖĢ Õ¸Õ²
ĠÕ´Õ¡ÖĢÕ¤ Õ¸ÖĤÕ¶
ĠÖħÕ£ Õ¶Õ¸ÖĤÕ´
Õ¥Õµ Õ´
Õĩ Ô±Ô¿
ĠÕ¢Õ¶ Õ¸ÖĢÕ¸Õ·
ĠÕ°Õ¡ÕµÕ¿Õ¶ Õ¡Õ¢Õ¥ÖĢÕ¥Õ¬
ĠÕ¦Õ¢Õ¡Õ² Õ¥Öģ
ĠÕ´Õ¡Õ¯ Õ¥ÖĢ
Õ£Õ¿ Õ¡Õ£Õ¸ÖĢÕ®
ĠÕ¯Õ¸ÖĤÕ½Õ¡Õ¯Öģ Õ¸ÖĤÕ©ÕµÕ¸ÖĤÕ¶Õ¨
âĨ Ĳ
Õ¡Õ¦Õ£ Õ¥Õ¶
ĠÔ±ÖĢÕ´Õ¡Õ¾Õ«ÖĢ Õ«
Ô± ÖĢÖĩ
Â» ÕĿ
ÕĪ Ô±Ô¿
ĠÕ£Õ¸ÖĢÕ® Õ¡ÖĢÖĦ
ĠÕ°Õ¡Õ¶ Õ¯Õ¡ÖĢÕ®
ĠÕ¿Õ¡ÖĢ Õ«ÖĦ
Õ¸ÖĤÕ¯ Õ¡ÕµÕ«Õ¶
ÕĢÕ¡Õµ Õ¿Õ¶Õ«
ĠÕ¯Õ¡Õ¦Õ´Õ¡Õ¯Õ¥ÖĢÕº Õ¸ÖĤÕ´
Õ¸ÖĤÕ· Õ¿
ĠÕ°Õ¸Õ¤Õ¾Õ¡Õ® Õ¨
ĠÕ¢Õ¼Õ¶ Õ¸ÖĤÕ©ÕµÕ¡Õ¶
ĠÖĨÕ«Õ¬Õ´ Õ¨
ĠÕ°Õ¡Õ´Õ¡ÕºÕ¡Õ¿Õ¡Õ½ÕŃ Õ¡Õ¶Õ¸ÖĤÕ´
b er
Õ¶ Õ©Õ¥ÖĢÖģ
Õ¡Õµ Õ«Õ¯
Õ¸Õ¾ Õ¡ÕµÕ«
ĠÕ¡Õ¶ Õ¹Õ¡Öĥ
ĠÕŃ Öĥ
ĠÕŃ Õ¡Öĥ
ĠÕ¹ Õ¿
ĠÕĦ Õ«Õ¬
ĠÕ£ÖĢ ÖĦÕ«
Õ¸Õµ Õ¸ÖĤÕ´
ĠÕ¶Õ¡ÕŃÕ¡Õ£Õ¡Õ° Õ¡Õ¯Õ¡Õ¶
Ô±Õı Ô±ÕĲ
ĠÕ¯Õ¸Õ¹ Õ¾Õ¡Õ®
ĠÕ¡Õ¾Õ¡ÖĢÕ¿ Õ«Õ¶
ĠÕ¸Õ² Õ¢Õ¥ÖĢÕ£
Õ¡ÖĢÖĦ Õ¸ÖĤÕ¶
Ô¿Õ¡ÖĢ Õ¸Õ²
ĠÕ«Õ¶ÖĦÕ¶Õ¡Õ¯ Õ¡Õ¼
o d
Õ¡Õ §
ĠÕ§ ÖĦ
ĠÕ¯ Õ¥Õ¿Õ«
Õ¡Õ¯Õ¡Õ¶ Õ¸ÖĤÕ©ÕµÕ¡Õ¶
Õ¥Õ¶ Õ©
ĠÕ½ Õ¡ÖĢÕ½Õ¡Öĥ
Õ«Õ½ Õ«Õ¶
ĠÔµ Ô±ÕıÕĦ
Õ¡Õ¤ÖĢ Õ¸ÖĤÕ©ÕµÕ¡Õ´Õ¢
ÖĢÕ¡Õ½Õ¿ Õ«Õ³Õ¡Õ¶
ĠÕ¢Õ¡Õ¶ Õ¥ÖĢ
ÕĪÖĤ Õ½
ÕĨÔµÕĲ Ô¸
ĠÖĥÕ¸ÕŃÕ¡Õ¶Öģ Õ´Õ¡Õ´Õ¢
ĠÕ¢Õ¡ÖģÕ¡Õ¼ Õ¡ÕºÕ¥Õ½
ĠÕ¥ÖĢÕ¥ÕŃÕ¡Õ¶ Õ¥ÖĢÕ¨
ĠÕĢÔ±Õħ Ô±ÕįÕıÔ±ÕĨÔ»
ĠÕ¯ÖĢÕ¡Õ¯ Õ¸Öģ
ĠÕİÕ¡Õ¶Õ¡Õ± Õ¸ÖĢÕ«
ĠÕºÕ¡Õ¿Õ¯Õ¡Õ¶ Õ¸Õ²
] [
Õ¡Õ¾ Õ¡ÕŃ
ĠÕ´Õ¡Õ½ Õ¸ÖĤÕ´
Õı Õı
ĠÕ¯Õ¡ÖĢÕ¸Õ² Õ¡ÖģÕ¥Õ¬
ĠÖĥÕ¸ÕŃ Õ¾Õ¥Õ¬
ĠÕ¨Õ¶Õ¿ÖĢ Õ¸ÖĤÕ©ÕµÕ¸ÖĤÕ¶Õ¶Õ¥ÖĢ
ĠÕ¢Õ¡Õ¶ Õ¡Õ±Öĩ
ĠÕ£Õ«Õ¿ Õ¥Õ¬Õ«ÖĦ
ĠÕ¾Õ¥ÖĢÕ»Õ«Õ¶ Õ«Õ½
ĠÕ±Öĩ Õ¡Õ¯Õ¥ÖĢÕº
ĠÕħ Õ¸ÖĢ
ĠÕ´Õ¡ÖĢÕ¿ Õ¡Õ°ÖĢÕ¡Õ¾
ĠÕ°Õ¥Õ²Õ«Õ¶Õ¡Õ¯ Õ¡ÕµÕ«Õ¶
ĠÕ¨Õ¶Õ¤Õ¤ Õ¥Õ´
ĠÕ¯Õ¡Õ¼Õ¸ÖĤÕµÖģ Õ¶Õ¥ÖĢÕ«
Ñģ ÑĤ
Ô±ÖĢ Õ¡ÖĢÕ¡Õ¿
ĠÕ¨Õ¶Õ¤Õ£ÖĢÕ¯ Õ¾Õ¡Õ®
ĠÔ±Õ´Õ¥ÖĢÕ«Õ¯ Õ¡ÕµÕ«
ĠÕ«Õ¢ ÖĢ
ĠÕ¡Õ¶Õº Õ¡ÕµÕ´Õ¡Õ¶
Õ¥Õ¶ Õ¡
ĠÕ½ Õ¥ÖĢÕ¿
ĠÔ² Õ¶Õ¡Õ¯
ĠÔ³ Õ¥ÖĢ
ĠÕ¿Õ¥Õ² ÕµÕ¡Õ¯
Õ¡ÖĢÕ¡ÖĢ Õ¶Õ¥ÖĢÕ«
Ô±ÕĨ Õĳ
Ô´ Õ¥Õº
ĠÕ¿Õ¥Õ½ ÖĦÕ¸Õ¾
ĠÕ¿Õ¡ÖĢÕ¡Õ® Õ´Õ¡Õ¶
ĠÕ°Õ¸Õ¤Õ¾Õ¡Õ® Õ¶Õ¥ÖĢ
ĠÕ°Õ¥Õ¼Õ¸ÖĤÕ½Õ¿ Õ¡Õ¨Õ¶Õ¯Õ¥ÖĢ
ĠÕ¡ÖĢÕ¿Õ¡Õ°Õ¡ÕµÕ¿ Õ¾Õ¡Õ®
ĠÕ°Õ¡Õ¿Õ¾Õ¡Õ® Õ¸ÖĤÕ´
ĠÖħÕ£Õ¶ Õ¸ÖĤÕ©ÕµÕ¸ÖĤÕ¶
ĠÕĶÕ¸Õ¹ Õ¡ÖĢÕµÕ¡Õ¶Õ¨
ĠÕ¯Õ¡Õ¶Öģ Õ¯Õ¡Öģ
ĠÕ½Õ¿Õ¸ÖĢÕ¡Õ¢Õ¡Õª Õ¡Õ¶Õ¸ÖĤÕ´
ÖĦ Õ¶Õ¥ÖĢÕ¨
ĠÕ¢ Õ¸ÖĤÕ°
Õ¡Õ¢ ÖĢÕ«
Õ¸Õ½ Õ«Õ¶
Õ¸ÖĤÖĢ Õ¸ÖĤÕµÕ¶
ĠÕĨ ÕµÕ¸ÖĤ
ĠÕ½Õ¿ Õ¡Öģ
ĠÕ§Õ¬ Õ«
Ô¸ Õ¶Õ¿ÖĢ
Õ¡ÖĢÕ¡Õ¢Õ¡Õ² ÕµÕ¡Õ¶
ĠÕŃÕ¡Õ²Õ¡Õ² Õ¸ÖĤÕ©ÕµÕ¡Õ¶
ÕĮÕ¸ÖĤÕ½ Õ¡Õ½Õ¿Õ¡Õ¶Õ«
ĠÕ£ÖĢÕ¡Õ¯Õ¡Õ¶ Õ¸ÖĤÕ©ÕµÕ¡Õ¶
ĠÕºÕ¡ÖĢÕ¢Õ¥ÖĢ Õ¡Õ¢Õ¡ÖĢ
ĠÕ±Õ¥ÖĢÕ¢Õ¡Õ¯Õ¡Õ¬ Õ¾Õ¥Õ¬
ĠÕ¬Õ«Õ£ Õ¡ÕµÕ«
Ô¸Õ¶ Õ©Õ¡ÖģÕ«Õ¯
ĠÕ¯Õ¡ÕµÕ¡Õ¶Õ¡Õ¬ Õ«ÖĦ
D F
t ion
ĠÕĢ Õ¥Õ¶Öģ
Õ¶Õ¥Õ¬Õ¸ÖĤ Öģ
ĠÕ¥ÖĢÕ¯ÖĢ Õ¡Õ·Õ¡ÖĢÕª
ĠÕ¤Õ«Õ´ Õ¸ÖĤÕ´Õ¨
ĠÔ±ÖĢÕ¿ Õ¡Õ¯
men ian
ĠÔ¹ÖĢÕ¡Õ´Öĥ Õ¨
ĠÕĪÖĢ Õ¸Õ·
ĠÕĦÕ¡ÖĢÕ¤ Õ¸ÖĤ
ĠÕĪÖĤÕ¯ÖĢÕ¡Õ«Õ¶ Õ¡ÕµÕ«
E W
l ine
Ġ 01
Õ¡Õ¶ Õ¶Õ¥ÖĢÕ¨
Õ© Õ¡Öĥ
Õ¡Õ¤ ÖĢÕ¢Õ¥Õ»
ĠÕ¡Õ¼ Õ¡ÖĦ
ĠÕ°Õ¥Õ¿ Õ¡ÕŃÕ¸ÖĤÕ¦
ĠÕ¦ Õ«Õ»
Õ¸Õ¬ Õ«Õ¯
ĠÕİ Õ¡ÖĢÕ¹Õ¡ÕºÕ¥Õ¿
ĠÕªÕ¡Õ´ Õ¡Õ¶Õ¥Õ¬
Õ¡Õ¶ÖĦ Õ¶Õ¥ÖĢÕ«
ĠÖĦÕ¡Õ²Õ¡ÖĦ Õ¨
ĠÖĨ Õ¥Õ¤Õ¥ÖĢ
Ġ3 00
ÕĪÕĴÔ¹ÕħÕĪÕĴÕĨ Ô¸
Ô¿Õ¡Õº Õ¨
Õ¡Õ¶ Õ¡Õ¹
Õ¡ÖĢ Õ¥Õ¬
Õ¥Õ¬ ÕµÕ¡Õ¶Õ¨
Õ¡Õ´ Õ¥Õ¿
Õ½ Õ¥ÖĢ
ĠÕ£ Õ¸ÖĤÕµÕ¶
ĠÕĢ Õ²
Õį Õ¡Õ½Õ¶Õ¡
ĠÕ°ÖĢ Õ¡Õ¾Õ«
ĠÕ¬Õ«Õ¶ Õ¥ÖĢ
Õ¡ÖĢÕ¹ Õ¡Õ¯Õ¡Õ¶
ÕĢÕ¡Õµ Õ¡Õ½Õ¿Õ¡Õ¶Õ¨
ĠÖĦÕ¶Õ¶Õ¡ÖĢÕ¯ Õ¾Õ¥Õ¬
ĠÕ£Õ¶Õ¡Õ°Õ¡Õ¿ Õ¡Õ¯Õ¡Õ¶
ĠÕ¡Õ´Õ½ Õ¡Õ£Õ«ÖĢ
ĠÕ¼Õ¸ÖĤÕ½ Õ¥ÖĢÕ¥Õ¶
ĠÕ´Õ¡Õ¯Õ¡ÖĢÕ¤ Õ¡Õ¯Õ¸Õ¾
ĠÔ³ÖĢÕ«Õ£Õ¸ÖĢÕµ Õ¡Õ¶
ÕıÕ¥Õ½ Õ¡Õ¶ÕµÕ¸ÖĤÕ©
ĠÕ¦Õ«Õ¶Õ®Õ¡Õ¼Õ¡Õµ Õ¸Õ²
ĠÕ´Õ¥Õ¿ Õ¡Õ²
ĠÕįÕ¸ÖĤÖĢ Õ¥Õ¶
3 4
Õ¡Õ¿ Öĩ
Õ¢ Õ«Õ¬
ĠÔ¿ Õ¸Õ¾Õ¯
Õ¥Õº Õ¿Õ¥Õ´Õ¢Õ¥ÖĢ
Ô±ÕĨ ÕħÕĪÕĴÔ¹
ĠÔ´ Õ¸ÖĤ
Õ¸ÖĤÕ· Õ¡Õ¯
Ġ200 7
ĠÕ«ÖĢÕ¡Õ¾Õ«Õ³ Õ¡Õ¯Õ¶Õ¥ÖĢÕ«
ĠÕ¥ÖĢÖĩ Õ¸ÖĤÕ´
ĠÕ°Õ¸ÖĢ Õ«Õ¦
ĠÕĢÕ¸Õ¾ Õ«Õ¯
Õ¸ÖĤÖĢÕ ª
Õ¸ÖĤÕ¥Õ¶ Õ¸Õ½
e p
ĠÕ´ Õ«Õ£
Õ¡Õ¾ Õ³
ĠÕ¢ Õ¥ÖĢÕ´Õ¡Õ¶
ĠÕ¬ Õ¥Õ¼Õ¶
ĠÔ¿ Õ¡ÖĢÕ®Õ¸ÖĤÕ´
ĠÕ¿Õ¡ÖĢ Õ¥Õ¯
ĠÕĢÕ¡ÕµÕ¡Õ½Õ¿ Õ¡Õ¶Õ¶
ĠÕ¡ÕµÕ½ ÕºÕ«Õ½Õ«
Õ«Õ¹ Õ¶Õ¥ÖĢ
ĠÔ±Õµ ÖĢÕ¥Õ½
ĠÕ¡Õ¦ Õ¶
ĠÕºÕ¡Õ° Õ¥Õ¬Õ¸ÖĤ
ĠÕ¢Õ¡Öģ Õ¡ÖĢÕ±Õ¡Õ¯
ĠÖĥÕ¸ÕŃ Õ°Õ¡Õ¿
Õ¥Õµ Õ©
ĠÕ°Õ¡Õ¶ÖĢ Õ¡Õ°Õ¡Õ¾Õ¡ÖĦ
ĠÕ±Õ¥Õ¼ÖĦ Õ¢Õ¥ÖĢÕ¸ÖĤÕ´
ĠÕ¡Õ¶ÖģÕ¯Õ¡Öģ ÖĢÕ¥Õ¬
ĠÕ¼Õ¡Õ¦Õ´ Õ¡Õ¾Õ¡ÖĢÕ¡Õ¯Õ¡Õ¶
ĠÕ¡Õ¶Õ¸ÖĤÕ¶ Õ¸Õ¾
ĠÕ¾Õ¡ÖĢÕ¯ Õ¡Õ¶Õ«Õ·
ĠÔµÖĢÕ¥ÖĤ Õ¡Õ¶
ĠÕįÕ¡Õ°Õ´Õ¡Õ¶ Õ¡Õ¤ÖĢÕ¸ÖĤÕ©ÕµÕ¡Õ¶
ĠÕ¡Õ¼Õ¶Õ¹ Õ¾Õ¸Õ²
ĠÕĦÕ¸Õ½Õ¯Õ¾ Õ¡ÕµÕ¸ÖĤÕ´
ĠÕºÖĢÕ¸ÖĨÕ¥Õ½ Õ«Õ¸Õ¶Õ¡Õ¬
Õ¡Õµ Õ¤
ĠÔ± ÕĦ
ĠÔ± Õħ
Õ¡Õ¤ Õ¡ÖĢÕ«
Õ° Õ¡Õ½Õ¡ÖĢÕ¡Õ¯
ĠÕ® ÕŃ
Õ¡Õ´Õ¢ Õ¡ÖĢ
ĠÕ¡Õ½ Õ¾Õ¡Õ®
Ô² Õ¡Õ¶
ĠÕºÕ¡Õ° Õ¸ÖĤÕ´
ĠÕ¡Õ¶Õ° Õ¥Õ¿
Õĩ Ô½
le tte
Õ¡Õ·ÕŃ Õ¡Õ¿
ĠÕ¯ÖĢÕ© Õ¡Õ°Õ¡Õ´Õ¡Õ¬Õ«ÖĢ
ĠÕ¶Õ«Õ½Õ¿ Õ«Õ¶
ĠÔº Õ¡Õ´Õ¡Õ¶Õ¡Õ¯
ĠÕ¥Õ¬ Õ¶Õ¥Õ¬Õ¸Õ¾
ĠÕºÕ¡Õ¿Õ¾Õ«ÖĢÕ¡Õ¯ Õ¸ÖĤÕ©ÕµÕ¡Õ¶
ĠÔ¿Õ¡Õ¼ Õ¡Õ¾Õ¡ÖĢÕ¸ÖĤÕ©ÕµÕ¡Õ¶
ĠÕ¹Õ¡ÖĢ Õ¡Õ·
ĠÕ«ÖĢÕ¡Õ¾Õ¡Õ½ Õ¸ÖĤÕ©ÕµÕ¡Õ¶
ĠÕįÕµÕ¸ÖĤÕ¶ Õ«ÖĦÕ«
Õ¡Öģ ÖĢÕ¡Õ®
ĠÕ¿ Õ¡Õ³
ĠÕ£ Õ¡Õ¶Õ±
ĠÔ± ÖĢÕ£
ĠÕ© Õ¡Õ£
ĠÕ· ÖĦ
ĠÕ¬ Õ¥Õ£
ÖĢÕ¾ Õ¥Õ¬Õ¸ÖĤ
Ô² Õ¡ÕªÕ¡Õ¶Õ¸ÖĢÕ¤
ĠÕ¶Õ¥ÖĢÕ¯Õ¡Õµ Õ«Õ½
Ġ3 7
ĠÕ¢Õ¡Õ¶ Õ¥ÖĢÕ¨
ĠÕ«Õ¶ÖĦÕ¶ Õ¸ÖĤÖĢÕ¸ÖĤÕµÕ¶
ĠÕ°Õ¸Õ¤Õ¾Õ¡Õ® Õ¸Õ¾
Õ¾Õ¥Õ¬Õ¸ÖĤ Öģ
Õ¡ÖĦÕ¶Õ¶ Õ«Õ¹
ĠÕ¾Õ³Õ¡ÖĢ Õ¥Õ¬
ĠÕ¾Õ¡ÖĢÕ¯ Õ¡ÕµÕ«Õ¶
ĠÖħÖĢÕ¥Õ¶Õ½Õ¤ ÖĢÕ¡Õ¯Õ¡Õ¶
ĠÕĦÕ¶ Õ¡ÖģÕ¡Õ¯Õ¡Õ¶
Õ¡Õ¤ÖĢÕ¢Õ¥Õ» Õ¡Õ¶Õ¡Õ¯Õ¡Õ¶
ĠÕ¤ Õ¡Õ·Õ¶
ĠÕĢ Õ¥Õ¼
ÕĨ Õ¥ÖĢÕ¢
ĠÕ® Õ¥ÖĢ
Õı Õ¡ÖĢÕ¡Õ®
Ô±ÕĨ Ô¿
ĠÕ¡Õ½ Õ¥Õ¬Õ¸Õ¾
ĠÔ¼ ÖĢ
Õ¡Õ± Õ¸ÖĢ
ĠÕ´Õ·Õ¡Õ¯ Õ¸ÖĤÕµÕ©
ĠÕ´Õ¥Õ² Õ´
ĠÔ±ÖĢÕ ®
ĠÕ¤Õ¡Õ¼Õ¶Õ¡Õ¬ Õ¸ÖĤ
ĠÕĢÔ±ÕĦ Ô±ÕĲ
ĠÕ¡Õ¼ÖĩÕ¿ÖĢ Õ¡ÕµÕ«Õ¶
ĠÕ¿ÖĢÕ¡Õ¶Õ½ÕºÕ¸ÖĢÕ¿ Õ«
ĠÖħÕª Õ¡Õ¶Õ¤Õ¡Õ¯
ĠÕ¡ÖĢÕ¿Õ£Õ¸ÖĢÕ® Õ¶Õ¡ÕŃÕ¡ÖĢÕ¡ÖĢ
EW S
r am
Õ«Õ¶ Õ¤
ĠÕ¡Õ¶ Õ¡Õ¯
ĠÕ® Õ¼
ĠÕ°Õ¡ÕµÕ¿ Õ¡ÖĢ
Õ¡ÖĢÕ¡Õ¶ Õ¶Õ¥ÖĢÕ«
ĠÕ®Õ¡Õ¼Õ¡Õµ Õ¸ÖĤÕ©ÕµÕ¸ÖĤÕ¶Õ«Öģ
ĠÕ°Õ¡ÕµÕ¿Õ¡ÖĢÕ¡ÖĢ Õ¸ÖĤÕ©ÕµÕ¡Õ¶
ĠÔ±Õ¶ Õ¿
ĠÔ²Õ¥Õ¬ Õ¡Õ¼
A R
ĠÖħ Õ²
ĠÖħ ÖĢÕ½
ÕĦ ÕŃÕ«Õ©
Õ¡Õ© Öĩ
Õ¡Õ¶Õ¤ Õ¡ÖĢÕ¿
ĠÕ¡Õ¶Õ° Õ¡Õ´
ĠÕ¿Õ¥Õ²Õ¥Õ¯ Õ¸ÖĤÕ©ÕµÕ¸ÖĤÕ¶
ĠÕºÕ¡Õ·Õ¿Õ¸Õ¶ Õ¡Õ¿Õ¡ÖĢ
19 6
ĠÕ¸ÖĤÕª Õ¨
ĠÖĥÕ¸ÖĥÕ¸ÕŃ Õ¾Õ¥Õ¬
ĠÕ¶Õ¾ Õ¥ÖĢ
ĠÕ´Õ¥Õ¯Õ¶ Õ¡ÖĢÕ¯Õ¥Õ¬
ĠÖħÖĢÕ¥Õ¶ÖĦ Õ¸ÖĤÕ´
ĠÕ£ÖĢÕ¡Õ¶Öģ Õ¾Õ¥Õ¬
ĠÔµÖĢÕ¥ÖĤ Õ¡Õ¶Õ¸ÖĤÕ´
ĠÔ·Õ¤ Õ¸ÖĤÕ¡ÖĢÕ¤
ĠÔ²ÖĢÕ«Õ¿ Õ¡Õ¶Õ«Õ¡ÕµÕ«
ĠÕ°ÖĢÕ¡Õ· Õ¡Õ¬Õ«
ĠÕ¶Õ¥ÖĢÕ½ Õ¸ÖĤÕ´
ĠÕ¥ÖĢÕ» Õ¡Õ¶Õ«Õ¯
ĠÕ¡Õ¶ÖģÕ¯ Õ¡ÖģÕ´Õ¡Õ¶
Õ¡Õ¶ Õ¾
Õ¯ Õ¸Õ¿
Õ¯ Õ¡ÖģÕ¡Õ®
ĠÕ£ Öģ
ĠÔ± Õ¶Õ¶Õ¡
Õ¢ Õ¡Öģ
ĠÕ¥ÖĢÕ¯ Õ¯Õ¸Õ²Õ´
Õİ Õ¡ÖĢÕ¤
ĠÖĨ Õ¸Õ¿
Ô¼ Õ¸ÖĤÕ½
ÖĨ Õ«
ĠÕºÕ¡Õ° ÕºÕ¡Õ¶Õ¸ÖĤÕ©ÕµÕ¡Õ¶
Õ¡ÖĢÕª Õ¡Õ¶
ĠÕ¿Õ¡ÖĢÕ¡Õ® Õ¾Õ¡Õ®
ĠÕ«ÖĢÕ¡Õ¯Õ¡Õ¶Õ¡Öģ ÖĢÕ¥Õ¬
ÖĢÕµ Õ¸ÖĤÕ½
ĠÕ¶ÖĢÕ¡Õ¶Öģ Õ«Öģ
ĠÕ½Õ¯Õ½ Õ¾Õ¥Õ¬
ĠÕĪÖĤ ÖĢ
ĠÖĦÕ¡ÕµÕ¬ Õ¥ÖĢ
ÔµÕį Ô±ÕĨÕħÕĪÕĴÔ¹
ĠÕ´Õ¡Õ½Õ¶Õ¡Õ£Õ¥Õ¿ Õ¶Õ¥ÖĢÕ«
ĠÕ©Õ¥ÖĢÕ© Õ«
ĠÕ°Õ¡Õ¶Õ± Õ¶Õ¥Õ¬
ĠÕ°ÖĢÕ¡Õ¾Õ«ÖĢ Õ¥Õ¬
ĠÕ½ÕºÕ¸ÖĢÕ¿ Õ«
ĠÕ¾Õ¯ Õ¡ÕµÕ¸ÖĤÕ´
Õµ Õ¡ÖĢÕ¤
ĠÕ¯ Õ¾
ĠÕ¯ Õ¡ÖĢÕ´Õ«ÖĢ
Õ´ Õ¡Õ°
Õ¸Õ² Õ¶
Õ¡Õ£ ÖĢÕ£
ĠÕ½ Õ¸ÖĤÖĢÕ¢
Õ¡ÕŃ Õ¡ÕŃÕ¿
ĠÖĦÕ¡Õ²Õ¡ÖĦ Õ¡ÕµÕ«Õ¶
ĠÔ¼ Õ¥Õ°
Õ³ Õ«
ÕºÖĢ Õ«Õ¬
ĠÕķ Õ£Õ¿Õ¡Õ£Õ¸ÖĢÕ®Õ´Õ¡Õ¶
ĠÕ½Õ¿Õ¥Õ²Õ® Õ¥Õ¬Õ¸ÖĤ
ĠÕ°Õ«Õ´Õ¶ Õ¾Õ¡Õ®
ar m
ĠÕ¯Õ¸Õ¹ Õ¾Õ¸ÖĤÕ´
ĠÕ°Õ¡Õ³Õ¡ÕŃ Õ¸ÖĢÕ¤
ĠÕ£Õ¸ÖĢÕ®Õ¡Õ¯Õ¡Õ¬ Õ¸ÖĤÕ©ÕµÕ¡Õ¶
Õ¥Õ´Õ« Õ¥ÖĢ
ĠÕĦÔ» Õĭ
ĠÕ¥Õ¦ÖĢÕ¡ÖĥÕ¡Õ¯ Õ«Õ¹
ĠÔ¿Õ¸Õ´ Õ«Õ¿Õ¡Õ½
ĠÔ»Õ¶Õ¿ Õ¥ÖĢÕ¶Õ¥Õ¿
p p
Ġ n
Õ¡Õµ Õ¥Õ¬Õ«
Õ´ Õ¡
ĠÕĢ Õ¡Õ´Õ¢
ÕĢ Õ¸Õ¯Õ¿Õ¥Õ´Õ¢Õ¥ÖĢÕ«
Ôµ ÕĬ
Ô² Õ¡ÖĢÕ«
ĠÕ³ Õ¡Õ´Öĥ
ĠÕ¯Õ¡Õ¦Õ´ Õ¾Õ¡Õ®
Õ¥Õ½Õ¿ Õ¸ÖĢ
ĠÕ¬ÖĢ Õ«Õ¾
ĠÕ°Õ¡Õ½Õ¿Õ¡Õ¿ Õ¾Õ¡Õ®
ĠÕ¯ÖĢ Õ¸Õ¶Õ¡Õ¯Õ¡Õ¶
ĠÕ¾Õ«Õ³Õ¡Õ¯ Õ¡Õ£ÖĢÕ¸ÖĤÕ©ÕµÕ¸ÖĤÕ¶
Õ¢Õ«Õ¬ Õ«Õ½Õ«
ð Ł
ĠÕ° Õ¸Õ¾Õ¡Õ¶
ĠÕ´ Õ¥Õ¼
ĠÔ± Õ¾Õ¥Õ¬Õ«
ĠÖĦ Õ¡Õ¶Õ¡Õ¯Õ¨
ĠÕ¬ Õ¾
ĠÕ¬ Õ¸Õ²
ĠÕ°Õ¥Õ¿ Õ¡Õ±Õ£
ĠÖĥ Õ«Õ¬Õ«Õ½Õ¸Öĥ
Õ± Õ¥Õ¼
ĠÔ» Õ¬
ĠÕ¡Õ½ Õ¾Õ¸ÖĤÕ´
ĠÕ¡Õ´Õ¥Õ¶ Õ¡Õ¯Õ¡ÖĢ
ĠÕ£Õ¶ Õ¡ÖģÕ¥Õ¬
ĠÕ¶Õ¥ÖĢ Õ¸ÖĤÕª
ĠÕ¡ÕµÖģ Õ¨
Ġ200 0
ĠÕ´Õ¡Õ¿ Õ¶
ĠÕ´Õ¡Õ¿ Õ¹Õ¥Õ¬Õ«
ĠÕ´Õ¡Õ½Õ¶Õ¡Õ¯Õ«Öģ Õ¶Õ¥ÖĢÕ¨
ĠÕ¢Õ¡Õ² Õ¯Õ¡ÖģÕ¡Õ®
ĠÕ¦Õ¡Õ¶Õ£Õ¾Õ¡Õ® Õ¡ÕµÕ«Õ¶
ĠÔ³Ô± Ô±
ĠÕ©Õ¥Õ© Öĩ
ĠÕ«Õ¶ÖĦÕ¶Õ¡Õ¯Õ¡Õ¼ Õ¡Õ¾Õ¡ÖĢÕ´Õ¡Õ¶
c e
t ing
ĠÕ° Õ¡ÖĢÕ±Õ¡Õ¯Õ¸ÖĤÕ´
Õ¥Õ¬ ÖĦÕ¸ÖĤÕ´
ĠÕ¤ Õ«Õ¶
Õ¡Õ° Õ«Õ¿
ĠÕ°Õ¡Õ´ Õ¢
ĠÕŃ Õ¡Õ¼Õ¶
ĠÕ¡Õ½ Õ¸ÖģÕ«
ĠÕ¯Õ¡Õ¦Õ´ Õ«
ĠÕ¿Õ¥Õ²Õ¥Õ¯ Õ¡ÖģÖĢÕ¥Õ¬
Ô· Õ¤
ĠÕ°Õ¡Õ¾Õ¡ÖĦ Õ¡Õ¯Õ¡Õ¶Õ¨
ĠÕ°Õ¡ÖĢÕ¯ Õ«
ĠÕ¡Õ¼Õ¡Õ»Õ¶ Õ¡Õ°Õ¥ÖĢÕ©
ĠÕ¥ÖĢÕ£ Õ«
Õģ Õ¥Õ¦
ĠÕ¯Õ¸ÖĢ Õ¸ÖĤÕ½Õ¿
ÕĦÕ¡ÖĢÕ¤ Õ¸ÖĤ
ĠÕ¿Õ¡ÖĢÕ¥Õ¬ Õ«Öģ
Õ¡Õ·Õ¡Õ¼ ÖĦ
Õ¡ÕŃÕ¡Õ£Õ® Õ«
ÕĢÔµÕı ÔµÕİ
Ġ l
ÖĢÕ ·
Õ¥ÖĢ Õ¸Õ«Õ¤
ĠÕ¤ Õ¸Õ¯
ĠÕ¡Õ¶ ÕŃ
ĠÕ© Õ¡Õ¬
ĠÕ© Õ§
ÕŃ Õ¡Õ²
Õ¸ÖĤÕµ Õ¿
ĠÕ½Õ¿ Õ¡Õ¶Õ±
ĠÕĬ ÔµÔ¿
ĠÕ¡Õ´Õ¥Õ¶ Õ¡Õ°
ĠÕ¦Õ£ Õ¸ÖĤÕ·
ĠÕ¯Õ¡Õ¼Õ¸ÖĤÖģ Õ¥Õ¬
ĠÕ°Õ¡ÕµÖĢÕ¥Õ¶ Õ«ÖĦ
ĠÖĥÕ¡Õ½Õ¿Õ¡Õ© Õ¸ÖĤÕ²Õ©
ĠÕ¶Õ¡ÕŃÕ¨Õ¶ Õ¿ÖĢ
ĠÕºÕ¡Õ¬ Õ¡Õ¿Õ«
ÕĪÖĤÕ² Õ«Õ²
ĠÕ´Õ«Õ¡Õ¶Õ£Õ¡Õ´ Õ«Öģ
ÕĢÔµÕıÔµÕİ ÔµÕĶ
Ð »
ĠÕ¯ Õ¾Õ¥ÖĢ
ĠÕ¡Õ¶ Õ»
ĠÖĦ Õ¡Õ¶Õ¤
Õ¾Õ¡Õ® ÖĦÕ¶Õ¥ÖĢÕ«
Ôµ Õ¾ÖĢ
Õ° Õ¥Õ¿
ĠÔ¿ Ô³
ĠÔ´ ÖĢÕ¡Õ¶ÖĦ
ĠÕķ ÖĢÕ¥Õ¶
ĠÕºÕ¡ÕµÕ´Õ¡Õ¶ Õ¡Õ£Õ«ÖĢÕ¨
ĠÕ¤ÕºÖĢÕ¸Öģ Õ¨
ĠÕºÕ¡ÖĢ Õ¸ÖĤÕ¶Õ¡Õ¯
ĠP DF
ĠÔ»Õ¶Õ¹ Õ¸
ÕĬÕ¡Õ¿ Õ¡Õ°Õ¡Õ¯Õ¡Õ¶
ĠÕĥ Õ¡Õº
ĠÕ¼Õ¥Õª Õ«Õ½Õ¸ÖĢ
ĠÕ°Õ¡Õ´Õ¸Õ¦ Õ¾Õ¡Õ®
Õ¡Õ¯ÖĢÕ© Õ¡Õ¯Õ¡Õ¶
o g
ĠÕ¯ Õ¸ÖĤÖĢÕ½
ĠÕ¿ ÕŃ
ĠÕ£ Õ«ÖĢÖĦÕ¨
Õ¸Õ¶ Õ¿
Ô² Õ¸ÖĤÕ¥Õ¶Õ¸Õ½
ĠÕ¢Õ¡Öģ Õ¥Õ¬
ĠÕ¯Õ¡Õ¿ Õ¥Õ£Õ¸ÖĢ
ĠÕ°Õ¡Õ¾Õ¡ÖĦ Õ¡Õ®
ĠC h
ĠÕ¦Õ¢Õ¡Õ² Õ¾Õ¡Õ®
ĠÔ±Õ¾ Õ¡Õ£
ĠÕ£Õ¥ÖĢ Õ¡Õ¿Õ¥Õ½
ĠÖĥÕ¸ÕŃÕ¡Õ¶Öģ Õ¸ÖĤÕ´
ĠÔ½Õ¡Õ¹Õ¡Õ¿ÖĢÕµ Õ¡Õ¶Õ¨
ĠÕ¡Õ¼ÖĩÕ¿ÖĢ Õ«
ÕıÕº Õ¥Õ¬Õ¸ÖĤ
Õ¡Õµ ÕªÕ´
ĠÕ£ Õ¡
Õ¡Õ¼ Õ¸ÖĤ
Ô±Õ °
ĠÕį Õ¡Õ¶
ĠÕ¸ÖĤÕ¶ Õ¡Õ¯
ĠÕ¡Õ·ÕŃÕ¡Õ¿ Õ¸Õ²
Õ¨Õ¶ Õ¯Õ¥ÖĢ
ĠÕ¯Õ¡Õ¶ Õ¡Õ¹
ĠÕ¡Õ² Õ´
ĠÕ¡Õ² ÖĦÕ¡Õ¿
ĠÖĥÕ¡Õ½Õ¿ Õ¨
ĠÕ°Õ² Õ¥Õ¬
ĠÕĦÕ« Õ¡ÕµÕ¶
ĠÕ°Õ¥Õ¿Õ¡Õ¦Õ¸Õ¿ Õ¸ÖĤÕ©ÕµÕ¸ÖĤÕ¶Õ¶Õ¥ÖĢÕ«
ĠÕ½Õ¿Õ¥Õ²Õ®Õ¡Õ£Õ¸ÖĢÕ® Õ¡Õ¯Õ¡Õ¶
ĠÕ¥Õ¼ Õ¡Õ´Õ½
Õ¡ÖĢÕŃ Õ«Õ¾
ĠÕ½ÖĥÕµÕ¸ÖĤÕ¼ ÖĦÕ«
ĠMed iam
ĠÕ´Õ¡ÖĢÕ¿Õ¡Õ°ÖĢÕ¡Õ¾ Õ¥ÖĢ
ĠÕ¸ Õ´Õ¡Õ¶
Õ¬ Õ¨
ÕĨ Õ¸ÖĤÕµÕ¶
ĠÕºÕ¥Õ¿ Õ¸ÖĤÕ©ÕµÕ¸ÖĤÕ¶Õ¨
ĠÕ°Õ¡ÖĢÖģ Õ¸Õ¾
Õ¥Õµ Õ¿
in fo
on e
ĠÕĮÕ¸ÖĤÕ½ Õ¡Õ½Õ¿Õ¡Õ¶Õ¸ÖĤÕ´
ĠÕ°Õ² Õ«
ĠÕ¬Õ¥Õ¦ Õ¸ÖĤ
ĠÔ»ÖĢ Õ¡ÖĦ
ĠÕ¡Õ»Õ¡Õ¯Öģ Õ¥Õ¬
ĠÕ°Õ¡Õ´Õ¡Õ¬Õ½ Õ¡ÖĢÕ¡Õ¶Õ¸ÖĤÕ´
ĠÕ¬Õ½ Õ¸ÖĤÕ´
ĠÕŃÕ¸ÖĢ Õ¡Õ£ÖĢÕ¸Õ¾
ĠÖĥÕ¡Õ½Õ¿Õ¡Õ©Õ²Õ© Õ¥ÖĢÕ«
ĠÕ¯Õ¡Õ© Õ¸Õ²Õ«Õ¯
ĠÕ¨Õ¶Õ© Õ¡Õ¶Õ¸ÖĤÕ´
ĠÕ£Õ¡Õ²Õ¿Õ¶ Õ¡Õ¢
ĠÕ¡ÖĢÕ¿Õ¡Õ½ Õ¡Õ°Õ´Õ¡Õ¶
Õ¶ Õ¨
Õµ Õ¸ÖĤÕ¿
Õ¡ÖĢ Õ¸Õ¾
ĠÕ¯ Õ«Öģ
ĠÕ¯ Õ¯Õ¡ÖĢÕ¸Õ²
Õ¡Öģ Õ¸ÖĤÖģÕ«Õ¹
ĠÕ¤ Õ«Õº
ĠÕ¾ Õ¡ÖĢÕ¤
ĠÖĦ ÖĢÕ¥
ÕĲ Ô´
Õı Õ¶Õ¿Õ¥Õ½
ĠÕ¾Õ¥ÖĢ Õ¡ÕºÕ¡Õ¿ÖĢÕ¡Õ½Õ¿
ĠÕªÕ¡Õ´ Õ¡Õ¶
ĠÖħÖĢ Õ¥ÖĢÕ«
Õ¸ÖĤÕ² Õ«
ĠÕ¡Õ¶Öģ Õ¶Õ¥Õ¬
Õ¸Õ¢ Õ¡Õ¬
ĠÕ²Õ¥Õ¯Õ¡Õ¾Õ¡ÖĢ Õ¶Õ¥ÖĢÕ«
ĠÕ¤ÖĢÕ¡Õ´ Õ¡Õ¯Õ¡Õ¶
ĠÕ¡ÕµÖģ Õ«
Ġ200 6
ĠÕ°Õ¡Õ²Õ© Õ¥Õ¬
ĠÕ¦Õ¸ÖĢ ÖĦÕ¥ÖĢÕ«
ĠÕºÕ¡Õ¿Õ¡Õ½ÕŃÕ¡Õ¶Õ¡Õ¿Õ¾ Õ¸ÖĤÕ©ÕµÕ¸ÖĤÕ¶Õ¨
ĠÕ¿Õ¡ÖĢÕ¡Õ®Õ¡Õ·ÖĢÕ» Õ¡Õ¶Õ«
ĠÕİÕ¥ÖĢ ÖģÕ¾Õ¡Õ®
Ô¹Õ¸ÖĤÖĢÖĦÕ« Õ¡ÕµÕ«
Õ¡Õ¶ Õ¸Õ¾
Õ¸Õ ¨
Õ¡ÖĢ Õ¸ÖĤÕ¶
ĠÖĥ Õ¸ÖĤÕ¬Õ«
ĠÕį Õ¡ÖĢ
Õ¡ÖĢÕ¿ Õ¡Õ°Õ¡Õ¶
ĠÕ°Õ¡ÖĢ Õ¡Õ¾
Õ´Õ¢ Õ¸Õ²Õ»
ÕµÕ¡Õ¬ Õ¶Õ¥ÖĢÕ«
ĠÕĵ Õ¸ÖĦÖĢ
ĠÕ´Õ¿ Õ¡Õ¤Õ«ÖĢ
201 1
ĠÕĢÕ¡Õ¶ÖĢÕ¡ÕºÕ¥Õ¿ Õ¡Õ¯Õ¡Õ¶
ĠÕ¥ÖĢÕ¥ÕŃ Õ¡ÕµÕ«Õ¶
Ô±ÕĦ ÕĪÕĴÔ¼
ĠÕ°ÖĢÕ¡ÕºÕ¡ÖĢÕ¡Õ¯ Õ¾Õ¡Õ®
ĠÕºÕ¡Õ°Õ¡Õ¶Õ» Õ¥Õ¬
ĠÕ¡Õ¶Õ°ÖĢÕ¡ÕªÕ¥Õ·Õ¿ Õ¸ÖĤÕ©ÕµÕ¡Õ¶
ĠÕºÕ¡ÕµÖĦ Õ¡ÖĢÕ¨
ÕĨÕ¡ÕŃ Õ¸ÖĢÕ¤Õ¨
ĠÕ¡ÖĢÕ¿Õ¡Õ½Õ¡Õ¶ Õ¸ÖĤÕ©ÕµÕ¸ÖĤÕ¶Õ¨
ĠÕ¶Õ¸ÖĢÕ´ Õ¡Õ¬
Õ¡ÖĢÖĦÕ¸ÖĤÕ¶ Õ«ÖĦÕ«
Ġ 00
Õ¶ Õ©
Õ¾ Õ¥ÖĦ
ĠÔ± ÕĩÔ½
Õ¾Õ¡Õ® ÖĦÕ¨
ĠÕ¬ ÖĦ
ĠÕĦ Õ¥ÖĢÕ±Õ¡Õ¾Õ¸ÖĢ
ÕĪ Ô¼
Õ½Õ¿ ÖĢÕ«
ĠÔ´ Õ¸Õ¶Õ¡Õ¬Õ¤
ĠÔ±Õµ ÕªÕ´
ĠÕ¶Õ¥ÖĢÕ¯Õ¡ÕµÕ¡Öģ Õ¶Õ¸Õ²
ÖĢÕ© Õ«Õ¼
ĠÕ¶Õ¯Õ¡Õ¿ Õ«
ĠÕºÕ¡Õ¿ÖĢÕ¡Õ½Õ¿ Õ¥Õ¬
ĠÕ¦Õ£ Õ¥Õ½Õ¿
ĠÕ¡Õ¶ÖģÕ¯Õ¡Öģ Õ¶Õ¥Õ¬Õ¸ÖĤ
ĠÕ´Õ¡Õ¯Õ¡ÖĢÕ¤ Õ¡Õ¯Õ¨
Ô±ÕįÕı Ô±ÕĨ
ĠÕ¤Õ¡Õ·Õ¿ Õ¸ÖĤÕ´
ĠÖĦÕ¾Õ¥Õ¡ÖĢÕ¯ Õ¸ÖĤÕ©ÕµÕ¡Õ¶
Ô±Õ·ÕŃÕ¡ÖĢÕ° Õ«
Õ¸ÖĤ ÖĢÕ³
Ô± Õ¾Õ¥Õ¬
Õ£ Õ«Õ¿
Õ¡ÕŃ Õ¡Õ²
ĠÕ© Õ¸ÖĤÕ¬
ÕĨ Õ¡Õ¾
ÕĪÕ ĩ
ĠÕİ ÔµÕĲ
Öħ Õ¤
ĠÕĬ ÕĪÔ±Ô¿
Õ¶Õ¡Õ¯ Õ¡Õ¦Õ´
ĠÕ¡Õ´Õ¥Õ¶ Õ¡ÕµÕ¶
ĠÕ¯Õ¡Õº Õ«Õ¿Õ¡Õ¬
ĠÕ´Õ¡ÖĢÕ¦ Õ¥ÖĢÕ¸ÖĤÕ´
ĠÖģÕ¸ÖĤÖģ Õ¡Õ¯Õ¸ÖĤÕ´
ĠÕĪÖĤ Õ²
ĠÕ¢Õ¶ Õ¸ÖĤÕµÕ©Õ«
ĠÕ¶Õ·Õ¡Õ¶Õ¡Õ¯ Õ¸ÖĤÕ©ÕµÕ¡Õ¶
ĠÕ°Õ¡Õ½Õ¡ÖĢÕ¡Õ¯ Õ¡ÕµÕ¶Õ¸ÖĤÕ©ÕµÕ¡Õ¶
ÕĪÕĲ Õı
ĠÕ°Õ¡Õ¦Õ¡ÖĢ Õ¡Õ¾Õ¸ÖĢ
ĠÕ°Õ¡Õ»Õ¸Õ² Õ¸ÖĤÕ©ÕµÕ¡Õ¶
ĠÕ£Õ¥ÖĢ Õ¥Õ¦
ĠÔµÖĢÕ¯ ÖĢÕ¸ÖĢÕ¤
ĠÕ¾Õ¡Õµ ÖĢÕ¯
ĠÕ¦Õ¸ÖĤÕ£ Õ¡Õ°Õ¥Õ¼
ÖĢÕ¡Õ´Õ¡Õ½Õ¶ Õ¸ÖĤÕ©ÕµÕ¸ÖĤÕ¶Õ¶Õ¥ÖĢÕ«
ĠÕ¡ÖĢÕµ Õ¸ÖĤÕ¶
ĠÕ Ĳ
ĠÕ¯ Õ¯Õ¡Õµ
ĠÕ¤ Õ¡ÖĢÕº
Õ¡Õ¤ Õ¡Õ½
ÕĦ Ô±Ô¿
ĠÕĬ ÔµÕı
ĠÕŃÕ¸ÖĢÕ°ÖĢÕ¤ Õ¡ÖĢÕ¡Õ¶Õ¸ÖĤÕ´
ĠÖģÕ¡Õ¶Õ¯ Õ¸ÖĤÕ©ÕµÕ¸ÖĤÕ¶
ĠÕ°Õ¡Õ·Õ¾ Õ¡Õ¼Õ´Õ¡Õ¶
ĠÕºÕ¡Õ¿ÖĢÕ¡Õ½Õ¿ Õ¡Õ¯Õ¡Õ´
ĠÕĮÕ¸ÖĤÕ½ Õ¡Õ½Õ¿
ĠÕ°Õ¡Õ¶Õ±Õ¶Õ¡ÕªÕ¸Õ²Õ¸Õ¾ Õ¨
ĠÕ°Õ« Õ¡Õ¶Õ¡Õ¬Õ«
ĠÕ°Õ¸Õ£Õ¥Õ¢ Õ¡Õ¶Õ¡Õ¯Õ¡Õ¶
ĠÖħÖĢÕ¥Õ¶Õ½Õ¤ÖĢ Õ¸ÖĤÕ©ÕµÕ¡Õ´Õ¢
ĠÕ¢Õ¶Õ¡Õ£ Õ¡Õ¾Õ¡Õ¼Õ¸ÖĤÕ´
ĠÕºÕ¡ÕµÕ© ÕµÕ¸ÖĤÕ¶
Õ¥Õ¶ Õ¡ÕµÕ«Õ¶
ĠÕ¤ Õ¡ÖĢÕ¸ÖĤÕ´
ĠÕĢ Õ¡Õ¶Õ¤Õ«Õº
ĠÕ°Õ¡Õ´ Õ¡ÕŃÕ´Õ¢
Õ¥Öģ ÖĢÕ¥Öģ
ĠÕ°Õ¡Õµ ÖĢÕ¨
ĠÕ® Õ«Õ®Õ¡Õ²
Õª Õ·
ĠÔ¼ Õ¸Õ¶Õ¤
Õ¸ÖĤÕ¯ Õ¨
ĠÕ°Õ¥Õ¼ Õ¡ÖĢÕ±Õ¡Õ¯Õ¸ÖĤÕ´
ĠÕ¨Õ¶Õ¯Õ¥ÖĢ Õ¸ÖĤÕ©ÕµÕ¸ÖĤÕ¶
Ô¾ Õ¡Õ¼Õ¸ÖĤÕ¯
ĠÕ¢Õ¶Õ¡Õ¯ Õ¡Õ¾Õ¡ÕµÖĢ
ĠÕ¢Õ¶ Õ¸ÖĤÕ©ÕµÕ¡Õ¶
ĠÔ±ÖĢ Öĥ
ĠÔ±Õ¦ Õ¶Õ¡Õ¾
ĠÕ·Õ¡Õ° Õ¡Õ£ÖĢÕ£
ĠÕ¶Õ½Õ¿ Õ¡Õ®
ĠÕ°Õ¡Õ¶Õ£Õ¡Õ´ Õ¡Õ¶ÖĦÕ¨
ĠÕ¤ÖĢÕ¡Õ¶ Õ¸Õ¾
ĠÔ³Õ¥ÖĢÕ´ Õ¡Õ¶Õ«
ĠÕ¡Õ¼Õ«Õ© Õ¸Õ¾
Õ¥ÕµÖģ Õ¡ÖĢÕ«
ĠÕ®Õ¡ÕµÖĢ Õ¡Õ°Õ¥Õ²
ÕĨÕ¥ÖĢÕ¢ Õ¥Õ¼Õ¶Õ¥Õ¬
Õ¥ Õ¸Õ¶
ĠÕ¯ Õ¸Õ¬
Õ´ Õ¥Õ¶
ĠÕ¿ Õ«Õ¯Õ«Õ¶
ĠÕ¢ Õ¥Õ¼
Ô±Õ ĭ
Õ¡Õ¦ Õ«Õ¬
ĠÕ· Õ¥ÖĢÕ¿
ĠÕ«ÖĢ Õ¡Õ£Õ¸ÖĢÕ®
ĠÕ°Õ¡Õµ Õ¥Öģ
ĠÕ¾Õ¥ÖĢ Õ¶
ĠÖħÖĢ Õ¥ÖĢ
Ô´ Õ¡
ĠÕŃÕ¡Õ² Õ¥ÖĢÕ«
ĠÕ¿Õ¡ÖĢÕ¡Õ® ÖĦÕ«
Õ¡Õ·Õ«Õ¶ Õ£Õ¿
ĠÕ¡Õ·ÕŃÕ¡Õ¿Õ¡Õ¶ÖĦ Õ¶Õ¥ÖĢÕ«Õ¶
ĠÕĪÖĤ Õ½
ĠÕ°Õ¡Õ¶ÖĢ Õ¡ÖĦ
ĠÕºÕ¡Õ¿ÖĢÕ¡Õ½Õ¿ Õ¾Õ¡Õ®
ĠÕ·Õ¶Õ¸ÖĢÕ° Õ¡Õ¯Õ¡Õ¬
ĠÕ¨Õ¶Õ¿Õ¡Õ¶Õ« ÖĦÕ¨
ĠÖĨÕ«Õ¶Õ¡Õ¶Õ½ Õ¶Õ¥ÖĢÕ«
ĠÕ¢Õ¡Õ¶Õ¯ Õ¡ÕµÕ«Õ¶
ĠÕ¡Õ·ÕŃÕ¡Õ¿Õ¡Õ¯Õ«Öģ Õ¶Õ¥ÖĢÕ¨
ĠÕĬÕ¸ÖĤÕ¿ Õ«Õ¶Õ¨
ĠÕĬÕ¸ÖĤÕ¿ Õ«Õ¶Õ«
ĠÔµÕ¯ Õ¥Õ²Õ¥Öģ
ĠÕĪÕ½Õ¿Õ«Õ¯Õ¡Õ¶ Õ¸ÖĤÕ©ÕµÕ¡Õ¶
ĠâĢĭ âĢĭ
ÖĢÕ¡Õ£Õ¡Õ® Õ¸Õ¿
ĠÕ¡Õ¶Õ¡Õ¯ Õ¶Õ¯Õ¡Õ¬
e c
ĠÕ°Õ¡Õ´ Õ¡Õ¿Õ¥ÖĦÕ½Õ¿
ĠÖĥ Õ¬
ĠÔµ ÖĤ
Ô³ Õ¡Õ²Õ¿Õ¶Õ«Õ¸ÖĤÕ©ÕµÕ¡Õ¶
Õ¸ÖĤÕ¯ Õ«
ĠÕŃÕ´Õ¢ Õ¡Õ£Õ«ÖĢ
ĠÕ°Õ¶Õ¡ÖĢÕ¡Õ¾Õ¸ÖĢ Õ¸ÖĤÕ©ÕµÕ¸ÖĤÕ¶Õ¶Õ¥ÖĢ
ĠÕ£Õ¡Õ¬ Õ¸ÖĤÕ½Õ¿
ĠÕĦÕ« ÖĢÕ¦
ĠÕ£Õ¶Õ¡Õ°Õ¡Õ¿ Õ¥Õ¬
ĠÕªÕ¡Õ´Õ¯Õ¥Õ¿ Õ¨
ĠÕİÖĢÕ¡Õ½Õ¿ Õ¡Õ¶Õ¸ÖĤÕ´
ĠÕ¾Õ¡Õ³Õ¡Õ¼ ÖĦÕ«
ĠÕĢÕ¸Õ¾Õ°Õ¡Õ¶Õ¶Õ«Õ½ ÕµÕ¡Õ¶
ÕĬÕ¥Õ¿ Õ¡Õ¯Õ¡Õ¶
ĠÕ«Õ´Õ¡Õ½Õ¿ Õ¸Õ¾
ĠÕĦÕŃÕ«Õ© Õ¡ÖĢÕµÕ¡Õ¶Õ¨
ĠÕ¥Õ¯Õ¡Õ´Õ¸ÖĤÕ¿ Õ¶Õ¥ÖĢÕ«
ĠÕ¬Õ«Öģ Õ¥Õ¶Õ¦
ĠÕ»Õ¥ÖĢÕ´Õ¡Õ½Õ¿ Õ«Õ³
Ġ Õ¡ÖĢÕµÕ¡Õ¶
Ġ Õ¡ÖĢÕŃÕ«Õ¾
Õ¸ÖĤÕ¶ Öģ
ĠÕĢ ÕĶ
ĠÕ½ Õ¡Õ¼
Õ© Õ¸ÖĤÖĢÖĦÕ¡Õ¯Õ¡Õ¶
ÕĢ Õ¡ÖĢÕ£Õ¥Õ¬Õ«
ĠÖĦ Õ¡Õ»
Õ«Õ½ ÕµÕ¡Õ¶
Õ¸Öģ Õ¨
ĠÕĢÕ¡Õµ ÖĢÕ¥Õ¶
Õ¶Õ¤ Õ¯
ĠÕİ Õ¡Õµ
ĠÕİ Õ«Õ£Õ¥Õ¶
ĠÖħÕ£ Õ¶Õ¡Õ¯Õ¡Õ¶
ĠÕºÕ¡ÕµÕ´Õ¡Õ¶ Õ¶Õ¥ÖĢÕ«
ĠÕ¡Õ¦Õ¡Õ¿ Õ¾Õ¥Õ¬
ĠÕ´Õ¡Õ½Õ¶Õ¡Õ¯Öģ Õ¸ÖĤÕ©ÕµÕ¸ÖĤÕ¶Õ¨
ĠÕ¤Õ¡Õ½ Õ¡Õ¾Õ¡Õ¶Õ¤
ĠÕ°Õ¡Õ½Õ¿Õ¡Õ¿ Õ¸ÖĤÕ´
ĠÕ¹Õ¡Öĥ Õ¨
ĠÕ£ÖĢÕ¡Õ¶Öģ Õ¾Õ¡Õ®
ĠÕŃÕ¡ÕŃÕ¿ Õ¸ÖĤÕ´
ĠÕ©Õ¡Öĥ Õ¡Õ¶ÖģÕ«Õ¯
ĠÖĦÖĢÕ«Õ½Õ¿ Õ¸Õ¶Õ¥
ĠÔ±ÖĢÕ· Õ¡Õ¯
ĠÕ½ÕºÕ¡Õ¼Õ¶Õ¡Õ¬ Õ«ÖĦ
ĠÕ° Õ¸Õ¢
ĠÕ½ Õ¸Öģ
ÕĢ Õ¡Õ¯
Ô±Õ ·
Õ¥Öģ Õ¾Õ¥Õ¬
ĠÕĬ Ô±Õı
Õ¡ÖĢÕ¡Õ¶ Õ¶Õ¥ÖĢ
ĠÕ¸ÖĢÕ¸Õ¶ Õ¸ÖĤÕ´
er s
ĠÖħÕ£Õ¿ Õ«Õ¶
ĠÕ°Õ¡Õ¶Õ¤Õ«Õº Õ´Õ¡Õ¶Õ¨
ĠÔ±Õ¶ Õ»
ĠÕ°Õ¸Õ£ Õ«
ĠÕ¤ÖĢÕ¡Õ´ Õ¸Õ¾
ĠÕ°Õ¡Õ¾Õ¡ÖĦ Õ¥Õ¬
ĠÕ¾Õ¡ÖĢ Õ¸ÖĤÕµÕ©
ĠÕ©Õ¸Õ² Õ¡ÖĢÕ¯
ĠÕ¦Õ¸Õ° Õ¾Õ¡Õ®
ÕĨÕ¡ÕŃ Õ¸ÖĢÕ¤
ĠÕ´Õ¡Õ¶Õ¯ Õ¡Õ¯Õ¡Õ¶
ĠÕ°Õ«Õ´Õ¶Õ¡Õ¤ÖĢÕ¡Õ´ Õ¨
ĠÕ¿Õ¥Õ²Õ¥Õ¯Õ¡Õ¿Õ¾ Õ¸ÖĤÕ©ÕµÕ¸ÖĤÕ¶Õ¨
ĠÕ¢ÕªÕ· Õ¯
Õ¡Õ¯Õ¡Õ¿Õ¡ÖĢ Õ¸Õ²Õ¡Õ¯Õ¡Õ¶
ĠÔ½Õ¡Õ¹Õ¡Õ¿ÖĢÕµ Õ¡Õ¶Õ«
ĠÕĦÕ¡ÖĢÕ¿Õ«ÖĢ Õ¸Õ½ÕµÕ¡Õ¶Õ¨
ÖĢ Õ¥ÖģÕ«Õ¶
ĠÕ¯ Õ¡Õ°
ĠÕ¸ Õ¿Õ¶
Õ¯ Õ¦Õ¢
ĠÕ½ ÖģÕ¥Õ¶
Õ¹ Õ¸ÖĤÕ´
Õ¾Õ¡Õ® ÖĦÕ«
ĠÕĦ Õ¡Õ¿
ÕĨ ÕĪÕĲ
Õ¡Õ¾Õ¸ÖĢ Õ¥Õ¬Õ¸ÖĤ
Õ«Õ¬ Õ«Õ»
ÖĨ Õ¸Õ¶
Õ¸Õ´ Õ«
ĠÕ¯Õ¸Õ²Õ´ Õ¥ÖĢÕ«
ĠÕ¨Õ¶Õ¯Õ¥ÖĢ Õ¸Õ»Õ¨
ĠÕ°Õ¡Õ´Õ¡Õ±Õ¡ÕµÕ¶ Õ¡Õ£ÖĢÕ«
ĠÖĦÕ¡Õ¶ Õ¦Õ«
ĠÕ©Õ¸Õ² Õ¶Õ¥Õ¬
ĠÕ¡Õ½Õ¿ Õ¥ÖĢÕ¸Õ«Õ¤
Ġp ro
ĠÕ¯Õ£ Õ¡
ĠÕ¢Õ«Õ¦Õ¶Õ¥Õ½ Õ«
ĠÖħÕ¿Õ¡ÖĢ Õ¥ÖĢÕ¯ÖĢÕµÕ¡
ĠÕ¦Õ¥Õ¯ Õ¸ÖĤÖģ
Ġâ Ħĸ
ĠÕ¹Õ¡ÖĢÕ¡Õ· Õ¡Õ°
Õ¸ÖĤÕ© Õ¥
ĠÕ´ Õ¡Õ²Õ©
Õ¥Õ¿ Õ¡ÕµÕ«Õ¶
ĠÕ¿ Õ«Õ¥Õ¦Õ¥ÖĢ
Ô± ÕºÖĢÕ«Õ¬Õ«
ĠÕ¤ Õ¶Õ¥Õ¬
Õ¡Õ£ÖĢ Õ¥ÖĢ
ĠÔ¿ ÖĢÕ©
ĠÕ¸ÖĤÕ¶ Õ¥ÖĦ
ĠÕ¡ÕµÕ¶ Õ¸ÖĤÕ¡Õ´Õ¥Õ¶Õ¡ÕµÕ¶Õ«Õ¾
ĠÕ¨Õ¶Õ©Õ¡Öģ Õ¡Õ¯Õ¡ÖĢÕ£
ĠÕ¿Õ¥Õ²Õ¥Õ¯ Õ¸ÖĤÕ©ÕµÕ¸ÖĤÕ¶Õ¶Õ¥ÖĢÕ«
ĠÕŃÕ¸ÖĢÕ°ÖĢÕ¤ Õ¡Õ¯Õ¡Õ¶
ĠÕ¨Õ¶Õ¤Õ¸ÖĤÕ¶ Õ¥Öģ
ĠÕ¶Õ¯Õ¡Õ¿ Õ¥Õ¬
ĠÕºÖĢ Õ¡Õ¯Õ¿
ÔµÖĢ Õ«Õ¿Õ¡Õ½Õ¡ÖĢÕ¤
ĠÕĢÕ¡ÖĢÕ¸ÖĤÕ©ÕµÕ¸ÖĤÕ¶ ÕµÕ¡Õ¶
ĠÕ¢Õ¡ÕªÕ¡Õ¶ Õ¸ÖĢÕ¤
ĠÕĢÖĢ Õ¡Õ¹
ĠÕ¶Õ¥ÖĢÕ¡Õ¼ ÕµÕ¡Õ¬
Õ¥ÖĢÕµ Õ¡Õ¶
ĠÕ¯Õ¸Õ´Õº Õ¸Õ¦
ĠÕĦÕ¸ÖĤÖĢ Õ¡Õ¤
Õ¡ÖĢ Õ¡Õ£
Õ¡ÖĢÕ ¬
ĠÕ¸ÖĤ Õ¦
Õ«ÖĢ Õ¡Õ¯Õ¡Õ¶
ĠÕĦ Ô±ÕĦÕĪÕĴÔ¼
ĠÕį ÖĢÕ¢
ÕĦ Õ«Õ»
ĠÕ¡Õ¼Õ¡Õ» Õ¡Õ¶Õ¸ÖĤÕ´
ĠÕ¡ÕµÕ¶ Õ¸ÖĤÕ°Õ¥Õ¿Öĩ
ĠÕİ Õ¡Õ¦Õ£Õ¥Õ¶
Öħ Õ¶Õ¡Õ¯Õ¡Õ¶
Õ«Õ£ Õ¡ÖĢÕŃ
Õ¡Õ¢Õ¡Õ¶ Õ¸ÖĤÕ©ÕµÕ¸ÖĤÕ¶
Õ¿Õ¶ Õ¿Õ¥Õ½
ĠÖħÕ£Õ¿ Õ¾Õ¥Õ¬
ĠÕ¦Õ¡ÖĢÕ£ Õ¡ÖģÕ¸ÖĤÕ´Õ¨
ĠÕ°Õ¸ÖĤÕ¶ Õ¾Õ¡ÖĢ
ĠÕ¡Õ¶Õ¸ÖĤÕ¶ Õ«Öģ
ĠÕ¥ÖĢÕ¡ÕªÕ·Õ¿ Õ¸ÖĤÕ©ÕµÕ¡Õ¶
ĠÕĢÕ«Õ´ Õ¶
ĠÕ¶Õ¡Õ°Õ¡Õ¶Õ£ Õ«
ĠÔ³ÕµÕ¸ÖĤÕ´ÖĢÕ« Õ¸ÖĤÕ´
ĠÕ¯Õ¸ÖĤÕ¿ Õ¡Õ¯
Ñ ĭ
Ġ re
ÖĤ ÖĢ
Õ´ Õ«Õ¯
Õ¡Öģ Õ¡
ÕĦ Õ¸Õ½Õ¯
ÕĪ Õ¾
ÕĪÕĴ Õį
Õ¸Õµ Õ«Õ¶
ĠÕ¿Õ¥Õ½ Õ¡Õ°Õ¸Õ¬Õ¸Õ¾
ĠÕ½Õ¡Õ°Õ´Õ¡Õ¶ Õ¸ÖĤÕ´
ĠÕºÕ¡Õ·Õ¿Õ¸Õ¶ Õ¡ÕºÕ¥Õ½
Õ¥Õ£ ÖĢ
ĠÕ¤Õ¡ÖĢÕ± Õ¶Õ¸ÖĤÕ´
om e
ĠÕ¡ÖĢÕ¤Õµ Õ¸
Õ£Õ¿ Õ¡Õ¯Õ¡ÖĢ
ĠÕ¨Õ¶Õ¯ Õ¶Õ¸ÖĤÕ´
ĠÕĢÕ¡ÖĢÕ¸ÖĤÕ©ÕµÕ¸ÖĤÕ¶ ÕµÕ¡Õ¶Õ«
ĠÕ¢Õ¡Õ¶Õ¡Õ¯Öģ Õ¸ÖĤÕ©ÕµÕ¸ÖĤÕ¶Õ¶Õ¥ÖĢÕ«
E N
Õ¶ Õ¾Õ¡Õ®
Õ« Õ¸
Õµ Õ¸
Õ¥ÖĢ ÖĦÕ«Õ¶
Õ¿ Õ¸Õ´
Õ´ Õ¸Õ¶
Õ¡Öģ Õ¶Õ¥Õ¶
ĠÕĢ Õ¼Õ¸Õ´
Õ¡Õ² Õ¯
ĠÕŃ Õ¥Õ²
Õ¡Õ¤ Õ«Õ¿
Õ«ÖĢ Õ«
ĠÕºÕ¡Õ¿ Õ«Õ¾
Õ» Õ¡ÕŃ
ĠÕĨ Õ¥ÖĢÕ½
ĠÕ¡Õ´ Õ¸ÖĤÖĢ
Ô±ÕĨ Ô³
Ġ3 8
ĠÕ¡ÖĢ Õ¥Öģ
ĠÕ¯Õ¡Õ¦Õ´Õ¡Õ¯Õ¥ÖĢÕº Õ¸ÖĤÕ©ÕµÕ¸ÖĤÕ¶Õ¨
ĠÕ¢Õ¡ÖĢÕ± ÖĢÕ¡Õ½Õ¿Õ«Õ³Õ¡Õ¶
an k
on t
ĠÕµ Õ¸Õ©
ĠÕ¾Õ¥ÖĢÕ»Õ«Õ¶ Õ½
ĠÕ¤ÕºÖĢÕ¸Öģ Õ¡Õ¯Õ¡Õ¶
ĠÕ·Õ¡ÖĢÕ¸ÖĤÕ¶Õ¡Õ¯ Õ¥Õ¬Õ¸ÖĤ
ĠÕ¤Õ¡Õ¿Õ¡ÖĢ Õ¡Õ¶Õ¸ÖĤÕ´
ĠÕ¯Õ¡ÖĢÕ®Õ«ÖĦ Õ¶Õ¥ÖĢÕ¨
ĠÕ¤Õ¥ÖĢ Õ¡Õ¯Õ¡Õ¿Õ¡ÖĢ
ĠÖĥÕ¡Õ¯ Õ¥Õ¬
ĠÕ¿Õ¸ÖĤÕ¶ Õ¨
ĠÕįÕ«ÖĢ Õ«Õ¡ÕµÕ¸ÖĤÕ´
ĠÕ¢Õ¶Õ¡Õ¯Õ«Õ¹ Õ¶Õ¥ÖĢÕ«
ĠÕ¾Õ¡Õµ ÖĢÕ¸ÖĤÕ´
Õ¶ Õ¶Õ¤
Õ½ Õ¥Öĥ
ĠÕ¾ Õ¡ÖĢÕºÕ¥Õ¿
ĠÕ© Õ¸ÖĤÕ¶
ĠÖĥ Õ¡ÕµÕ¬
ĠÕĨ Õ¸Õ¾
ĠÔ² Õ¡Öģ
ĠÔ² Õ¡Õ£ÖĢ
ĠÖĦÕ¡Õ²Õ¡ÖĦ Õ¡ÖģÕ¸ÖĤ
Õİ ÔµÔ¼
Ô¼ Õ¸ÖĤÖĢÕ¥ÖĢ
ĠÕ¯Õ¡Õµ Õ¡ÖģÕ¥Õ¬
Ô±ÕĲ Õģ
Ô½ Õ¸Õ½
ĠÕºÕ¡Õ·Õ¿Õ¸Õ¶ Õ«Öģ
ĠÕ¥Õ¶Õ© Õ¡Õ¤ÖĢÕ¸ÖĤÕ´
ĠÕ¯Õ¸Õ¶ Õ½
ĠÕ½Õ¥ÖĥÕ¡Õ¯Õ¡Õ¶ Õ¸ÖĤÕ©ÕµÕ¡Õ¶
ĠÕ¨Õ¶Õ¯ Õ¥Õ¬
ĠÕºÕ¡Õ¿Õ¾ Õ«ÖĢ
ĠÕ¯Õ¥Õ¿ Õ¸Õ¾
ĠÕ£Õ¥Õ² Õ¡ÖĢÕ¾Õ¥Õ½Õ¿Õ¡Õ¯Õ¡Õ¶
ĠÕ¥ÖĢÕ» Õ¡Õ¶Õ¯
Õ¸ÖĢÕ¸Õ¶ Õ´Õ¡Õ¶
ĠÕ Ļ
ĠÕº Õ²
ĠÕº Õ¸ÖĢÕ¿
Õ«Öģ Õ½
Õ«Õ¿ Õ¡Õ¶
ĠÕ°Õ¡Õµ Õ¥ÖĢÕ¨
ĠÔ³ Õ¡Õ¢ÖĢÕ«
ĠÕ¿Õ¥Õ² Õ¡Õ¤ÖĢÕ¥Õ¬
Õį Õ¸ÖĤÖĢÕ¢
Õ¸Õ¿ Õ«
ĠÖĥÕ¸ÕŃ Õ¾Õ¡ÖĢÕ¹Õ¡ÕºÕ¥Õ¿
Õ«Õ¡Õ¶ Õ¥ÖĢÕ¨
ĠÕ¡Õ¶Õ¤Õ¡Õ´ Õ¶Õ¥ÖĢÕ«Õ¶
ĠÕ°Õ² Õ¸ÖĤÕ´Õ¶Õ¥ÖĢÕ¨
ĠÔ±ÖĢ Õ¡ÕµÕ«Õ¯
ĠÕ¡Õ¯Õ¿ Õ¥ÖĢÕ«
ĠÕ±Öĩ Õ¡Õ¹Õ¡Öĥ
ĠÕ¶ÕµÕ¸ÖĤÕ© Õ«
ĠÕ¡Õ¾Õ¡ÖĢÕ¿ Õ¾Õ¥Õ¬
ĠÕ¬Õ« Õ¸Õ¾Õ«Õ¶
ĠÕ£Õ¿ Õ¡Õ®
ĠÕ¡Õ³ Õ«
Õ¸ÕµÕ¥Õ´Õ¢ Õ¥ÖĢ
ĠÕ¿Õ²Õ¡Õ´Õ¡ÖĢÕ¤ Õ¸ÖĤ
ĠÕ´Õ¥ÖĦÕ¥Õ¶ Õ¡Õ¶
ĠÕ¯Õ¥Õ¶Õ¤ Õ¡Õ¶Õ«
ĠÕ¾Õ¥ÖĢÕ¡Õ°Õ½Õ¯ Õ¸Õ²Õ¸ÖĤÕ©ÕµÕ¡Õ¶
ĠÕ´Õ¥Õ¶ Õ¡Õ¯
ĠÕ½ÖĢÕ¿ Õ«
ĠÕĢÕ¸Õ¾ Õ½Õ¥Öĥ
ĠÕ¢Õ¥ÖĢÕ¾ Õ¥Õ¬
ĠÕ¬Õ¥Õ¦Õ¾ Õ¸Õ¾
ĠÕ©Õ¼ Õ«Õ¹
ĠÕĢ ÔµÕı
Õ´Õ¡Õ¶ Õ¶
ĠÕ°Õ¡Õ´ Õ¡Õ°Õ¡ÕµÕ¯Õ¡Õ¯Õ¡Õ¶
Õ«ÖĢ Õ¡ÕŃ
ĠÕ°Õ¡Õ¶ ÖĦ
ĠÕĨ Õ¡Õ«
ĠÕ«Õ¶Õ¹ ÕºÕ«Õ½Õ«Õ¶
ĠÕ´Õ«Õ» Õ¶
ĠÕ½Õ¿ Õ¡Õ¶Õ¤Õ¡ÖĢÕ¿
Õ¼ Õ¡Õ¶Õ¨
ĠÔ±Õµ Õ¸
ĠÔ¹ Õ¡Õ£Õ¡Õ¾Õ¸ÖĢ
ĠÕĪ ÖĢÕºÕ¥Õ½
ĠÕŃÕ´Õ¢ Õ¥ÖĢÕ«
ĠÕ°Õ«Õ´Õ¶ Õ¡ÖĢÕ¯
ĠÕī Õ¥ÕŃ
ĠÕ¶ÕµÕ¸ÖĤÕ© Õ¡Õ¯Õ¡Õ¶
ĠÕ·Õ¡Õ° Õ¡Õ£Õ¸ÖĢÕ®Õ´Õ¡Õ¶
ĠÕ½Õ¸Õ¾Õ¸ÖĢ Õ¡Õ¢Õ¡ÖĢ
ĠÕ£Õ¸ÖĤÕ´ Õ¡ÖĢÕ«
ĠÕ¯Õ¡Õ¶Õ¸Õ¶ Õ¶Õ¥ÖĢÕ¨
Ġt he
ĠÔ±ÖĢÕ¤ ÕµÕ¸ÖĤÕ¶
ÕıÕº Õ¥Õ¬
ĠÕ°Õ¥Õ²Õ«Õ¶ Õ¡Õ¯Õ«
ĠÕ¯ÖĢÕ³ Õ¡Õ¿
ĠÔ¿Õ¸Õ¿ Õ¡ÕµÖĦÕ«
Õ¡Õ§ Õ¶Õ¥ÖĢÕ£
Õ¡ÖĢÕ¿Õ¡Õ°Õ¡Õ¶ Õ¥Õ¬
) )
Õ¸ÖĤ ÖĦÕ«
Õ© Õ¡Õ¶Õ£
ĠÕ°Õ¥Õ¿ Õ¡ÖĦÕ¶Õ¶
ĠÕ£Õ¸ÖĢÕ® Õ¥ÖĢ
ĠÕİ Õ¡Õ°Õ¡Õ¶
ĠÔ¼ Õ«Õ¢Õ¡Õ¶
ĠÕı Ô±ÕĲ
ĠÕı Õ¡ÖĢÕ¡Õ®
ĠÕķ Õ°Õ¡Õ¶
ĠÕ°Õ¡Õ´Õ¡Õ¯Õ¡ÖĢÕ£ Õ¥ÖĢÕ«
ĠÖĥÕ¡Õ½Õ¿ Õ¡ÖģÕ«
ÕµÕ¸ÖĤÕ ¦
ĠÔ±Õ¤ÖĢÕ¢Õ¥Õ» Õ¡Õ¶Õ¸ÖĤÕ´
ĠÕ¶Õ¡ÕŃÕ¡Õ¿Õ¥Õ½ Õ¸ÖĤÕ´
ĠÕ£Õ¸ÖĤÕµ ÖĦ
ĠÕ¡Õ²Õ» Õ«Õ¯Õ¨
ĠÕ°Õ¡ÖĢÕ±Õ¡Õ¯ Õ¾Õ¸Õ²
ĠÕ·Õ¸ÖĤÕ¯ Õ¡ÕµÕ«
ĠÕºÕ¡Õ¿Õ¡Õ° Õ¡Õ¯Õ¡Õ¶
ĠÕ¯Õ¿ÖĢ Õ¸ÖĤÕ¯
ĠÕ£Õ¡Õ²Õ¿Õ¶Õ¡Õ¢ Õ¡Õ¼Õ¨
Ġ Õ¡ÖĢÕ®
ÖĢ Õ¸ÖĤÕ¶
ĠÕ° Õ¥Õ¶
ĠÕº Õ¡Õ·Õ¡ÖĢ
Õ¬ Õ¸Õ¾
Õ¡Õ¼ Õ¡Õ¤Õ«
ĠÕ¡Õ¶ Õ«Õ´
Õ¡ÖĦ Õ¡Õ²Õ¡ÖĦÕ¡Õ¯Õ¡Õ¶
ĠÕį Õ¡ÖĨ
ĠÔ¿ Õ¡ÕµÖĦÕ«
ĠÔ² Õ¬
Õį Õ¸ÖĤÕµÕ¶
ĠÕ¡Õ·ÕŃÕ¡Õ¿ Õ¡Õ¿Õ¥Õ²
ĠÕ³ ÕµÕ¸ÖĤÕ²
Ô¹ Õ¥
ĠÕ¨Õ¶Õ¤Õ¸ÖĤÕ¶ Õ´Õ¡Õ¶
Ô±Õ¶ Öģ
ĠÕªÕ¸Õ²Õ¸Õ¾ÖĢÕ¤ Õ¡Õ¾Õ¡ÖĢÕ¡Õ¯Õ¡Õ¶
ĠÕ¹Õ¸ÖĤÕ¶ Õ¥Õ¶ÖĦ
ĠÕ¿Õ¶ÖħÖĢ Õ«Õ¶
ĠÕ£Õ¶Õ¡Õ°Õ¡Õ¿ Õ´Õ¡Õ¶
ĠÕ¿Õ¶ÖħÖĢÕ¥Õ¶ Õ¨
ĠÕ¡Õ¼Õ¸Õ²Õ» Õ¡Õ¯Õ¡Õ¶
ĠÖĦÕ¡Õ²Õ¡ÖĦÕ¡ÖģÕ«Õ¶ Õ¥ÖĢÕ¨
ĠÕ¾Õ«ÖĢ Õ¡Õ°Õ¡Õ¿
ĠÕ¶Õ¡ÕŃÕ¡Õ±Õ¥Õ¼Õ¶ Õ¸ÖĤÕ©ÕµÕ¡Õ¶
ĠÔ¸Õ¶Õ¤ Õ°Õ¡Õ¶Õ¸ÖĤÖĢ
ĠÕ¦ÖĢÕ¸ÖĤÖģ Õ¥Õ¬
ĠÕ¯Õ¸Õ¼Õ¸ÖĤÕºÖģ Õ«Õ¡ÕµÕ«
ÕĦÕ¡Õµ Õ«Õ½Õ«
ÖĢÕ¡Õ¶Õ¯ Õ¸ÖĨ
ĠÖħÖĢÕ¾ Õ¡Õ¶Õ«Öģ
ĠMediam all
ĠÕ¤ Õ¸ÖĤÕ¼
ĠÔ± ÕŃ
ĠÕŃ ÖĢÕ¡ÕŃ
Õ¡Õ¾Õ¸ÖĢ Õ¸ÖĤÕ´Õ¶Õ¥ÖĢÕ«
ÕĪ Õ½Õ¯
ĠÕ°ÖĢ Õ¡Õ°Õ¡Õ¶Õ£
Ô±ÕĲ Õı
ĠÕ¡Õ¶Õ± ÖĢÖĩ
Õ¡Õ¶Õ¶ Õ¡
ĠÕ«Õ¶ÖĦÕ¶ Õ¡Õ½
Ô»Õ¶Õ¹ Õ¸
Ġ200 5
ĠÕ¿ÖĢÕ¡Õ´ Õ¡Õ¤ÖĢÕ¸ÖĤÕ´
ĠÕ¸Õ½Õ¿Õ«Õ¯Õ¡Õ¶ Õ¸ÖĤÕ©ÕµÕ¸ÖĤÕ¶Õ¨
ĠÕ¡ÕµÖģÕ¥Õ¬ Õ¥ÖĦ
ĠÕ¡Õ´Õ½ Õ¡Õ©Õ«Õ¾
Õ¥Õ¶Õ¿ Õ«Õ¶
ĠÕ°Õ¥Õ¼Õ¸ÖĤÕ½Õ¿ Õ¡Õ¿Õ¥Õ½
Õ¸ÖĢÕ¾ Õ¡Õ®
ĠAr m
ĠÕ¡Õ¾Õ¿Õ¸Õ´Õ¥ÖĦÕ¥Õ¶ Õ¡Õ¶
ĠÖĦÕ¡Õ²Öģ Õ¯
ĠÔ³ÖĢÕ¡Õ¶Öģ Õ¾Õ¥Õ¬
ĠÕ¿Õ¡ÖĢÕ¢Õ¥ÖĢÕ¾ Õ¸ÖĤÕ´
Õ¥ÖĢ Õ«Õ´
ĠÕ´ Õ¡Õ·
ĠÕ¯ Õ®
Õ¡Õ¾ Õ¥ÖĢÕ¤
Õ¡Öģ Õ¸ÖĤÕ©ÕµÕ¡Õ¶
ĠÔ± Õ¤
ĠÕ¾ Õ¥ÖĢÕ¨
ĠÕ¾ Õ¡Õ¦
Õ² Õ©Õ¥ÖĢ
ĠÕĦ Õ¡Õ·Õ¿
ĠÕ¿Õ¡ÖĢ ÖĢ
ĠÕ¡Õ¾ Õ¡Õ¦
ĠÕ©Õ¥ Öĩ
ĠÕ·ÖĢÕ» Õ¡Õ¯Õ¡
ĠÕĵ Õ¡Õ½Õ¿
Ġ4 8
ĠÕ£Õ¶ Õ¡
ĠÕ´Õ· Õ¡Õ¯Õ¸ÖĤÕ´
or e
ĠA l
ĠÕ¡ÕµÖģ Õ¸Õ¾
Õĵ Õ¡Õ·Õ«Õ¶
ĠÕ¹Õ¸ÖĤÕ¶ Õ¥Öģ
ĠÕ¯Õ¡Õ¼Õ¸ÖĤÖģ Õ´Õ¡Õ¶
ĠÕ¢Õ¡Õ¼ Õ¨
ĠÖĦÕ¡Õ²Õ¡ÖĦÕ¡ÖģÕ«Õ¶ Õ¥ÖĢÕ«Õ¶
ĠÕ¥ÖĢÖĩ Õ¸ÖĤÕµÕ©
ĠÕ®Õ¡ÕŃÕ½ Õ¥ÖĢÕ«
ĠÕĶÖĢÕ«Õ½Õ¿ Õ¸Õ½Õ«
Ô¸Õ¶Õ¤ Õ¸ÖĤÕ¶
ĠÖģÕ¥Õ²Õ¡Õ½ÕºÕ¡Õ¶ Õ¸ÖĤÕ©ÕµÕ¸ÖĤÕ¶Õ¨
Ġ Z
Ġ av
ÖĢ Õ«Õ´
Õ¶ Õ¾Õ¥Õ¬
Õ¡Õ´ Õ¡ÖĢ
ĠÕ£ Õ¸ÖĤÕ¶
ĠÕ¹ Õ¤
Õ¡ÖĢÕ± Õ¸Õ¾
ĠÔ¿ Ô±ÕĮ
ĠÔ¼ Õ«Õ¬Õ«Õ©
ÖĨ Õ¸Õ¿Õ¸
Ô¶ Õ«Õ¶
ĠÕ¯Õ¡Õ¼Õ¡Õ¾Õ¡ÖĢ Õ¸ÖĤÕ´
ĠÕī Õ¶Õ¡ÕµÕ¡Õ®
ĠÕ¢Õ¡ÖĢ Õ¸ÕµÕ¡Õ¯Õ¡Õ¶
ĠÕ°Õ¸Õ£ Õ¸ÖĤ
ĠÕ©Õ¸Õ² Õ¥Õ¬
ĠÕ¡Õ¾Õ¿ Õ¸Õ¾
Õ¸Õ¬Õ¸Õ£ Õ«Õ¡Õ¯Õ¡Õ¶
ĠÕĳ Õ¡Õ¶Õ¯
Õ¥Õ¿ÖĢÕ¾ Õ¡ÖĢ
ĠÕ¸ÖĤÕ½Õ¡Õ¶ Õ¸Õ²
ĠÕ¿Õ¥ÕŃÕ¶Õ¸Õ¬Õ¸Õ£ Õ«Õ¡Õ¯Õ¡Õ¶
ĠÕ´Õ¡Õ¶ÖĢÕ¡Õ´Õ¡Õ½ Õ¶Õ¥ÖĢ
ĠÕ£ÖĢÕ¡Õ¤ Õ¡ÖĢÕ¡Õ¶
ĠÕ½Õ¸ÖĤÕ¢ ÕµÕ¥Õ¯Õ¿
Ô¾Õ¡Õ¼Õ¸ÖĤÕ¯ ÕµÕ¡Õ¶
6 0
Õ¬ Õ¸ÖĢ
ĠÕ¾ Õ¥Õ³
Õ¸Õ¶ Õ¶
ĠÕį Õ¡Õ¶Õ¯Õ¿
ĠÕį Õ¥Õ¢Õ¡Õ½Õ¿
ĠÔ² Õ¡ÖĢ
ĠÔ» Õ·ÕŃÕ¡Õ¶
ĠÔ¼ Õ«Õ£
Ġ3 3
ĠÕ¯Õ¡Õµ ÖĦÕ¥ÖĢÕ¨
ĠÕ¡Õ¶Õ± Õ¶Õ¡Õ¯Õ¡Õ¦Õ´
ĠÕ¾Õ¥ÖĢÕ» Õ¡ÕºÕ¥Õ½
Õ¥ÖĢÕ´ Õ¡Õ¶Õ¡Õ¯Õ¡Õ¶
Ġ15 0
Õ¥Õ¢ Õ¸ÖĤÕ¶Õ«
ĠÕ©Õ¸Õ² Õ¶Õ¸ÖĤÕ´
Õ¥Õ¯Õ¿ Õ¸ÖĢ
ou n
ĠÕ£ÖĢÕ¡Õ¶Öģ Õ´Õ¡Õ¶
ĠÕ«ÖĢÕ¡Õ¤Õ¡ÖĢÕ± Õ¸ÖĤÕ©ÕµÕ¸ÖĤÕ¶Õ¶Õ¥ÖĢÕ«
ĠÕ¸ÖĤÕ½Õ¸ÖĤÖģ Õ´Õ¡Õ¶
ĠÔ±Õ¶Õ¤ ÖĢÕ¡Õ¶
ĠÔ¿Õ¡Õµ ÖĦÕ¸ÖĤÕ´
ĠÕ¢Õ¶Õ¡Õ£ Õ¡Õ¾Õ¡Õ¼
Õ¸ÖĢÕº Õ¸ÖĢ
Õ¡Õ¶ Õ¥
Õ¡Õ¶ Õ©
Õ¡Õ´ Õ¥ÖĢÕ±
Õ¥ÖĢÕ °
Öĩ Õ¸ÖĤÕ´
ĠÕ© Õ«ÖĢÕ¡ÕŃ
ĠÕ«ÖĢ Õ¡Õ¦Õ¥Õ¯
ĠÕĦ Õ¡ÖĢÕ¯
Ô» Õ¶Õ±
ĠÔ¿ Õ¢
ĠÕĨ ÖĢÕ¡Õ¶
ĠÕ«Õ¶Õ¹ ÕºÕ«Õ½Õ«
ĠÔ² Õ¸Õ¬
Öħ Õ²
Õ¡Õ¶Õ¤ Õ«
ĠÕ¡Õ½ Õ¥Õ´
ĠÕºÕ¡Õ° Õ¥Õ½Õ¿
ĠâĢ ķ
ĠÕ¾Õ¥ÖĢÕ» Õ¸ÖĤÕ´
ĠÔ¶ Õ«Õ¶
ĠÕ¤Õ¡Õ½ Õ¡Õ¯Õ¡Õ¶
Õ¡Õ£Õ«Õ¿ Õ¸ÖĤÕ©ÕµÕ¸ÖĤÕ¶
ĠÖħÕ£Õ¿Õ¡Õ£Õ¸ÖĢÕ® Õ¾Õ¸ÖĤÕ´
ĠÕ°Õ¡Õ´Õ¡ÕµÕ¶ ÖĦÕ¸ÖĤÕ´
ĠÕ¥ÖĢÕ«Õ¿Õ¡Õ½Õ¡ÖĢÕ¤ Õ¶Õ¥ÖĢÕ«
ĠÕ°Õ¡Õ¾Õ¡Õ¿ Õ¡ÖĢÕ´
ĠÕ¶Õ¾Õ¡Õ¦ Õ¥Õ¬
ĠÕ¡Õ¶Õ¤ÖĢ Õ¡Õ¤Õ¡Õ¼Õ¶Õ¡Õ¬Õ¸Õ¾
ĠÖħÕ£Õ¶ Õ¸ÖĤÕ©ÕµÕ¡Õ´Õ¢
ĠÕ¡Õ¦Õ¤Õ¥Öģ Õ¸ÖĤÕ©ÕµÕ¡Õ¶
ĠÕ¾Õ¡ÕŃ Õ¥Õ¶Õ¸ÖĤÕ´
ĠÕ£Õ¡Õ£Õ¡Õ© Õ¶
ĠÖĥÕ¶Õ¿ÖĢ Õ¸ÖĤÕ´
ĠÕ°Õ¡Õ¾Õ¡Õ¶ Õ¡Õ¢Õ¡ÖĢ
Ô·Õ» Õ«
e x
Õ¸ÖĤ Õ¥Õ¬
Õ¡Õµ Õ¿Õ¶
ĠÕ° Õ¥ÖĦÕ«Õ¡Õ©
Õ´ Õ«Õ»
ĠÕ¿ Õ¸Õ´Õ½
ĠÕ¡Õ ©
ĠÕ¤ Õ¡ÕªÕ¡Õ¶
ĠÔ± Ô»ÕĨ
ĠÕĢ Õ¡Õ½
ĠÕ½ Õ«Õ´
ĠÕ¾ Õ¥ÖĢÕ½
Õ¡Õ¤ Õ¡Õ¤Õ¡ÖĢÕ«
Ô» Õĳ
ĠÔ² Õ¡ÖĢÕ½
ĠÖģ Õ¶Öģ
ĠÕı Õ¡Õ¾Õ¸ÖĤÕ·Õ«
ĠÕ¢Õ¸Õ¬Õ¸ÖĢ Õ¸Õ¾Õ«Õ¶
Ġ4 5
ĠÕ¯Õ¡Õ¦Õ´Õ¡Õ¯Õ¥ÖĢÕº Õ¸ÖĤÕ©ÕµÕ¸ÖĤÕ¶
ĠÕ°Õ¡Õ½Õ¿Õ¡Õ¿ Õ¥Õ¬Õ¸ÖĤ
ĠÕ¡Õ¶ÖģÕ¯Õ¡Öģ Õ¾Õ¸ÖĤÕ´
ĠÕ°Õ¡Õ½Öģ ÖĢÕ¥Õ¬
ĠÕ½Õ¯Õ¦Õ¢ Õ¸ÖĤÕ´
ÔµÖĢÖĩ Õ¡Õ¶Õ¸ÖĤÕ´
ĠÕ¯Õ¡Õ¶Õ¸Õ¶ Õ¡Õ¯Õ¡ÖĢÕ£
Õ¡Õ¸ÖĤ Õ¤
ĠÕ£Õ¸ÖĢÕ®Õ¡Õ¯Õ¡Õ¬ Õ¸ÖĤÕ©ÕµÕ¸ÖĤÕ¶Õ¨
ĠÕ®Õ¡ÕŃÕ½ Õ¥ÖĢÕ¨
ĠÕĦÕ¡ÖĢÕ£ Õ¡ÖĢÕµÕ¡Õ¶Õ¨
ation al
ĠÖĥÕ¡ÕŃ Õ½Õ¿
ĠÔ»Õ½ÖĢ Õ¡ÕµÕ¥Õ¬
w it
Õ¡Õ¿ Õ¡Õ¯Õ«
Õ¥Õ¿ ÖĢ
Õ¥Õ¿ Õ«Õ¯Õ¡ÕµÕ«
ĠÕ¿ ÖĢ
ĠÕ¾ Õ©Õ¡ÖĢÕ«
ĠÕ¹ Õ¯Õ¡ÖĢÕ¸Õ²
ĠÕĦ ÖĢÖģ
ĠÕį Õ¥Õµ
ÕĦ ÖĢÖģ
Õ¡Õ¾Õ¸ÖĢ Õ«
ĠÕ¡Õ¼Õ¡Õ» Õ«Õ¯Õ¡ÕµÕ¸ÖĤÕ´
ĠÕİ Õ¡Õ·Õ«Õ¶Õ£Õ¿
Õ«Õ¬ Õµ
Õ¡Õ¾Õ¡ÖĢ Õ«
Õ¥Õ¶Öģ Õ¡Õ²
ĠÕĶ Õ¸Õ´
201 0
ĠÕ¯Õ¬Õ«Õ¶ Õ¥ÖĢ
ĠT imes
Õ«Õ½Õ¯ Õ¸Õº
ĠÕ¡ÕºÖĢ Õ¸Õ²
ĠÔ±ÖĢÕ´Õ¥Õ¶ Õ«Õ¡
ĠÕ·ÖĢÕ»Õ¡Õ¶ Õ¡Õ¾Õ¡ÖĢÕ¿
ĠÕºÕ¡Õ¿Õ£Õ¡Õ´Õ¡Õ¾Õ¸ÖĢ Õ¶Õ¥ÖĢÕ«
200 8
ĠÕ£Õ¸Õ¿ Õ¸ÖĤÕ´
ĠÔ¿Õ¡Õ¶ Õ¡Õ¤
ÕĶÕ¡Õ²Õ¡ÖĦ Õ¡ÖģÕ«Õ¡Õ¯Õ¡Õ¶
ĠÕ°Õ¡Õ´Õ¡Õ¿Õ¥ÖĦÕ½Õ¿ Õ¸ÖĤÕ´
c r
m ail
u e
Ġ http
Õ¡Õ¶ ÖĦÕ¸ÖĤÕ´
Õ¸ÖĤÕ©Õµ Õ¡
Õ¸Õ² Õ¸ÖĤÕ©ÕµÕ¡Õ´Õ¢
ĠÕ¿ Õ«Õ¯Õ¶
ĠÕĦ Õ·Õ¡Õ¯
ĠÕĦ Õ¡Õ¤ÖĢÕ«Õ¤
Õ¡ÖĢÕ¡ÖĢ Õ¶Õ¥ÖĢÕ¨
ĠÕ¯Õ¡Õ¦Õ´ Õ¨
ĠÕ¸ÖĢÕ¸Õ· Õ¸ÖĤÕ´Õ¶Õ¥ÖĢ
ĠÕªÕ¸Õ²Õ¸Õ¾ Õ¡Õ®
ĠÕ¡Õ¶Õ¤Õ¡Õ´ Õ¶Õ¥ÖĢ
ĠÕ¥Õ¶Õ© Õ¡Õ¯Õ¡Õ¼Õ¸ÖĤÖģ
ĠÕ°Õ¡Õ´Õ¡Õ±Õ¡ÕµÕ¶ Õ¡Õ£Õ«ÖĢÕ¨
Õ¡Õ¯Õ¡Õµ ÖĦÕ¸ÖĤÕ´
ĠÕ¯Õ¸Õ´ Õ¸ÖĤÕ¶
Õ«Õ»Õ¸Öģ Õ¡Õ¼
Ġ199 9
ĠÕ¿Õ¥Õ½Õ¡Õ¯Õ¥Õ¿ Õ¶Õ¥ÖĢÕ¨
ĠÕºÖĢÕ¸ÖĨÕ¥Õ½ Õ¸ÖĢ
ĠÕ«Õ¢ ÖĢÖĩ
ĠÕ¢Õ¡ÖĢÕ¥Õ£Õ¸ÖĢÕ® Õ¡Õ¯Õ¡Õ¶
ĠÕ°Õ¸ÖĢÕ«Õ¦ Õ¸Õ¶Õ¡Õ¯Õ¡Õ¶
ÖĢÕ¡Õ£Õ¡Õ®Õ¸Õ¿ Õ¶Õ«
I N
Õ¸ÖĤÕ´ Õ¶Õ¥ÖĢÕ«Öģ
Õ¡Õ¿ Õ¶Õ¥ÖĢÕ«
Õ¯ Õ¡Õº
ĠÕ¤ Õ¡Õ¼Õ¶Õ¡
Õ¡Õ½Õ¿ Õ¡Õ¿
ĠÕŃ Õ¸Öģ
Õ¡Õ· Õ¾Õ«
ĠÕ£Õ¸ÖĢÕ® Õ¥ÖĢÕ¨
Öħ Õ½
Õ«Õ¬ Õ«Õ¶
ĠÕ¶Õ¸ÖĢ Õ¡Õ¶Õ·Õ¡Õ¶Õ¡Õ¯
Ô½ Õ¸ÖĢÕ°ÖĢÕ¤
ĠÕ°Õ¡Õ¶Õ¤Õ«Õº Õ¸ÖĤÕ´Õ¶Õ¥ÖĢ
ĠÕºÕ¡Õ¿Õ³ Õ¥Õ¶
ĠÕ°Õ² Õ´Õ¡Õ¶
ĠÕ¹Õ¸ÖĤÕ¶ Õ¥Õ´
ĠÕ¤Õ«Õ¿ Õ¥Õ¬
ĠÕ·ÖĢÕ»Õ¡Õ¶ Õ¡Õ¼
ĠÕ´Õ¡Õ½Õ¶Õ¡Õ¯Õ«Öģ Õ¶Õ¥ÖĢÕ«Õ¶
ĠÕ¢Õ¸Õ¾Õ¡Õ¶Õ¤Õ¡Õ¯ Õ¸ÖĤÕ©ÕµÕ¡Õ¶Õ¨
ĠÔ²Õ¡Õ² ÖĢÕ¡Õ´ÕµÕ¡Õ¶
ĠÕ´Õ¡ÖĦ Õ¸ÖĤÖĢ
ĠÕĤÕ¡Õ¦ Õ¡ÕŃ
ĠÕ¿Õ¡Õ¼ Õ¡Õº
Ô²Õ¡ÕªÕ¡Õ¶Õ¸ÖĢÕ¤ Õ¡Õ£ÖĢÕ¾Õ¥Õ¬
S S
á ĥ
Ġ y
Õ¡Õ¶ Õ¸ÖĢÕ¸Õ£
Õ¥ÖĢ ÖĦ
Õ¸ÖĤÕ´ Õ¶Õ¥ÖĢÕ«Õ¶
Õ¡Õ° Õ¡Õ¶Õ¸ÖĤÕ´
ĠÔ± ÕĬÕĢ
Õ¡Õ¶Õ« Õ¿Õ¡ÖĢ
ĠÕ· Õ¶Õ¹
ÕĨ Õ¥ÖĢÕ¯Õ¡Õµ
ÕĪ Õ²Õ»
Õ¸ÖĤÕ½ Õ¿ÖĢ
ĠÔ² Õ¡Õ¯Õ¸
ĠÕ¡ÖĢÕ¤ Õ«Õ¡Õ¯Õ¡Õ¶
Õ¥Õ¦ Õ«
ĠÕ¼ Õ¥Õ½Õ¿Õ¸ÖĢ
ĠÕ¨Õ¶Õ©Õ¡Öģ ÖĦÕ¨
ĠÕ¢Õ¡ÖĢÕ±ÖĢ Õ¡Õ±Õ¡ÕµÕ¶
ĠÕŃÕ¶Õ¤Õ«ÖĢ Õ¶
ĠÕ°Õ¡Õ´Õ¡Õ±Õ¡ÕµÕ¶ Õ¸ÖĤÕ©ÕµÕ¡Õ¶
ĠÕ¬Õ«Õ¶Õ¥Õ¬ Õ¨
ĠÕ°Õ¡Õ¶Õ¤Õ«Õ½ Õ¡ÖģÕ¸Õ²
re e
ĠÕ£Õ¸ÖĢÕ®Õ¨Õ¶Õ¯Õ¥ÖĢ Õ¶Õ¥ÖĢÕ«
ĠÕ±Õ¡ÕµÕ¶ Õ¨
ĠÕ°Õ¡Õ¶ÖĢÕ¡Õ£Õ«Õ¿ Õ¡ÖĢÕ¡Õ¶Õ«Öģ
ĠÕ¹Õ° Õ¡Õ´
ĠÕ°Õ¡Õ¶ÖģÕ¡Õ£Õ¸ÖĢÕ® Õ¸ÖĤÕ©ÕµÕ¡Õ¶
ĠÕĬÕ¥Õ¿ÖĢÕ¸Õ½ ÕµÕ¡Õ¶Õ¨
ĠÕ´Õ¡Õ¿Õ¡Õ¯ Õ¡ÖĢÕ¡ÖĢ
ĠÔµÕ¾ÖĢÕ¡Õ´Õ« Õ¸ÖĤÕ©ÕµÕ¡Õ¶
ĠÕŃÕ¡Öĥ Õ¡Õ¶Õ´Õ¡Õ¶
Ġ Õ¡ÖĢÕ¾Õ¡Õ®
Õ¥ Õ¡ÕµÕ«
Õ«Õ¶ Õ¶
ĠÕ´ Õ¡Õ©Õ¥Õ´Õ¡Õ¿
ĠÕ¿ Õ¡Õ¶Õ«
Õ¥Õ² Õ´
ÕĦ Õ·Õ¿Õ¡Õ¯Õ¡Õ¶
Õ¥Õ´ Õ¨
Õ¡Õ£ÖĢ Õ¥ÖĢÕ«
ĠÔ´ Õ¥
Õİ Õ¡Õ¶
Ġ201 9
ĠÔ¹ Õ¥Õ°
ĠÕ¢Õ¡Öģ Õ¾Õ¥Õ¬
ĠÕ¿Õ¡ÖĢÕ¡Õ® ÖĦÕ¶Õ¥ÖĢÕ«
ĠÕ¡ÖĢ Õ¥ÖĤ
Õ¥Õ¤ Õ¡ÖĢÕ±
Õ«Õ¡Õ¶ Õ¡
ĠÕ¤Õ¡Õ¿ Õ¡ÖĢÕ¯
Õ¸Õ¼ Õ¶
ĠÕ°Õ¡Õ´Õ¡ÕµÕ¶ ÖĦÕ¡ÕµÕ«Õ¶
ĠÕ¡Õ¾Õ¿ Õ¸Õ¢
ĠÕ¢Õ¡Õ¼ Õ¡ÖĢÕ¡Õ¶
ĠÕ¯Õ´ Õ¡Õ½Õ¶
ĠÕ·Õ¡Õ¢Õ¡Õ© Õ¾Õ¡
Õ¡Õ¯Õ¿ Õ«Õ¾
ĠÕ¡Õ´Õ¥ÖĢÕ«Õ¯ Õ¡ÖģÕ«
Õ¡Õ´Õµ Õ¡Õ¯Õ¨
ÕĢÕ«Õ´ Õ¡
ev an
ĠÕ¯Õ¥ÖĢ Õ¡Õ¯
igh t
ÖĢ Õ¥Õµ
Õ¾ Õ¥Õ¶Öģ
Õ¸ÖĢ Õ«Õ½
ĠÕ¾ Õ«Õ¦
ĠÕ¾ Õ¥Õ¢
ĠÕ¡Õ¶ Öĥ
ĠÖĦ Õ¡Õ°Õ¡Õ¶
Ô±ÕĨ Ô±Ô¿
ĠÕ«Õ¶ ÖĨÕ¸ÖĢÕ´
ĠÕŃÕ¡Õ² Õ¡ÖģÕ¸Õ²
Õ¥Õ¤ Õ«
ĠÕ¾Õ¡ÖĢ Õ¸ÖĤÕ´
ĠÔ¹Õ¸ÖĤÖĢÖĦÕ« Õ¡
ĠÕ°Õ¡Õ»Õ¸Õ² Õ¾Õ¥Õ¬
ou t
ĠÕ´Õ¡Õµ ÖĢÕ¨
ĠÔ±Õ¢ Õ¸Õ¾ÕµÕ¡Õ¶
ĠÕ°Õ¡ÕµÖĢÕ¥Õ¶ Õ«ÖĦÕ«
ĠÕ£Õ¸ÖĢÕ®Õ¨Õ¶Õ¯Õ¥ÖĢ Õ¸ÖĤÕ©ÕµÕ¡Õ¶
ĠÕ½Õ¶ Õ¶Õ¤Õ«
ĠÔ¾Õ¡Õ¼Õ¸ÖĤÕ¯ ÕµÕ¡Õ¶Õ«
ĠÕ¡Õ£ ÖĢÕ¥Õ½
Ð ¼
Õ¡ÖĢ Õ¡ÖĢÕ´Õ¡Õ¶
Õ¸ÖĤÕ¶ Õ¥ÖĢÕ¨
ĠÕĢ Õ¸Õ¬
ĠÕ¡Õ¼ Õ¥ÖĤ
ĠÔ² ÖĢÕµÕ¸ÖĤÕ½
Õ¦ Õ«Õ¶
Õ¡Õ¶ÖĦ Õ¶Õ¥ÖĢÕ¨
Õ¥ÖĤ Õ¸Õ¶
ĠÕ¡ÕµÕ¬ Õ¥ÖĤ
ĠÕ¡ÖĢÕ¿ Õ«Õ½Õ¿
ĠÕ¶Õ¸ÖĢ Õ¸ÖĤÕ©ÕµÕ¸ÖĤÕ¶Õ¶Õ¥ÖĢ
ĠÕĶ Õ¡Õ¶Õ«
ĠÕ½Õ¡Õ°Õ´Õ¡Õ¶ Õ«Õ¶
ĠÕ¢Õ¶Õ¡Õ¯ Õ¥Õ¬Õ«
ĠÔ±Õ¶ Õ¡Õ°Õ«Õ¿
ĠÕºÕ¡ÖĢÕ¦ Õ¾Õ¥Õ¬
ĠÕ£Õ¬ÕŃÕ¡Õ¾Õ¸ÖĢ Õ¡Õ®
ĠÕ·Õ¡ÖĢÕ¸ÖĤÕ¶Õ¡Õ¯ Õ¡Õ¯Õ¡Õ¶
ĠÕ³Õ¡Õ¶Õ¡Õ¹ Õ¾Õ¥Õ¬
ÕºÕ«Õ½ Õ«ÖĦ
ĠÕºÕ¡ÕµÖĦÕ¡ÖĢ Õ¥Õ¬
ÕºÕ«Õ¸Õ¶ Õ¶Õ¥ÖĢÕ«
ĠÕ«Õ´Õ¡Õ¶ Õ¡Õ¬
Õ¡ÖĢÕ¤ÕµÕ¸ÖĤÕ¶ Õ¡Õ¢Õ¥ÖĢ
ĠÕŃÕ¸Õ° Õ¡Õ¶Õ¸Öģ
Ġ Õ¡ÖĢÕ¯
Õ¡Öģ Õ¸Õ¬
Õ¸ÖĢÕ ¢
ĠÕĢ ÖĢÕ¡Õ¶Õ¿
ĠÕ½ Õ¸Õ¾
Õ¡Õ¢ Õ¸ÖĤÕª
ĠÕ± Õ£
ĠÕİ Õ¡Õ²
ĠÕ´Õ«Õ» Õ¡Õ¾Õ¡ÕµÖĢ
Õª Õ¡Õ¶
Õ¸ÖĢÕ° Õ¸ÖĤÖĢÕ¤
ĠÕ¼ Õ¥Õ¯
ÖĢÕ¢ Õ¡Õ©
ĠÕ» Õ¸Õ¯
ĠÕ¡Õ¼Õ¡Õ»Õ«Õ¶ Õ¨
ĠÕ´Õ¡Õ½Õ¶Õ¡Õ¯Öģ Õ¸ÖĤÕ©ÕµÕ¡Õ¶
ĠÕ°Õ¥Õ¿Öĩ Õ¥Õ¬
ĠÕ¶Õ´Õ¡Õ¶ Õ¡Õ¿Õ«Õº
ÖĢÕ¡Õ¶Õ½ ÕºÕ¸ÖĢÕ¿
it y
ĠÕ¤ÕºÖĢÕ¸Öģ Õ¶Õ¥ÖĢÕ«
ĠÕ¤ÕºÖĢÕ¸Öģ Õ¶Õ¥ÖĢÕ¨
ĠÕ¡Õ¶Õ°ÖĢÕ¡ÕªÕ¥Õ·Õ¿ Õ¸ÖĤÕ©ÕµÕ¸ÖĤÕ¶Õ¨
ĠÕ³Õ¡Õ¶Õ¡ÕºÕ¡ÖĢÕ° Õ¡ÕµÕ«Õ¶
ĠÕ¡Õ¦Õ¤Õ¥Öģ Õ¸ÖĤÕ©ÕµÕ¸ÖĤÕ¶Õ¨
ĠÕºÕ¡Õ¿Õ¾Õ«ÖĢÕ¡Õ¯ Õ¸ÖĤÕ©ÕµÕ¸ÖĤÕ¶Õ¨
ĠÕ°Õ½Õ¯ Õ¡ÕµÕ¡Õ¯Õ¡Õ¶
ĠÕ¡Õ¯Õ¡Õ¶ Õ»
ĠÕ±Õ£Õ¿ Õ¸ÖĤÕ´
ĠÔ±Õ° Õ¡
ĠÔ±Õ¾Õ¥Õ¬ Õ«Õ¶
ĠÕ¯ ÖĦ
ĠÕ¶ ÖĢÕ¢
ĠÕ¿ Õ¸Õ¶Õ«
Ô± ÖĢÕ¡Õ¯Õ¡Õ¶
ÕĢ Ô±ÕĨ
Õ¡Õ½Õ¿ Õ«Õ¯
ĠÕŃ Õ¸Õ¶
Õ¥Öģ Õ¡Õ®
ĠÕ¹ Õ¥
Õ¥Õ¯ Õ¿ÖĢÕ¸Õ¶Õ¡ÕµÕ«Õ¶
ĠÕ¿Õ¡ÖĢ Õ¥Õ¤Õ¡ÖĢÕ±
Õı Õ¥ÖĦÕ½Õ¿
ĠÕ¯Õ¡ÖĢÕ¸Õ² Õ¡Õ¶Õ¡
ĠÕı Õ¡ÖĢ
ĠÔ¹ Õ¸ÖĢ
Õ¡Õ± Õ¥ÖĤ
ĠÕĶ ÖĢÕ«
ĠÕ´Õ¿ Õ¶Õ¥Õ¬Õ¸ÖĤ
ĠÕ½Õº Õ¡Õ¼Õ¶
ĠÕ¿Õ¡Õ¬ Õ¸Õ¾
ĠÖħÕ£Õ¿Õ¡Õ£Õ¸ÖĢÕ® Õ¸ÖĤÕ´Õ¨
Ô±Õ¼ Õ¸Õ²Õ»
ĠÕ¯Õ«ÖĢÕ¡Õ¼ Õ¥Õ¬
ĠÕ¢Õ¡ÖģÕ¡Õ¼ Õ¸ÖĤÕ©ÕµÕ¡Õ´Õ¢
ĠÕĤÕ¡ÖĢÕ¡Õ¢Õ¡Õ² Õ«Öģ
ĠÕ¡ÖĢÕªÕ¥ÖĦ Õ¶Õ¥ÖĢÕ«
ÕĢÕ¡Õ¶ÖĢ Õ¡ÕµÕ«Õ¶
Õ¢Õ¥ÖĢ Õ¥Õ¬
ĠÕ¤Õ«ÖĢÖĦÕ¸ÖĢÕ¸Õ· Õ¸ÖĤÕ´Õ¨
ĠÕ¡ÕºÖĢÕ«Õ¬ ÕµÕ¡Õ¶
ĠÕ¢Õ¶Õ¡ÕºÕ¡Õ° ÕºÕ¡Õ¶Õ¸ÖĤÕ©ÕµÕ¡Õ¶
9 9
\ \
Â £
Õ¸ ÖĦÕ«
ĠÖĦ ÖĢÕ¤
Õ«Õ¯ Õ¸Õ½
ĠÕ£Õ¸ÖĢÕ® Õ¥ÖĢÕ¸Õ¾
Õ¥ÖĦ Õ·Õ¡Õ¢Õ©Õ«
ÖĢÕ¾ Õ¥Õ½Õ¿
Õį Öĩ
ĠÕ°Õ¡Õ¾ Õ¡Õ½Õ¿Õ«
ĠÕĪ Õ½Õ¯
Â», âĢĵ
Õ¥Õµ Õ©Õ«Õ¾
ĠÕ» Õ¡ÖĢÕ¤
ĠÕ®Õ¡Õ¼Õ¡Õµ Õ¸ÖĤÕ©ÕµÕ¸ÖĤÕ¶Õ¶Õ¥ÖĢÕ¨
Õĳ Õ¥ÖĢÕ¥Õ¯Õ¡ÕµÕ«Õ¶
ĠÕ·Õ¶Õ¸ÖĢÕ° Õ¡Õ¾Õ¸ÖĢÕ¥Õ¬
ĠÕ·Õ¶Õ¸ÖĢÕ° Õ¡Õ¾Õ¸ÖĢÕ¡Õ¯Õ¡Õ¶
ĠÕ¬Õ¸ÖĤÕ® Õ¸ÖĤÕ´Õ¶Õ¥ÖĢ
ĠÕµÕ¸ÖĤÖĢ Õ¡Õ°Õ¡Õ¿
ÕĢÕ¡Õ´ Õ¡Õ¶Õ´Õ¡Õ¶
ĠÕĢÕ¡Õ¯Õ¸Õ¢ ÕµÕ¡Õ¶
ÕıÕ¥Õ½ ÖĦÕ¨
em ail
ĠÕºÕ¡Õ·Õ¿Õ¸Õ¶ÕµÕ¡Õ¶ Õ¥ÖĢÕ«
ÕİÕ«ÖĦÕ«ÕºÕ¥Õ¤ Õ«Õ¡ÕµÕ«
ĠÕ¢Õ»Õ»Õ¡ÕµÕ«Õ¶ Õ¸Õ¾
ĠÕĶÖĢÕ« Õ¥ÕµÕ©Õ«Õ¾
Õ¸ÖĤ ÖĢÕ¯
ĠÕ° ÖĢÕ©Õ«Õ¼
Õ¡ÖĢ Õ¶Õ¥ÖĢ
Õ¡Õ´ Õ¡Õ¶
ĠÕ¿ ÖĢÕ¾Õ¸Õ²
ĠÕº Õ¸
ĠÔ± Ô¶
Õ¡Õ¬ Õ«Õ¶
ĠÕ¬ Õ¡Õ¢Õ¸ÖĢÕ¡Õ¿Õ¸ÖĢ
ĠÕĦ Õ¥Õ¦
ĠÕ¶Õ¡ÕŃ Õ¡ÕºÕ¥Õ½
ĠÕ¯Õ¡Õ´ Õ¡Õ¾Õ¸ÖĢ
er evan
ĠÕ°Õ¶Õ¡ÖĢÕ¡Õ¾Õ¸ÖĢ Õ¸ÖĤÕ©ÕµÕ¸ÖĤÕ¶Õ¨
Õ¡Õ¿Õ¥Õ½ Õ¡Õ¯
ĠÕ´Õ¡Õ½Õ¶Õ¡Õ¯Öģ Õ¡ÕµÕ«Õ¶
ĠÕ´ÖĢÖģ Õ¡Õ¯Õ«Öģ
ĠÕ¬Õ¸ÖĤÕ® Õ¥Õ¬Õ¸ÖĤ
ĠÕ¥ÖĢÕ£ Õ¨
ĠR e
ĠÕ¸ÖĢÕ¤ Õ¸ÖĤ
ĠÔ±ÖĢÖĩ Õ¥Õ¬ÕµÕ¡Õ¶
ÕĬÕ¥Õ¿ ÖĦ
ĠAr menia
ĠÕ°Õ¡ÖĢÕ© Õ¡Õ¯
Ô±Õ¤ÖĢÕ¢Õ¥Õ» Õ¡Õ¶Õ«
ĠÕĦÔ±ÕĲ Ô¶
ĠÔ²Õ¡ÖĢÕ½ Õ¥Õ²
s e
Õ¡Õ½ ÕµÕ¡Õ¶Õ«
Õ¡Õ° Õ¥Õ¿
ĠÕ© Õ¡Õ¿Õ¥ÖĢ
Õ«Õ½ ÕµÕ¡Õ¶Õ¨
ĠÕĦ Õ¡ÖĦÕ½
ÕĦ Õ¡ÕµÖĢ
ĠÔµ Ô¿
ĠÔµ Õ£Õ«ÕºÕ¿
Õı Ô²
ĠÔ´ Õ¡Õ¿
Ġ3 2
ĠÕ½Õº Õ¡Õ¼Õ¶Õ¸ÖĤÕ´
ĠÕĦÕ« Õ¸ÖĤÕ©ÕµÕ¡Õ¶
ĠÕħ Õ¸ÖĤÖĢÕ«
ĠÕ½ÕºÕ¡Õ½ Õ¡ÖĢÕ¯
ĠÕ©Õ¥Õ´ Õ«
Õ¸ÖĢÕ¸Õ· Õ´Õ¡Õ¶
ĠÕ¥ÖĢÖĩ Õ«
ĠÕªÕ¡Õ´Õ¯Õ¥Õ¿ Õ¸Õ¾
ĠÔ½Õ¡Õ¹ Õ¡Õ¿Õ¸ÖĤÖĢ
ĠÕ¢Õ¡ÖģÕ¡Õ°Õ¡ÕµÕ¿ Õ¥Õ¬
as h
wik i
ĠÖĥÕ¡Õ½Õ¿Õ¡Õ©Õ²Õ© Õ¥ÖĢÕ¨
i e
n ik
ĠÕ° Õ¡Õ·Õ¿
Õ¡Öģ Õ¥
ĠÕ½ Õ¡Õ°Õ´
ĠÕ¾ Õ¡ÖĢÕ¡Õ¯
ĠÕĦ Õ¸Õ¶
ĠÔ³ ÕµÕ¸ÖĤÕ²
ĠÔ» ÕĨ
Õ³ Õ¡Õ¼
Ô¹ Õ¸Õ²
ÕĬ Õ¡ÖĢÕ¦
ÖħÖĢ Õ¥Õ«Õ¶
ĠÕ¡Õ¶Õ¾ Õ¡Õ¶Õ¸ÖĤÕ´Õ¨
ĠÕŃÕ¸ÖĢÕ°ÖĢÕ¤ Õ¡ÕµÕ«Õ¶
Õ¡Õ¿Õ¾ Õ¸ÖĤÕ©ÕµÕ¡Õ¶
ĠÕ®ÖĢÕ¡Õ£ÖĢ Õ¸ÖĤÕ´
Õ¡Õ¬Õ« ÖĨ
ĠÕħ Õ¸ÖĤÖĢÕ¡ÖĦÕ¡Õ¶Õ¹ÕµÕ¸ÖĤÖĢ
Õ¸ÖĤÕ£ Õ¡Õ¬
ÕºÕ¥Õ¿ Õ¡Õ¯Õ¡Õ¶
ĠÕ°Õ¥Õ¼Õ¸ÖĤÕ½Õ¿ Õ¡Õ¼Õ¡Õ¤Õ«
ĠÕ°Õ¥Õ¿Õ¥ÖĤ Õ¡Õ¶ÖĦÕ¸Õ¾
ĠÕ¯Õ¸Õ´Õ«Õ¿ Õ¥
Ô¿Õ¡Õº Õ¾Õ¡Õ®
ĠÕŃÕ¡Õ¹ Õ´Õ¥ÖĢ
ĠÕŃÕ¸Õ½ÖĦ Õ¥ÖĢÕ¸Õ¾
ĠÕ¹Õ¸ÖĢ ÖĢÕ¸ÖĢÕ¤
ĠÕ¡ÕºÕ¡Õ£ Õ¡Õ¶
ĠÕĢÕ¡Õ» Õ¸ÖĢÕ¤Õ¨
ĠÕºÕ¡ÖĢÕ£Öĩ Õ¡Õ¿
ÔµÖĢÕ¥Õ¯ Õ¸ÕµÕ¡Õ¶
ĠÕ¿Õ¥Õ²Õ¡Õ¯Õ¡Õµ Õ¾Õ¡Õ®
1 00
V ideo
Õ¶ Õ¡ÕµÕ«Õ¶
Õ¥Õ¿ Õ¡Õ¯Õ¡Õ¶
ĠÕ¡Õµ Õ¢
Õ¥Õ² Õ¡ÖĥÕ¸ÕŃ
ÕĢ Õ¥Õ¼
Ô³ ÕµÕ¸ÖĤÕ²
Õ¡ÖĢÕ¾ Õ¡
Õ¡ÖĢÕ¾ Õ¥Õ¬Õ¸ÖĤ
Ô´ Õ¡Õ½
Õ¸Õµ Õ¡Õ¶Õ¶
ĠÕ¡Õ´Õ¥Õ¶ Õ¡Õ¢
ĠÕ©Õ¾Õ¡Õ¯Õ¡Õ¶ Õ¨
ĠÕ½Õ¡Õ°Õ´Õ¡Õ¶ Õ¥Õ¬
ĠÕ¡Õ·ÕŃÕ¡Õ¿Õ¡Õ¶ÖĦ Õ«Öģ
ĠÕī Õ¡ÖĢ
ĠÕ«Õ·ÕŃÕ¡Õ¶ Õ¸ÖĤÕ©ÕµÕ¸ÖĤÕ¶
ĠÕ£Õ¸ÖĢÕ®Õ¸Õ² Õ¸ÖĤÕ©ÕµÕ¡Õ¶
ĠÕ¾Õ¡ÖĢ ÖĦ
ĠÕ¦Õ¸ÖĢ Õ¡Õ¯Õ¸Õ¹
ĠÕ£Õ® Õ¸ÖĤÕ´
ĠÕ¾Õ¡Õµ ÖĢÕ«
ĠÕ°Õ¥Õ²Õ¡ÖĥÕ¸ÕŃ Õ¸ÖĤÕ©ÕµÕ¡Õ¶
ĠÕ°ÖĢÕ¡Õ¾Õ«ÖĢ Õ¸ÖĤÕ´
ĠÕ¡ÕºÕ¡Õ£ Õ¡ÕµÕ«
ĠÕĩÕ¾ Õ¥ÕµÖģÕ¡ÖĢÕ«
ÕĢÕ¡Õ» Õ¸ÖĢÕ¤
ĠÕ°Õ«Õ´Õ¶Õ¡ÕŃ Õ¶Õ¤Õ«ÖĢ
ĠÕ¿Õ¥Õ²Õ¥Õ¯Õ¡Öģ ÖĢÕ«Õ¶
ĠÕ¦Õ¾Õ¡ÖĢÕ³ Õ¡Õ¬Õ«
Ġ and
Õ¶ Õ¡Õ¦
Õ«Õ¶ Õ¥ÖĢÕ«Õ¶
ĠÕ¯ Õ«Õ¬
ĠÕ¸ Õ¶Öģ
ĠÕ£ Õ¥ÖĢÕ´Õ¡Õ¶
Õ¬ Õ¡
Õ¡Õ¬ ÕµÕ¡Õ¶Õ¨
ĠÕ½ Õ¸ÖĤÖĢÕ³
Õ´Õ¡Õ¶ ÕµÕ¡Õ¶
ĠÕ°Õ¡Õ´ Õ¡Õ¼
ĠÕŃ Õ¡Õ¢
ĠÕŃ Õ¸ÖĢÕ¨
Öī âĢĶ
Õ¥Õ¯ Õ¿Õ¥Õ´Õ¢Õ¥ÖĢ
ĠÕ¦ Õ¸ÖĤÕ¿
ĠÕ¡Õ¼Õ¡Õ» Õ¨Õ¶Õ©Õ¡Öģ
ĠÕ½Õ¿ Õ¡ÖģÕ¾Õ¸ÖĤÕ´
Õ«Õº Õ«
ĠÕĵ Õ¸ÖĢÕ±
ĠÕŃÕ¸Õ½ ÖĦÕ«
ĠÕ¿Õ¡ÖĢÕ¡Õ® ÖĦÕ¨
Õ¥Õµ Õ«
in d
ĠÕªÕ¸Õ²Õ¸Õ¾ Õ¸ÖĤÕ´
ĠÕ¥ÖĢÕ¯ÖĢ Õ¶Õ¥ÖĢ
ĠÕ®ÖĢÕ¡Õ£ÖĢ Õ¸Õ¾
ÖĦÕ¡Õ¶ Õ·
ĠÕ½Õ¯Õ½ Õ¾Õ¸ÖĤÕ´
ĠÕ¯ÕµÕ¡Õ¶ ÖĦÕ«Õ¶
ĠÕ³Õ¡Õ¶Õ¡ÕºÕ¡ÖĢÕ° Õ«
Ô±Õ¼ Õ¡Õ¾Õ¸Õ¿ÕµÕ¡Õ¶
ĠÕ¤Õ«Õ¿ Õ¸ÖĤÕ´
ĠÖĥÕ¸ÕŃÕ¡Õ¶Öģ Õ¥Õ¬
ĠÔ²Õ¡Õ¢ Õ¬
ĠÕ©Õ¡ÖĢÕ£Õ´Õ¡Õ¶ Õ¸ÖĤÕ©ÕµÕ¸ÖĤÕ¶Õ¨
ĠÕĢÔ±ÕĲ Õĳ
te ct
ĠÕ¯Õ¸ Õ¡Õ¬Õ«Öģ
ĠÕ¾Õ¥ÖĢÕ¡Õ¢Õ¥ÖĢÕ¾ Õ¸ÖĤÕ´
ĠChat rou
ĠChatrou lette
Ġ %
Õ¯ Õ¶
Ô± Õ¢
Õ¡Õ¬ Õ¸ÖĤÕ®
Õ¸Õ¶ Õ·
Ô» Õ¶Õ¿
Ô¿ Õ¥Õ¶Õ¿ÖĢÕ¸Õ¶
ĠÕĬ Õ¸Õ¬
Õ¡Õ¾Õ¡ÖĢ Õ¸ÖĤÕ©ÕµÕ¸ÖĤÕ¶
ÕĬ Ô±ÕĨ
ÖħÖĢ Õ«Õ¶Õ¡Õ¯Õ¡Õ¶
Ġ3 4
am s
Ô±ÕĲ ÕĢ
ĠÕ£Õ«Õ¿ Õ¥Õ¬Õ«
ĠÕ½Õ¯Õ½ Õ¥ÖģÕ«Õ¶
Õ¿Õ¡Õ¶Õ£ Õ¸ÖĤÕ©ÕµÕ¡Õ¶
Õ¡Õ¾Õ¸ÖĢÕ´ Õ¡Õ¶Õ¨
ĠÕ¶Õ«Õ½Õ¿ Õ¥ÖĢÕ«
ĠÕ¡ÕºÖĢ Õ¥Õ¬Õ¸ÖĤ
ĠG oogle
ĠÕ¾Õ³ Õ¡ÖĢÕ´Õ¡Õ¶
ĠÕ¶Õ¥ÖĢÕ¤ÖĢÕ¸ÖĤÕ´ Õ¶Õ¥ÖĢ
ĠÕĢÕ¥Õ¿ Õ¸
ĠÕ¡ÖĢÕ±Õ¡Õ¯ Õ¸ÖĤÖĢÕ¤
ĠÕ¬ÖĢÕ¡Öģ Õ¸ÖĤÕ´Õ¶Õ¥ÖĢ
Ġin fo
ĠÔµÕ¾ÖĢ Õ¡Õ½Õ«Õ¡Õ¯Õ¡Õ¶
ĠÕ¦Õ£Õ¡Öģ Õ´Õ¸ÖĤÕ¶ÖĦ
ĠÔ±Õ¶Õ» Õ¥Õ¬
o b
Ġ a
ÖĦ Õ¡
ĠÕ¿ Õ¸Õ¶Õ¡Õ¯Õ¡Õ¶
ĠÔ± ÕºÖĢÕ«Õ¬
ÕĢ Õ¡Õ³Õ¡ÕŃ
ĠÕ°Õ¡Õ´ Õ¡ÖĢÕªÕ¥ÖĦ
Õ¡Õ¦ Õ¡ÖĢÕ¤
ĠÕ¹ Õ¯Õ¡ÖĢ
Ġ1 000
Ôµ Õ¯
Ôµ Ô´
ĠÕį Õ¡Õ½Õ¸ÖĤÕ¶
Õ¸Õ¬ Õ¥Õ»
ĠÕ¡ÖĢÕ¿ Õ¥ÖĢÕ¯
ĠÕºÕ¡Õ° Õ«
Õ«ÖĦ Õ½
ĠÕĩ Õ¸ÖĤÕ·
ĠÕ£Õ«Õ¿ Õ¥Õ´
ĠÕ°Õ¶Õ¡ÖĢÕ¡Õ¾Õ¸ÖĢ Õ«Õ¶Õ½
ĠÕ² Õ¡ÖĢÕ¡Õ¢Õ¡Õ²ÕµÕ¡Õ¶
Õ¡ÕªÕ¸Õ²Õ¸Õ¾ Õ¨
ĠÕ¡Õ´Õ¢Õ¸Õ²Õ» Õ¸Õ¾Õ«Õ¶
ĠÖĥÕ¸ÖĥÕ¸ÕŃ Õ¸ÖĤÕ©ÕµÕ¡Õ¶
ĠÕ¡Õ»Õ¡Õ¯Öģ Õ¸ÖĤÕ©ÕµÕ¸ÖĤÕ¶Õ¨
ĠÕ°Õ¡Õ¶Õ¤Õ«Õ½ Õ¡Õ¿Õ¥Õ½
ro s
ĠÕ¢Õ¶Õ¡Õ¯Õ«Õ¹ Õ¶Õ¥ÖĢÕ¨
Õ¡Õ¾Õ¡Õµ ÖĢÕ¸ÖĤÕ´
ĠÔ±Õ½Õ¿Õ¾Õ¡Õ® Õ¡Õ·
ĠÕ´ÖĢÖģÕ¡Õ¶Õ¡Õ¯ Õ«
ĠÕŃÕ¸ÖĤÕ½Õ¡Öĥ Õ¥Õ¬
ĠÕ¡ÖĢÖĦ Õ¡Õµ
ĠÔ·ÖĢÕ¤Õ¸Õ² Õ¡Õ¶Õ¨
B C
i z
Ġ Õ¡Õ¶Õ«
Õ¿ Õ¨
Õ¿ Õ¸ÖĤÖĢ
ĠÕ¯ Õ¦
Õ¸ÖĤÕ¶ Õ¥ÖĢ
Õ¶Õ¥ÖĢ Õ«Õ½
ĠÕĢ Õ¶Õ¡ÖĢÕ¡Õ¾Õ¸ÖĢ
ÕŃ Õ¸ÖĢÕ°ÖĢÕ¤
Õ¡Õ¤ Õ¸ÖĤÕ¬
ĠÕ¡Õ¼Õ¡Õ» Õ¡ÖģÕ¶Õ¸ÖĤÕ´
ĠÕ¿Õ¡ÖĢ ÖħÖĢÕ«Õ¶Õ¡Õ¯
ĠÕĬ Õ¡ÕµÕ´Õ¡Õ¶
Ô¸ Õ¶Õ¿
ĠÕįÕ¡ÖĢÕ£ Õ«Õ½
ĠÕ¡Õ² ÕµÕ¸ÖĤÕ½
ĠÕ°Õ¡Õ¶ÖĢ Õ¸ÖĤÕ©ÕµÕ¡Õ¶Õ¨
ĠÕºÕ¡ÖĢÕ¦ Õ¥Õ¬Õ¸ÖĤ
ĠÕ´Õ·Õ¡Õ¯ Õ´Õ¡Õ¶
ĠÕ¸ÖĢÕ¿Õ¥Õ² Õ«Öģ
ĠÕ¾Õ¡ÖĢ Õ¥Õ¬
ĠÕ¡Õ¾Õ¥Õ¬ Õ¸ÖĢÕ¤
ĠÕ¶Õ¡ÕŃÕ¡Õ£Õ® Õ¥ÖĢÕ«
Õ£ÖĢ Õ¥Õ½
ĠÕ¢Õ¡Õ¼ Õ¥ÖĢÕ¨
ĠÕ¡Õ¶Õ¾Õ¡Õ¶ Õ¥Õ¬
ĠÕºÕ¡Õ¿Õ¥ÖĢÕ¡Õ¦Õ´ Õ¨
ÕĬÕ¡Õ¿ ÖĢÕ¡Õ½Õ¿
ĠÕ°Õ¥Õ¼Õ¸ÖĤÕ½Õ¿ Õ¡
Ðµ Ð½
ĠÕ¢Õ¸ÖĤÕª Õ´Õ¡Õ¶
ĠÕ°Õ¥Õ¼Õ¡ÕŃÕ¸Õ½ Õ¡Õ°Õ¡Õ´
ĠÕĢÕĶ Ô¾
ĠÕŃÖĢÕ¡ÕŃ Õ¸ÖĤÕ½
ĠÕ°Õ¥Õ¼Õ¸ÖĤÕ½Õ¿Õ¡Õ¼Õ¡Õ¤Õ« Õ¸Õ¨
ÖĢ Õ¡ÕºÕ¡ÖĢÕ¡Õ¯
Õ¡Õµ ÖĢÕ¨
ĠÕ¸ ÖĢÕ½
Õ´ Õ«Õ¶
ĠÕ½ Õ¥ÖĢÕ«
Õ¡Õº Õ¡Õ²
Õ¸Õ¶ ÕµÕ¡Õ¶Õ«
Õ¸ÖĤÕ½ Õ¡Õ²
Ô¿ Õ¡ÖĢÕ¥Õ¶
Õ¡ÖĢÕ± Õ¸ÖĤÕ´
ĠÖĦÕ¡Õ²Õ¡ÖĦ Õ¶Õ¥ÖĢÕ¸ÖĤÕ´
ĠÕ¡ÖĢÕ¿ Õ¡ÖģÕ¸Õ¬
ĠÕ¶Õ¡ÕŃÕ¡Õ£Õ¡Õ° Õ¶
ĠÕ´Õ«Õ»Õ¸Öģ Õ¶Õ¥ÖĢÕ¸Õ¾
ĠÕŃÕ¸ÖĢÕ°ÖĢÕ¤ Õ¡Õ¶Õ«Õ·
an t
ĠÔ¶ Õ¡ÖĦ
Õ¸Õ½Õ¿ Õ¸Õ½
ĠÕ¤Õ¡ÖĢÕ± Õ¶Õ¥Õ¬Õ¸ÖĤ
ĠÕ¶Õ·Õ¡Õ¶Õ¡Õ¯ Õ¥Õ¬
ĠÔ¾ Õ¡Õ¼Õ¡Õµ
ĠÕ´Õ¡Õ° Õ¡ÖģÕ¡Õ®
ĠÔµÖĢ Õ¥ÕŃ
ĠÕ¤Õ«Õ¿ Õ¸ÖĢÕ¤
ÕºÕ¡Õ¿ Õ¡Õ½ÕŃÕ¡Õ¶
ĠÕ³Õ¡ÖĢÕ¿Õ¡ÖĢ Õ¡ÕºÕ¥Õ¿
ĠÔ±Õ©Õ¸Õ¼ Õ¸Õµ
ĠÕ¤Õ¡Õ°Õ¬Õ«Õ³ Õ¸ÖĤÕ´
ĠÕ½Õ¡Õ¯ Õ¡Õ£
ÕĦÕ¡Õ´ Õ¸ÖĤÕ¬Õ«
ÕĵÕ¸ÕŃ Õ¥Õ¬
Ô³ÕµÕ¸ÖĤÕ´ ÖĢÕ«
ÕĩÔ±Ô¿ ÕĪÕĴÕħÔ¹
Ġpro tect
Õµ Õ¸ÖĤÕ®
Õ¡Õ¯Õ¡Õ¶ Õ¶Õ¥ÖĢÕ¨
Õ¸ÖĤÕ©ÕµÕ¡Õ¶ Õ¶
Õ¥Õ² Õ¥Õ¶
ÕĢ Õ¡Õ¿
Õ¼ Õ¸ÖĤÕ½Õ¡Õ¯Õ¡Õ¶
Ô´ Õ¥Õ¯Õ¿Õ¥Õ´Õ¢Õ¥ÖĢÕ«
ĠÖĨ Õ¸ÖĢÕ¸ÖĤÕ´
Õ¸Õ£ Õ´Õ¡Õ¶
ĠÕ´Õ¥Õ» Õ¢Õ¥ÖĢÕ¸ÖĤÕ´Õ¶Õ¥ÖĢ
ĠÕĶ Õ¡ÖĢÕ¤
Ô¸ ÕĨ
ĠÕ¨Õ¶Õ¿ÖĢ Õ¸ÖĤÕ©ÕµÕ¸ÖĤÕ¶Õ¨
ĠÕ£Õ«Õ¿ Õ¥Õ¶
ĠÕ°Õ¡Õ´Õ¡Õ¯Õ¡ÖĢÕ£ Õ¸Õ²
ĠÖģÕ¸ÖĤÖģ Õ¡Õ¯Õ¨
ĠÕī Õ§
ĠÕ¢Õ¡ÖĢÕ±ÖĢ Õ¡ÖģÕ´Õ¡Õ¶
ĠÕ¬ÖĢ Õ¡ÖģÕ¶Õ¥Õ¬
it ik
Ġ200 4
ĠÕ¯Õ«ÖĢÕ¡Õ¼ Õ´Õ¡Õ¶
ac k
ĠÕ¯Õ¸ÖĤÕ¶Õ¥Õ¶ Õ¡Õ¶
ĠÔ±Õ·ÕŃ Õ¡Õ¿
ĠV ideo
ĠÕ¯Õ¶Õ¸Õ» Õ¨
Ô¸Õ¶Õ¤ Õ°Õ¡Õ¶Õ¸ÖĤÖĢ
ĠÕĬÕ¡Õ·Õ¿ ÖħÕ¶Õ¡Õ¯Õ¡Õ¶
ĠÕ£ÕµÕ¸ÖĤÕ²Õ¡Õ¿Õ¶Õ¿Õ¥Õ½ Õ¡Õ¯Õ¡Õ¶
ĠÕ°Õ¡ÖĢÕ´Õ¡ÖĢ Õ¡Õ¾Õ¥Õ¿
ĠÕ¯Õ¸Õ¼Õ¸ÖĤÕºÖģ Õ«Õ¸Õ¶
ÕİÕ«ÖĦÕ«ÕºÕ¥Õ¤ Õ«Õ¡ÕµÕ«Öģ
ĠÕĢÕ¥Õ¶ ÖĢÕ«ÕŃ
ĠÕ¤Õ¸Õ¯ Õ¿Õ¸ÖĢ
ÕĨÕ¡Õ¾ Õ¡ÖĢÕ¯Õ´Õ¡Õ¶
Õ¸ÖĤÕ©Õ¥ Õ¡Õ´Õ¢
ÕıÕ¥ÖĦÕ½Õ¿ Õ¨
Ġprotect ed
T he
Õ¶ Õ¸ÖĤÕ¶Õ¤
ÖĦ Õ¡Õ²Õ¡ÖĦÕ¡Õ¯Õ¡Õ¶
Õ¡Õ´ Õ·Õ¡Õ¯Õ¸ÖĤÕ©Õ¡ÕµÕ«Õ¶
Õ¡Õ¿ Õ«Õ¶
Õ£ Õ¡ÖĢ
ĠÖĦ Õ¸ÖĤÕµÖĢ
Õ² Õ¡Õ´Õ¡ÖĢÕ¤
ÕĦ Õ¸Õ¼
Ô» Õ½
ĠÕ¿Õ¥Õ² Õ¡Õ´Õ¡Õ½
ĠÕİ Õ¡ÖĢ
ÕĶ Õ¡Õ²Õ¡ÖĦÕ¡Õ¯Õ¡Õ¶
ĠÕ´Õ¿ Õ¶Õ¥Õ¬
ĠÕ¥Õ¯ Õ¡Õ®
ĠÕ¥ÖĢÕ¯ÖĢ Õ¶Õ¥ÖĢÕ«Öģ
ĠÖģÕ¡Õ¶Õ¯ Õ¨
ar e
Ô· Ô¿
ĠÔ±Õ¤ÖĢÕ¢Õ¥Õ» Õ¡Õ¶
ĠÕ¯Õ¸Õ¹ Õ¸ÖĤÕ´
ĠÕ¢Õ¡Õ¶Õ¡Õ¯ Õ¨
ĠÕ¡Õ´Õ«Õ½ Õ¶Õ¥ÖĢÕ«Õ¶
ĠÕ¡ÖĢÕ±Õ¡Õ¶ Õ¡Õ£ÖĢÕ¾Õ¥Õ¬
ĠÕ·Õ«Õ¶ Õ¡ÖĢÕ¡ÖĢ
ĠÔ³ÕµÕ¸ÖĤÕ´ ÖĢÕ¸ÖĤ
ĠÕ©Õ¡Õ¿ÖĢ Õ¸Õ¶
ĠÖĦÕ¡ÖĢÕ¿Õ¸ÖĤÕ² Õ¡ÖĢÕ«
ĠÔ»Õ½ÖĢ Õ¡ÕµÕ¥Õ¬Õ«
ĠÕ¿Õ¡Õ² Õ¡Õ¶Õ¤
Õ¡Õ£Õ«Õ® Õ¨
ĠÕ¡ÖĢÖģ Õ¡ÕŃ
ÖĢ Õ¡Õ¤Õ¡Õ¼Õ¶Õ¡Õ¬Õ¸Õ¾
Õ¡Õ¶ Õ¡ÕµÕ«
Õ² Õ¡Õ¯Õ«
ĠÔ³ Õ¬
ĠÕ¾Õ¥ÖĢ Õ¡ÕºÕ¡Õ°
ĠÖģ Õ¥ÖĢÕ¥Õ¯Õ¡ÕµÕ«Õ¶
Õ¡Õ© Õ¡Öĥ
ĠÕĬ Ô²
ĠÕ¶Õ¥ÖĢÕ¯Õ¡Õµ Õ¸ÖĤÕ´Õ½
Õ«Õ½Õ¿ Õ¶Õ¥ÖĢÕ«
Ô±Õħ Ô»
ĠÔ±Õ¶ Õ¯Õ¡ÕŃ
ĠÕŃÕ¶Õ¤Õ«ÖĢ Õ¶Õ¥ÖĢÕ«Õ¶
ĠÕ¦Õ«Õ¶ Õ¾
Õĳ Õ¡Õ¶Õ¯
Õ«Õ¤ Õ¥Õ¸
ĠÕ®Õ¶ Õ¸ÖĤÕ¶Õ¤
ĠÕĭ Õ¸Õ¶
ĠÕ«ÖĢÕ¡Õ¾Õ«Õ³ Õ¡Õ¯Õ¸ÖĤÕ´
Õ¡Õ¿ÖĢ Õ¥Õ¬Õ«
ĠÕ°Õ¡ÕµÖĢÕ¥Õ¶ Õ¡Õ¯Õ«Öģ
ĠÕ¾Õ¡Õµ ÖĢÕ¨
ĠÔ·Õ¤ Õ¾Õ¡ÖĢÕ¤
ĠÕ°Õ« Õ¡Õ½
ĠÕ°Õ½Õ¯ Õ¸Õ²Õ¸ÖĤÕ©ÕµÕ¡Õ¶
ĠÔ¾Õ¡Õ¼Õ¸ÖĤÕ¯ ÕµÕ¡Õ¶Õ¨
ĠÕºÕ¡ÖĢÕ¿Õ¡Õ¯Õ¡Õ¶ Õ¸ÖĤÕ©ÕµÕ¸ÖĤÕ¶Õ¶Õ¥ÖĢÕ¨
ĠÕ©Õ¸ÖĤÕµÕ¬Õ¡Õ¿ ÖĢÕ¡Õ£ÖĢÕ«
ĠÖĦÖĢÕ¥ Õ¡Õ¯Õ¡Õ¿Õ¡ÖĢÕ¸Õ²Õ¡Õ¯Õ¡Õ¶
ĠÔ¿Ô±ÕĮ Ô±ÕİÔ±ÕĲ
, ,
l y
Õ¡Õµ Õ¡Õ¶Õ«
Õ¡Õ® Õ¨
ĠÕ½ Õ¸ÖĤÖĢ
ĠÕ«ÖĢ Õ¸ÖĦ
ĠÕ£Õ¸ÖĢÕ® Õ¡ÖĢ
ĠÕĨ ÕĪÕĲ
ĠÕ¡Õ´ Õ¡Õ¼Õ¡ÕµÕ«Õ¶
Õ¡Öĥ Õ·Õ¿
Õ¡Õ¿Õ¡ÖĢ Õ«Õ´
ĠÕ°Õ¡Õ½ Õ¯Õ¡Õ¶
ĠÕºÕ¡Õ·Õ¿ ÕºÕ¡Õ¶Õ«
ĠÕºÕ¡Õ° Õ«Öģ
ĠÕ°Õ¡Õ¾ Õ¡Õ½Õ¿
ÔµÕĲ Ô¸
ĠÕ½Õ¯ Õ¡Õ¶Õ¤
ĠÕ¥ÖĢÕ¯ÖĢ Õ¶Õ¥ÖĢÕ¨
ĠÕ°Õ¡Õ¯ Õ¡Õ¼
ĠÕ°Õ¡ÕµÕ¿Õ¶ Õ¾Õ¸ÖĤÕ´
ĠÕ·Õ¶Õ¸ÖĢÕ° Õ¡Õ¾Õ¸ÖĢ
Ġ200 3
ĠÔ±Õ¬ Õ¢
Ġ0 8
ĠÕ¡Õ¶Õ°ÖĢÕ¡ÕªÕ¥Õ·Õ¿ Õ¸ÖĤÕ©ÕµÕ¸ÖĤÕ¶
ĠÕ·Õ¡Õ° Õ¡Õ£Õ¸ÖĢÕ®
ĠÕ¡Õ¶ÖģÕ¯Õ¡Öģ Õ¾Õ¥Õ¬
ĠÕ«ÖĢÕ¥Õ¶ Õ«Öģ
ĠÕ¡ÖĢÖĩ Õ´Õ¿ÕµÕ¡Õ¶
ĠÕ°Õ¡Õ¯Õ¡Õ¼Õ¡Õ¯ Õ¸ÖĢÕ¤Õ«
ĠÕ´Õ¸ÖĤÕ¿ ÖĦÕ«
ĠÕ¯Õ¸ÖĢÕ® Õ¡Õ¶
Õ½ÕºÕ¡Õ½ Õ¥Õ¬Õ«
ĠÕ¡Õ½Õ¿Õ«Õ³ Õ¡Õ¶Õ«
Õ¸Õ¶Õ· ÕµÕ¡Õ¬
Õ¸ÖĤÕ´ Õ¶Õ¥ÖĢÕ¶
Õ«Õ¶ Õ£Õ¡ÕµÕ«Õ¶
Õ¡Õº Õ¿
ÕĢ Õ¸Õ¾Õ°Õ¡Õ¶Õ¶
Õ¡ÖĢÕ¿ Õ¸ÖĤÕ²
ĠÕ´Õ«Õ» Õ¸ÖĤÕ¯Õ¡ÕµÕ«Õ¶
Õ¡Öĥ Õ¡Õ¼
Ô² Õ¶Õ¡Õ¯
Õ¸ÖĤÕ¬ Õ²
ĠÕ°Õ¡ÖĢÖģ ÖĢÕ¥Öģ
ĠÕ¶Õ¥ÖĢÕ¯Õ¡ÕµÕ¡Öģ ÖĢÕ¡Õ®
Õħ Ô±ÕĨÔ»
ĠÕ¡Õ´Õ¥Õ¶ Õ«Öģ
ĠÕ¤Õ¥Õº ÖĦÕ¥ÖĢ
ĠÕ¥Õ² Õ¥ÖĦ
ĠÕ¨Õ¶Õ¿ÖĢ Õ¸ÖĤÕ©ÕµÕ¸ÖĤÕ¶
ĠÕ¨Õ¶Õ¯Õ¥ÖĢ Õ¶Õ¥ÖĢÕ«
Ô¾ Õ¡Õ¼Õ¡Õµ
ĠÕ«ÖĢÕ¡Õ¯Õ¡Õ¶Õ¡Öģ Õ¸ÖĤÕ´Õ¨
or y
ĠÕ¨Õ¶Õ¿ ÖĢÕ¾Õ¡Õ®
ĠÕ´Õ¡ÖĢÕ´ Õ¶Õ¡Õ¯Õ¡Õ¶
ĠÕ¦Õ£ Õ¡ÖģÕ¸Õ²
Õ¡Õ¯Õ¡Õµ Õ¸ÖĤÕ©ÕµÕ¡Õ¶
ĠÕ¡Õ¾Õ¥Õ¬ Õ¡ÖģÕ¶Õ¥Õ¬
ĠÕĦÕ¡Õ¶ ÖĢÕ¡Õ´Õ¡Õ½Õ¶Õ¸ÖĤÕ©ÕµÕ¸ÖĤÕ¶Õ¶Õ¥ÖĢÕ«
ÕĢÕ¥Õ¿ Õ¡ÖĦÖĢÖĦÕ«ÖĢ
ĠÕ¶ÕºÕ¡Õ½Õ¿ Õ¥Õ¬
ĠÕ¢Õ¸Õ¬ Õ¸ÖĢÕ½
ĠÕ¨Õ¶Õ¤Õ£Õ® Õ¥Öģ
ĠÕ¡Õ¼Õ¶Õ¹ Õ¸ÖĤÕ©ÕµÕ¡Õ´Õ¢
Ô±ÖĢÕ¤ Õ¥Õ¶
ĠÕºÕ¡Õ¿Õ¡Õ½ÕŃ Õ¡Õ¶Õ¸ÖĤÕ´
ĠÕ¢Õ¡ÖģÕ¡Õ¯Õ¡Õµ Õ¸ÖĤÕ©ÕµÕ¡Õ¶
ĠÕķÕĲ ÔµÕĨ
ĠÖħÖĢÕ° Õ¶
ĠÕ£Õ¥ÖĢÕ¥Õ¦ Õ´Õ¡Õ¶
ĠÕĶÕ¸Õ´ Õ¸Õ¶Õ½
a x
Õ¥Õ ¹
ĠÕ° Õ¸Õ¿
ĠÔ± ÕĢ
ÕĢ Õ¸Õ£
Õį Õ¡Õ°Õ´Õ¡Õ¶
ĠÕı Õ«ÖĢ
ĠÕ®Õ¡Õ¼Õ¡Õµ Õ¸Õ²Õ¡Õ¯Õ¡Õ¶
at iv
ĠÖĥÕ¸ÖĥÕ¸ÕŃ Õ¸ÖĤÕ©ÕµÕ¸ÖĤÕ¶Õ¶Õ¥ÖĢÕ¨
ĠÕ·ÖĢÕ»Õ¡Õ¶ Õ¡Õ¼Õ¸ÖĤÕ©ÕµÕ¡Õ¶
ĠÕ½Õ¯Õ¦Õ¢ Õ«Õ¶
ĠÕ¡Õ¦Õ£ Õ«
ĠÕ¿Õ¥Õ²Õ¡ÖĥÕ¸ÕŃ Õ¥Õ¬
ĠÕ¡Õ²Õ¢ ÕµÕ¸ÖĤÖĢÕ¨
ĠÕ½Õ¶ Õ¸ÖĤÕ¶Õ¤
ĠÕªÕ¸Õ²Õ¸Õ¾Õ¸ÖĤÖĢÕ¤ Õ¶Õ¥ÖĢÕ«
ĠÕ¾Õ¡ÖĢÕ± Õ¡Õ¯Õ¡Õ¬
ĠÕįÕ¿Õ¥Öĥ Õ¡Õ¶
ĠÕ¾Õ¥ÖĢÕ¡Õ¯Õ¡Õ¶Õ£Õ¶ Õ´Õ¡Õ¶
ĠÔ³Õ¥Õ² Õ¡ÖĢÖĦÕ¸ÖĤÕ¶Õ«ÖĦÕ«
ĠÕ¢Õ¶Õ¡ÕºÕ¡Õ° ÕºÕ¡Õ¶Õ¡Õ¯Õ¡Õ¶
ĠÕ°Õ¥Õ²Õ«Õ¶ Õ¡Õ¯Õ¨
ĠÕĦÕ¡Õ½Õ¶ Õ¡Õ¾Õ¸ÖĢÕ¡ÕºÕ¥Õ½
Ô±Ô¶Ô³ Ô±ÕħÔ»ÕĨ
ÕĬÕ¡Õ·Õ¿ Õ¸Õ¶Õ¡Õ¯Õ¡Õ¶
ĠÕĢÕ² Õ´Õ¡Õ¶
Ġ de
ĠÕ¯ Õ¸ÖĤÕ¦
Õ¸ÖĤÕ¶ Õ£
Õ¡Õ¾ Õ¡Õ¦
Õ¸Õ¾ Õ¡
Õ¸ÖĢ Õ¡Õ¯
ĠÕ£ Õ¡ÖĢÕ¶
ĠÕĢ Õ¡Õ¬
ĠÕ¾ Õ¯Õ¡Õ¶
Öĩ Õ«Õ¶
Õ¥Õ¯ Õ¸ÖĤÕ¦
ÕĪ Ô½
âĢ ľ
Õ¸ÖĤÖĢ Õ«Õ¶
ĠÔµ Ô½
Õ¡Õ¯Öģ Õ¥Õ¬
ÖĢÕ¡Õ´ Õ¡Õ½
ĠÕ¿Õ¥Õ½ Õ¸ÖĤÕ©ÕµÕ¸ÖĤÕ¶
ĠÕ¡Õ´Õ¥Õ¶ Õ«
am e
Õ¨Õ¶ Õ¿ÖĢ
ĠÕŃÕ¸Õ½ Õ¡Õ¯Öģ
ĠÕ¢Õ¸Õ¬Õ¸ÖĢ Õ¶
ĠÕ·Õ¡ÖĢ ÖĦÕ¸ÖĤÕ´
ĠÕ¨Õ¶Õ©Õ¡Öģ Õ¸Õ²
ĠÕ´Õ«Õ¡ÕµÕ¶ Õ¡Õ¯
Õ¡Õ¢Õ¥ÖĢÕ ¤
ĠÕ¡Õ² Õ¥Õ¿
Õ¥Õ¯Õ¿ Õ«Õ¾
Õ¥ÖĢÕ¾ Õ¡Õ®
ĠÕİÖĢÕ¡Õ½Õ¿ Õ¡Õ¶
ĠÕ¿Õ²Õ¡Õ´Õ¡ÖĢÕ¤ Õ¨
Õ¡Õ¿Õ¸ÖĤÕ¶ Õ¥ÖĢÕ«
ĠÕ¡Õ°Õ¡Õ¢Õ¥Õ¯ Õ¹Õ¡Õ¯Õ¡Õ¶
Ô¼Õ¡Õ¾ Õ¡Õ£Õ¸ÖĤÕµÕ¶
ĠÕĢÕ«Õ½ Õ¸ÖĤÕ½
Õ´Õ¥Õ¼ Õ¡ÕµÕ«Õ¶
ÕĦÕŃÕ«Õ© Õ¡ÖĢ
Ô±Õ° Õ¡
] ,
a h
Õ¡Õ¶ Õ¸ÖĤÕ©ÕµÕ¸ÖĤÕ¶
Õ¿ Õ¸Õ¿
ĠÕ° Õ¥Õ®
ĠÕ¯ Õ¸Õº
Õ´ Õ¸ÖĤÕ¶ÖĦÕ«
Õ¡Õ¯Õ¡Õ¶ Õ¶Õ¥ÖĢ
Õ¡Öģ Õ¶Õ¥Õ¶ÖĦ
Õ¬ Õ«Õ£Õ¡ÖĢÕŃ
ĠÕĢ Õ¥Õ²Õ«Õ¶Õ¡Õ¯
ĠÕ½ Õ¥Õº
ĠÕ¡Õ¶ Õ¶Õ¡ÕŃ
ĠÕŃ Õ½Õ¿
ÕĨ Õ¡ÕŃÕ¡Õ£Õ®Õ«
ÕĦ Õ¥Õ¯Õ¶Õ¡Õ¢Õ¡Õ¶
Õ° ÖĢÕ¡ÕªÕ¥Õ·Õ¿
ĠÔ² Õ«Õ¦Õ¶Õ¥Õ½
ĠÕ¸ÖĤÕ¶ Õ¥Õ«Õ¶
Õŀ ,
Ô¹ ÖĢÕ¡Õ´Öĥ
ĠÕ¯Õ¡Õµ Õ¡ÖģÕ¡Õ¾
Ô±Ô¿ Õĳ
ÕĮ Ô´
ĠÖģÕ¡Õ¶Õ¯ Õ¡Õ¬Õ«
ĠÕ´Õ«Õ¶Õ¹ Õ¤Õ¥Õ¼
ĠÕ¯Õ¡Õ¼Õ¡Õ¾Õ¡ÖĢ Õ¸ÖĤÕ©ÕµÕ¸ÖĤÕ¶
ĠÕ¡Õ¼Õ¡Õ»Õ¶ Õ¡ÕµÕ«Õ¶
ĠÕ¿ÖĢÕ¡Õ´ Õ¡Õ¤ÖĢÕ¾Õ¡Õ®
ĠÕ¿Õ² Õ¡
ĠÔ±ÖĢÕ¿ Õ¡Õ·
ÔµÖĢ Õ¥ÕŃ
ĠÕ´Õ¡ÖĢÕ´Õ«Õ¶ Õ¶Õ¥ÖĢÕ¨
ĠÕ¯Õ¿ Õ¸ÖĢ
ĠÕ¥ÖĢÕ¥ÕŃÕ¡Õ¶ Õ¥ÖĢ
ÔµÖĢÕ¯ Õ«ÖĢ
ĠÕ£Õ¡Õ²Õ¡Öĥ Õ¡ÖĢÕ¨
ĠÕ¯Õ¸ÖĢÖģ ÖĢÕ¥Õ¬
ak h
ĠÕ¼Õ¥ÕªÕ«Õ´ Õ«
Õ¡Õ¤ÖĢÕ¾ Õ¸Õ²
ĠÕ¾Õ¥ÖĢÕ¡Õ¢Õ¥ÖĢÕ´ Õ¸ÖĤÕ¶ÖĦ
Õ¸ÖĤÕ¶Õ¯ Öģ
ĠÕĳÕ¥Õ²Õ¡Õ½ ÕºÕ¡Õ¶Õ¸ÖĤÕ©ÕµÕ¡Õ¶
i o
ĠÕ° Õ¡ÖĥÕ·Õ¿
Õ´ Õ¡Õ½
Õ¡Õ¯Õ¡Õ¶ Õ¶Õ¥ÖĢÕ«Õ¶
ĠÕĢ Õ¶Õ¤Õ¯
Õ¥Õ½ Õ©
ĠÕ¡Õ¶ Õ¥Õ¬Õ¸Õ¾
ĠÕ¡Õ¶ Õ¿Õ¥Õ½
ĠÕ°Õ¡Õ´ Õ¡Õ¯
ÕŃ Õ¸ÖĤÕ´
ĠÕ¹ ÕŃ
ĠÕĦ Õ¥Õ²
ĠÕ¨Õ¶ Õ±Õ¥Õ¼
Ô¿ ÔµÕĲ
Õ¸Õ¬ Õ«Õ¿
ĠÕ£Õ¸ÖĢÕ® Õ«Õ¶
ĠÔ¿ Õ¡Õ¿
ĠÕĨ Õ¸ÕµÕ¥Õ´Õ¢Õ¥ÖĢÕ«
ĠÕ«Õ¶Õ¹ ÕºÕ«Õ½Õ«ÖĦ
Õį Õ¸ÖģÕ«Õ¡Õ¬Õ¡Õ¯Õ¡Õ¶
ĠÕİ Õ«Õ¯
ĠÕ¯Õ¡Õ¼ Õ¡Õ¾
Õ¨Õ¶ Õ©Õ¡ÖģÕ«
Ġ5 5
ĠÕ¯Õ¡Õ¦Õ´Õ¡Õ¯Õ¥ÖĢÕº Õ¥Õ¬Õ¸ÖĤ
Õ¸ÖĤÕ· Õ¡Õ¢Õ©Õ«
ĠÕ¯Õ¡Õ¼Õ¡Õ¾Õ¡ÖĢ Õ¸ÖĤÕ©ÕµÕ¡Õ¶Õ¨
ĠÕ£Õ¿Õ¶ Õ¾Õ¥Õ¬Õ¸ÖĤ
ĠÕ¯Õ¡ÖĢÖĩÕ¸ÖĢ Õ¡Õ£Õ¸ÖĤÕµÕ¶
ĠÕ¡Õ¶ÖģÕ¯Õ¡Öģ Õ¶Õ¸ÖĤÕ´
ĠÕ¦Õ¢Õ¡Õ² Õ¥ÖģÕ¶Õ¸ÖĤÕ´
ĠÔ±ÖĢÕ¿ Õ¡ÖĦÕ«Õ¶
ĠÕ¡Õ´Õ½ Õ¡Õ¯Õ¡Õ¶
ĠÕĢÕ¡Õ´ Õ¡ÕµÕ¶
ĠÕ°Õ¡ÕµÖĢÕ¥Õ¶ Õ«
200 9
ĠÕ¡Õ¯Õ¸ÖĤÕ´Õ¢ Õ¨
ĠÕ®Õ¡Õ¶Õ¸Õ© Õ¡Õ¶Õ¡Õ¬
ĠÕ°Õ¡Õ´Õ¡Õ£Õ¸ÖĢÕ®Õ¡Õ¯Öģ Õ¸ÖĤÕ©ÕµÕ¸ÖĤÕ¶
ĠÕĢÕ¡Õ¯Õ¸Õ¢ ÕµÕ¡Õ¶Õ«
ĠÕĦÕ¸Õ½Õ¯ Õ¾Õ¡
ĠÕ¬Õ«Õ¡Õ¦Õ¸ÖĢ Õ¸ÖĤÕ©ÕµÕ¸ÖĤÕ¶Õ¶Õ¥ÖĢÕ¨
ĠÕİÕ¡Õµ Õ¸Öģ
9 0
Õ¥ÖĢ Õ¡Õ¶Õ½
Õ¡ÖĢ Õ¶Õ¥ÖĢÕ«
ĠÕ¯ Õ¥ÖĢÕ¿
ĠÕ« Õ¿Õ¡Õ¬
ĠÕ£ Õ¥Õ¿Õ«
Õ¡Õ° Õ¸Õ½
ÕĢ Õ¸ÖĤÕ¬Õ«Õ½Õ«
ĠÕĦ ÕµÕ¸ÖĤÕ½
Ô´ Õ¡Õ¿
Ġ4 00
Õ¡Õ·Õ«Õ¶ Õ¸ÖĤÕ©ÕµÕ¡Õ¶
ĠÔ±Õ¤ÖĢÕ¢Õ¥Õ» Õ¡Õ¶Õ«Õ¶
ĠÔµÖĢ Õ«Õ¿Õ¡Õ½Õ¡ÖĢÕ¤
ĠÕ°Õ¥Õ¿Õ¡ÖĦÖĢÖĦ ÖĢÕ¾Õ¡Õ®
ĠÕ°Õ¡Õ½Öģ Õ¶Õ¥Õ¬
ĠÕ¸ÖĤÕ· Õ¡Õ¤ÖĢÕ¸ÖĤÕ©ÕµÕ¸ÖĤÕ¶Õ¨
ĠÕĢÔ±Õħ Ô±ÕįÕıÔ±ÕĨ
ĠÔ±Õ¢ÖĢÕ¡Õ°Õ¡Õ´ ÕµÕ¡Õ¶Õ¨
ĠÕ¡ÖĢÕ°Õ¥Õ½Õ¿ Õ¡Õ¯Õ¡Õ¶
ĠÕĢÕ¡Õ½Õ¡ÖĢÕ¡Õ¯ Õ¸ÖĤÕ©ÕµÕ¸ÖĤÕ¶
ĠÕ°Õ¡Õ´Õ¡ÖģÕ¡Õ¶Öģ Õ¸ÖĤÕ´
7 7
ÖĦ Õ¡Õ²Õ¡ÖĦ
ĠÕ¡Õ ®
Õ¡Õ® Õ¡Õ¾Õ¡Õ¬
Õ«Õ¯ ÕµÕ¡Õ¶
ÕĦ Õ¿
Õ¡ÖĢÕ£ Õ¡Õ¾Õ¡Õ³
ĠÕĬ Õ¡ÖĢ
Õª Õ¾Õ¡ÖĢ
Ô² Õ¡Õª
Ô¼ Õ¸ÖĤÕµÕ½
ĠÕ¿Õ¥Õ½ ÖĦ
ĠÖĥÕ¸ÕŃ Õ¡Õ¤Õ¡ÖĢÕ±
ĠÕŃÕ¸ÖĢÕ°ÖĢÕ¤ Õ¡Õ¶Õ·
ĠÕ¯ÕµÕ¡Õ¶ ÖĦÕ«Öģ
ĠÕ«Õ· ÕŃÕ¸Õ²
ĠÕºÕ¡ÖĢÕ¦ Õ¡Õ¢Õ¡Õ¶Õ¸ÖĤÕ´
ĠÕ´Õ·Õ¡Õ¯ Õ¥Õ¬
ĠÕ½Õ«ÖĢ Õ¸Õ¾
ÕĪÕĴÔ¹ÕħÕĪÕĴÕĨ ÕĨÔµÕĲÔ»
ĠÕ°Õ¡Õ½Öģ Õ¥Õ«Õ¶
ĠÕ¸ÖĤÕ· Õ¡Õ¤Õ«ÖĢ
ĠÕ°Õ«Õ¾Õ¡Õ¶Õ¤ Õ¸ÖĤÕ©ÕµÕ¸ÖĤÕ¶Õ¶Õ¥ÖĢÕ«
ĠÕ¥Õ¬ Õ¸ÖĤÕµÕ©Õ¨
Õ¡Õ½Õ¯ Õ¡Õ¶Õ¡Õ¬Õ«
ĠL ist
ĠÕİÕ¡ÖĢÕ¤ Õ¡Õ¶ÕµÕ¡Õ¶Õ¨
ĠÕ¯Õ«Õ½ Õ¡ÕºÕ¡Õ·Õ¿ÕºÕ¡Õ¶
Õ¡Õ¦Õ£ Õ¥Õ½Õ¿
ÔµÕĦ Ô²
ĠÕ¼Õ¡Õ¤Õ«Õ¸Õ¯Õ¡Õµ Õ¡Õ¶
ĠÕ°Õ¡ÖĢÕ½ Õ¡Õ¶Õ«
ĠÕ°Õ¡Õ¾Õ¡Õ¶Õ¡Õ¯Õ¡Õ¶ Õ¸ÖĤÕ©ÕµÕ¡Õ´Õ¢
ĠÕ©Õ¡ÖĦ Öģ
ÕıÕĲ ÕĪÕĨ
ĠÕ¿Õ¡Õº Õ¡Õ¬
ĠÔ´Õ«Õ¿ Õ¾Õ¥Õ¬
Ã ©
Ð ²
Õ¶ Õ¶Õ¹Õ¡Õ¯Õ¡Õ¶
Õ« Õ¸ÖĤÕ´
Õ¡Õµ Õ¸ÖĤÕ¶
ĠÕ¯ Õ¥Õ¶ÖģÕ¡Õ²
Ô± ÖĢÕ¡Õ´
ĠÕĢ Õ¸Õ¯Õ¿Õ¥Õ´Õ¢Õ¥ÖĢÕ«
ĠÕ¾ Õ¥Õº
Â» )
ÕĦ Õı
ĠÕºÕ¡Õ¿ Õ«Õª
Õ¡ÖĢÕ¡ÖĢ Õ«
Õ½Õ¯ Õ¸ÖĤ
ÕºÕ¡Õ¶ Õ¸ÖĤÕ©ÕµÕ¸ÖĤÕ¶
ĠÔ¼ Õ¥ÖĤÕ¸Õ¶
Õ¥Õ¦ Õ¸ÖĤ
Ô¼ ÖĢ
ĠÕĮ Õ¸Õ¶Õ¡Õ¬Õ¤
ĠÕ¯Õ¸Õ²Õ´ Õ¥ÖĢÕ¨
ĠÕ¡Õ´Õ¥Õ¶ Õ¡Õ´ÕµÕ¡
ĠÕĶ Õ¸
ĠÕĵ Õ¸Õ½Õ¿
ĠÕ´Õ¿ Õ¡Õ¾Õ¸ÖĢ
ĠÕŃÕ´Õ¢ Õ¡Õ£ÖĢ
ĠÕ¢Õ¡ÖĢ Õ¥Õ¶
ĠÕ°Õ¡Õ¯ Õ¡Õ½
ĠÕ«Õ·ÕŃÕ¡Õ¶ Õ¸ÖĤÕ©ÕµÕ¸ÖĤÕ¶Õ¶Õ¥ÖĢÕ«Õ¶
ĠÕ°ÖĢÕ¡ÕºÕ¡ÖĢÕ¡Õ¯ Õ´Õ¡Õ¶
ĠÖħÕ£Õ¿Õ¡Õ£Õ¸ÖĢÕ® Õ¥Õ¬Õ¸ÖĤ
ĠÕ°Õ¡Õ½Õ¡ÖĢÕ¡Õ¯ Õ¸ÖĤÕ©ÕµÕ¸ÖĤÕ¶Õ¨
ĠÕ°Õ¡Õ²Õ© Õ¸Õ²
ĠÕ°Õ¡Õ²Õ© Õ¡Õ¶Õ¡Õ¯Õ¨
ĠÕ°Õ¥Õ¿Õ¡ÖĦÖĢÖĦ ÖĢÕ¥Õ¬
ĠÕ³Õ¡Õ¶Õ¡Õ¹ Õ¥Õ¬Õ¸ÖĤ
ĠÕ¶Õ¡ÕŃÕ¡Õ£Õ® Õ¥ÖĢÕ¸ÖĤÕ´
ĠÕ¤Õ¥ÕºÖĦ Õ¥ÖĢÕ¨
ĠF ree
Ô±ÕĮ Ô±Õħ
ĠÕ´Õ¥ÖĦÕ¥Õ¶ Õ¡
ĠÕ¸ÖĤÕ½Õ¸ÖĤÕ´Õ¶Õ¡Õ½Õ«ÖĢ Õ¥Õ¬
ĠÕ°Õ¸ÖĢÕ¤ Õ¸ÖĢ
Õ¡ÕŃÕ¸ÖĤÕ´Õ¢ Õ¨
Ġ $
Ġ Õ¡ÖĢÕ«
ĠÕ¶ ÕµÕ¡ÖĢÕ¤
ĠÕ¿ Õ¡Õ¿
ĠÕ½ Õ¥Õ¶
Öĩ Õ«Öģ
ĠÕ¹ Õº
ÕĦ Õ¡Õ¶Õ¯
Õ¡ÖĢÕ¯ Õ¸ÖĤÕ©ÕµÕ¸ÖĤÕ¶
Õ¡ÖĢÕ± ÖĢÕ¡Õ£Õ¸ÖĤÕµÕ¶
ĠÕĬ Õ¸ÖĢÕ¿
Ô³ Õ¥ÖĢÕ´
ĠÕ¯Õ¡Õ´ Õ¸ÖĤÖĢÕ»
at e
ĠÔ±Õ¶ Öģ
ĠÖĥÕ¡Õ½Õ¿ Õ¥ÖĢ
ĠÕºÕ¡Õ°Õ¡Õ¶Õ» Õ¶Õ¥ÖĢÕ«Õ¶
ĠÕĤ Õ¸ÖĤÕ¯
ĠÕ¯Õ¸Õ´ Õ½
ĠÕ¦Õ¸ÖĢ Õ¡Õ¾Õ¡ÖĢÕª
men t
ĠÕ¡ÖĢÕ±Õ¡Õ¶ Õ¡Õ£ÖĢÕ¥Õ¬
ĠÕ¾Õ³ Õ«Õ¼
ĠÕ¢Õ¡Õ¶Õ¡Õ¯Öģ Õ¡ÕµÕ«Õ¶
ĠÕĢÕ¸Õ¾Õ°Õ¡Õ¶Õ¶Õ«Õ½ ÕµÕ¡Õ¶Õ«
ter n
ĠÕ§Õ¶Õ¥ÖĢÕ£ Õ¥Õ¿Õ«Õ¯
ĠÕ¡Õ·Õ¡Õ¯Õ¥ÖĢÕ¿ Õ¶Õ¥ÖĢÕ«
hat s
ut nik
ĠÕĦÕ¡ÖĢÕ« Õ¡Õ´
ĠÕĨÕ¡Õ°Õ¡Õ¶Õ£ Õ¶Õ¥ÖĢÕ«
Ġchat ting
ĠÕ¡ÖĢÕ¿Õ¡Õ°Õ¡Õ¶ Õ´Õ¡Õ¶
ĠÕ¡Õ¶Õ¶Õ¡ÕŃ Õ¡Õ¤Õ¥Õº
Õ¥ Õ¡Õ¬Õ«
ĠÕ° Õ¡Õ¬
ĠÕ´ Õ¥ÖĢÕ¯
Õ¯ Õ¡ÕµÕ«Õ¶
ĠÕ¿ Õ¸Õ¶Õ¨
ĠÕ¡Õ ¸
Öĩ Õ¸ÖĢÕ¨
Õ¡Õ¢ Õ¡ÖĢÕ±
Ô» Ô¼
ĠÔ¿ Ô²
ĠÕ«Õ¶Õ¹ Õ«Öģ
ĠÕ¡Õº Õ¡Õ£Õ¡ÕµÕ¸ÖĤÕ´
Õ¸Õ£ Õ¡Õ¶
ĠÕªÕ¡Õ´Õ¡Õ¶Õ¡Õ¯ Õ¶
Ô±Õµ Õ¸
ĠÕ£Õ«Õ¿ Õ¥ÖĦ
ĠÕ¢Õ¡ÖĢÕ±ÖĢ Õ¡ÖģÕ¶Õ¥Õ¬
ĠÕ¶Õ¯Õ¡Õ¿ Õ¥Öģ
ĠÕ±Õ¥Õ¼ ÖĦÕ«
ĠÕ¯ÖĢ Õ¸Õ²
ĠÔ±Õ½Õ¿ Õ²
ĠÔ»Õ¶Õ¹ ÕºÕ¥
ĠÕ¡Õ¶Õ¸ÖĤÕ¶ Õ¶Õ¥ÖĢÕ¨
ĠÖĦÕ¶Õ¶Õ¡ÖĢÕ¯ Õ¸ÖĤÕ´Õ¶Õ¥ÖĢÕ«
ĠÔ»ÖĢ Õ¡Õ¯Õ¡Õ¶
ĠÕ¡Õ»Õ¡Õ¯Öģ Õ¸ÖĤÕ´
ĠÖĦÕ¡Õ²Õ¡ÖĦÕ¡ÖģÕ«Õ¶ Õ¥ÖĢ
ĠÕ£Õ¸ÖĢÕ®Õ¨Õ¶Õ©Õ¡Öģ Õ¸ÖĤÕ´
ĠÕ¥ÖĢÕ¡Õª Õ«Õ·Õ¿
ĠÕ°Õ¡Õ¿Õ¾Õ¡Õ® Õ¨
ĠÕ¾Õ¥ÖĢÖģ Õ¶Õ¥Õ¬
ĠÔ½Õ¸ÖĢÕ°ÖĢÕ¤ Õ¡ÕµÕ«Õ¶
ĠÕ°Õ«Õ·Õ¡Õ¿Õ¡Õ¯ Õ«Õ¶
ĠÕĦÕ¯ÖĢÕ¿Õ¹ ÕµÕ¡Õ¶Õ¨
ĠÕĶÔ¿ ÕĢ
ĠÕ¡Õ¦Õ¶ Õ«Õ¾
ĠÕĢÕ¡Õ´Õ¢ Õ¡ÖĢÕ±Õ¸ÖĤÕ´
ĠÕ°Õ¡ÖĥÕ·Õ¿ Õ¡Õ¯
n e
Õ¸ Õ¶Õ¥ÖĢ
Õ¸Õ¾ Õ¶
Õ¡Õ£ Õ«Õ¶
Õ¹ Õ«Õ¶
ĠÕ°Õ¡Õ´ Õ¡ÖĢÕ±Õ¡Õ¯
ĠÕ°Õ¡Õ´ Õ¡Õ£Õ¸ÖĤÕ´
ĠÕ· Õ¥Õ²
ĠÖħ Õ¬Õ«Õ´ÕºÕ«Õ¡Õ¯Õ¡Õ¶
Õ¸ÖĤÕ½ Õ¸Õ¾
Ô» ÖĢÕ¡Õ¯Õ¡Õ¶
Ô¿ ÕĲ
Ô¿ Õ¸Õ´
ĠÕ¦ Õ¥Õ¶ÖĦÕ«
Õ¡Õ£ÖĢ Õ¥ÖĢÕ¨
Õ¡ÕºÕ¥Õ¿ Õ¨
Õ¡Õ¶Öģ Õ«Õ¶Õ¥ÖĢÕ«
ĠÕİ Õ¥ÖĢÕ»
Õı Õ¡ÖĢ
ĠÕ¡Õ½ Õ¥Õ½
ĠÕ°Õ¡ÖĢÖģ Õ¶
Õ¡ÕºÕ¡Õ¿ Õ¡Õ½ÕŃÕ¡Õ¶
ĠÔ¶ Õ¡ÖĢ
ĠÕºÕ¡Õ·Õ¿ÕºÕ¡Õ¶ Õ¥Õ¬
ĠÕ´ÖĢÖģ Õ¡Õ·Õ¡ÖĢ
Õ¡ÕºÕ¡Õ° Õ¸Õ¾
ĠÕ°Õ¡Õ²Õ¸ÖĢÕ¤ Õ¡Õ£ÖĢ
ĠÕ±Öĩ Õ¡Õ¾Õ¸ÖĢÕ´Õ¡Õ¶
Õ«Õ¶Õ¡Õ¶Õ½ Õ¡Õ¯Õ¡Õ¶
ĠÕ©Õ¥Õ´ Õ¡Õ¶Õ¥ÖĢÕ«
ĠÕ³Õ¡Õ¶Õ¡Õ¹ Õ¾Õ¡Õ®
ĠÕºÖĢ Õ¸Öģ
ĠÕįÕ¿ Õ¡Õ´Õ¢
ĠÕ¯Õ¸ÖĤÕ½Õ¡Õ¯Öģ Õ¸ÖĤÕ©ÕµÕ¸ÖĤÕ¶
Õ¡Õ¾Õ¡Õµ ÖĢÕ«
ĠÕ´ÖĢÖģÕ¡Õ¶Õ¡Õ¯ Õ¡Õ¢Õ¡Õ·ÕŃ
ĠÕ°Õ¡ÖĢÕ±Õ¡Õ¯ Õ´Õ¡Õ¶
Ð¾Ð ²
ÕĢÕ¸ÖĤÕ¶ Õ«Õ½Õ«
ĠÕ¡Õ´Õ¢Õ«Õ¸Õ¶ Õ«
ĠÕ§Õ¬Õ¥Õ¯Õ¿ÖĢ Õ¡Õ§Õ¶Õ¥ÖĢÕ£
ĠÕ¥ÖĢÕ¯ÕŃÕ¸Õ½ Õ¸ÖĤÕ©ÕµÕ¡Õ¶
ĠÕ¡ÖĢÕ¡ÖĢÕ¸Õ² Õ¸ÖĤÕ©ÕµÕ¡Õ¶Õ¨
ĠÕ¸Õ´Õ¡Õ¶ ÖĦ
ĠÕ¾Õ¡ÕµÖĢÕ¯ ÕµÕ¡Õ¶
ĠÕįÕ¥Õ¢Õ¡Õ½Õ¿ Õ¡ÖģÕ«
Õ«Õ½Õ¯Õ¸Õº Õ¸Õ½
6 6
Ġ Õ¡ÖĢÕ©Õ¶
Õ¥Õ¬ Õ¡
Õ¡Õ£ ÖĢÕ¾Õ¸ÖĤÕ´
ĠÔ± Õ´Õ¡Õ¶
ĠÕ½ Õ¥ÖĢÕ¨
Õº Õ¡Õ¿Õ¡Õ¯
ÕĪÕ ħ
ĠÔ¿ ÔµÕĨ
ĠÔ¿ Õ¡Õ¦Õ´Õ¡Õ¯Õ¥ÖĢÕº
Õİ Ô±Ô¿Ô±ÕĨ
ĠÖĥÕ¸ÕŃ Õ¶Õ¡ÕŃÕ¡ÖĢÕ¡ÖĢ
Ġ4 7
ĠÔµÖĢÖĩ Õ¡Õ¶Õ¨
Õ¡Õ¥ ÖĢÕ©
ĠÕ¨Õ¶Õ¿Õ¡Õ¶Õ« ÖĦÕ¸ÖĤÕ´
ĠÕĨÕ¸ÖĢ ÖĦ
ÕĢÕ¡Õ´ Õ¡ÕµÕ¶
Ô±Ô³ Ô»Õı
ĠÕ¥Õ¶Õ©Õ¡ÖĢÕ¯ Õ¾Õ¡Õ®
ĠÕ¶ÕºÕ¡Õ½Õ¿ Õ¸ÖĤÕ´
ĠÕ°Õ¡ÖĢÕ¸ÖĤÖģ Õ¾Õ¡Õ®
ĠÕ½Õ¥ÖĢ Õ¶Õ¤Õ«
ĠÕĢÕ¡ÕµÖĢ Õ¡ÕºÕ¥Õ¿Õ¡Õ¯Õ¡Õ¶
ĠÕ¯Õ¡ÖĢÕ£Õ¡Õ¾Õ«Õ³ Õ¡Õ¯
ĠÕ¡Õ¯Õ¡Õ¤Õ¥Õ´ Õ«Õ¡ÕµÕ«
ĠÕ¼Õ¥Õ½Õ¸ÖĤÖĢÕ½ Õ¶Õ¥ÖĢÕ«
Ô±Õ½ Õ¸ÖĤÕ´
Ô±Õ½Õ¿ Õ¾Õ¡Õ®
wit ter
ĠÕįÕ¥Õµ ÖĢÕ¡Õ¶
ĠÕĶÕ¡ÖĢÕ¤ Õ¡Õ·
. Â«
r y
Ġ Õ¡ÖĢÕ¾Õ¸ÖĤÕ´
ĠÕ§ ÕªÕ¡Õ¶
ĠÕ¯ Õ¡Õ·Õ¡Õ¼ÖĦ
Õ¡Öģ Õ¸ÖĤÕ¶
ĠÕ¤ Õ¡Õ¾Õ¡Õ³
ĠÔ± Õ¶Õ«
Õ¸Õ¶ Õ¡
ĠÕ· ÖĦÕ¡Õ¶Õ·
Õ«ÖĢ Õ¡Õ¶Õ«
ĠÕĦ Õ¿
ÕĦ Õ¡Õ¿
Õ¡ÖĢÕ¯ Õ¨
ÕĪÕ Į
ĠÔ¿ Õ«
ĠÖħÖĢ Õ¥ÖĢÕ¨
Ô±ÕĨ ÕĶ
ĠÕ¨Õ¶Õ¤ Õ¡Õ¼Õ¡Õ»
ĠÕ°Õ¡Õ½ Õ¸ÖĤÕ¶
ĠÕ°ÖĢ Õ¡Õ¤Õ¡Õ¤Õ¡ÖĢÕ«
ĠÕ°Õ¡Õ¾ Õ¡Õ½Õ¡ÖĢÕ¡Õ¯
ÕµÕ¡Õ¬ Õ«
ĠÖĥÕ¸ÕŃ Õ£Õ¸ÖĢÕ®
ĠÕ¸ÖĢÕ¸Õ· Õ¸ÖĤÕ´Õ¶Õ¥ÖĢÕ«
ĠÕĩ Õ¡Õ´
ĠÕ®Õ¡Õ¼Õ¡Õµ Õ¥Õ¬
ĠÕ£Õ¶ Õ¸Õ¾
ĠÕĪÖĤ Õ½Õ¿Õ«
ĠÕ¤Õ¡ÖĢÕ± Õ¡Õ®
ĠÕºÕ¡ÖĢÕ¦ Õ¡Õ¢Õ¡Õ¶
ĠÕ¾Õ¡ÖĢ Õ¸ÖĢÕ¤Õ¨
ĠÕ·Õ¡Õ° Õ¥ÖĢÕ¨
ĠÕ¢Õ¡Õ¶Õ¡Õ¯ Õ¸ÖĤÕ´
ÕĪÕĴÕĦ Ô¸
ĠÕ¡ ÖĤ
ĠÕ¢Õ¼Õ¶ Õ¯
ĠÕºÕ¡Õ¿Õ¯Õ¥ÖĢ Õ¡ÖģÕ¶Õ¸ÖĤÕ´
ĠÕºÕ¡Õ¿Õ¯Õ¥ÖĢ Õ¡Õ½ÖĢÕ¡Õ°
ĠÕ¡Õ¼Õ¡Õ¶Õ±Õ¶ Õ¡ÕºÕ¥Õ½
ĠÕ¡Õ²Õ» Õ¯Õ¡
200 7
ĠÕ°Õ¥ÖĢ ÖĦ
ĠÕ¾Õ¥ÖĢÕ¡Õ¤Õ¡ÖĢÕ± Õ¥Õ¬
ĠÕ¥Õ²Õ¢ Õ¸ÖĢ
ĠÔ½Õ¡Õ¹Õ¡Õ¿ÖĢÕµ Õ¡Õ¶
ĠÕ¡Õ¼Õ¡ÖĢÕ¯ Õ¡
ĠÕ©Õ¥ÖĢ ÖĩÕ½
ĠÔ½Õ¡Õ² Õ¡Õ¬
Õ¡Õ£Õ® Õ«
ĠÕ¡Õ¯Õ¶Õ¯Õ¡Õ¬ Õ¸ÖĤÕ´
ĠÕ¯Õ¡Õ¶ÕŃÕ¡ÖĢÕ£Õ¥Õ¬ Õ´Õ¡Õ¶
ĠÕ¤Õ«Õ¦ Õ¡ÕµÕ¶
ĠÕ°Õ¡Õ´Õ¨Õ¶Õ¯ Õ¶Õ¸ÖĤÕ´
ĠÕ©Õ´ ÖĢÕ¡Õ´
pp le
Ġ Õ¡ÖĢÕ·Õ¡Õ¾
Õ¥ÖĢ Öĩ
ĠÕ¯ ÖĢÕ¥Õ¬
Õ¡Õ½ Õ¯Õ¥Õ¿
Õ´ Õ¸ÖĤÕ·
ĠÕ¶ Õ¸Õ¿
Õ¯ Õ¥Õ¬
ĠÕ¿ ÖĢÕ¾Õ¥Õ¬
ĠÕ¤ ÖĢÕ¾
ĠÕ¡Õ¶ Õ½ÕºÕ¡Õ½Õ¥Õ¬Õ«
ĠÕ°Õ¡Õ´ Õ¡Õ°
Õ¡Õ¤ Õ¡ÖĢÕ¡Õ¶
ĠÕ¬ ÖĢÕ»
Õ¡Õ¾Õ¸ÖĢ Õ¶Õ¥ÖĢÕ«
Õ¡ÖĢÕ¯ Õ¾Õ¡Õ®
ĠÔµ Õ¬
ĠÖģ Õ¥ÖĢÕ¥Õ¯
ĠÕ¡Õ½ Õ¥Õ¶ÖĦ
ĠÕı Õı
Õ¸Õ£ ÖĢÕ¡ÖĨ
ĠÕ°Õ¡Õ¾ Õ¥ÖĢÕª
Ô¸ Õ¶Õ¯Õ¥ÖĢ
ĠÕ£Õ«Õ¿ Õ«
ĠÕĸ Õ«Õ¬
or d
ĠÕ¤Õ¡Õ½ Õ¡ÖĢÕ¡Õ¶Õ«
ĠÕ½Õ¥ÖĥÕ¡Õ¯Õ¡Õ¶ Õ¡Õ¿Õ¥ÖĢ
ĠÕ¯Õ«ÖĢÕ¡Õ¼ Õ¾Õ¸ÖĤÕ´
ĠÕ¯Õ«Õ½ Õ¸ÖĤÕ´
ĠÕ©Õ¾ Õ¡ÕµÕ«Õ¶
ĠÕ¡Õ¶Õ´ Õ¥Õ²
ĠÕ¡Õ· Õ¶
ĠÕ¡ÖĢÕ¡ÖĢ Õ¸Õ²Õ¸ÖĤÕ©ÕµÕ¸ÖĤÕ¶Õ¨
Ġt h
ĠÕıÕ¥Õ½ Õ¡Õ¶ÕµÕ¸ÖĤÕ©
ĠÖĥÕ¸ÕŃÕ¡ÖĢÕ«Õ¶ Õ¥Õ¬
Õ¡ÕµÕ½ Õ¸ÖĤÕ°Õ¥Õ¿
ost ed
Õ¡Õ´Õ©Õ¥ÖĢ ÖĦÕ«
ĠÕ´Õ¡Õ¶Õ¯Õ¡Õ¾Õ¡ÖĢÕª Õ¡Õ¯Õ¡Õ¶
ĠÕ¤Õ¡Õ· Õ¶Õ¡Õ¯Õ«Öģ
ÕªÕ· Õ¯Õ¡Õ¯Õ¡Õ¶
ĠÕ¡Õ¾Õ¿Õ¸Õ¾ Õ©Õ¡ÖĢ
ĠÕµÕ¸ÖĤÖĢÕ¡Õ°Õ¡Õ¿ Õ¸ÖĤÕ¯
Õ¡Õ½Õ¯Õ¥Õ¿ Õ¢Õ¸Õ¬
E R
Ð ´
Ġ Õ¡ÖĢÕ£
Õ¶ Õ¡ÕºÕ¡Õ°
ĠÕ´ Õ¸Õ¬
ĠÕ¯ Õ½Õ¯
Õ¯ Õ«ÖĢ
Õ¤ Õ¥Õ´
Õ¸ÖĢ Õ«Õ¶
ĠÕĢ Õ¡Õ¶Õ±Õ¶
Õ¡Õ¬ ÕµÕ¡Õ¶
ĠÕ¡Õ¶ Õ©
ĠÕ¡Õ¼ Õ°Õ¡Õ½Õ¡ÖĢÕ¡Õ¯
ĠÕĦ Õ¡ÖĢÕ¦
Õ¡Õ¢ Õ¬
Õ¡Õ¾Õ¸ÖĢ Õ¸ÖĤÕ©ÕµÕ¸ÖĤÕ¶Õ¨
Õ¸Õ½ Õ¸ÖĤÕ´
Ô¿ Õ¡ÖĢÕ®Õ¸ÖĤÕ´
ÕĪÕĴ Õĳ
ĠÖĥÕ¸ÕŃ Õ¥Õ¬Õ¸ÖĤ
ĠÕ¢Õ¸Õ¬Õ¸ÖĢ Õ«Õ½
Ġ4 6
ĠÕ¥Õ¯ Õ¡Õ´Õ¿
ĠÖĦÕ¶Õ¶ Õ¸ÖĤÕ©ÕµÕ¸ÖĤÕ¶
ĠÕ£Õ¶ Õ¡Õ¬Õ¸ÖĤ
ĠÕ¨Õ¶Õ¯Õ¥ÖĢ Õ¶Õ¥ÖĢÕ«Õ¶
ĠÕ°Õ¡ÕµÕ¿Õ¡ÖĢÕ¡ÖĢ Õ¸ÖĤÕ©ÕµÕ¡Õ´Õ¢
ĠÕ¤Õ¡Õ¿ Õ¡Õ¾Õ³
ĠÕ¢Õ¡Õª Õ«Õ¶Õ¨
Õķ Õ£
ĠÕ¡Õ¼Õ¡Õ»Õ¶ Õ¸ÖĤÕ©ÕµÕ¸ÖĤÕ¶Õ¸ÖĤÕ´
ĠÕ°Õ¡Õ²Õ¸ÖĢÕ¤ Õ¡Õ£ÖĢÕ¸ÖĤÕ©ÕµÕ¡Õ¶
ĠÕºÕ¡ÖĢ Õ¡Õº
ĠÕ¯Õ«ÖĢ Õ¡Õ¯Õ«
ĠÕ¡Õ¾Õ¡ÖĢÕ¿ Õ¾Õ¥Öģ
Õ¸ÖĤÕ¢ Õ¡ÖĢ
il l
ĠÕ´Õ¡Õ¶Õ¯ Õ¡ÕºÕ¡ÖĢÕ¿
ĠÕ¯Õ¸Õ´Õ«Õ¿ Õ¥Õ¶
ĠÕ·Õ¥Õ¶ÖĦ Õ¨
ĠÕ¡ÖĢÕªÕ¡Õ¶ Õ¡ÕºÕ¡Õ¿
ĠÕ¿ÖĢÕ¡Õ¶Õ½ ÖĨ
ĠÔ±ÖĢÕ¤ Õ¥Õ¶
ĠÕ¦Õ«Õ¶Õ®Õ¡Õ¼Õ¡Õµ Õ¸Õ²Õ¶Õ¥ÖĢÕ«
ĠÔ±Õ½Õ¿Õ® Õ¸ÖĤÕ¶
ĠÕ¼Õ¥ÕªÕ«Õ´ Õ¨
ĠÕ°Õ¡Õ²Õ©Õ¡Õ¶Õ¡Õ¯ Õ«
ĠÕĦÕ¡Õ¶Õ¸ÖĤÕ¯ ÕµÕ¡Õ¶Õ¨
Ô±Õĩ Õı
ĠÕ¡Õ¯Õ¡Õ¶ Õ¡Õ¿Õ¥Õ½
ĠÖħÕ¢ÕµÕ¥Õ¯Õ¿ Õ«Õ¾
ĠÔ±ÕĮ Ô±Õĭ
ĠÕ¾Õ¥ÖĢÕ¡Õ¤ Õ¡Õ¼Õ¶Õ¸ÖĤÕ´
ĠÕ¯Õ¸Õ²Õ´Õ¶ Õ¸ÖĢÕ¸Õ·
ĠÕ»Õ¥ÖĢÕ´Õ¡Õ½Õ¿Õ«Õ³ Õ¡Õ¶Õ¨
ÖħÕ² Õ¬
Õ¡Õ¶ Õ¡Õ´
ĠÕ¸ Õ¼
ĠÕ¢ Õ¸ÖĤÕ¶
ĠÕ¢ Õ¸ÖĤÕµÕ½
Õ¥Öģ Õ¶Õ«
Õ¡Õ¾Õ¸ÖĢ Õ¸ÖĤÕ©ÕµÕ¸ÖĤÕ¶
ĠÔ¿ Ô±ÕĲ
Õ¡Õ¯Öģ Õ¾Õ¡Õ®
Õ¡Õ¤ÖĢ Õ¸Õ²
Ô² Õ¡ÖģÕ«
Õ¶Õ¶ Õ¡ÖĢÕ¯Õ¸ÖĤÕ´
ĠÕ¶Õ¡ÕŃÕ¡ÖĢÕ¡ÖĢ Õ«Õ¶
ĠÕ¡ÖĢ Õ¡Õ¢
Ô¾ Õ¡Õ¶Õ¸Õ©
ĠÕ°Õ«Õ´Õ¶ Õ¡Õ¾Õ¸ÖĢ
Õķ Õ£Õ¿Õ¡Õ¯Õ¡ÖĢ
ĠÕ±Õ¥Õ¼ ÖĦÕ¨
Ġ7 5
ĠÕºÕ¡Õ¿ÖĢÕ¡Õ½Õ¿ Õ¸ÖĤÕ´
ĠÕºÕ¡Õ°Õ¡Õ¶Õ» Õ¶Õ¥ÖĢÕ«
Ġ20 01
Õī Õ¥Õ´
ĠÕ¨Õ¶Õ¿Õ¡Õ¶Õ« ÖĦÕ¶Õ¥ÖĢÕ«
ĠÔ±ÕµÕ¶ ÕºÕ¥Õ½
ĠÕĢÕ¡Õ´ Õ¡Õ·ÕŃÕ¡ÖĢÕ°Õ¡ÕµÕ«Õ¶
ĠÕ¡Õ¦Õ¤ Õ¸ÖĤÕ´
ĠÔµÖĢÕ¯ Õ¸ÖĤ
ĠÕ¡ÖĢÕ¾Õ¥Õ½Õ¿ Õ¡Õ£Õ¥Õ¿
ĠÕ°Õ¡Õ¿Õ¾Õ¡Õ® Õ«
ĠÕ½ÕºÕ¡Õ¶ Õ¥Õ¬
ĠÕĨÕ¡ÕŃÕ¡Õ£Õ¡Õ° Õ¨
ĠÕ£ÖĢÕ¡Õ¯Õ¡Õ¶ Õ¸ÖĤÕ©ÕµÕ¸ÖĤÕ¶
ĠÖģÕ¡Õ¶Öģ Õ«
ĠÕİÕ¡Õ° Õ¥
ĠÕ¦Õ¡ÖĢÕ´ Õ¡Õ¶Õ¡Õ¬Õ«
ĠÖħÖĢÕ£ Õ¡Õ¶Õ«Õ¦Õ´
ĠÔ»Õ¿Õ¡Õ¬ Õ«Õ¡ÕµÕ«
ĠÕ·Õ¡ÕŃÕ´ Õ¡Õ¿Õ«
ĠÔ±ÖĢÕ¤ÕµÕ¸ÖĤÕ¶ ÖĦÕ¸ÖĤÕ´
cr ip
4 00
Õ¡Õ¯ Õ¡ÕµÕ¸ÖĤÕ´
Õ¿ Õ¡ÖĢÕ¡ÖĢ
Õ¡ÖĢ Õ¥Õ¦
ĠÕ¶ Õ¡ÕµÕ¥Õ¬
Õ¥Õ¿ Õ¡
ĠÕ¿ Õ¸ÖĤÖĢÖĦ
ĠÔ± ÕĬ
ĠÕ½ Õ«
ĠÕ½ Õ¥ÖĢÕ´
Õ² Õ«
ĠÖĥ Õ¸Õ·
ĠÕį Õ¥ÕºÕ¿Õ¥Õ´Õ¢Õ¥ÖĢÕ«
Ô¿ Ô±Ô¿Ô±ÕĨ
ĠÕ£Õ¸ÖĢÕ® Õ¡Õ®
ĠÔ¿ ÕĲ
ĠÔ¿ Õ¡ÖĢÕ´Õ«ÖĢ
ĠÕ¿Õ¥Õ² Õ¡Õ·Õ¡ÖĢÕª
Õį Õ¡ÖĢÕ£
Õ§ ÖĢ
ĠÕ¥ÖĢ Õ¥Õ½
Õ½Õ¯ Õ«Õ¶
Õ¡Õ¶Õ¤ Õ¥ÖĢÕ±
Õ¡Õ¤ÖĢ Õ¸ÖĤÕ´Õ¨
Õ¡Õ¿Õ¡ÖĢ Õ«
Ô² ÖĢ
Õ¡ÖĢÕµ Õ¡
ÕĶ Õ¡Õ¶Õ«
ĠÕ¯Õ¡Õº Õ¸ÖĤÕ´
ĠÕŃÕ¶Õ¤ ÖĢ
ĠÕ´Õ¡ÖĢÕ¦ Õ¡Õ¤Õ¡Õ·Õ¿
ĠÕķ Õ¢
ĠÕ¯Õ¡Õ¦Õ´Õ¡Õ¯Õ¥ÖĢÕº Õ¸ÖĤÕ©ÕµÕ¸ÖĤÕ¶Õ¶Õ¥ÖĢ
ĠÕ´ÖĢÖģ Õ¡Õ·
ÕĪÖĤ ÖĢ
ĠÕ°Õ¡Õ²Õ© Õ¡Õ°Õ¡ÖĢ
ĠÕ°Õ¡Õ¦ Õ¾
ĠÔµÖĢ Õ¸ÖĤÕ½Õ¡Õ²
Ô±Ô¼ Ô±
ĠÕ¥Õ¯Õ¥Õ²Õ¥Öģ Õ¸ÖĤÕ´
ĠÕ¿Õ¡Õ½Õ¶ Õ¡Õ´ÕµÕ¡Õ¯
ĠÕ¯Õ¸ÖĢÖģ ÖĢÕ¡Õ®
ab at
ĠÕ¸Õ½Õ¯ Õ¥
ĠÖĥÕ¡Õ¼Õ¡Õ¿ Õ¸Õ¶Õ«
ĠÕ¹Õ£Õ«Õ¿ Õ¥Õ´
ĠÕ¬ÖĢÕ¡Õ¿Õ¾Õ¡Õ´Õ«Õ»Õ¸Öģ Õ¶Õ¥ÖĢÕ«
ĠÕ¯Õ¸Õ¶ÖĨ Õ¬Õ«Õ¯
if e
ĠÕ½Õ´ Õ¡ÖĢÕ©
ÕĪÕ½Õ¯ Õ¥
ĠÕŃÕ¡Õ¹Õ´Õ¥ÖĢ Õ¸ÖĤÕ¯
Ġ Õ¡ÖĢÕ¾Õ¥Õ¬
Õ¡Õ´ Õ¡ÖĦ
Õ¤ Õ¡
ĠÔ± Õ¤Õ¡Õ´
ĠÕ½ Õ¡Õ¶
ĠÕ¡Õµ Õ¸
ĠÖĦ ÖĢ
Õ«Õ¿ Õ¡Õ¶Õ¡Õ¯Õ¡Õ¶
Ô» ÖĢÕ¡Õ¶
ĠÕĨ ÕµÕ¸ÖĤÕ©
Õ¡Õ¤ÖĢ Õ¸ÖĤÕ©ÕµÕ¡Õ¶Õ¨
Ô´ Õ¸ÖĤ
ĠÕ¯Õ¡Õµ Õ¡ÖģÖĢÕ¥Õ¬
ĠÕ¢Õ¶Õ¡Õ¯ Õ¾Õ¸Õ²
ĠÕ½Õ¯Õ½ Õ¾Õ¥Öģ
ĠÕ²Õ¥Õ¯Õ¡Õ¾Õ¡ÖĢ Õ¶Õ¥ÖĢÕ¨
en d
ĠÕ°Õ¡Õ¯ Õ¡Õ¯
ĠÕ¾Õ¡ÖĢÕ¹Õ¡ÕºÕ¥Õ¿ Õ«Õ¶
Ġ200 2
ĠÕ°Õ¡Õ²Õ¸ÖĢÕ¤ Õ¥Õ¬
ĠÕ¯Õ¡Õ¼Õ¸ÖĤÖģ Õ¾Õ¥Õ¬
ĠÕ¶Õ¥ÖĢÕ¯Õ¡ÕµÕ¡ÖģÕ¸ÖĤÖģÕ«Õ¹ Õ¨
ĠÖĦÕ¶Õ¶Õ¡ÖĢÕ¯ Õ¸ÖĤÕ´Õ¶Õ¥ÖĢ
ĠÕ°Õ¡Õ½Õ¯ Õ¡Õ¶Õ¡Õ¬Õ«
Õ¥ÖĢÕ¬ Õ¡Õ¶Õ¤
ĠÕŃÕ¡ÕŃÕ¿ Õ¥Õ¬
ĠÕ®Õ¡Õ¶Õ¸Õ© Õ¡ÖģÕ¥Õ¬
Ô±ÖĢÕ´Õ¥Õ¶ Õ«Õ¡
Ô±Õ·ÕŃ Õ¡Õ¿Õ¡Õ¶ÖĦÕ¡ÕµÕ«Õ¶
ÕĪÖĢ Õ¸Õ·
ÕĢÕ¡Õ¶ÖĢ Õ¡ÕºÕ¥Õ¿Õ¸ÖĤÕ©ÕµÕ¡Õ¶
ĠÕĦÕ¡Õ¶Õ¸ÖĤÕ¯ ÕµÕ¡Õ¶
Õ¡Õ¿Õ«ÖĢ Õ¸Õ»
ĠÕĪÕĲ ÕĪÕĩ
ĠÔ»Õ¬ Õ°Õ¡Õ´
ĠÕ¯Õ¸Õ´ÕºÕ¸Õ¦ Õ«Õ¿Õ¸ÖĢ
ĠÕ¡Õ© Õ¸Õ¼
ĠÕ°Õ¥Õ¼Õ¸ÖĤÕ½Õ¿Õ¡Õ¼Õ¡Õ¤Õ«Õ¸Õ¨ Õ¶Õ©Õ¥ÖĢÖģ
. ),
Ð Ĳ
Ń Õ«Õ¾
Õ¾ Õ«ÖĢ
ĠÕ¯ ÖħÕ£
ĠÕ£ Õ«Õ®
Õ¡Õ¦ Õ¥ÖĢÕ®
Õ² Õ¡Õ¶
ĠÖĥ Õ¸ÖĦ
ĠÕį ÕºÕ¸ÖĢÕ¿
ÕĦ Õ¥Õ¦
ĠÕ£Õ¸ÖĢÕ® Õ¶
Õ§ Õ¬
Ô³ Õ¸Õ¾Õ¡Õ¦Õ¤
ĠÕ³ Õ·Õ¿
Õ¥Õ¦ Õ¸ÖĦ
ĠÔ¹ Õ¸Õ¾
... ]
Õ¸ÖĤÕ² Õ¡ÕµÕ«Õ¶
ĠÖħÕ£ Õ¸ÖĤÕ¿
er k
ĠÕ®ÖĢÕ¡Õ£ÖĢ Õ«Õ¶
Õ¡Õ¬Õ« Õ¡ÕµÕ¸ÖĤÕ´
ĠÕ¯Õ¡ÖĢÕ® Õ«ÖĦÕ«
Õĵ Õ¥Õ¿ÖĢÕ¾Õ¡ÖĢÕ«
ĠÕ½ÕºÕ¡Õ½ Õ¥Õ¬
Õ¥ÖĢÕ¯ Õ¸ÖĤ
ĠÕ¡Õ¦Õ£ Õ¡Õ¶Õ¸ÖĤÕ¶
ĠÕ¯Õ¡Õ¼Õ¸ÖĤÕµÖģ Õ«
ĠÕºÕ¡ÖĢÕ¢Õ¥ÖĢ Õ¡Õ¯Õ¡Õ¶
ĠÕ¶Õ¡Õ¾ Õ©
ĠÕĦÕ¡ÖĢÕ£ Õ¡ÖĢÕµÕ¡Õ¶Õ«
ub e
ĠÔ³Õ¡Õ¬ Õ½Õ¿
ĠÔ±Õ¶Õ£Õ¬ Õ«Õ¡ÕµÕ«
ĠÕīÕ«Õ¶ Õ¡Õ½Õ¿Õ¡Õ¶Õ«
ĠÕ¡ÖĢÕ¿Õ¡Õ¤ ÖĢÕ¡Õ¶ÖĦÕ«
ĠÕ¡Õ¼Õ¯Õ¡Õµ Õ¸ÖĤÕ©ÕµÕ¡Õ¶
ĠÔ¿Õ¡Õ©Õ¸Õ²Õ«Õ¯ Õ¸Õ½
Õ¸Õ¯ÖĢ Õ¡Õ¿Õ¡Õ¯Õ¡Õ¶
ĠÕ¤Õ¡ÖĢÕº Õ¡Õ½
ĠÖĥÕ¬ Õ¸ÖĤÕ¦
t h
Õ« Õ¡ÕµÕ«Õ¶
Õ¡Õ¯ Õ²
Õ¥ÖĢ Õ¶Õ¥ÖĢÕ«
Õ¡Õ¾ Õ¥Õ³
ĠÖĦ Õ¸Õ¬Õ¥Õ»
ĠÕ¡Õ¼ Õ¸Õ£Õ¡Õ¶
ĠÕį Õ¡Õ¬
ĠÕ¦ Õ¡ÖĢÕ¤
Õ½Õ¿ Õ¥ÖĢ
ĠÕª Õº
Õ¸ÖĢÕ¤ Õ«Õ¶
Õ«Õ¹ Õ¶
ĠÔ´ Õ¡Õ½
ÖĨ Õ«Õ¬Õ´
ĠÕ°ÖĢ Õ¡Õ¿
ĠÕ°Õ¡Õ¶Õ¤ Õ¸ÖĤÖĢÕª
ĠÕ²Õ¥Õ¯Õ¡Õ¾Õ¡ÖĢ Õ¸ÖĤÕ©ÕµÕ¡Õ¶
ĠÔ¿Õ¡ÖĢ Õ¸Õ²
ĠÕ®Õ¶ Õ¸Õ²Õ¶Õ¥ÖĢÕ«
ĠÔ±Õ¼ Õ¸Õ²Õ»
ĠÔ±Õ¾ Õ½Õ¿ÖĢÕ«
Ġ199 2
ĠÕ¿Õ¥Õ½Õ¡Õ¯ Õ¥Õ¿Õ«
ĠÕ¥ÖĢÕ¡ÕªÕ·Õ¿ Õ¸ÖĤÕ©ÕµÕ¸ÖĤÕ¶
ĠÕ¢Õ¶Õ¡Õ¯Õ¡Õ¶ Õ¡Õ¢Õ¡ÖĢ
ĠÕ·Õ¿ Õ¡Õ¢Õ«
ĠÕ£Õ¬ Õ¸Õ¢Õ¡Õ¬
ĠÕ¡Õ·ÕŃÕ¡Õ¿Õ¡Õ¾Õ¡ÖĢÕ± Õ«
ĠÔ²Õ¡ÖĦ Õ¾Õ«
Ô³Õ«Õ¿ Õ¡Õ¯Õ¡Õ¶
ĠÕ±Õ¡ÕŃ Õ¸Õ²
ĠÔ±Õ·ÕŃÕ¡ÖĢÕ° Õ«
ĠÕ¯Öģ Õ¡Õ¶Õ¯
ĠSh abat
ĠÕ¯Õ¥Õ¶Õ¤Õ¡Õ¶Õ«Õ¶ Õ¥ÖĢÕ«
ĠÕ§ Õ´
Õ¾ Õ¥Õ¤
Õ´ Õ¥Õ¯
Õ¡Õ¾ Õ³Õ¡ÖĢ
ĠÕ¶ Õ¸ÖĢÕ¨
Õ¥Õ¶ Õ¯
ĠÕ¢ Õ¡
ĠÕ© Õ¥Õ¯Õ¸ÖĤÕ¦
ĠÖĦ Õ´
ĠÕ¡Õ¼ Õ¶Õ¥Õ¬
Õ¸ÖĤÕµ ÖĦÕ«
ÕĨ Õ¸ÕµÕ¥Õ´Õ¢Õ¥ÖĢÕ«
Õ¡Õ¾Õ¸ÖĢ Õ¸ÖĤÕ©ÕµÕ¡Õ´Õ¢
ĠÕ´Õ« Õ¡Õ¶Õ·Õ¡Õ¶Õ¡Õ¯
Öħ Õ©
ĠÔ´ Õ¥Õ¼
Õª Õ¥Õ¶Õ¥ÖĢ
ĠÕ¨Õ¶Õ¤ Õ°
ĠÔ¼ ÕĲ
ĠÕ¡ÕµÕ¬ Õ¥ÖĤÕ½
Ô¼ ÕĤ
ĠÕĮ Õ¡Õ¦Õ´
ĠÕ¸ÖĤÕ² Õ«Õ¶
ĠÕ¶Õ¡ÕŃÕ¡Õ£Õ¡Õ° Õ¶Õ¥ÖĢÕ«
ĠÕ¡Õ¶Öģ Õ¡Õ¾
ĠÕŃÕ¸Õ½ ÖĦÕ¥ÖĢÕ¨
ĠÕ½Õ¡Õ°Õ´Õ¡Õ¶ Õ¾Õ¸ÖĤÕ´
ĠÕ¾Õ¡ÖĢÕ¹ Õ¸ÖĤÕ©ÕµÕ¸ÖĤÕ¶Õ«Öģ
ĠÕ°Õ¥Õ¼ Õ¡ÖģÕ¥Õ¬
ĠÕ¥Õ¯ Õ¡Õ¶
Õ¡Õ¼Õ¶ Õ¡Õ¶
Õ¸ÖĤÕ° Õ¡Õ¶Õ¤Õ¥ÖĢÕ±
ĠÕ¤Õ¡Õ½ Õ¡Õ¯Õ¡ÖĢÕ£
ĠÕ°Õ¸Õ£ Õ¥Õ¯Õ¡Õ¶
Õ«Õ¤ Õ¥ÖĢÕ¬Õ¡Õ¶Õ¤
ĠÕ°Õ¡Õ½Õ¿Õ¡Õ¿ Õ¾Õ¥Õ¬
ĠÕ°Õ¡Õ½Õ¿Õ¡Õ¿ Õ¸ÖĤÕ©ÕµÕ¸ÖĤÕ¶Õ¶Õ¥ÖĢÕ«
Õĵ Õ¸ÖĢÕ±
ĠÕ°Õ¡Õ²Õ© Õ¥Öģ
ĠÕ¬Õ¸ÖĤÕ½ Õ¡Õ¶Õ¯
ĠÕ½Õ¸Õ¾Õ¸ÖĢ Õ¸ÖĤÕ´
Õ¡Õ¶Õ«Õ· Õ«
ĠÖĨÕ«Õ¶Õ¡Õ¶Õ½ Õ¡Õ¾Õ¸ÖĢÕ´Õ¡Õ¶
Ġ199 0
ĠÕ´Õ«Õ»Õ¸ÖģÕ¡Õ¼ Õ´Õ¡Õ¶
ĠÕ±Õ¥Õ¼Õ¶ Õ¡ÖĢÕ¯Õ¥Õ¬
ĠÕ¿Õ²Õ¡Õ´Õ¡ÖĢÕ¤ Õ«Õ¯
ĠÕ¡Õ¬ Õ¢
ĠÕŃÕ¸Õ½Õ¿ Õ¡ÖģÕ¥Õ¬
Ñģ Ðº
ĠÕ¡Õ¶Õ¿ Õ¡ÖĢÕ¢Õ¥ÖĢ
ĠÕ´Õ¡ÕµÖĢÕ¡ÖĦÕ¡Õ²Õ¡ÖĦ Õ«
ĠÕ¥Õ²Õ¡Õ¶Õ¡Õ¯ Õ¸Õ¾
ĠÕįÕº Õ«Õ¿Õ¡Õ¯
ĠÕ°Õ¡Õ¶Õ£Õ¡Õ´Õ¡Õ¶ÖĦ Õ¶Õ¥ÖĢÕ¨
ĠÕ¾Õ¥ÖĢÕ¡Õ¢Õ¥ÖĢÕ´ Õ¸ÖĤÕ¶ÖĦÕ¨
ĠÕ¾Õ¥ÖĢÕ¡Õ¯Õ¡Õ¶Õ£ Õ¶Õ¥Õ¬
ĠÕ¯ÖħÕ£ Õ¶Õ«
7 8
r i
Õ¥ÖĢ Õ¡Õ½Õ¡Õ¶
ĠÕ´ Õ¡Õ¶Õ¤
Õ¡Õ¿ Õ¸ÖĢÕ«
Õ¸ÖĢÕ ¯
Ô± ÖĢÕ©Õ¸ÖĤÖĢ
ĠÕ¡Õ¶ ÖħÖĢÕ«Õ¶Õ¡Õ¯Õ¡Õ¶
ĠÕ© Õ¥Õ½Õ¿
ĠÕĦ Õ¥ÖĢÕ¯
Õ¡Õ¢ Õ¡Öģ
Ô¿ ÕµÕ¡Õ¶
ĠÕ°Õ¡Õµ Õ¥ÖĢ
ĠÕĢÕ¡Õµ Õ¿Õ¶Õ«
Õį ÖĥÕµÕ¸ÖĤÕ¼
ĠÕİ Õ¥Õ¶
ĠÔ±Õµ Õ¾Õ¡Õ¦
ĠÕ°Õ«Õ´ ÖĦÕ¸ÖĤÕ´
ĠÔ¹ Õ¢Õ«Õ¬Õ«Õ½Õ«
ÕĬ ÖĢ
Õ¡Õ± Õ¸ÖĢÕ«
ĠÕ´Õ¿ Õ¥ÖĢÕ«Õ´
ĠÕŃÕ´Õ¢ Õ¡Õ¯Öģ
Õ¡Õ¾Õ¸ÖĢÕ´ Õ¡Õ´Õ¢
ĠÕ¢Õ¡Õ¦Õ´ Õ«ÖģÕ½
Õ¨Õ¶Õ¤ Õ¸ÖĤÕ¶
ĠÕ¢Õ¡Õ¼ Õ¥ÖĢ
ÔµÕį Õı
ĠÕ¥ÖĢÕ¯Õ¡ÖĢ Õ¡Õ±Õ£
ĠÕŃÕ¸ÖĢÕ°Õ¸ÖĤÖĢÕ¤ Õ¶Õ¥ÖĢ
ĠÖĥÕ¡Õ½Õ¿Õ¡Õ© Õ²Õ©Õ¥ÖĢ
ĠÔ±Õ½ Õ¡Õ¿ÖĢÕµ
ĠÔµÖĢÕ¯ Õ«ÖĢ
ĠÕ¦Õ¡Õ¶Õ£ Õ¡Õ°Õ¡ÖĢÕ¥Õ¬
ĠÕ´Õ¥ÖĦÕ¥Õ¶ Õ¡ÕµÕ«
ÔµÖĢÕ¯ Õ¸ÖĤ
ĠÕ£Õ¸ÖĢÕ®Õ«Õ¹ Õ¶Õ¥ÖĢÕ«
ĠÕĬÕ¥Õ¿ÖĢÕ¸Õ½ ÕµÕ¡Õ¶
ĠÕ«Õ¶ÖĦ Õ½
ĠÕªÕ¡Õ¼Õ¡Õ¶Õ£ Õ¸ÖĤÕ©ÕµÕ¡Õ¶
ĠÔ±ÖĢÕ¿Õ¡Õ½Õ¡Õ¶ Õ¥ÖĦ
ĠÕŃÕ¡Õ¶Õ£ Õ¡ÖĢÕ¸ÖĤÕ´
ĠÕ®Õ¡Õ¶ Õ¸ÖĤÖģ
ĠÔ³Õ¥ÖĢ Õ¡Õ£Õ¸ÖĤÕµÕ¶
ĠÕ·ÖĦ Õ¥Õ²
ĠÔ²Õ¡Õ£ÖĢ Õ¡Õ¿
ĠÕ´Õ¡Õ· Õ¯Õ«
ĠÕ¡Õ¼Õ¸Õ£Õ¡Õ¶ Õ¸ÖĤÕ©ÕµÕ¡
Õ¶ Õ«Õ¯
Õ¸ÖĤ ÖĦÕ¸ÖĤÕ´
Õ¾ Õ¥Õ«
ĠÕ¥ Õ¾
Õ¡Õ¾ Õ¨
Õ¥Õ¿ Õ¨
Õ¸Õ¾ ÕµÕ¡Õ¶Õ«
ĠÕ¢ Õ¡Õ¶Õ«Öģ
ĠÕĢ Õ¥ÖĢ
ĠÕĢ Ô±Ô¿
ĠÕĢ Õ¸Õ¯Õ¿Õ¥Õ´Õ¢Õ¥ÖĢ
Õ¡Õ¦ Õ«
Ô¿ Õ¡ÖĢÕ¤
ÕĲ Ô±ÕĦ
ĠÖħÖĢ Õ¸ÖĦ
Ô³ Õ¥Õ²
ĠÔ¼ Õ¥Õ¶
ĠÕ¡Õ¶Öģ Õ¶Õ¥Õ¬Õ¸ÖĤ
ĠÕ«ÖĢÕ¡Õ¯Õ¡Õ¶ Õ¸ÖĤÕ©ÕµÕ¡Õ¶
Ô¸ ÕĢ
Õ¡Õ¾Õ¸ÖĢÕ¾ Õ¸Õ²
Õ¥Õ© Õ²Õ©
ĠÕ¿ÖĢÕ¡Õ´ Õ¡Õ¤ÖĢÕ´Õ¡Õ¶
ĠÖĦÕ¡ÕµÕ¬ Õ¥ÖĢÕ¨
ĠÕ¶Õ¡ÕŃÕ¡Õ£Õ® Õ¸ÖĤÕ´
Õ¡ÖĢÕ«Õ¶ Õ¥
ĠÕ¯Õ° Õ¡Õ´
ĠÕ¤ÖĢÕ¡Õ¶Öģ Õ«Öģ
ĠÕ¨Õ¶Õ¤Õ¸ÖĤÕ¶Õ¥Õ¬ Õ¸ÖĤÕ©ÕµÕ¡Õ¶
ÔµÖĢÕ¯ ÖĢÕ¸ÖĢÕ¤
ÕĪÕĤ ÕĪÕİ
ĠÕ¤Õ¡Õ·Õ«Õ¶ ÖĦÕ¨
Õ¡Õ¯Õ¡Õ¼ Õ¸ÖĤÕµÖģ
ĠÕ®Õ¡Õ¼ Õ¡ÕµÕ¸ÖĤÕ´
ot o
ĠÕ°Õ¡ÖĢÕ£ Õ¡Õ¶ÖĦÕ«
ĠÕĬÕ¡Õ·Õ¿ ÕºÕ¡Õ¶Õ¸ÖĤÕ©ÕµÕ¡Õ¶
ĠÔ´Õ¡Õ·Õ¶ Õ¸ÖĤÕ©ÕµÕ¡Õ¶
Õ¡ÕµÕ¡Õ¶ Õ¥
ĠÕ¯Õ¸Õ· Õ¿
ĠÕ³Õ¡Õ´Öĥ Õ¸ÖĢÕ¤
ĠÕĦÕ¡Õ·Õ¿ Õ¸ÖģÕ«
ÔµÕĦÔ² ÔµÕĲÔ»
ĠÕ¢Õ¡ÖĢÕ¥Õ¶ ÕºÕ¡Õ½Õ¿
7 0
Ġ w
Õ¸ Õ¶Õ¥ÖĢÕ«
Öģ Õ¥Õ¬
Õµ Õ¡Õ¯Õ¨
Õ«Õ¶ ÕµÕ¡Õ¶
ĠÕ¯ Õ½
ĠÕ¯ Õ¿Õ¥Õ½
Õ¡Õ° Õ¡Õ²Õ¸ÖĢÕ¤
ĠÔ± Õ»
Õ¸Õ¶ Õ¶Õ¥ÖĢÕ«
ĠÕ© Õ¾Õ«
Ô±Õ ĥ
ĠÕŃ Õ¬
ĠÕ¡Õ¼ Õ¡Õ¾Õ¸Õ¿
ĠÕİ Õ«Õ¥Õ¶
ĠÕ¡ÕµÕ½ ÖĦÕ¡Õ¶
ĠÔ´ ÖĢÕ¡Õ¶Öģ
ĠÕ¡Õ½ Õ¡ÖģÕ«
Ô´ Õ¡Õ¾Õ«Õ©
ĠÕ¶Õ¥ÖĢÕ¯Õ¡ÕµÕ¡Öģ Õ¶Õ¥Õ¬Õ¸Õ¾
ĠÕ¶ÖĢÕ¡Õ¶ Õ¸Õ¾
ĠÕ°Õ¡Õ¾ Õ¡Õ¿Õ¡ÖĢÕ«Õ´
ĠÕ¸ÖĢÕ¸Õ· Õ¥Öģ
Ôº Õ¡Õ¼Õ¡Õ¶Õ£
ĠÕºÕ¡Õ·Õ¿Õ¸Õ¶ Õ«
ĠÕĸ ÖĢÕ¡Õ¶Õ¯Õ¸ÖĨ
ĠÕ°Õ«Õ´Õ¶ Õ¡Õ¤ÖĢÕ´Õ¡Õ¶
ĠÕºÕ¡Õ·Õ¿ÕºÕ¡Õ¶ Õ¡Õ¯Õ¡Õ¶
ĠÕ¯ÕµÕ¡Õ¶ ÖĦÕ¶
ÕµÕ¸ÖĤÕ º
ĠÕ°Õ¡ÖĢÕ¡Õ¢Õ¥ÖĢ Õ¸ÖĤÕ©ÕµÕ¸ÖĤÕ¶Õ¶Õ¥ÖĢÕ¸ÖĤÕ´
ĠÕ¸ÖĤÕ· Õ¡Õ£ÖĢÕ¡Õ¾
ĠÕ¨Õ¶Õ¿Õ¡Õ¶Õ« ÖĦÕ«Õ¶
ĠÕ½Õ¯Õ¦Õ¢ Õ¡Õ¶Õ¥
ĠÕ¢Õ¡Õ¶Õ¯ Õ¨
ĠÕ¡Õ¯Õ¸ÖĤÕ´Õ¢ Õ¸ÖĤÕ´
ĠÖĦÕ¾Õ¥ Õ¡ÖĢÕ¯Õ¥Õ¬
ĠÕ·Õ«Õ¶ Õ¡ÖĢÕ¡ÖĢÕ¡Õ¯Õ¡Õ¶
ĠÕ¸ÖĢÕ¡Õ¯ ÕµÕ¡Õ¬
ĠÕĢÖĢ Õ¡ÕºÕ¡ÖĢÕ¡Õ¯
ĠÕįÕ¡Õ°Õ´Õ¡Õ¶ Õ¡Õ¤ÖĢÕ¡Õ¯Õ¡Õ¶
ĠÕ£Õ¶Õ¤ Õ¡Õ¯
ĠÕ·Õ¸ÖĤÕ¯ Õ¡
ĠÖĥÕ¡Õ¼Õ¡Õ¿ Õ¸Õ¶Õ¨
ĠÕ¡Õ¯Öģ Õ«Õ¡
ÕĢÕ¸ÖĤÕ¶ Õ¾Õ¡ÖĢÕ«
ĠÖĨÖĢÕ¡Õ¶Õ½ Õ«Õ¡Õ¯Õ¡Õ¶
Ô¿Õ¡Õµ ÖĦÕ¸ÖĤÕ´
Ar menian
ĠÕŃÕ¥Õ¬ Õ¡ÖģÕ«
ĠÕ¡Õ¶Õ«Õ´ Õ¡Õ½Õ¿
ĠÕ¯Õ¸Õ´Õ½ Õ¸ÖĤÕ©ÕµÕ¸ÖĤÕ¶
ĠÕ¡Õ¸ ÖĤ
A S
Ñ ĩ
ÖĤ Õ¡Õ®
Õ¸ÖĤ ÖĢÕ¿
Õ¡ÖĢ Õ¡Õ¤Õ¡Õ¿Õ¸ÖĤÕ©ÕµÕ¡Õ¶
Õ¥Õ¬ ÕµÕ¡Õ¶Õ«
Õ¡Õ´ Õ·Õ¡Õ¯
Õ¸Õ² Õ¶Õ¥ÖĢÕ«Öģ
Ô± ÖĢÕ
ĠÔ± ÖĢÕ¡Õ£Õ¡Õ®Õ¸Õ¿Õ¶Õ«
Õ¡Õ¦ Õ¶
ĠÕ¹ Õ¬
Õ¡Õ¢ Õ¡Õ¶Õ¨
ĠÕį Õ¢
ÕĦ Õ¡Õ½
ĠÕ°Õ¡Õµ Õ¥ÖĢÕ«Õ¶
ĠÕ¡Õ¼Õ¡Õ» Õ¡ÖģÕ¥Õ¬
ĠÕİ Ô±ÕĲ
Õı ÕĦ
ĠÔ´ Õ«Õ´
ĠÕ´Õ¥Õ¯ Õ¿Õ¥Õ²
ĠÕ«ÖĢÕ¡Õ¾ Õ¡ÕŃÕ¡ÕŃÕ¿
ĠÕ¼ Õ¸ÖĤÕ¢
ĠÕ¡Õ¶Öģ Õ¸ÖĤÕ´
Õ¡ÖĢÕµ Õ¡Õ¬
ĠÕ´Õ¸Õ¿ Õ¥Õ¶Õ¸ÖĤÕ´
er c
ÖĢÕµ Õ¡Õ¶Õ¨
ĠÖģÕ¸ÖĤÖģ Õ¡Õ¢Õ¥ÖĢ
ĠÕ¯Õ¡Õ¿ Õ¡ÖĢÕ¾Õ¸Õ²
Ô±Õ¶ Õ£Õ¬
ĠÔµÖĢ Õ¥Õ¯
ĠÕ¡Õ¶Õ¾Õ¿Õ¡Õ¶Õ£ Õ¸ÖĤÕ©ÕµÕ¸ÖĤÕ¶Õ¨
ĠÔµÕ¾ÖĢÕ¸Õº Õ¡ÕµÕ¸ÖĤÕ´
ĠÕ°Õ¡Õ»Õ¸Õ² Õ¸ÖĤÕ©ÕµÕ¸ÖĤÕ¶
ĠÕ¶Õ¡ÕŃÕ¡Õ±Õ¥Õ¼Õ¶ Õ¸ÖĤÕ©ÕµÕ¸ÖĤÕ¶Õ¨
ĠÕ¬Õ¸ÖĤÕ½Õ¡Õ¶Õ¯Õ¡ÖĢ Õ¶Õ¥ÖĢÕ¨
ag ram
ĠÖĥÕ¸ÖĤÕ¬ Õ¨
ĠÕ£Õ¸Õ¿ Õ«
ĠÔ±Õ¢ÖĢÕ¡Õ°Õ¡Õ´ ÕµÕ¡Õ¶Õ«
ĠÕ®Õ¡Õ² Õ¯
ĠÖħÖĢÕ¥Õ¶Õ½Õ¤ÖĢ Õ¸ÖĤÕ©ÕµÕ¡Õ¶
ĠÖĨÕ¡Õ¯Õ¸ÖĤÕ¬Õ¿ Õ¥Õ¿Õ«
ĠÕ¹Õ¬Õ«Õ¶ Õ«
ĠÕ¯Öĥ Õ¸ÕŃ
ĠÕ¥Õ© Õ¥ÖĢÕ¸ÖĤÕ´
ĠÕ¹Õ¸ÖĤÕ¶Õ¥Öģ Õ¸Õ²
Õ¡Õ¸ÖĤÕ¤ ÕµÕ¡Õ¶
ÕĦÕı Õį
H ome
s k
Õ¡ÖĢ Õ¥
ĠÕ¯ ÕŃ
ĠÕ¢ Õ¡Õ¾Õ¡ÖĢ
Õ¡Õ¬ Öģ
Õ¢ Õ¸ÖĤÖĢÕ£
Õ¡Õ¼ Õ«
ĠÕ¹ Õ½Õ¿
ĠÔ¿ Õ¸Õ½Õ¿
ĠÔ¿ Ô±ÕĬ
ĠÔ´ ÖĢÕ¡Õ¶Õ«Öģ
Ô¹ Õ¡ÖĦ
ĠÕªÕ¡Õ´Õ¡Õ¶Õ¡Õ¯ Õ¸Õ¾
ĠÕ°Õ¡ÖĢÖģ Õ¶Õ¸ÖĤÕ´
ĠÕ¶Õ¥ÖĢÕ¯Õ¡ÕµÕ¡Öģ Õ¾Õ¸ÖĤÕ´
ĠÕ¸ÖĢÕ¸Õ· Õ¸ÖĤÕ´Õ¶
ÕĶ ÖĢÕ«Õ½Õ¿
ĠÕ¡Õ¶Õ± Õ«Õ¶
ĠÕ«Õ´ Õ¡Öģ
Õ¡Õ¿Õ¥Õ½ Õ«Õ¬
ĠÔ¶ ÕĪÕĴ
ĠÕ°Õ¡Õ¶Õ¤Õ«Õº Õ¸ÖĤÕ´Õ¶Õ¥ÖĢÕ«
ĠÕ°Õ¥Õ¿Öĩ Õ¡Õ¢Õ¡ÖĢ
ĠÕ°Õ¸Õ¤Õ¾Õ¡Õ® Õ¸ÖĤÕ´
ĠÕ°Õ¡Õ·Õ¾ Õ¡Õ¼
ĠÕ·Õ¶Õ¸ÖĢÕ° Õ¡Õ¶Õ¤Õ¥Õ½
ĠÕ¥ÖĢÕ£ Õ«Õ¹
Õ¡ÖĢÕ¾Õ¥Õ½Õ¿ Õ«
ĠÕ¿Õ¸Õ¯Õ¸Õ½ Õ¡Õ¤ÖĢ
ĠÕ£Õ¸ÖĢÕ®Õ¨Õ¶Õ©Õ¡Öģ Õ«Õ¶
ĠÕ£Õ¸ÖĢÕ®Õ¨Õ¶Õ©Õ¡Öģ Õ¶Õ¥ÖĢÕ«
ĠÔ»Õ½ Õº
Õ¡Õ¾Õ¡Õµ ÖĢÕ¨
ĠÕŃÕ¸Õ½Õ¿ Õ¸Õ¾
ĠÕĢÖĢ Õ¡Õ¦Õ¤
ĠÕ°Õ¡Õ¶ÖģÕ¡Õ£Õ¸ÖĢÕ® Õ¸ÖĤÕ©ÕµÕ¸ÖĤÕ¶Õ¶Õ¥ÖĢÕ«
ĠÕ¤Õ«Õ´Õ¸ÖĤÕ´ Õ«
ĠÖģÕ¸ÖĤÖģÕ¡Õ°Õ¡Õ¶Õ¤Õ¥Õ½ Õ¨
Ġv i
__ __
ĠÕ¢Õ¡ÕªÕ¶Õ¥Õ¿ Õ¸Õ´Õ½
ĠÕ°ÖĢÕ¡ÕªÕ¡ÖĢ Õ¡Õ¯Õ¡Õ¶Õ«
ÕĦÕ¥Õ» Õ¢Õ¥ÖĢÕ¥Õ¬
ĠÕªÕ¡Õ´Õ¡Õ¶ Õ¡Õ®
ĠÕ¯Õ¯Õ¡Õµ Õ¡Õ¶Õ¡
ĠÕ¤Õ¸ÖĤÕ¼ Õ¨
ĠÕ°Õ¡Õ¾Õ¡Õ½Õ¡ÖĢÕ¡Õ¯ Õ·Õ¼
8 8
ÖĦ Õ¥ÖĢÕ¸Õ¾
Õ¯ Õ¡Õ¼
ĠÕ¡Õ ¢
Õ¡Õ° Õ¼Õ¹Õ¡Õ¯
Õ¡Õ¬ Õ«ÖĦ
ĠÕ© Õ¸Õ·
Õ¡Õ¢ Õ¡Õ¶Õ«
Õ«Õ¿ Õ¡Õ¬Õ«
Õ¡ÖĢÕ¯ Õ¾Õ¥Õ¬
ĠÕ¶Õ¡ÕŃ Õ¡ÖĦÕ¶Õ¶
ĠÔ¿ Õ¬
ĠÕ¿Õ¡ÖĢ Õ¥Öģ
Õ§ Õ¿
Öħ Õ£Õ¿Õ¡Õ£Õ¸ÖĢÕ®
Õ¼ Õ¾Õ¡Õ®
ĠÔ´ Õ«Õ¬Õ«Õ»
ĠÔ´ Õ¥Õ¯Õ¿Õ¥Õ´Õ¢Õ¥ÖĢ
ĠÕ´Õ¥Õ¯ Õ¶Õ¸ÖĤÕ´
Õ¥ÖĤ Õ«
Ô´ Õ«Õ´
ĠÔ¹ Õ¡Õ©
Õ¸ÖĤÕ¬ Õ½
ĠÕºÕ¡Õ° ÕºÕ¡Õ¶Õ¸ÖĤÕ´
ĠÕ°ÖĢ Õ¡Õ¦
ĠÕ¿Õ¡ÖĢÕ¡Õ® Õ¾Õ¸ÖĤÕ´
ĠÕ°Õ¡Õ´Õ¡Õ¯Õ¡ÖĢÕ£ Õ¹Õ¡ÕµÕ«Õ¶
ĠÕ¤ÕºÖĢÕ¸Öģ Õ¶Õ¥ÖĢÕ¸ÖĤÕ´
ĠÔ±Õ¦ Õ£
ĠÕ¢Õ¡Õ¦Õ´ Õ¡Õ¦Õ¡Õ¶
ĠP h
ĠÕ¶Õ¯Õ¡ÖĢ Õ«Õ¹
ĠÕ¡Õ»Õ¡Õ¯Öģ Õ¥Õ¬Õ¸ÖĤ
ĠÕ¥Õ¦ Õ¡Õ¯Õ«
ĠÕ¡Õ³ Õ¸ÖĤÖĢÕ¤
ĠÕ¯ÖĢÕ¯ Õ¶Õ¡Õ¯Õ«
ĠÕ¾Õ¡Õ³Õ¡Õ¼ Õ¥Õ¬
ĠÕ´Õ¥ÖĦÕ¥Õ¶ Õ¡Õ¶Õ¥ÖĢÕ«
Õ«Õ¦Õ´ Õ¨
ĠÕ¯Õ¥Õ½ Õ«Õ¶
ĠÕ©Õ¡Õ¶Õ£ Õ¡ÖĢÕ¡Õ¶Õ¸ÖĤÕ´
ĠÖĥÕ¸Õ½Õ¿ Õ«
ĠÕ¿ÖĢÕ¡Õ´Õ¡Õ¤ÖĢ Õ¥Õ¬Õ¸ÖĤ
ÕĩÕ¶Õ¸ÖĢÕ° Õ¡Õ¯Õ¡Õ¬Õ¸ÖĤÕ©ÕµÕ¸ÖĤÕ¶
ĠÕ¼Õ¥Õ¯ Õ¸ÖĢÕ¤
Õ´ Õ¥Õ¤
ĠÔ± Õİ
ĠÕĢ Õ¡Õ²Õ¸ÖĢÕ¤
ĠÕ¡Õ¼ Õ¡ÕµÕªÕ´
ĠÕĦ Õ¡Õ°
ĠÖĥ Õ¡ÕµÕ¿
Õ¡ÖĢÕ¯ Õ¥Õ¿
Õ¡ÖĢÕ¯ Õ¸ÖĤÕ©ÕµÕ¡Õ¶
Õ° Õ¥ÖĢ
Õ¡Õ£ÖĢ Õ¡ÕµÕ«Õ¶
ĠÕ¡Õ´ ÖĢÕ¡Õ£
ĠÕºÕ¥Õ¿ Õ¨
Öħ ÖĢÕµ
ĠÕ£ÖĢ Õ¡Õ¾Õ¥Õ¬
ĠÕ¿Õ¥Õ½ Õ¡Õ¶Õ¥Õ¬Õ«
Õħ Ô±Ô¼
Õ¸ÖĤÕ² Õ¸ÖĤ
ĠÕ» Õ¸ÖĤÖĢÕ¨
ĠÕ¯Õ¡Õ¦Õ´Õ¡Õ¯Õ¥ÖĢÕº Õ¾Õ¥Õ¬
ĠÕ¡Õ·ÕŃÕ¡ÖĢÕ° Õ«Õ¶
ÕĮ Õ¸Õ¢Õ¥ÖĢÕ¿
ĠÕ®ÖĢÕ¡Õ£ÖĢ Õ¡ÕµÕ«Õ¶
ĠÕ°Õ«Õ´Õ¶ Õ¡Õ¤ÖĢÕ¾Õ¥Õ¬
Ġ6 5
ĠÕ¤Õ¡ÖĢÕ± ÕµÕ¡Õ¬
ĠÕµ Õ¸ÖĤÕ²
ĠÕ®Õ¶ Õ¸Õ²Õ¶Õ¥ÖĢÕ¨
Ġ0 7
ĠÕ£Õ¸ÖĢÕ®Õ¸ÖĤÕ¶Õ¥ Õ¸ÖĤÕ©ÕµÕ¡Õ¶Õ¨
Õĸ Ô±
ĠÖħÖĢÕ¥Õ¶ÖĦ Õ¶Õ¥ÖĢÕ«
ĠÕ¬Õ¸ÖĤÕ½ Õ¡Õ¶Õ¯Õ¡ÖĢÕ¨
ĠN EWS
st agram
ĠÕ¬Õ« Õ¡Õ¦
ĠÖĦÕ¶Õ¶Õ¡ÖĢÕ¯ Õ¾Õ¸ÖĤÕ´
ĠÕ¯Õ¸Õ¶ Õ¾Õ¥Õ¶Öģ
ĠÕºÕ¡Õ¿Õ¥ÖĢÕ¡Õ¦Õ´ Õ¸ÖĤÕ´
ĠÕĥ Õ«Õ·Õ¿
ĠÕ¾Õ¡ÕµÖĢ Õ¥ÖĢÕ¸ÖĤÕ´
ĠÕ¡Õ¿ Õ¥Õ¬
ĠÕ¸ÖĢÕ¡Õ¯ Õ¡Õ¾Õ¸ÖĢÕ´Õ¡Õ¶
ĠÕİÕ¡Õ¶ Õ¥Öģ
ĠÕ©Õ¥Õ¯Õ¶Õ¡Õ®Õ¸ÖĤ Õ«
ĠÕ¤Õ¡Õ¿Õ¡ÕŃÕ¡Õ¦ Õ¸ÖĤÕ©ÕµÕ¡Õ¶
ĠÕºÕ¡Õ¿Õ¯ Õ¥ÖĢÕ¨
ĠÕ¶Õ·Õ¡Õ¶ Õ¡Õ¾Õ¸ÖĢ
ĠÕ·Õ¸ÖĤÕ¯ Õ¡Õ¶
ĠÕĢÕ¡Õ» Õ¸ÖĢÕ¤
ĠÕ¿ÕºÕ¡Õ¾Õ¸ÖĢ Õ¸ÖĤÕ©ÕµÕ¸ÖĤÕ¶
ĠÕ¢Õ¡ÖģÕ¡Õ¿ ÖĢÕ¥Õ¬
ish er
ĠÖħÕ£Õ¿Õ¡Õ¿Õ¥ÖĢ Õ¥ÖĢÕ«
ĠÕ½Õ¡ÖĢÕ½Õ¡Öĥ Õ¥Õ¬Õ«
ĠÕ¡Õ¼Õ¥ÖĤ Õ¿ÖĢ
M EN
u st
y r
Ġ k
Õµ Õ¸ÖĦ
ĠÕ° Õ¸Õ²Õ«
Õ«Õ¶ Õ¶Õ¥ÖĢÕ«
ĠÕ¯ Õ¡Õ²
Õ¡Õ¿ Õº
Õ¡Õ¾ Õ¡Õ¯Õ¡Õ¶
ĠÕ¿ Õ¡Õ½Õ¨
Õº Õ§Õ½
Öĩ Õ¡Õ¶Õ«
ĠÕ© Öĩ
ĠÕ°Õ¡Õ´ Õ¡ÕªÕ¸Õ²Õ¸Õ¾Õ«
Õ¥Öģ Õ¸ÖĤÕ©ÕµÕ¡Õ¶
ÕĨ ÕµÕ¸ÖĤÕ©
Ô» Õ°Õ¡ÖĢÕ¯Õ¥
ĠÕ¡Õ¼Õ¡Õ» Õ¡Õ¤ÖĢÕ¾Õ¡Õ®
Ô³ Õ¬ÕŃ
Ô´ ÕºÖĢÕ¸Öģ
ĠÖĨ Õ¸ÖĢÕ´
ĠÕ¸ÖĤÕ² Õ¡ÖĢÕ¯Õ¸ÖĤÕ´
ĠÕ°Õ¡Õ¶Õ¤ Õ¥ÖĢÕ±
ĠÕĵ Õ¸ÕŃ
Õ¡Õ¢Õ¡Õ¶ Õ¶Õ¥ÖĢÕ«
Ġ4 2
ĠÕĸ ÕĪÕı
ĠÕ°Õ«Õ´Õ¶ Õ¡ÖĢÕ¡ÖĢ
ĠÕ½Õ«ÖĢ Õ¥Õ¬
ĠÖħÕ£Õ¿Õ¡Õ£Õ¸ÖĢÕ® Õ¾Õ¥Õ¬
ĠÕ°Õ¡Õ½Õ¿Õ¡Õ¿ Õ´Õ¡Õ¶
ĠÕ¿ÖĢÕ¡Õ´ Õ¡Õ¢Õ¡Õ¶
ĠÕºÕ¡ÖĢ Õ¡Õ£
ĠÕ¸Õ½Õ¿Õ«Õ¯Õ¡Õ¶ Õ¶Õ¥ÖĢÕ¨
ĠÕ¡Õ¼Õ¡Õ»Õ¡ÖĢÕ¯ Õ¨
ĠÕ¡ÖĢÕ¤ÕµÕ¸ÖĤÕ¶ÖĦ Õ¶Õ¥ÖĢ
ĠÕ¯Õ¸ÖĢ Õ¡Õ®
ĠO per
ĠÕ¥Õ¶Õ©Õ¡ÖĢÕ¯ Õ¾Õ¸ÖĤÕ´
ĠÕ¡Õ¾Õ¿Õ¸Õ´ Õ¡Õ¿
ĠÕ°Õ¶Õ¹ Õ¸ÖĤÕ´
ĠÕ©Õ¡Õ¿ÖĢ Õ¸Õ¶Õ¸ÖĤÕ´
ĠÔ²Õ¡ÖĦ Õ¾Õ¸ÖĤÕ´
ĠÔ²ÖĢÕ«Õ¿ Õ¡Õ¶Õ«
ĠÕ¡ÕºÖĢÕ«Õ¬ Õ«Õ¶
ĠÕİÕ¡Õ¶Õ¡Õ± Õ¸ÖĢ
ĠÔ²Õ¥Õ¬Õ¡Õ¼ Õ¸ÖĤÕ½Õ«
ĠÔ¿Õ¸Õ´Õ«Õ¿Õ¡Õ½ Õ«
ĠÕ¯Õ¡Õ¿Õ¥Õ£Õ¸ÖĢ Õ«Õ¡Õ¶Õ¥ÖĢ
ĠÕ£Õ¥ÖĢÕ¡Õ¿Õ¥Õ½ Õ¹
8 0
T ag
Â ²
Õ¶ Õ¡Õ®
ĠÕ° ÕµÕ¸ÖĤÕ½Õ«Õ½Õ¡ÕµÕ«Õ¶
ĠÕ´ Õ«Õ¯
ĠÕ´ Õ¥ÖĢÕ±
ĠÕ¥ ÖĢÕ¤
Õ¡Öģ Õ¾Õ¥Õ¶
ĠÕ¢ Õ¡Õ·ÕŃ
ĠÕĢ Õ«Õ¶
Õ¢ Õ¡ÕŃÕ¿
Õ¸Õ¶ ÕµÕ¡
ĠÕ¹ Õ¥Õ¦Õ¸ÖĦ
Õ¡Õ¤ ÖĢÕµÕ¡Õ¬
Õ¸ÖĤÕµ Õ¦
ĠÕĦ Õ¥Õ¬ÖĦ
ĠÕį Õ¥ÕºÕ¿Õ¥Õ´Õ¢Õ¥ÖĢ
Õ° Õ¡Õ³
ĠÔ¿ Õ«Õ¬
ĠÔ¿ Õ¡ÖĢÕ¤Õ¡Õ¬
ĠÕĨ Õ«Õ¯
Õ¡Õ¯Öģ Õ¡ÕµÕ«Õ¶
ĠÕ¡ÕµÕ½ Õ¸ÖĤÕ°Õ¥Õ¿
Õİ Õ¥ÖĢÕ»
Õ¥ÖĤ Õ¸ÖĢÕ£
ĠÕŃÕ¡Õ² Õ¡ÖģÕ¥Õ¬
ĠÕ¾Õ¥ÖĢÕ» Õ¶
ĠÕ´Õ¡Õ½Õ¶Õ¡Õ¯Öģ Õ¸Õ²
ĠÕ´Õ¡ÖĢÕ´ Õ¶
ĠÕ¡ÖĢÕ¤ÕµÕ¸ÖĤÕ¶ ÖĦÕ¨
ĠÕ¦Õ¢Õ¡Õ² Õ¾Õ¸Õ²
ĠÕ°Õ«Õ¾Õ¡Õ¶Õ¤ Õ¸ÖĤÕ©ÕµÕ¡Õ¶
Ġ199 8
ĠÖĨÕ¸ÖĤÕ¿Õ¢Õ¸Õ¬ Õ¡ÕµÕ«Õ¶
Õ¡Õ¿Õ¸ÖĤ Õ«
ĠÕ°Õ¡Õ¶Öģ Õ¡Õ¾Õ¸ÖĢ
ĠÔ²ÖĢ Õ¡Õ¦Õ«Õ¬
ÕºÕ¡Õ¿ Õ´
ĠÕ¯Õ¡ÖĢÕ¤ Õ¸ÖĤÕ´
ĠÕ¡Õ·Õ¡Õ¯Õ¥ÖĢÕ¿ Õ¶Õ¥ÖĢÕ¨
ĠÕ¯Õ¸ÖĢÖģ Õ¶Õ¸ÖĤÕ´
ĠÕ°Õ¡Õ£ Õ¥ÖģÕ¡Õ®
ĠÕŃÕ¸ÖĤÕ½Õ¡Öĥ Õ¥Õ¬Õ¸ÖĤ
ĠÕ¯Õ· Õ¡ÖĢÕ¸ÖĤÕ¶Õ¡Õ¯
Õ¡ÕºÕ¡ÖĢ ÖĥÕ¡Õ¯
ĠÕ§Õ¯ ÖĢÕ¡Õ¶
ĠÕĩÕ¡ÖĢÕ´Õ¡Õ¦Õ¡Õ¶ Õ¸Õ¾Õ¨
ÕĢÕ¸Õ¾Õ°Õ¡Õ¶Õ¶ Õ¥Õ½
ĠÔ¿ÔµÕĨ ÕıÕĲÕĪÕĨ
u d
Õ«Õ¶ Õ¶Õ¥ÖĢ
Õ«Õ¶ Õ¡Õ¬
ĠÕ¯ Õ¡Õ¿Õ¡Õ¯
ĠÕº Õ¡ÖĢÕ½
ĠÕ£ ÖĢÕ¡ÖĨ
ĠÕ£ Õ¥ÖĢÕ´Õ¡Õ¶Õ¡Õ¯Õ¡Õ¶
Õ¡Õ£ Õ«
ĠÕ¢ Õ¡Õ¶Õ¨
ĠÕ½ Õ¥Õ´Õ«Õ¶
ĠÕ± Õ«
Ô³ ÖĢÕ¡Õ¶Öģ
Ô² Õ«Õ¦Õ¶Õ¥Õ½
ĠÕ¼ Õ¥
Õ¸ÖĤÕ¬ Õ¸ÖĤÕ´
ĠÕ¾Õ¡ÖĢÕ¹ Õ¸ÖĤÕ©ÕµÕ¸ÖĤÕ¶Õ¸ÖĤÕ´
ĠÕ¨Õ¶Õ©Õ¡Öģ ÖĦÕ«
ĠÕ» Õ¶Õ»
ĠÕªÕ¸Õ²Õ¸Õ¾ Õ¨
ar k
Õ¡ÕªÕ¸Õ²Õ¸Õ¾ Õ«Õ¶
ĠÕ¤ÖĢÕ¡Õ´ Õ¡Õ·Õ¶Õ¸ÖĢÕ°
ĠÕ°ÖĢÕ¡ÕºÕ¡ÖĢÕ¡Õ¯ Õ¸ÖĤÕ´Õ¶Õ¥ÖĢÕ«
Ô»Õ¶Õ¹ Õ¸ÖĤ
ĠÕªÕ¸Õ²Õ¸Õ¾ÖĢÕ¤ Õ¡Õ¾Õ¡ÖĢÕ¸ÖĤÕ©ÕµÕ¡Õ¶
ÖĢÕ¥Õ¶ Õ¤
ĠÕ´Õ¶ Õ¡Õ¬Õ¸ÖĤ
ĠP ro
ĠI I
ĠÕ¡Õ³ Õ¨
ĠÕ¾Õ³Õ¡ÖĢ Õ¸ÖĤÕ´
ĠÕ¾Õ½Õ¿Õ¡Õ° Õ¸ÖĤÕ©ÕµÕ¡Õ¶
ĠÕ¯Õ£ Õ¿Õ¶
ĠÕ¿Õ¸ÖĤÖĢ Õ¸ÖĤÕ´
Ô¿Õ¡Õµ ÖĦÕ¨
ĠÕŃÕ¶Õ¡Õ´ ÖĦÕ«
ĠÕ¯Õ¸Õ¶ÖĨ Õ¥ÖĢÕ¡Õ¶Õ½
ĠÔµÕ¯Õ¥Õ²Õ¥Öģ Õ¸ÖĤ
ĠÕ° Õ¸Õ¯
ĠÕ´ Õ¡ÖĢ
Õ¾ Õ«Õ¶
ĠÖ ī
ĠÕ¤ ÖĢÕ¤
Õ£ ÕµÕ¸ÖĤÕ²
ÕĨ Ô»
Ôµ ÖĢÕ£
ÕĦ Õ·Õ¡Õ¯
ÕĪ ÖĢÕºÕ¥Õ½
ĠÕ´Õ« Õ¡Õ¾Õ¸ÖĢÕ¸ÖĤÕ´
ĠÕ¡Õ¾ Õ¥ÖĢ
Õ¡Õ¶ÖĦ Õ¶
Õ¡Õ¶ÖĦ Õ¶Õ¥ÖĢÕ¸Õ¾
ĠÕ¡Õ·ÕŃÕ¡Õ¿ Õ¸Õ²Õ¶Õ¥ÖĢÕ«
ĠÕĮ Õ¸Õ´
ĠÕĮ Õ¡ÖĨ
ĠÕ¿Õ¥Õ½ Õ¡ÕŃÖģ
Ġ3 9
Õ¡ÖĢÕ¡Õ¶ Õ¶
ĠÕ¯Õ¡Õº Õ¨
ĠÕ©Õ¾Õ¡Õ¯Õ¡Õ¶ Õ¶Õ¥ÖĢÕ«
ĠÕŃÕ¸ÖĢÕ°ÖĢÕ¤ Õ¡ÖĢÕ¡Õ¶Õ¨
ĠÕ¥ÖĢÕ¯ÖĢ Õ«Öģ
ĠÕºÕ¡Õ·Õ¿ÕºÕ¡Õ¶ Õ¥Õ¬Õ¸ÖĤ
ĠÖģÕ¸ÖĤÖģ Õ¡Õ¢Õ¥ÖĢÕ¥Õ¬
ĠÕ¦Õ¡ÖĢÕ£ Õ¡ÖģÕ¡Õ®
ĠA R
ĠÕ£ÕµÕ¸ÖĤÕ² Õ¡Õ¯Õ¡Õ¶
ĠÕ·Õ¶Õ¸ÖĢÕ° Õ¡Õ¾Õ¸ÖĢÕ¸ÖĤÕ´
ĠÕ·Õ¸ÖĤÖĢÕ» Õ¨
ĠÕ°Õ¥Õ¿Õ¡ÖĦÖĢÖĦ ÖĢÕ¸ÖĤÕ´
ĠÕ¶Õ¥ÖĢÕ¤ ÖĢÕ´Õ¡Õ¶
ÕįÕ¿ Õ¥Öĥ
ĠÐ Ĳ
ÕĢÕ¡Õ´ Õ¡Õ±Õ¡ÕµÕ¶
ĠÕĳ Õ¸ÖĤÖģ
ĠÕ¯Õ«Õ½ Õ¾Õ¥Õ¬
ag e
ĠÕ¾Õ«Õ³Õ¡Õ¯ Õ¡Õ£ÖĢÕ¡Õ¯Õ¡Õ¶
ĠÕ¡Õ¿ Õ¡Õ´
ĠÕ¾Õ¥ÖĢÖģ ÖĢÕ¥Õ¬
ĠÕ»ÖĢ Õ¡ÕµÕ«Õ¶
ÕĢÕ«Õ´ Õ¶Õ¡Õ¯Õ¡Õ¶
ĠÕ£Õ¥ÖĢÕ¡Õ¦Õ¡Õ¶Öģ Õ¸ÖĤÕ´
ĠÕĬÕ¸Õ² Õ¸Õ½ÕµÕ¡Õ¶Õ¨
ĠÕŃÕ© Õ¡Õ¶
ĠÕ¡Õ¶Õ¹Õ¡Öĥ Õ¡Õ°Õ¡Õ½
Ô´Õ¥Õº ÖĦÕ«
ĠÕ´Õ«Õ£ ÖĢ
Õ¿Õ¶Õ¿Õ¥Õ½ Õ¡Õ¯Õ¡Õ¶
ĠÕ¾Õ¥ÖĢÕ½ Õ¯Õ½
O S
ÖĦ Õ¡ÖĢ
ĠÕ´ Õ¸ÖĤÕ¬Õ¿
ĠÕ¯ Õ¸ÖĢÕºÕ¸ÖĢ
Õ¸ÖĢ Õ¡
Õ¬ Õ¡Õ¶
ĠÕĢ ÕĪ
Õ¥Õ² Õ¨
ÕĢ ÕµÕ¸ÖĤÕ½Õ«Õ½Õ¡ÕµÕ«Õ¶
Ô¿ Õ¸Õ¶
ĠÕª ÕŃÕ¿
Õª Õ«
Õª Õ¤
ĠÔ¼ Õ¸ÖĤÕ¯
ĠÕ¿Õ¥Õ½ Õ¶Õ¥Õ¬Õ¸ÖĤ
ĠÕºÕ¡Õ° Õ¨
Õ¡Õ¯Õ¡ÖĢÕ£ Õ¨
ĠÔ½ Õ¸ÖĢÕ¥Õ¶
ĠÕ½Õ¡Õ°Õ´Õ¡Õ¶ Õ¨
ĠÕ½Õ¡Õ°Õ´Õ¡Õ¶ Õ¶Õ¥ÖĢÕ«
er v
Õ¡Õ¾Õ¸ÖĢÕ¾ Õ«
le s
Õ·Õ¿ Õ¡Õ¢
ĠÕ£Õ¸ÖĢÕ®Õ¸ÖĤÕ¶Õ¥ Õ¸ÖĤÕ©ÕµÕ¡Õ´Õ¢
ĠÕ°Õ«Õ· Õ¥Õ¬
ĠB e
ĠÕ¶Õ¡ÕŃÕ¡Õ£Õ® Õ¥ÖĢÕ¨
ĠÕ¬ÖĢÕ¡Õ£ÖĢ Õ¸Õ²Õ¶Õ¥ÖĢÕ«Õ¶
ĠÕ¡Õ´Õ«Õ½ Õ¶Õ¥ÖĢÕ«
ĠO r
Õ¥Õ¶Õ¤ Õ«
ĠÕ¢Õ¸Õ¾Õ¡Õ¶Õ¤Õ¡Õ¯ Õ¸ÖĤÕ©ÕµÕ¸ÖĤÕ¶Õ¨
ĠÕ´Õ¥Õ¯Õ¶Õ¡Õ¢Õ¡Õ¶ Õ¥Õ¬
Ġt o
ĠÕ¡Õ´Õ¸ÖĤÕ½Õ¶ Õ¸ÖĤ
ĠÕ°Õ¡Õ´Õ¡ÕµÕ¶ÖĦ Õ¶Õ¥ÖĢÕ¸ÖĤÕ´
ÕĢÕ¡ÖĢÖģ Õ«Õ¶
ĠÕ¡ÖĢÕ±Õ¡Õ£Õ¡Õ¶ÖĦ Õ¥Õ¬
ĠÕİÕ¥ÖĢÕ»Õ«Õ¶ Õ½
ĠÔ·ÖĢÕ¤Õ¸Õ² Õ¡Õ¶Õ«
ĠÔ²Õ¡Õ¶Õ¯ Õ«
ĠÕĵÕ¡ÖĢÕ«Õ¦ Õ¸ÖĤÕ´
ĠÕįÖĥÕµÕ¸ÖĤÕ¼ ÖĦÕ«
ĠÕĢÕ¡Õ¿ Õ¸ÖĤÕ¯
ĠÖĦÕ«Õ´ Õ«Õ¡Õ¯Õ¡Õ¶
Ġ https
Õ« Õ¡Õ¤
Õ¡Õ¾ Õ·
Õ¯ Õ¡Õ¿
Õ¸ÖĢÕ »
ĠÖĦ Õ¡Õ¶Õ¤Õ¡Õ¯
Õ¡ÖĦ Õ¶
Õ· Õ¡ÖĢÕª
ÕĨ ÖĢÕ¡Õ¶ÖĦ
Õ¸Õ½ Õ¡Õ¯Õ¡Õ¶
Õ¥Õ´ Õº
Õ«Õ» Õ«
ĠÕ¾Õ¥ÖĢ Õ¸Õ¶Õ·ÕµÕ¡Õ¬
Õ¼ Õ«
Õ¼ Õ¸ÖĤÕ½
Ô³ Õ¡Õ£Õ«Õ¯
Õ¡Õ¤ÖĢ Õ«
ĠÕ¡ÖĢÕ¿ Õ¡Õ£
ĠÕ¶Õ¸ÖĢ Õ¸ÖĤÕ©ÕµÕ¸ÖĤÕ¶Õ¶Õ¥ÖĢÕ¨
ĠÕ°Õ¡Õ¾ Õ¡Õ¯
ĠÕ´Õ«Õ»Õ¸Öģ Õ¨
ÕºÖĢ Õ¸Õ´
ĠÔ±ÕµÕ½ ÕºÕ«Õ½Õ¸Õ¾
ĠÕºÕ¡Õ·Õ¿Õ¸Õ¶ Õ¶Õ¥ÖĢ
ĠÕĸ Õ¥ÕµÕ½Õ¢
ÕĮ Õ¥Õ¡Õ¬Õ«
ĠÕ¤Õ¡Õ¿ Õ¡Õ¾Õ¡ÖĢÕ¸ÖĤÕ©ÕµÕ¡Õ¶
ĠÖģÕ¸ÖĤÖģ Õ¡Õ¯
ĠÖģÕ¸ÖĤÖģ Õ´Õ¸ÖĤÕ¶ÖĦ
ĠÔ±Õ¶ Õ¯
ĠÕ²Õ¥Õ¯Õ¡Õ¾Õ¡ÖĢ Õ¶
ĠÕºÕ¡Õ¿Õ³Õ¡Õ¼ Õ¶Õ¥ÖĢÕ¸Õ¾
ĠÕ«Õ¶ÖĦÕ¶ Õ¸ÖĤÕ©ÕµÕ¸ÖĤÕ¶Õ¨
ĠÕĭ ÖĢ
ĠÕ°Õ¡Õ²Õ¸ÖĢÕ¤ Õ´Õ¡Õ´Õ¢
ĠÕ´Õ«Õ»Õ¸ÖģÕ¡Õ¼ Õ¸ÖĤÕ´Õ¶Õ¥ÖĢÕ¨
ĠÕ¤Õ¥ÖĢ Õ¡Õ½
ĠÔ±ÖĢÕ ŃÕ«Õ¾
as s
ĠÔ±ÖĢÖĩ Õ¥Õ¬ÖĦ
ur er
ĠÕ¬Õ«Õ¡Õ¦Õ¸ÖĢ Õ¸ÖĤÕ©ÕµÕ¸ÖĤÕ¶Õ¶Õ¥ÖĢÕ«
ĠÕºÕ¡ÖĢÕ¢Õ¥ÖĢ Õ¡Õ¯Õ¡Õ¶Õ¨
ĠÕ¡Õ¯Õ¶ Õ¡ÖĢÕ¯
ĠÕ´Õ¸Õ¿Õ¥Öģ Õ¸ÖĤÕ´
Ô²Ô¸ ÕĦ
Õ¡Õ¤ÖĢÕ¾ Õ«
ĠÕİÕ¡Õ° Õ¡Õ£Õ¶
ĠÖĨÖĢÕ¡Õ¶Õ½ Õ«Õ¡ÖģÕ«
ĠÕ¡Õ¼Õ¡Õ¶Õ±Õ¶Õ¡Õ°Õ¡Õ¿ Õ¸ÖĤÕ¯
ĠÔ¹Õ¸ÖĤÕ´ Õ¡Õ¶ÕµÕ¡Õ¶
ĠÕķÕ½ Õ«Õº
ĠÕ°Õ¡Õ·Õ´Õ¡Õ¶Õ¤Õ¡Õ´ Õ¸ÖĤÕ©ÕµÕ¸ÖĤÕ¶
ĠÕīÕ¥Õ´ ÕºÕ«Õ¸Õ¶Õ¶Õ¥ÖĢÕ«
ĠÕ¡Õ½Õº Õ¡ÖĢÕ¥Õ¦
ĠÕ¡ÖĢÕ¿Õ¡Õ½Õ¡Õ°Õ´Õ¡Õ¶ ÕµÕ¡Õ¶
ĠÕĬÔµÕı Ô±Ô¿Ô±ÕĨ
ĠÔ»Õ½Õº Õ¡Õ¶Õ«Õ¡ÕµÕ«
I n
n et
Õ¡ÖĢÕ »
ĠÕ´ Õ©
ĠÕ¯ Õ¿Õ¥Õ²
Õ¡Õ¿ Õ¶Õ¥ÖĢ
Õ¡Õ® Õ«
Õ¡Õ£ Õ¥Õ²
Õ¾Õ¡Õ® Õ¸ÖĤÕ©ÕµÕ¡Õ¶
Õ«Õ¯ ÕµÕ¡Õ¶Õ¨
ĠÕĦ Õ¡Õ¶Õ¯
ĠÕĦ Õ¥Õ¯Õ¶Õ¡Õ¢Õ¡Õ¶
ĠÕ°Õ¡Õµ Õ°
Õ± Õ«
Õ¥Õ¬Õ« ÖĦÕ«
ĠÔ² Õ¥Õ¼
ĠÕ¶Õ¥ÖĢÕ ¢
ĠÖĦÕ¡Õ²Õ¡ÖĦ Õ¡Õ£Õ¥Õ¿
Õ¥ÖĤ Õ¡Õ¶
Ô² Õ¡Õ²
Ô´ Ô»
ĠÔ¹ Õ¸Õ²
ĠÕ¯Õ¸Õ²Õ´ Õ¶Õ¡Õ¯Õ«Öģ
ĠÕ´Õ¡ÖĢÕ¤ Õ¶
ÖĢÕ¿ Õ½Õ¥ÖĢ
ÖĢÕ« Õ¡ÖĢÖĦ
Ġ19 15
ĠÕŃÕ¡Õ² Õ¡Öģ
Ô½ Õİ
Õ¡ÕºÕ¡Õ¿ Õ¯
ĠÕ¡Õ¦Õ¡Õ¿ Õ¡Õ´Õ¡ÖĢÕ¿
ĠÕ¢Õ¶Õ¡Õ¯ Õ¹
ĠÕ¢Õ¶Õ¡Õ¯ Õ¹Õ¸ÖĤÕ©ÕµÕ¸ÖĤÕ¶Õ¨
ĠÕ«ÖĢÕ¡Õ¾Õ¸ÖĤÕ¶ÖĦ Õ¶Õ¥ÖĢ
Õķ ÕĲ
ĠÕ±Õ¥Õ¼ ÖĦÕ¸Õ¾
ĠÔ±Õ¬ Õ¡Õ¾Õ¥ÖĢÕ¤
ĠÕ¡Õ¼Õ¡Õ¶Öģ ÖĦÕ¡ÕµÕ«Õ¶
ĠÕ´Õ¶ Õ¡
ĠÕ¯ÖĢ Õ¡Õ¯Õ«
ĠÖħÖĢÕ¥Õ¶Õ½ Õ£
ĠÕ¿Õ¸Õ¯ Õ¸Õ½Õ«
ĠÕ¡Õ³ Õ¸ÖĤÕ´
ĠÕ°Õ¥Õ²Õ«Õ¶Õ¡Õ¯ Õ¶Õ¥ÖĢÕ«
ĠÕ£ÖĢÕ¡Õ¶Öģ Õ¥Õ¬
Ð¾ ÑģÑĤ
ĠÕ§Õ¬Õ¥Õ¯ Õ¿ÖĢÕ¡Õ¯Õ¡Õ¶
ĠÕ¯Õ¸ÖĤÕ½Õ¡Õ¯Öģ Õ¸ÖĤÕ©ÕµÕ¸ÖĤÕ¶Õ¶Õ¥ÖĢÕ«
ĠÕ¾Õ¿Õ¡Õ¶Õ£ Õ«
ĠÕ¿Õ¡ÖĢÕ¢Õ¥ÖĢÕ¡Õ¯ Õ¶Õ¥ÖĢÕ¨
ĠÕ¤Õ¸Õ¬Õ¡ÖĢ Õ¸Õ¾
ĠÕ¡Õ¬ Õ«ÖĦ
ĠÕĢÔ±Õħ Õı
ĠÕ¿Õ¸Õ¶ Õ¶Õ¡
ĠÕ°Õ¡Õ½ÖģÕ¥ Õ¸ÖĤÕ´
ĠÕ°Õ¶ Õ¡Õ£Õ¸ÖĤÕµÕ¶
ĠÕ¦Õ¢Õ¸Õ½Õ¡Õ·ÖĢÕ» Õ¸ÖĤÕ©ÕµÕ¡Õ¶
ĠÕ°Õ¥Õ¿Õ¡ÖĦÖĢÖĦÖĢ Õ¸ÖĤÕ©ÕµÕ¸ÖĤÕ¶
Ô±Ô² ÔµÕĲ
ĠÔ¹Õ¸ÖĤÕ´ Õ¡Õ¶ÕµÕ¡Õ¶Õ«
ĠÕĦÕ«Õ» Õ«Õ¶
Ô±Õ¶Õ¤ ÖĢÕ¡Õ¤Õ¡Õ¼Õ¶Õ¡Õ¬Õ¸Õ¾
ĠÕ¯Õ¡ÖĢÕ« Õ¥ÖĢ
ĠÕ¬Õ«Õ¡Õ¦ Õ¸ÖĢÕ¾Õ¡Õ®
e e
p ress
Â ¬
Õ¡Õµ Õ¡Õ©
Õ¥Õ¬ Õ½Õ«Õ¶
ĠÕ¿ Õ¥ÖĢÕ´
ĠÕĢ Õ¡Õ³Õ¡ÕŃ
ĠÕ½ Õ¡Õ¿Õ¡ÖĢ
Õ¢ Õ¡Õ¶
Ôµ Ô½
ĠÕ¶Õ¡ÕŃ ÖħÖĢÕ¥Õ«Õ¶
ĠÕ´Õ« Õ¸ÖĤÕ©ÕµÕ¸ÖĤÕ¶Õ¨
ĠÔµ ÕıÕĦ
ĠÔ¿ Õ«Õº
ĠÕĨ Õ¡Õ¾
ĠÕ¾Õ¥ÖĢ Õ¡ÖĢÕ¿
ĠÕ¥ÖĢ Õ¡ÕŃÕ¿
ĠÔ¼ Õ¸Õ½
Õ¡Õ£Õ¸ÖĢÕ® Õ¡Õ¯Õ¡Õ¶
ÖħÖĢ Õ¥Õ¶
ĠÕ¯Õ¸Õ²Õ´ Õ¸ÖĤÕ´
Õ¨Õ¶ Õ©Õ¥ÖĢ
ĠÕ½Õ¡Õ°Õ´Õ¡Õ¶ Õ¡ÕµÕ«Õ¶
ĠÕ¨Õ¶Õ¿ÖĢ Õ¸Õ²Õ¶Õ¥ÖĢÕ«
ĠÕ¿Õ¥Õ²Õ¥Õ¯ Õ¸ÖĤÕ©ÕµÕ¸ÖĤÕ¶Õ¶Õ¥ÖĢÕ¨
ĠÕĸ Õ¸ÖĤÕ¿Õ¢Õ¸Õ¬
ĠÕ¿Õ¡ÖĢÕ« ÖĦÕ«
ĠÕ°Õ¥Õ¿Öĩ Õ¸Õ²Õ¡Õ¯Õ¡Õ¶
ĠÕ£ÕµÕ¸ÖĤÕ² Õ¨
ĠÕ±Öĩ Õ¨
ĠÕ°Õ¡Õ¶Õ¤Õ«Õ½ Õ¡Õ¾Õ¸ÖĢ
Õ¡Õ¦Õ£ Õ«
Õ¡ÖĢÕ· Õ¡Õ¾Õ«
ĠÕ¶Õ¥ÖĢÖĦ Õ¡Õ²Õ¡ÖĦÕ¡Õ¯Õ¡Õ¶
ĠÕ¾ÖĢ Õ¡Õ¥ÖĢÕ©
ĠÕ´Õ«Õ¿ ÖĦÕ¨
ĠÕ¡Õ°Õ¡Õ¢Õ¥Õ¯ Õ¹Õ¸ÖĤÕ©ÕµÕ¡Õ¶
ĠÕ°Õ¡ÖĢÖģÕ¡Õ¦ÖĢÕ¸ÖĤÕµÖģ Õ¸ÖĤÕ´
ĠÕİÕ¡Õ° ÖĢÕ¡Õ´
Ġb y
ĠÕĦÕ«Õ¶Õ¹ Öĩ
Õ¡Õ´Õ©Õ¥ÖĢ ÖĦ
ĠÔ¸ÕĨ Ô´
ĠÕ¡Õ¼Õ¡Õ¶Õ±Õ¶Õ¡Õ°Õ¡Õ¿Õ¯ Õ¸ÖĤÕ©ÕµÕ¸ÖĤÕ¶Õ¶Õ¥ÖĢÕ¨
ĠÕ½Õ«ÖĢÕ¿ Õ¨
ĠÕ´Õ¡Õ¯Õ¥ÖĢ Õ¥Õ½
ĠÕ¸Õ²Õ¢Õ¥ÖĢÕ£ Õ¡Õ¯Õ¡Õ¶
ĠÕĢÕ«Õ´Õ¶ Õ¡Õ¤ÖĢÕ¡Õ´
ĠÕºÕ¡Õ·Õ¡ÖĢ Õ¶Õ¥ÖĢÕ«
Ô¾Õ¡Õ¶Õ¸Õ© Õ¡Õ£ÖĢÕ¸ÖĤÕ©ÕµÕ¸ÖĤÕ¶Õ¶Õ¥ÖĢ
ĠOper ativ
q u
Ġ &
Õ¿ Õ¸ÖĤ
Õ¿ Õ«Õ¶
ĠÕ¥ Õ©Õ¥ÖĢ
Õ´ Õ¥Õ»
ĠÕ¿ Õ¡Õ¶Õ¥Õ¬
ĠÕ¤ Õ¸ÖĤÕ½Õ¿ÖĢ
ĠÔ± Õ´Õ«
Õ¡Õº Õ¡ÕµÕ´Õ¡Õ¶
ĠÕŃ Õ³
Õ¡Õ· Õ¥Õ¶Õ«
Ôµ Õ¾ÖĢÕ¸Õº
ĠÖħ Õ¬Õ«Õ£Õ¡ÖĢÕŃ
ĠÕį Õ¥Õ¶
ĠÕ¦ Õ¡ÕµÖĢ
ĠÔ¿ Õ«ÖĢÕ¡Õ¯
ĠÔ³ Õ¸Õ°
ĠÕ½Õ¿ Õ¡ÖģÕ¡Õ¾
ĠÕ«Õ¶ ÕªÕ¥Õ¶Õ¥ÖĢ
ĠÕ³ Õ¡ÖĢÕº
ĠÕ¶Õ¥ÖĢÕ¯Õ¡ÕµÕ¡Öģ Õ´Õ¡Õ¶
ĠÕ°ÖĢ Õ¡Õ¾
ÖĢÕ¿ Õ¥
ÕĢÕ¡Õµ ÖĢÕ¥Õ¶
ĠÕ¥ÖĢÕ¢ ÖĩÕ§
Ô½ Õ¡Õ¹
Õ¸Õ¦ Õ«
ĠÕ¿Õ¾ Õ¥ÖĦ
ĠÕ°Õ¡Õ²Õ¸ÖĢÕ¤ Õ´Õ¡Õ¶
Õĸ Õĸ
ĠÕ¾Õ¡ÖĢ Õ«Õ¹
ĠP ol
Õ¡Õ½Õ«ÖĢ Õ¸ÖĤÕ©ÕµÕ¡Õ¶
ĠÕ¤Õ«Õ¿ Õ¡ÖĢÕ¯Õ¸ÖĤÕ´
ĠÕ·ÖĢÕ»Õ¡Õ¶ Õ¶Õ¥ÖĢÕ¸ÖĤÕ´
ĠÕĢÕ¡Õ´ Õ¡Õ±Õ¡ÕµÕ¶
ĠÕ¢Õ¡Õ¼ Õ¥ÖĢÕ¸Õ¾
ĠÕ¢Õ¡Õ¶Õ¯ Õ¥ÖĢÕ«
ĠÕ°ÖĢÕ¡Õª Õ¥Õ·Õ¿
ĠÕ£Õ® Õ«
ĠÔ±ÖĢÖĩ Õ´Õ¿ÕµÕ¡Õ¶
ĠÕ·Õ«Õ¶ Õ¡ÖĢÕ¡ÖĢÕ¸ÖĤÕ©ÕµÕ¡Õ¶
ĠÔ±Õ½Õ¿Õ¾Õ¡Õ® Õ¡Õ®Õ«Õ¶
ĠÕ¡ÖĢÕ±Õ¡Õ£ Õ¡Õ¶ÖĦÕ¨
ĠÖģÕ¡Õ¾ Õ¸ÖĦ
Ô±Õ¬ Õ¥ÖĦÕ½
ĠÕ°Õ¥Õ¼Õ¡ÕŃÕ¸Õ½ Õ¡Õ¦ÖĢÕ¸ÖĤÕµÖģ
ĠÕ¡Õ¼Õ» Õ¥ÖĤ
ĠÕ©Õ¡Õ¶Õ¯ Õ¡ÖĢÕªÕ¥ÖĦ
ĠÕĦÕ¡ÖĢ Õ¸ÖĤÖĦ
ĠÕ¯Öĥ Õ¸ÖĢÕ±
ÕĢÕ¡Õ¶Õ¤Õ«Õº Õ´Õ¡Õ¶
ĠÕ°Õ¥Õ¿Õ¡ÕºÕ¶Õ¤ Õ¸ÖĤÕ´
ÕİÖĢÕ¡Õ½Õ¿ Õ¡Õ¶Õ«
ĠÕĲ Õ¡ÖĨ
ĠÕĨÕ¡Õ« ÖĢÕ¡
ĠÕ°Õ¡Õ¯Õ¡Õ¼ Õ¡Õ¯Õ¨
Ô¹Õ¡ÖĦ ÖģÕ¾Õ¡Õ®
i b
r an
ÖĤ Õ¶
Õ¥ÖĢ Õ¡Õ·ÕŃ
ĠÕ´ Õ¡Õ£
ĠÕ¯ Õ¡ÕµÕ«Õ¶
ĠÕ¸ÖĤ Õ¼
ĠÕ© Õ¥Õ¬
ĠÕ· Õ¡ÖĦÕ¡ÖĢ
ÕĦ Õ¥Õ²
ĠÖħÖĢ Õ¡Õ¯Õ¡Õ¶
Õ¡Õ¶Õ¤ Õ¡Õ²
ĠÔ´ Õ¥Õº
ĠÕ¼ Õ¸Õ´
ĠÕ¡Õ´Õ¥Õ¶ Õ¡Õ¬
ĠÕºÕ¥Õ¿ÖĦ Õ¡ÖĢÕ¿Õ¸ÖĤÕ²
ÕĢÕ¡Õµ Õ¯
ĠÕĵ Õ¥Õ¿ÖĢÕ¾Õ¡ÖĢ
ĠÖĥÕ¸ÕŃ Õ¡ÖĢÕªÕ¥ÖĦ
ĠÔ½ Õ´Õ¢
ĠÕ¿Õ¡ÖĢÕ¡Õ® Õ¸ÖĤÕ´
ĠÕ¡Õ¶Õ¾ Õ¡Õ¶Õ¡Õ¯
Ġ5 8
ĠÕ°Õ¥Õ¼ Õ¡ÖĢÕ±Õ¡Õ¯
ĠÕ¨Õ¶Õ¯Õ¥ÖĢ Õ¶Õ¥ÖĢ
ĠÕ´Õ¡Õ½Õ¶Õ¡Õ¯Öģ Õ«
ĠÕ°Õ¡Õ¶Õ¤Õ«Õº Õ¸ÖĤÕ´Õ¶Õ¥ÖĢÕ¨
ĠÕ°Õ¡Õ´Õ¡ÕµÕ¶ ÖĦÕ¨
ĠÔ¾ Õ¡Õ²Õ¯
ĠÕ¤Õ¥Õ¼ Õ¥ÖĤÕ½
ĠT ert
ĠÕ´ÕµÕ¸ÖĤÕ½ Õ¨
ĠÕ·Õ¡ÖĢÕª Õ¡Õ¯Õ¡Õ¶
ĠÕ¡Õ¦Õ£ Õ¥ÖĢÕ«
ĠÔ»Õ½ Õ¡Õ°Õ¡Õ¯
ĠÕ¸ÖĤÕ½Õ¡Õ¶ Õ¸Õ²Õ¡Õ¯Õ¡Õ¶
ĠÕ£Õ¸ÖĤÕ´Õ¡ÖĢ Õ¶Õ¥ÖĢÕ¨
ĠÕ¶Õ¡Õ´ Õ¡Õ¯Õ¨
ÕĮÕ¸ÖĤÕ½ Õ¡Õ¯Õ¡Õ¶
ĠÕ§Õ¶Õ¥ÖĢÕ£ Õ¥Õ¿Õ«Õ¯Õ¡ÕµÕ«
ĠÕ½Õ¥Õ² Õ¡Õ¶Õ«
ĠÕ¸ÖĤÕ²Õ¡ÖĢÕ¯ Õ¾Õ¥Õ¬
of t
ĠÕ´Õ¥ÖĢÕª Õ¥Õ¬
ĠÕ¤Õ¡Õ½Õ¨Õ¶Õ©Õ¡Öģ Õ¶Õ¥ÖĢ
Ô³ÖĢ Õ«Õ£
ĠÔ½Õ¸ÖĢÕ°ÖĢÕ¤ Õ«
ĠÕ°Õ¥Õ¿ÖĩÕ¡Õ¶ÖĦ Õ¶Õ¥ÖĢÕ¨
ĠÕ¸ÖĤÕ²Õ¥ÖĢÕ± Õ¨
ĠÕ¾Õ³Õ¼ Õ¡Õ¯Õ¡Õ¶
ĠÕ´Õ¥Õ®Õ¡Õ´Õ¡Õ½Õ¶ Õ¸ÖĤÕ©ÕµÕ¸ÖĤÕ¶Õ¨
ĠÕ¯Õ¡ÕµÕ½ÖĢ Õ¸ÖĤÕ©ÕµÕ¡Õ¶
Ph one
ĠÕ¡Õ¶Õ» Õ¡Õ¿
ĠÖĦÖĢÕ«Õ½Õ¿Õ¸Õ¶Õ¥ Õ¡Õ¯Õ¡Õ¶
ĠÕĢÖĢÕ¡Õ¹ ÕµÕ¡
. :
6 5
t y
Õ¡Õ¶ Õ¥ÖĢÕ«Õ¶
Õ«Õ¶ Õ«Õ¶
ĠÕ´ Õ¡ÖĢÕ£
ĠÕ¯ Õ£Õ¶
Õ¡Õ½ Õ¥Õ¬
Õ¡Õ½ Õ¥Õ¶ÕµÕ¡Õ¯
Õ¯ Õ¸ÖĤÕ¶
Õ¥Õ¶ Õ«Õ½
ĠÕ¿ Õ°Õ¡Õ³
ĠÕ¢ Õ¡ÕŃÕ¿
Õ¡Õ° Õ¡Õ¿Õ¡Õ¯
ĠÔ± Ô±ÕĢ
Õ£ Õ¥Õ¿
ĠÕ· Õ¡Õ¶Õ½
ĠÕ¡Õ¼ Õ¨Õ¶Õ©Õ¥ÖĢ
ĠÕĦ Õ¥Õ¤Õ«Õ¡
Öĥ Õ½
ĠÕª ÕºÕ¿
Õ¦ ÖĢÕ¡ÖĥÕ¡Õ¯
ĠÔ¼ Õ¸ÖĤ
ĠÕ½Õ¡Õ°Õ´Õ¡Õ¶ Õ¡Õ´Õ¥ÖĢÕ±
ĠÕĩ Õ¡Õ¼Õ¬
ĠÕ¶Õ¡ÕŃÕ¡ÖĢÕ¡ÖĢ Õ¶Õ¥ÖĢÕ«
ĠÕķ Õ¬Õ«Õ´ÕºÕ«Õ¡Õ¯Õ¡Õ¶
ĠÕ¨Õ¶Õ¤Õ¸ÖĤÕ¶ Õ¾Õ¸ÖĤÕ´
ĠÕĸ ÖĢ
ĠÖĥÕ¡Õ½Õ¿ Õ¸ÖĢÕ¥Õ¶
ĠÕ°Õ¸Õ£ Õ«Õ¶
Õ¡ÖģÕ«Õ¶ Õ¥ÖĢÕ«Õ¶
ĠÕ¡ÕºÕ¡Õ°Õ¸Õ¾ Õ¡Õ£ÖĢÕ¡Õ¯Õ¡Õ¶
ĠÕ¸Õ¬Õ¸ÖĢÕ¿ Õ¨
ĠÕ³Õ¡Õ¶Õ¡Õ¹ Õ´Õ¡Õ¶
ĠÕ¢Õ¡Õ¼ Õ«
ĠÕ¡ÖĢÕ¤ÕµÕ¸ÖĤÕ¶ÖĦ Õ¶Õ¥ÖĢÕ¸Õ¾
Ð° ÑĤ
ĠÕ¤Õ¥Õ½ ÕºÕ¡Õ¶Õ¨
ĠÔ±Õ½ Õ¸ÖĤÕ´
Õ¡Õ¦Õ¸Õ¿ Õ¡Õ¯Õ¡Õ¶
Õ¡Õ¿Õ¸ÖĤÕ¶ Õ¥ÖĢÕ«Õ¶
ĠÕ¡ÖĢÖĩ Õ¥Õ¬ÕµÕ¡Õ¶
Ô±Õĳ Ô»
ĠÕ®Õ¡Õ¾Õ¡Õ¬ Õ¨
ĠÕ°Õ¡ÕµÕ¿Õ¶Õ¡Õ¢Õ¥ÖĢÕ¾ Õ¡Õ®
ĠÕ¡Õ¼Õ¡ÖĦÕ¥Õ¬ Õ¸ÖĤÕ©ÕµÕ¸ÖĤÕ¶Õ¨
ÕįÕ«ÖĢ Õ¥Õ¬Õ«
ĠÕ¢Õ¡Õ¦ Õ¸ÖĤÕ´
ĠÕ½ÖĥÕµÕ¸ÖĤÕ¼ ÖĦ
ĠÕ¥ÖĢÕ£Õ¹ Õ¸ÖĤÕ°Õ«
Ô¿Õ¡Õ¼ Õ¡Õ¾Õ¡ÖĢÕ¸ÖĤÕ©ÕµÕ¡Õ¶
ĠÕ¶Õ¾Õ¡Õ³ Õ¥Õ¬
Ô±Õ½Õ¿ Õ²
Ô½Õ´Õ¢ Õ¡Õ£ÖĢÕ¡Õ¯Õ¡Õ¶
Õ¡Õ¯Õ¸Õ²Õ´ Õ¡Õ¶Õ«
ĠÕ¡Õ´Õ¥Õ¶Õ¡Õ¢ Õ¡ÖĢÕ±ÖĢ
ĠÕ¤ÖĢÕ¾ Õ¡Õ£
S H
T C
g e
o y
ÖĤ Õ¸ÖĤÕ´
ÖĦ Õ¥ÖĢÕ¶
Õ¿ Õ¡
Õ¡Õ´ Õ¡
ĠÕ£ Õ¶Õ«
ĠÕĢ Ô»
Õ£ Õ¸ÖĢ
Õ¡Õº Õ¡Õ¶
ĠÕ© Õ¥Õª
ĠÖĦ Õ¡Õ´
ĠÕŃ Õ¸ÖĤÕ¦
Õ¡ÖĢÕ¿ Õ¡Õ´Õ¥Õ¶
ĠÕ£Õ¸ÖĢÕ® Õ¥Õ¬Õ¸ÖĤ
ĠÔ² Ô¿
ĠÔ³ Õ¸Õ¼
ĠÔ³ Õ¥ÖĤÕ¸ÖĢÕ£
Õı Õ«Õ£ÖĢÕ¡Õ¶
Õ§ ÖĦ
Ô±ÕĨ Ô´
Õ¼ Õ¡Õ¶
ĠÕ¡Õ½ Õ¡ÖģÕ«Õ¶
ĠÕ¡Õ½ Õ¸ÖĤÕ¬Õ«Õ½Õ«
ĠÔ¹ Õ¡Õ´
ÕĬ Õ¡ÖĢ
ÔµÕĲ Ô¹
ĠÕ´Õ¿ Öģ
ĠÕ´Õ¸Õ¿ Õ¡Õ¾Õ¸ÖĢÕ¡ÕºÕ¥Õ½
Õ¸Öĥ Õ¡Õ¼Õ¡Õ¿
ĠÕ¶Õ¸ÖĤÕµÕ¶ ÖĦÕ¡Õ¶
ĠÕ°Õ¡Õ¶ÖĢ Õ¡Õ¯ÖĢÕ©Õ¡Õ¯Õ¡Õ¶
ĠÕ¯Õ¡Õ¿ Õ¡ÖĢÕµÕ¡Õ¬
Ô· ÖĢ
ĠÕ³Õ¡Õ¶Õ¡ÕºÕ¡ÖĢÕ° Õ¸ÖĢÕ¤
ĠÔº Õ«ÖĢ
ĠÕºÕ¡Õ¿Õ£Õ¡Õ´ Õ¡Õ¾Õ¸ÖĢÕ¨
ĠÕ¡Õ¼Õ¡Õ»Õ¡ÖĢÕ¯ Õ¶Õ¥ÖĢ
ĠÕ°Õ¡Õ³Õ¡ÕŃ Õ¸ÖĢÕ¤Õ¶Õ¥ÖĢÕ«
ĠÕ©Õ¥Õ¯Õ¶Õ¡Õ® Õ¸ÖĤÕ¶Õ¥ÖĢÕ«
ĠÕ¯Õ¡Õ¿Õ¡ÖĢÕ¥Õ¬ Õ¡Õ£Õ¸ÖĢÕ®
ĠÕ¯Õ¡Õ¶Õ¸Õ¶ Õ¶Õ¥ÖĢÕ«
ĠÕİÕ¡ÖĢÕ¤ Õ¡Õ¶ÕµÕ¡Õ¶
ĠÕ¡Õ¶Õ¤ÖĢ Õ¡Õ¤
ĠÖħÕ£Õ¶ Õ¸ÖĤÕ©ÕµÕ¸ÖĤÕ¶Õ¨
ĠÕ¡ÖĢÕ¤ÕµÕ¸ÖĤÕ¶Õ¡Õ¾Õ¥Õ¿ Õ¸ÖĤÕ©ÕµÕ¡Õ¶
ĠÕ´Õ¡Õ½Õ¶Õ¡Õ£Õ¥Õ¿ Õ¶Õ¥ÖĢÕ¨
ĠÕ©Õ¡Öĥ Õ¸ÖĤÖĢ
ĠÕĦÕ«Õ¶ Õ¡Õ½ÕµÕ¡Õ¶Õ¨
ĠÕ¶Õ¥ÖĢÕ¡Õ¼ Õ¾Õ¡Õ®
ĠÕ¤Õ«Õ¾Õ¡Õ¶ Õ¡Õ£Õ¥Õ¿
ĠÕ´Õ¡ÖĦ ÖĢ
Ô»ÖĢ Õ¡Õ¶Õ«
ĠÕ¶Õ¾Õ«ÖĢ Õ¥Õ¬
ĠÕ¡Õ½Õ¿Õ«Õ³Õ¡Õ¶ Õ¡Õ¢Õ¡ÖĢ
ĠÕĩÕ¾ Õ¥Õ¤
ĠÕıÕ¶Õ¿Õ¥Õ½ Õ¡Õ¯Õ¡Õ¶
ÕĪÕĴÕĦÕĨ ÔµÕĲ
Ô±Õ´Õ¥ÖĢÕ«Õ¯ Õ¡ÕµÕ«
tion ary
ÖĢÕ· Õ¥Õ»
ĠÔ¼Õ«Õ¢Õ¡Õ¶ Õ¡Õ¶Õ«
ĠÔ±Õ¶Õ¤ÖĢÕ¡Õ¶ Õ«Õ¯
Õ¡Õ¾Õ· ÕµÕ¡
W hats
l a
Ń Õ¸ÖĤÕª
Õ¡Õ¶ Õ«Õ¦Õ´Õ«
ĠÕ° ÕµÕ¸ÖĤÕ©
ĠÕ´ Õ©Õ¥ÖĢ
Õ¾ Õ¡ÕµÕ«
Õ¯ Õ¸Õ´
Õ¬ Õ¸ÖĤ
Õ£ Õ«
Õ¡ÕŃ Õ¸ÖĢÕ°ÖĢÕ¤
ÕĢ Õ¡Õ²Õ¸ÖĢÕ¤
ĠÕ°Õ¡Õ´ Õ¡ÕŃ
Õ¥Öģ Õ¶Õ¸Õ²
Õ² Õ³
ÕĨ Õ¡Õ«
ĠÕį Õ¸Õ¾Õ¸ÖĢ
ĠÕ¶Õ¡ÕŃ Õ¡Õ¦Õ£
Õ«Õ¾ Õ¥ÖĢÕº
ĠÕ³ Õ¡Õ´Õ¢Õ¡ÖĢ
ĠÕĪ Õ¾
Ġ5 9
ĠÕ£Õ«Õ¿ Õ¥Õ¶ÖĦ
ĠÕºÕ¡ÕµÕ´Õ¡Õ¶ Õ¡Õ£ÖĢÕ¸Õ¾
ĠÕ¤Õ¡Õ½ Õ«
ĠÖħÕ£Õ¿Õ¡Õ£Õ¸ÖĢÕ® Õ¥Õ¬Õ¸Õ¾
ĠC O
Ġ0 3
ĠÕ¯Õ¡Õ¼Õ¸ÖĤÖģ Õ¸ÖĤÕ´
ĠÕºÖĢ Õ¸Õ¤
Õ¡Õ³Õ¡Õ¼ ÖĦ
Õ¸ÖĢÕµ Õ¡
ĠÕ¢Õ¼Õ¶ Õ¸ÖĤÕ©ÕµÕ¸ÖĤÕ¶
ic s
ĠÕ¡Õ²Õ» Õ«Õ¯Õ¶Õ¥ÖĢÕ«
ĠÕ¸ÖĢÕ¤ Õ«
ĠÕ¾Õ¡Õ³Õ¡Õ¼ ÖĦ
ĠÕ¸ÖĤÕ½Õ¡Õ¶ Õ¸Õ²Õ¶Õ¥ÖĢÕ¨
ĠÕ´Õ¡Õ½Õ¶Õ¡Õ£Õ¥Õ¿ Õ¶Õ¥ÖĢ
ĠÕ¢Õ¡Õ¶Õ¡Õ¯Öģ Õ¸ÖĤÕ©ÕµÕ¸ÖĤÕ¶Õ¶Õ¥ÖĢ
ĠÕ¾Õ¥ÖĢÕ¡Õ°Õ½Õ¯ Õ¸Õ²Õ¸ÖĤÕ©ÕµÕ¸ÖĤÕ¶
ĠÕ«ÖĢÕ¡Õ¯Õ¡Õ¶Õ¡ÖģÕ´Õ¡Õ¶ Õ¨
ĠÕĦÕ¡ÖĢÕ¤ Õ«Õ¯
ĠÕ¯Õ¶ÖĦ Õ¾Õ¡Õ®
ĠÔ»ÖĢÕ¡Õ¶ Õ¨
ĠÔ±Õ¶Õ£Õ¬ Õ¥ÖĢÕ¥Õ¶
ow s
ĠÔ¸Õ¶Õ¯Õ¥ÖĢ Õ¸ÖĤÕ©ÕµÕ¡Õ¶
ĠÔ³Õ¸Õ¾Õ¡Õ¦Õ¤ Õ¶Õ¥ÖĢÕ«
ÕĪÖĤÕ½ Õ¸ÖĤÕ´Õ¶Õ¡Õ¯Õ¡Õ¶
ĠÖĨÕ¥Õ¤Õ¥ÖĢ Õ¡ÖģÕ«Õ¡ÕµÕ«
ĠÕ¡Õ´Õ¥Õ¶Õ¡Õ¯Õ¡ÖĢ ÖĩÕ¸ÖĢ
ĠÕ½Õ¡Õ°Õ´ Õ¡Õ¶Õ«
ĠÔ±Õ¶Õ»Õ¥Õ¬ Õ¥Õ½
= =
c o
r av
s h
u re
Õ¶ Õ¸ÖĢ
Õ¸ÖĤÕ¶ Õ¸ÖĤ
Õ¸ÖĤÕ¶ Õ¥Õ¬Õ«
Õ¡Öģ Õ¾Õ¥Öģ
ĠÔ± Ô¿
ĠÕ½ Õ©
ĠÕ¸ÖĤ Õ©
Ô±Õ ĵ
ĠÕŃ Õ¸Õ²Õ¸Õ¾
Õ¡Õ· Õ¶Õ¡Õ¯
ĠÕ¡Õ¼ Õ¶Õ¸ÖĤÕ´
Öĥ Õ¸Õ©
ĠÕį Õ¥Õ¤
Õ¡ÖĢÕ¿ Õ«
Ġ( âĨĲ
ĠÕ® Õ¸Õ¾Õ«
ĠÔ³ ÕµÕ¸ÖĤÕ¬
ĠÕĬ Õ¡ÖĢÕ¸Õ¶
Õ¸ÖĤÕ¬ Õµ
ĠÕ°Õ¡ÖĢÖģ Õ¥ÖĢÕ¸ÖĤÕ´
ĠÖĥÕ¸ÕŃ Õ¾Õ¸ÖĤÕ´
ĠÕ«ÖĢÕ¡Õ¯Õ¡Õ¶ Õ¸ÖĤÕ©ÕµÕ¸ÖĤÕ¶
ĠÕ¡Õ¶Õ° Õ¡ÕºÕ¡Õ²
ĠÕ°Õ¥Õ¼ Õ¡Õ¶Õ¡Õ¬
ĠÔ±ÕµÕ½ ÕºÕ¥Õ½
ĠÖħÕ£Õ¿ Õ¾Õ¥Õ¬Õ¸ÖĤ
ĠÕ¶Õ¸ÖĤÕµÕ¶ Õ¶
ĠÕ¤Õ¡Õ¿ Õ«
ĠÕ¤Õ¡Õ½ Õ¥ÖĢ
ĠÔ±ÖĢ Õ¥Õ£
ĠÕ±Õ¥Õ¼ÖĦ Õ¢
ĠÕ¡Õ¾Õ¥Õ¬ Õ¡ÖģÕ¥Õ¬
ĠÕ£Õ¿ Õ¶Õ¥Õ¬Õ¸ÖĤ
hy wiki
Õ´Õ¿ Õ¡Õ°Õ¡Õµ
ĠG isher
ĠÕ¶Õ½Õ¿ Õ¥Õ¬
ĠÕ¸ÖĤÕ½Õ¸ÖĤÕ´Õ¶Õ¡Õ½Õ«ÖĢ Õ¸ÖĤÕ©ÕµÕ¡Õ¶
ĠÕ¡Õ¤ÖĢÕ¢Õ¥Õ» Õ¡Õ¶ÖģÕ«
ĠÕĢÕ«Õ´ Õ¶Õ¡Õ¯Õ¡Õ¶
ÖĥÕ¸Õ½Õ¿ Õ«
Ġ198 8
Õ¥ÖĨ Õ«Õ¬
ĠÕ¥ÖĢÕ¯Õ«ÖĢ Õ¶
ĠÕ¦ÖĢÕ¸ÖĤÖģ Õ¡Õ¯Õ«Öģ
ĠÕĨÕ¡Õ°Õ¡Õ¶Õ£ Õ¶Õ¥ÖĢ
ĠÕ¬Õ¸ÖĤÖĢ Õ¥ÖĢÕ¨
ĠÕ¡Öĥ Õ½
ĠÕ´Õ«Õ¡Õ¶Õ£Õ¡Õ´ Õ¡ÕµÕ¶
ĠÕ£Õ¡Õ¾Õ¡Õ© Õ«
ang ard
ĠÔ±Õ¶Õ¾ Õ³Õ¡ÖĢ
ÔµÖĢÕ¥ÖĤ Õ¡Õ¶
ĠÕıÕ¸Õ¶ Õ¸ÕµÕ¡Õ¶Õ¨
ĠÕĨÔ±Ô½ Ô±ÕĲÔ±ÕĲ
ĠÕ·Õ¡Õ°Õ¡Õ£ÖĢÕ£ Õ«Õ¼
Ġav angard
ÕķÕ£ Õ¸Õ½Õ¿Õ¸Õ½Õ«
! !
) ÕĿ
6 9
I D
o k
Õ«Õ¶ ÕµÕ¡Õ¶Õ¨
Õ¥Õ¬ Õ¸ÖĤÕ¶
Õ¾ Õ¯
Õ¡Öģ Õ¸ÖĤÕ´Õ¶
Õ¸ÖĢ Õ¶
Ô± Õ´Õ¢Õ¸Õ²Õ»
Õ¬ Õ¥ÖĢ
Õ£ Õ¡Õ¯Õ¡Õ¶
ĠÕ½ Õ¸ÖĤÕº
ÕĢ Õ«Õ¶
ĠÕ°Õ¡Õ´ Õ¢Õ¥ÖĢ
Õ¸ÖĤÕµ ÖĦÕ¸Õ¾
Ô¿ ÖĢ
ĠÕ´Õ« Õ¸ÖĤÕ©ÕµÕ¸ÖĤÕ¶
Õ¡Õ¶Õ¡Õ¯ Õ¥ÖĢÕº
Õ¸ÖĤÖĢ Õ¡Õ¢
ĠÔµ ÖĢÕ£
Õ¥Õ¼ Õ¶Õ«
ĠÔ¿ Ô±ÕıÔ±ÕĲ
ĠÕ¡Õ¼Õ¡Õ» Õ¡ÖģÕ¡Õ®
Õ¶Õ¸ÖĤÕ´ Õ¨
Õı ÕĢ
ĠÕ¾Õ¥ÖĢ Õ¡ÖĦÕ¶Õ¶Õ«Õ¹
ÖĢÕ¡Õ´ Õ¡Õ¿Õ¡Õ¯
ĠÕĬ Õ¡Õ°
ĠÔ´ Õ¥Õ´Õ«
ĠÕ¿Õ¥Õ½ Õ¡
ĠÕ¸ÖĢÕ¸Õ· Õ¸ÖĤÕ´Õ¶Õ¥ÖĢÕ¨
ĠÕ°Õ¥Õ¼ Õ¡Õ¾Õ¸ÖĢÕ¸ÖĤÕ©ÕµÕ¡Õ¶
ĠÕ¯Õ¡Õ¿Õ¡ÖĢ Õ¸ÖĤÕ´Õ¨
ĠÕ¨Õ¶Õ¤Õ¸ÖĤÕ¶ Õ¥Õ¬Õ«
ĠÕ¨Õ¶Õ¤Õ¸ÖĤÕ¶ Õ¥Õ¬Õ¸Õ¾
Õĩ ÖĢÕ»
ĠÕ¸ÖĤÕª Õ¥ÖĢ
ĠÕ°Õ¡Õ´Õ¡Õ±Õ¡ÕµÕ¶ Õ¡Õ£Õ«ÖĢ
ĠÕ°ÖĢÕ¡ÕºÕ¡ÖĢÕ¡Õ¯ Õ¾Õ¥Õ¬
ĠÔ¸ Õ¶Õ¿
ĠÕ¬Õ¸ÖĤÕ® Õ¸ÖĤÕ´Õ¨
ĠÕ¡Õ¶ÖģÕ¯Õ¡Öģ Õ¾Õ¡Õ®
ĠÕ¦Õ¢Õ¡Õ² Õ¥ÖģÖĢÕ¥Õ¬
ĠÕ´Õ¡Õ´ Õ¬Õ¸
ĠÕ·Õ¡ÖĢÕª Õ¸ÖĤÕ´Õ¨
Õ¸ÖĢÕ£ Õ«
ĠÕ£Õ¸ÖĤÕµ ÖĦÕ¨
ĠÕ°Õ¡Õ¾Õ¥Õ¬ Õ¥Õ¬Õ¸Õ¾
ĠÕ½Õ¿Õ«Õº Õ¸ÖĤÕ´
ĠÕ°Õ¥Õ²Õ¡ÖĥÕ¸ÕŃ Õ¡Õ¯Õ¡Õ¶
ĠÕ¯Õ¡ÕµÖĦ Õ¥ÖĢÕ¸ÖĤÕ´
ĠÖħÖĢÕ¡Õ¯Õ¡ÖĢÕ£ Õ¸ÖĤÕ´
ĠÔ¼Õ¸ÖĤÕ½ Õ¡Õ¾Õ¸ÖĢ
ĠÕ°Õ¡Õ·Õ¾Õ¥Õ¿Õ¾ Õ¸ÖĤÕ©ÕµÕ¸ÖĤÕ¶
ĠÕ´Õ¡Õ¶ÖĢÕ¡Õ´Õ¡Õ½ Õ¶Õ¥ÖĢÕ¨
ĠÖĦÕ¡Õ¶Õ¡Õ¯ Õ¸ÖĤÕ©ÕµÕ¡Õ´Õ¢
ĠÔ±Õ¼Õ¡ÖĦÕ¥Õ¬ Õ¡Õ¯Õ¡Õ¶
ĠÕ´Õ¡Õ½Õ¶Õ¡Õ³ÕµÕ¸ÖĤÕ² Õ«
ĠÕ½ÖĢÕ¡Õ° Õ¸ÖĤÕ´
ĠÕĨÕ¡Õ¬Õ¢Õ¡Õ¶Õ¤ ÕµÕ¡Õ¶Õ¨
ĠÕ·Õ¡ÕŃÕ´ Õ¡Õ¿
ĠÔ»ÕĲ Ô±Õİ
ĠÕ¿Õ¡ÖĢÕ¥Õ¯ Õ¡Õ¶Õ¸ÖĤÕ´
ĠÔ¼Õ¥Õ° Õ¡Õ½Õ¿Õ¡Õ¶Õ«
ĠÕİÕ«Õ¯ Õ¿Õ¸ÖĢ
6 7
Ġ Õ¡ÖĢÕ¢
Õ¿ Õ¶Õ¥ÖĢÕ«
Õ¥Õ¬ Õ¸ÖĤÕ´
Õ¥Õ¬ Õ½
Õ¡Õ¿ Õ¥ÖĢÕ¨
Õ¯ Õ¸Õ°
ĠÕ¿ Õ¸Õ²
ĠÕ¿ Õ¡Õ¶Õ»
ĠÕ¢ ÕŃÕ¸ÖĤÕ´
ĠÕ½ ÖĢ
ĠÖĦ Õ½Õ¡Õ¶
ĠÕŃ Õ¿
ĠÕ· Õ²Õ©
Õ¡ÖĦ Õ¡Õ¶Õ¡Õ¯
ĠÖĥ Õ¹
ÕĦ Õ¡ÖĢ
Õ«Õ¿ ÖĢ
Õ¡Õ´Õ¢ Õ¬
ĠÕĢÕ¡Õµ Õ¥ÖĢÕ¥Õ¶
ĠÕ¯Õ¡ÖĢ Õ¸
ĠÕ¯Õ¡ÖĢ Õ¸Õ¿
Õ¡Õ¯Öģ Õ¸ÖĤÕ´
ĠÔ² Õ¡Õ¤
ĠÕ± ÕµÕ¸ÖĤÕ¶
ĠÖħÖĢ Õ¸ÖĤÕ´
Ô³ Õı
Õİ Õ¡Õ°
Õ³ Õ¼
ĠÕ£ÖĢ ÖĦÕ¥ÖĢ
Õ¸Õµ Õ¶
ÕĽ ÕĽ
ĠÕ¯Õ¡Õº Õ¥ÖĢ
ĠÕ¢Õ¡Õ¶ Õ¡Õ¾Õ¥Õ³
Ô½ Ô±ÕİÕĪÕĲ
ĠÕ°Õ¶Õ¡ÖĢÕ¡Õ¾Õ¸ÖĢ Õ¸ÖĤÕ©ÕµÕ¸ÖĤÕ¶Õ¶Õ¥ÖĢÕ«
ĠÕ¯Õ¡ÖĢÕ£ Õ¡ÕŃÕ¸Õ½
ĠÕ¢Õ¡ÖĢÕ± ÖĢÕ¡Õ¶
ĠÕ®ÖĢÕ¡Õ£ÖĢ Õ¥ÖĢÕ«Õ¶
ĠÔ±Õ¶ Õ±
Õ¸Õ½Õ¿ Õ«
Õ¸ÖĤÕ½Õ¿ Õ«
ÕĪÕĲ Ô´
Õī Õ¶Õ¡ÕµÕ¡Õ®
ĠÔ±ÖĢÖģÕ¡ÕŃ ÕµÕ¡Õ¶
ĠÕ¶Õ¥ÖĢÕ¯Õ¡ÕµÕ¡ÖģÕ¸ÖĤÖģÕ«Õ¹ Õ¶Õ¥ÖĢÕ«Õ¶
ĠÔ±Õ¾ Õ¡Õ¶
ĠÕºÕ¡Õ¿Õ¾ Õ¡Õ¾Õ¸ÖĢ
ĠÕ´Õ¡Õ¶ Õ¸ÖĤÕ¯
ĠL urer
200 6
ĠÕ¸ÖĢÕ¤ Õ¥Õ£
ĠÕĸÖĢÕ¡Õ¶Õ½ Õ«Õ¡ÕµÕ¸ÖĤÕ´
ĠÕĢÕ¥Õ¿ Õ¡ÖĦÖĢÖĦÕ«ÖĢ
ĠÕ·Õ¥Õ¶ÖĦ Õ¥ÖĢÕ«
ĠÕ¡Õ¾Õ¿Õ¸Õ´Õ¥ÖĦÕ¥Õ¶ Õ¡ÕµÕ«
ĠÕ´Õ¥Õ¯Õ¶Õ¡ÖĢÕ¯ Õ¡ÕµÕ«Õ¶
ĠÕ¢ÖĢ Õ¸Õ¶
ĠÕ¡ÕµÕ£ Õ¸ÖĤÕ´
ĠÔ±Õ¬Õ« ÖĩÕ«
Ar m
ĠÕ¾Õ¡Õ½Õ¿Õ¡Õ¯ Õ¡Õ¾Õ¸ÖĢ
ĠÕĦÕ¸Õ¾Õ½ Õ¥Õ½
Ô²Õ¡ÖĢÕ½Õ¥Õ¬Õ¸Õ¶ Õ¡ÕµÕ«
ĠSp utnik
Ð¸Ð ¹
ĠÕĵÕ¸Õ½Õ¿ Õ¡Õ¶Õ»
ĠÕ½Õ« ÖĢÕ¾Õ¡Õ®
ĠÕİÕ«Õ¥Õ¶ Õ¶
Ġ e
ÖĢ Õ¡Õ¶Õ«
Õ¡Õ¶ Õ¸ÖĢ
ĠÕ¯ Õ¥Õ²
Õ¸ÖĤÕ¶ Õ«Õ¶
Õ¸ÖĤÕ¶ Õ¥ÖĢÕ«Õ¶
ĠÕ¥ Õº
Õ¡Õ¾ Õ¸ÖĤÕ·
Õ£ Õ®
ĠÕ¾ Õ©Õ¡ÖĢ
Õ¥Õ² Õ¶
ĠÕ¬ Õ³Õ«
Õ«Õ¿ Õ¡Õ´Õ«Õ¶
Ô¿ Ô±
ÕĪÕ ĵ
ĠÕĨ Õ¸ÕµÕ¥Õ´Õ¢Õ¥ÖĢ
ĠÔ³ Õµ
ĠÕ¡Õ´ Õ¼Õ¡Õ¶Õ¨
Õı ÔµÕįÔ±ÕĨÕħÕĪÕĴÔ¹
ĠÕĬ Õ¡ÖĢÕ¿
ĠÔ´ Õ¥Õ¯Õ¿Õ¥Õ´Õ¢Õ¥ÖĢÕ«
Õ«Õ¬ Õ¨
ĠÕ¡ÕµÕ¬ Õ¸Öģ
Ô¼ Õ¥Õ¼Õ¶Õ¡ÕµÕ«Õ¶
ĠÕªÕ¡Õ´Õ¡Õ¶Õ¡Õ¯ Õ¶Õ¥ÖĢÕ¸ÖĤÕ´
ĠÕ¶Õ¥ÖĢÕ¯Õ¡ÕµÕ¡Öģ Õ¥Õ¬
ĠÕ¶Õ¥ÖĢÕ¯Õ¡ÕµÕ¡Öģ Õ¾Õ¸Õ²
ĠÕĶ ÖĢÕ¥Õ¡Õ¯Õ¡Õ¶
ĠÕ¯Õ¡Õµ ÖĦÕ«Õ¶
ĠÕ¢Õ¡Öģ Õ¸ÖĤÕ´Õ¨
ĠÕ·ÖĢÕ» Õ¡Õ¶Õ¨
Ô±Õµ Õ½Õ¿Õ¥Õ²
ĠÕŃÕ¶Õ¤ ÖĢÕ¡Õ¶ÖĦ
ĠÕ¿Õ¥Õ²Õ¥Õ¯ Õ¡ÖģÖĢÕ¥Öģ
Ġ4 3
Õ¡ÕµÕ¿ Õ¡Õ¼Õ¡Õ¯
Õ¡ÖģÕ«Õ¶ Õ¥ÖĢ
ĠÕ°ÖĢÕ¡ÕºÕ¡ÖĢÕ¡Õ¯ Õ¡ÕµÕ«Õ¶
ĠÕ°ÖĢÕ¡ÕºÕ¡ÖĢÕ¡Õ¯ Õ¸ÖĤÕ´Õ¶Õ¥ÖĢÕ¨
ĠÕ¦Õ£ Õ¡Õ¬
ÕĪÖĤ Õ·
Ġ[ ...]
ĠÕ°ÖĢÕ¡Õª Õ¡ÖĢÕ¾Õ¸ÖĤÕ´
Ð° Ð½
ÕĬÕ¡Õ¿ Õ¡Õ½ÕŃÕ¡Õ¶
ĠÕŃÕ¡ÕŃÕ¿ Õ´Õ¡Õ¶
ĠÔ»Õ½ ÕºÕ¡Õ¶Õ«
ĠÕ°Õ¡Õ¾Õ¥Õ¬ Õ¥Öģ
ĠÕ¸ÖĢÕ¤ Õ¸ÖĤÕ¶
ĠÔ¿Õ¡ÖĢÕ¡ÕºÕ¥Õ¿ ÕµÕ¡Õ¶Õ¶
ĠÕ¯Õ¡Õ¶Õ£ Õ¶Õ¥Õ¬
ĠÖĨÕ«Õ¬Õ´ Õ¥ÖĢÕ«
ĠÕ«Õ¶Õ¿ Õ¥Õ£
ĠÕ®Õ¡Õ¶ÖĢ Õ¡Õ¢
ĠÕ¢Õ¡Õ¶Õ¡Õ¯Öģ Õ¸ÖĤÕ©ÕµÕ¸ÖĤÕ¶Õ¶Õ¥ÖĢÕ¨
ĠÔ±ÖĢÖĩ Õ´Õ¸ÖĤÕ¿
ĠÕŃÕ¸Õ½Õ¿ Õ¡Õ¶Õ¸ÖĤÕ´
ĠÕ¡Õ¿ ÕµÕ¡Õ¶Õ«
ĠÖĨÕ¸ÖĤÕ¿Õ¢Õ¸Õ¬Õ«Õ½Õ¿ Õ¨
ĠÕ¥ÖĢÕ¡Õ¦ Õ¸ÖĤÕ´
ÕĪÕĴÕħ Õĳ
ĠÖģÕ¸ÖĤÖģÕ¡Õ¶Õ«Õ· Õ¨
ĠÕ¸Õ³ Õ«
ĠÕ¡Õ´ÖĢÕ¡ÕºÕ¶Õ¤ Õ´Õ¡Õ¶
ĠÕ³Õ·Õ´ Õ¡ÖĢÕ«Õ¿
ĠÕ´Õ¡Õ´Õ¸ÖĤÕ¬ Õ¸ÖĤÕ´
ĠÕ¢Õ¥Õ¼Õ¶ Õ¡Õ¿Õ¡ÖĢ
ĠÕĮÕ¸ÖĤÕ½Õ¡Õ½Õ¿ Õ¡Õ¶Õ«Õ¶
ĠÕ¯Õ´Õ¡Õ½Õ¶ Õ¡Õ¯ÖģÕ«
ĠÕ¡ÕµÕ¢ Õ¢
Õµ Õ¡Õ¯Õ¸ÖĤÕ´
Õ¾ Õ¡Õ¶Õ«Öģ
Õ¡Õ¾ Õ¸
Õ¯ Õ¥Õ¶Õ¿ÖĢÕ¸Õ¶
Õ¡Öģ ÖĢÕ¥ÖĦ
ĠÕ¿ Õ¸ÖĤÖĢÕ«
ĠÕ½ Õ¸ÖĤÕ¿
ĠÕ¾ Õ¥Õ°
ĠÕ¡Õ¶ Õ¥Õ¬Õ«ÖĦ
ĠÕ¹ Õ¶
Õ· Õ«Õ¼
Õ«Õ¯ Õ¶Õ¥ÖĢÕ«Õ¶
ĠÕ¡Õ¼Õ¡Õ» Õ¡Õ¤ÖĢÕ¥Õ¬
ĠÔ² Õ¡Õ¶
ĠÔ³ Õ¶
Ô³ Õ¡Õ¦
Ô´ Õ¥Õ¼
ĠÕ°Õ«Õ´ Õ¸ÖĤÕ¶ÖĦ
ĠÕ¿Õ¥Õ½ Õ¡Õ¯Õ¡Õ¶
Õħ Õ¸ÖĤÕ¾
ĠÕ·Õ¡Õ¿ Õ¥ÖĢÕ«
ĠÕ¡Õ¶Õ° Õ¡Õ¾
ĠÕ´Õ¿ ÖĦÕ«
ĠÕ®Õ¡Õ¼Õ¡Õµ Õ¸Õ²Õ¶Õ¥ÖĢÕ«
Õ¡Õ¬Õ« ÖĦÕ«
ĠÕºÕ¡Õ·Õ¿ÕºÕ¡Õ¶ Õ¸ÖĤÕ©ÕµÕ¸ÖĤÕ¶
ĠÕ¢Õ¡Õª Õ¡Õ¯
ĠÕ²Õ¥Õ¯Õ¡Õ¾Õ¡ÖĢ Õ¸ÖĤÕ©ÕµÕ¸ÖĤÕ¶Õ¨
ĠÕ°Õ¥Õ¿Öĩ Õ«Öģ
Ô±Õ¶ Õ¯Õ¡ÕŃ
ĠÔ¾ Ô±ÕĮÔ±Õħ
ĠÕ´Õ¥Õ² Õ¡Õ¤ÖĢÕ¸ÖĤÕ´
ÕĤ Õ¡ÖĢÕ¡Õ¢Õ¡Õ²
ed es
ĠT witter
ĠÕ°Õ¡Õ¦ Õ«Õ¾
ĠÕ°Õ«Õ· Õ¡Õ¿Õ¡Õ¯Õ«
ĠÕ¢Õ¥ÖĢ Õ¥Öģ
ĠÕ¿Õ¥ÕŃÕ¶ Õ«Õ¯Õ¡ÕµÕ«
ĠÕ°Õ¡Õ»Õ¸Õ² Õ¸ÖĤÕ©ÕµÕ¡Õ´Õ¢
ĠÕ¯Õ¥ÖĢÕº Õ¡ÖĢ
ĠÕºÕ¡Õ°ÕºÕ¡Õ¶ Õ¥Õ¬Õ¸ÖĤ
ĠÕ°Õ¡Õ¶Õ£ Õ¸ÖĤÖģ
Ġ199 7
200 5
ĠÕ¡Õ¹ ÖĦÕ¥ÖĢÕ¨
ĠÕ´Õ¥Õ¯Õ¶Õ¡Õ¢Õ¡Õ¶ Õ¸ÖĤÕ©ÕµÕ¸ÖĤÕ¶
ĠÕ°Õ¡Õ»Õ¸ÖĢÕ¤ Õ¸Õ²
ĠÕ°Õ¡Õ¶Õ¤Õ«ÕºÕ¸ÖĤÕ´ Õ«Öģ
Õ¡Õ£Õ¶ Õ¡Öģ
Õ¡Õ¢Õ¥ÖĢÕ¾ Õ¥Õ¬
Õ¡Õ¿Õ¶Õ¿Õ¥Õ½ Õ¡Õ¯Õ¡Õ¶
ĠÕķÖĢ Õ¡Õ©Õ¥ÖĢÕ©
ĠÕ£Õ¶Õ¤ Õ¡ÕºÕ¥Õ¿
ĠÕ¶Õ¸ÖĢÕ´ Õ¡Õ¿Õ«Õ¾
ĠÕ»Õ¡Õ¶ÖĦ Õ¥ÖĢÕ¨
ĠÕ¾Õ¯Õ¡Õµ Õ¡Õ¯Õ¸Õ¹
ĠÕĬÕ¸Õ² Õ¸Õ½
ĠÖĥÕ¶Õ¿ÖĢ Õ¥Õ¬
ĠÕ°Õ¸ÖĤÕ·Õ¡ÖĢÕ± Õ¡Õ¶Õ¶Õ¥ÖĢÕ«
ĠÕ¾Õ¶Õ¡Õ½Õ¾Õ¡Õ®ÖĦ Õ¶Õ¥ÖĢ
ĠÕ¡ÖĢÕ¤ÕµÕ¸ÖĤÕ¶Õ¡Õ¢Õ¥ÖĢ Õ¸ÖĤÕ©ÕµÕ¡Õ¶
ĠÕ¯Õ¥Õ¶Õ½Õ¡Õ©Õ¸Õ· Õ¡Õ¯Õ¡ÕµÕ«Õ¶
ĠÕ¡Õ¦Õ¡Õ¿Õ¡Õ¦ÖĢÕ¯ Õ´Õ¡Õ¶
ĠÕ¬Õ¥Õ£ Õ¥Õ¶Õ¤
ÕıÕ¡ÖĢÕ¡Õ® Õ¥Õ¬
ĠÕķÖĢÕ¥Õ¶ Õ½
Õ¶Õ¶Õ¤ ÕµÕ¡Õ¶
Ô¾Õ¡Õ¼Õ¡Õµ Õ¸ÖĤÕ©ÕµÕ¸ÖĤÕ¶Õ¶Õ¥ÖĢ
ĠÕ¸Õ¼ Õ¸Õ£Õ´Õ¡Õ¶
Ġvi ews
o x
v is
ÖĢ Õ¸Õ½Õ«
ĠÕ° Õ¸ÖĤÕ¬Õ«Õ½
Õ¸ÖĤÕ© Õ«
ĠÕ§ Õ«ÖĢ
Õ¯ Õ¡ÕºÕ¥Õ½
Õ¤ Õ¥Õº
ĠÕ£ Õ¶Õ¥ÖĢÕ¨
Õ¡Õ¬ Õ¥Õ¦Õ¸ÖĤ
ĠÕ© Õ«Õ¯
ĠÕ°Õ¡Õ´ Õ¥ÖĢÕ¡Õ·ÕŃ
Õ¡Õ² Õ©Õ«
Õ«Õ¯ Õ¡ÕµÕ«Õ¶
Õ¸ÖĤÕµ ÖĦÕ¨
ĠÕĦ Õ«ÕŃ
ÕĨ Õ´Õ¡Õ¶
Ôµ ÕĬÕĢ
Ôµ Õ¾ÖĢÕ¸ÕºÕ¡Õ¯Õ¡Õ¶
ĠÕ¦ ÖĢ
ĠÕ¦ Õ¥ÖĢÕ®
ĠÔ¿ Õ¥Õ¶Õ½
ĠÕªÕ¡Õ´ Õ¡ÖģÕ¸ÖĤÕµÖģ
ĠÖħÖĢ Õ¥ÖĢÕ½
ĠÔ» Õ»
Õ¡ÖĢÕ¾ Õ¥Õ¶
ĠÕ³ Õ¡Õ¼
ĠÕ¡Õ¦ Õ¡Õ¿Õ¾
ĠÕı ÔµÕĤ
ĠÖĨ Õ¸ÖĤÕ¶Õ¯Öģ
ÕĬ Õ¡ÖĢÕ¸Õ¶
ĠÕ¿Õ¥Õ½ Õ¡Õ¯Õ¨
ĠÕĩ Õ¥Õ¶Õ£
ĠÕŃÕ´Õ¢ Õ¸ÖĤÕ´
ĠÕ¨Õ¶Õ¿ÖĢ Õ¸ÖĤÕ©ÕµÕ¸ÖĤÕ¶Õ¶Õ¥ÖĢÕ«Öģ
ĠÕ¡ÖĢ Õ¡Õ®
ĠÕ°Õ¥Õ¼ Õ¡Õ¶Õ¸ÖĤÕ´
ĠÖĥÕ¸ÖĢÕ± Õ¡ÖĦÕ¶Õ¶
Õ¥Õ£ Õ¥ÖĢ
ĠÕ´ÖĢÖģ Õ¡Õ·Õ¡ÖĢÕ«
ĠÕºÕ¡Õ¿Õ³Õ¡Õ¼ Õ¶Õ¥ÖĢÕ¨
ĠÕ´Õ¡ÖĢÕ´ Õ¶Õ«Õ¶
ĠÕ½Õ«ÖĢ Õ¡Õ°Õ¡ÖĢ
ĠÕºÕ¡Õ°Õ¡Õ¶Õ» Õ¨
ĠÕ´Õ¥Õ² Õ¡Õ¤ÖĢÕ¥Õ¬
ĠÕ¸Õ¬Õ¸ÖĢÕ¿ Õ¶Õ¥ÖĢÕ«
ĠÕ¯Õ«ÖĢ Õ¡Õ¼Õ¸ÖĤÕ´
ÖĢÕ¡Õ° Õ¸Õ½
Ô±Õ¼ Õ¡Õ¾Õ¸Õ¿
ĠÕ¡Õ¯Õ¿Õ«Õ¾ Õ¸ÖĢÕ¥Õ¶
Õ¨Õ¶Õ¤ Õ°Õ¡Õ¶Õ¸ÖĤÖĢ
Õ£ÖĢ Õ¥Õ½Õ«
Õ¡Õ¶Õ· Õ¡Õ¶
ĠÕŃÕ¡ÕŃÕ¿ Õ¸ÖĤÕ´Õ¶Õ¥ÖĢÕ«
ĠÕ£Õ¸ÖĢÕ®Õ¨Õ¶Õ¯Õ¥ÖĢ Õ¶Õ¥ÖĢÕ¨
ĠÕ¯Õ¥Õ¿ Õ¨
ĠÖħÖĢÕ¥Õ¶Õ½Õ£ÖĢ ÖĦÕ¸Õ¾
ĠÕ£Õ¬ÕŃ Õ«Õ¶
ĠÕįÕ«Õ´ Õ¸Õ¶ÕµÕ¡Õ¶Õ¨
ÔµÕ² Õ¡Õ¶Õ¡Õ¯Õ¨
ĠÕİÕ¡Õ¬ Õ¥ÖĢÕ«
ĠÕįÕ¿Õ¥ÖĥÕ¡Õ¶Õ¡Õ¯Õ¥ÖĢÕ¿ Õ«
ĠÕĬÖĢ Õ¥Õ´Õ«Õ¥ÖĢ
ĠÕ¤Õ«Õ¶ Õ¡Õ´
ind ows
Õ¡Õ¶Õ¡Õ¯Õ¥ÖĢÕº Õ«
9 5
N et
p r
Ġ r
ÖĢ Õ¡Õ¤
Õ¿ Õ¸ÖĤÕ´
ĠÕº Õ¡Õ¼
ĠÕº Õ«Õ¿
ĠÕ« Õ¶Õ¤
ĠÕ¤ Õ¡Õ¶Õ¡Õ¯
Õ¡Õ° Õ¡ÖĢÕ¾Õ¡Õ®
Õ¢ Õ«Õ¶
Õ¥Õ² Õ«Õ¶
ÕĢ Ôº
Õ¡Õ¦ Õ¡ÖĢ
ĠÕį Õ«Õ¬
Õ¸Öģ Õ¶Õ¥ÖĢ
Õ± Õ£
ĠÔ² Õ¡ÕŃ
ĠÕ± Õ¸ÖĢÕ«
ĠÕ¶Õ¥ÖĢÕ ŃÕ¸ÖĤÕª
ĠÕİ Õ«ÖĢ
ÕĪÕĴ Õı
Öħ Õ¿
ĠÖħÖĢ Õ«Õ£
ĠÕĬ Ô±ÕĩÕı
Ô³ Ô¼
ĠÕĮ Õ¸Õ½Õ¿
ĠÕ¬Õ«Õ¶ Õ¥Õ¶ÖĦ
ĠÔ½ Õ¶Õ¤ÖĢÕ¸ÖĤÕ´
ĠÔ¶ Õ¸ÖĢ
Õ¸ÖĤÕ¶Õ¡Õ¯ Õ¸ÖĤÕ©ÕµÕ¡Õ¶
Õ¡ÕºÕ¡Õ° Õ¶Õ¥ÖĢÕ«
ĠÕ¡ÖĢÕª Õ¥ÖĦÕ«
Õ¡ÖĢÕ½ Õ«
ĠÕ¡Õ¼Õ¡Õ»Õ¶ Õ¸ÖĤÕ©ÕµÕ¸ÖĤÕ¶
ĠÕ°Õ¡Õ²Õ© Õ¡Õ°Õ¡ÖĢÕ¥Õ¬
ĠÕ¡Õ¶ÖģÕ¯Õ¡Öģ Õ¾Õ¸Õ²
ĠÕ¥ÖĢÕ£ Õ¥ÖĢ
ĠÕ¸Õ½Õ¿Õ«Õ¯Õ¡Õ¶ Õ¸ÖĤÕ©ÕµÕ¸ÖĤÕ¶
ĠÐ Ŀ
Ġ25 0
ÕĦÕ« Õ¡ÕµÕ¶
ĠÕŃÕ¡Õ²Õ¡Õ² Õ¸ÖĤÕ©ÕµÕ¸ÖĤÕ¶
Õ¡Õ¿Õ¸ÖĤÕ¶ Õ¨
ĠÔ²Õ¡Õ¢ Õ¡ÕµÕ¡Õ¶Õ¨
ĠÕ´Õ¡Õ¿Õ¸ÖĤÖģ Õ¥Õ¬
ĠÕ´Õ«Õ¿ Õ¾Õ¡Õ®
Õ¸Õ¼Õ¸ÖĤÕºÖģ Õ«Õ¸Õ¶
ĠÕ°Õ¥Õ·Õ¿ Õ¸ÖĤÕ©ÕµÕ¡Õ´Õ¢
ĠÕĤÕ¡Õ¦ Õ¡ÖĢÕµÕ¡Õ¶Õ¨
ĠÕ°Õ¡Õ·Õ«Õ¾ Õ¨
ĠÕ¸Õ¿ ÖĦÕ«
ĠÕ¥ÖĢÕ¡Õ·ÕŃ Õ«ÖĦ
ĠÔ±Õ¦Õ¡Õ¿ Õ¸ÖĤÕ©ÕµÕ¡Õ¶
Õ½Õ¿ÖĢ Õ¡Õ¬
ĠÕĨÕ¸ÖĤÕµÕ¶ Õ«Õ½Õ¯
ĠÖħÖĢÕ¡Õ©Õ¥ÖĢÕ© Õ«
ĠÕķÕ½ Õ´Õ¡Õ¶ÕµÕ¡Õ¶
ĠÕ½Õ¿Õ¸ÖĢÕ¡Õ¢Õ¡ÕªÕ¡Õ¶Õ¸ÖĤÕ´ Õ¶Õ¥ÖĢÕ«
ĠÔ±ÖĢÖĥ Õ«Õ¶Õ¥
ĠÕ¡ÖĢÕ¿Õ¥ÖĢÕ¯ ÖĢÕ¸ÖĤÕ´
ĠÕ°Õ«Õ¡Õ½ Õ©Õ¡Öĥ
ĠÕ½Õ¯Õ¡Õ¶Õ¤ Õ¡Õ¬
ĠÕ§Õ¬Õ¥Õ¯Õ¿ÖĢÕ¡Õ§Õ¶Õ¥ÖĢÕ£ Õ«Õ¡ÕµÕ«
ĠÕªÕº Õ«Õ¿
ĠÕ¶Õ¡ÕŃÕ¡Õ¦Õ£ Õ¸ÖĤÕ·
u g
Õ¡Õ¶ Õ¸ÖģÕ«
Õ«Õ ±
ĠÕ¯ Õ¸Õ³
Õ¡Õ¿ Õ¶Õ¥ÖĢÕ¨
Õ¡Öģ Õ¸ÖĤÕ´Õ¶Õ¥ÖĢÕ¨
ĠÕ¿ Õ¡ÖĦÕ½
Õ¸ÖĢ Õ¸Õ¾
Õ¬ Õ«Õ½
ĠÔ± ÕºÖĢÕ«Õ¬Õ«
ĠÕ¸ÖĢ Õ¡Õ¯Õ¨
Õ¡Õº Õ«
ĠÕ°Õ¡Õ´ Õ¡ÖĢÕ¨
Õ¥Öģ Õ«ÖĢ
Õ· Õ¡Õ¯Õ¡Õ¶
ĠÕĦ ÔµÕĲ
ĠÕį Õ´Õ¢
ÕĦ Õ¥Õ¯Õ¶
Õ«Õ¿ Õ²
Õ«Õ´ Õ¡Õ¬
âĢ º
Õ° Õ¸Õ¾Õ¡ÕµÕ«
ĠÔ¿ Õ¡Õ¬Õ«ÖĨ
ĠÕİ Õ¸Õ¬
ĠÕ½Õ¿ Õ¡Õ¶Õ±Õ¶
ĠÕ¡ÕµÕ¤ ÕºÕ«Õ½Õ«Õ¶
Ô³ ÕĨ
ĠÕı ÔµÕįÔ±ÕĨÕħÕĪÕĴÔ¹
ĠÕºÕ¡Õ·Õ¿ ÕºÕ¡Õ¶Õ¸ÖĤÕ´
ÖħÖĢ Õ«Õ¶
ĠÕŃÕ¸Õ½ Õ¥Öģ
ĠÕĩ ÖĢÕ»
ĠÕ¿Õ¶ Õ¡ÕµÕ«Õ¶
Ġ4 1
Õĩ Õ«ÖĢÕ¡Õ¯Õ«
ĠÕ¡Õ¶Õ¤Õ¡Õ´ Õ«
ĠÕ°Õ¸Õ¤Õ¾Õ¡Õ® Õ¶Õ¥ÖĢÕ¨
ĠÕ¡ÖĢÕ¤ÕµÕ¸ÖĤÕ¶ ÖĦÕ«
Õ¥Õ²Õ¥Öģ Õ«Õ¯
ĠÕ¡Õ¦Õ¤ Õ¥Õ¬
ĠÕĳ Õ¡Õ¾
Õ¥Õ¶Õ¤ Õ¡Õ¶
ĠÕ¤Õ¡Õ¼Õ¶Õ¡Õ¬ Õ¸Õ¾
ĠÕ«Õ¶Õ½Õ¿Õ«Õ¿Õ¸ÖĤÕ¿ Õ¨
ĠÕ¯Õ¡Õ¬ Õ¡Õ¶ÖĦÕ«
ĠÕ£Õ¸Õ¿ Õ¸ÖĤ
ĠÕ¶Õ¡Õ¾ Õ©Õ«
ail y
ĠÕ©Õ¡Õ¶Õ£ Õ¡ÖĢÕ¡Õ¶Õ«
iv e
ĠÕ½ÕºÕ¡Õ¼ Õ¡Õ¦Õ«Õ¶
Õ¬Õ«Õ´Õº Õ«Õ¡Õ¤
ĠÕ£Õ¸Õ¾Õ¡Õ¦Õ¤ Õ¡ÕµÕ«Õ¶
ĠÕ«ÖĢÕ¡Õ¾Õ¡Õ½ Õ¸ÖĤ
op yr
ĠÕ¾Õ¥ÖĢÕ¡Õ¶Õ¸ÖĢÕ¸Õ£ Õ´Õ¡Õ¶
ÖħÕ£Õ¶ Õ¸ÖĤÕ©ÕµÕ¡Õ¶
ĠÕıÕ¶Õ¿Õ¥Õ½ Õ¸ÖĤÕ©ÕµÕ¸ÖĤÕ¶
ĠÕ°Õ¡Õ¿Õ¯Õ¡Õ¶Õ«Õ· Õ¶Õ¥ÖĢÕ¸Õ¾
ĠÕķÕ£ Õ¸Õ½Õ¿Õ¸Õ½Õ«
ĠÖĥÕ«Õ¬Õ«Õ½Õ¸Öĥ Õ¡Õµ
erk ir
c i
p e
Õ¡Õ¶ Õ¶Õ¥ÖĢÕ¸ÖĤÕ´
Õ¸Õ ª
ĠÕ¯ Õ¡ÖĢÕ¯
Õ¸ÖĤÕ¶ ÕµÕ¡Öģ
Õ¡Õ¯Õ¡Õ¶ Õ¸ÖĤÕ©ÕµÕ¸ÖĤÕ¶Õ¨
Ô± Õ¶Õ¶Õ¡
ĠÕ« Õ¤
ĠÕ£ Õ¶Õ¥ÖĢÕ«
Õº Õ«Õ¿Õ¡Õ¬
ĠÕ¡Õ¶ Õ¡Õ½Õ¶
Õ¡Õ² Õ¢ÕµÕ¸ÖĤÖĢ
ĠÕŃ Öģ
Õ¥Öģ Õ¶Õ¥Õ¬Õ¸Õ¾
Õ¡Õ¤ Õ¡ÖĢÕµÕ¡Õ¶
Õ¸ÖĤÕµ ÖĢÕ¨
ĠÕĦ Õ¥Õ»
ĠÕĦ Õ¸Õ¬Õ¤
Ôµ Ô¶
ĠÕºÕ¡Õ¿ Õ¡Õ¶Õ«Õ¶
âĢ ı
ĠÕ¦ Õ¥Õ²
Õ½Õ¿ Õ¡Õ´Õ¢
Õ½Õ¿ Õ¡Õ¶Õ¸ÖĤÕ´
ĠÔ³ Õ¡ÕµÕ¡Õ¶Õ¥
ĠÕ°Õ¡ÖĢ Õ¡Õ¾Õ¡ÕµÕ«Õ¶
Õİ Õ¡Õ²
Õ¡Õ¤ÖĢ Õ¥Õ¬Õ¸Õ¾
ĠÔ¼ Õµ
Ô¼ Õ¸ÖĤÕ½Õ¡Õ¶Õ¯Õ¡ÖĢ
Ô¼ Õ«Õ¾Õ¥ÖĢÕº
ĠÕ¡Õ´Õ¥Õ¶ ÖħÖĢÕµÕ¡
Õ¡ÖĢÕ¡Õ¶ Õ¡ÕµÕ«Õ¶
ĠÕ¯Õ¡Õµ Õ¡ÖģÕ´Õ¡Õ¶
ĠÕ¢Õ¡Öģ Õ¸ÖĤÕ´
ĠÕ¢Õ¡Öģ Õ¡Õ¯Õ¡ÕµÕ¸ÖĤÕ´
ĠÔ· Õ½
ĠÕ¶Õ¡ÕŃÕ¡ÖĢÕ¡ÖĢ Õ¸ÖĤÕ©ÕµÕ¸ÖĤÕ¶Õ¸ÖĤÕ´
ĠÕ¥Õ¯ Õ¸Õ²
ĠÕ¯Õ¡ÖĢÕ£ Õ¡Õ¾Õ¸ÖĢÕ¸ÖĤÕ´
ĠÕ¤Õ«Õ´ Õ¥Õ¬Õ¸ÖĤ
ĠÖģÕ¡Õ¶Õ¯ Õ¸ÖĤÕ´
or k
Õ¸Õ¾Õ° Õ¥Õ¿Öĩ
ĠÕ¶ÕºÕ¡Õ¿Õ¡Õ¯ Õ«Õ¶
ĠÕ½Õ«ÖĢ Õ«Õ¡Õ¯Õ¡Õ¶
it e
ĠÕ¹Õ¡Öĥ Õ«
ĠÕ½Õ¯Õ¦Õ¢ Õ«Öģ
ĠÕįÕ¿ Õ¥Õ²Õ®
ĠÕ¯Õ«Õ¶ Õ¸ÖĥÕ¡Õ¼Õ¡Õ¿
ĠÕ¡ÖĢÕ£Õ¥Õ¬ Õ¸Öģ
hy an
ĠÖĥÕ¸Õ²Õ¸Öģ Õ¶Õ¥ÖĢÕ«
ĠÕĥ Õ¡Õ¶Õ¡ÕºÕ¡ÖĢÕ°
ĠÔ¿Õ¡ÖĢÕ¡ÕºÕ¥Õ¿ ÕµÕ¡Õ¶
Ðµ ÑĢ
ĠÕ¢ÕªÕ· Õ¯Õ«
ĠÕ°Õ¡Õ´Õ¡Õ£Õ¸ÖĢÕ®Õ¡Õ¯Öģ Õ¥Õ¬
ĠÕºÕ¡ÖĢÕ¿Õ¡Õ¾Õ¸ÖĢ Õ¸ÖĤÕ©ÕµÕ¸ÖĤÕ¶Õ¶Õ¥ÖĢÕ¨
ĠÕĢÕ¥Õ¿ ÖĦ
Õ¥Õ¶Õ½ Õ«Õ¾
ĠÕĦÕŃÕ«Õ© Õ¡ÖĢ
ĠÔ³Õ¥Õ² Õ¡Õ´
II I
Ô¿Õ¡Õ¶ Õ¡Õ¶Öģ
ĠÖħÖĢÕ¡Õ©Õ¥ÖĢÕ© Õ¨
ĠÕĶÕ¡Õ²Õ¡ÖĦ Õ¡ÖģÕ«Õ¡Õ¯Õ¡Õ¶
ĠÕ£Õ«Õ¿Õ¡Õ¯Öģ Õ¸ÖĤÕ´
ĠÕ¯Õ¶Õ¥ÖĢÕ¯Õ¡Õµ Õ¡ÖģÕ¶Õ«
ĠÕ°Õ¥Õ¼Õ¸ÖĤÕ½Õ¿Õ¡Õ¨Õ¶Õ¯Õ¥ÖĢ Õ¸ÖĤÕ©ÕµÕ¡Õ¶
ĠÕ¿ÕŃ Õ¸ÖĤÖĢ
ĠÕ¹Õ°Õ¡Õ´ Õ¨Õ¶Õ¯
ÕµÕ¸ÖĤÕº Õ¡Õ¿
opyr ight
Ġ =
ĠÕ° ÕµÕ¸ÖĤÕ½
ĠÕ¯ ÖħÕ£Õ¶
ĠÕ¯ ÖĢÕ¿Õ½Õ¥ÖĢ
ĠÕ¥ ÖĢÕ¡Õ¶
Õ¡Õ¿ Õ¡ÖĢÕ¨
Õ´ Õ¡ÖĢ
Õ´ Õ¸ÖĤÕ¶ÖĦÕ¨
Õ½ Õ¥Õ¶
Õ½ Õ«ÖĢ
Õ¯ Õ¸
Õ¥Õ¶ Õ¡Õ¬
Õ¸Õ² Õ¸Õ´
Ô± Õ¿
ĠÔ± Õ£
ĠÕĢ Õ¸ÖĤÕ¬Õ«Õ½Õ«
Õ¢ Õ¡Õ¶Õ¯
Õ¡Õ¼ Õ¡Õ¯Õ¡Õ¶
Õ¡Õ¾Õ¸ÖĢ Õ¸Õ²
ĠÕ´Õ« Õ¡ÖģÕ¥Õ¬
Õ¥Õ¬Õ« Õ¸ÖĤÕ©ÕµÕ¡Õ¶
ĠÔ² Õ«Õ¬
ÖĢÕ¾ Õ¡Õ¶Õ¤
ĠÔ» Õ¿
Õª Õ¡Õ´
ĠÕ¯Õ¡Õ´ ÖĢÕ»
ĠÔ¹ Õ¥ÖĢ
ĠÕĮ Õ¥Õ»
ĠÕĶ Õ«Õ´
Õ«Õ½Õ¿ Õ«
Õ«Õ½Õ¿ Õ¶Õ¥ÖĢÕ¨
ĠÕŃÕ¡Õ² Õ¥ÖĢÕ¨
ĠÕ¡Õ¶Õ° Õ¡Õ½Õ¯Õ¡Õ¶Õ¡Õ¬Õ«
Õ¸Õ¯ Õ«
ĠÕ¶Õ¡ÕŃÕ¡ÖĢÕ¡ÖĢ Õ¶
Ô¾ ÖĢÕ¡Õ£ÖĢÕ«
ĠÕ¸ÖĤÕ¶Õ¥Õ¶ Õ¡Õ¶
ĠÕ´Õ¡Õ½Õ¶Õ¡Õ¯Öģ Õ¸ÖĤÕ©ÕµÕ¸ÖĤÕ¶
Õ¥Õ£ Õ¶
ĠÕ¢Õ¡ÖĢ Õ¥ÖĢ
ĠÕĪÖĤ Õ¦Õ¸ÖĤÕ´
ĠÕ¤ÖĢÕ¡Õ´ Õ¨
Õĳ Õ¸ÖĤÖģ
ĠÕ¤ÖĢ Õ¸ÖĤÕµÕ©Õ¶Õ¥ÖĢ
ĠÕ´Õ·Õ¡Õ¯ Õ¸ÖĤÕµÕ©Õ¨
ÕµÕ¸ÖĤÕ ¤
ĠÕ¯Õ¡ÖĢÖĩÕ¸ÖĢ Õ¥Õ¬
ĠÕ¶Õ¥ÖĢÕ¤ Õ¡Õ·Õ¶Õ¡Õ¯
ĠÕ¡Õ¾Õ¡ÖĢÕ¿ Õ«Öģ
ĠÖĦÕ¡ÕµÕ¬ Õ¥ÖĢÕ«
Õ¥ÖĢÕ¯ ÖĢ
Õ¡ÖĦÕ¡Õ¶Õ¹ ÕµÕ¸ÖĤÖĢÕ¨
ĠÕ¯Õ´ Õ¥Õ¯Õ¶
ĠÕºÕ¡Õ¿Õ£Õ¡Õ´Õ¡Õ¾Õ¸ÖĢ Õ«
ÔµÕį Ô¿
ĠÕ¾Õ½Õ¿Õ¡Õ° Õ¸ÖĤÕ©ÕµÕ¸ÖĤÕ¶
is s
ĠÕ¸ÖĤÕ½Õ¸ÖĤÕ´Õ¶ Õ¡Õ½Õ«
ĠÕĤÕ¡ÖĢÕ¡Õ¢Õ¡Õ² ÕµÕ¡Õ¶
Ô±Ô¼ Ô»ÕĶ
ĠÕ¡ÖĢÕ¾Õ¥Õ½Õ¿ Õ¨
ĠÔ±ÖĢÕ ¦
ĠÕĶÕ¸Õ¹ Õ¡ÖĢÕµÕ¡Õ¶Õ«Õ¶
ĠÕĨÕ¡ÕŃ Õ«Õ»
ĠÕ¯Õ¥Õ¿ Õ¸ÖĤÕ´
Õ¾Õ¡Õ®ÖĦ Õ¶Õ¥ÖĢ
ĠÕ¤Õ¡Õ·Õ¿ Õ«
ĠÕĢÕ¸ÖĤÕ¶ Õ¾Õ¡ÖĢÕ«
ĠÔ±Õ½Õ¿Õ® Õ¸ÖĤ
ĠÕ£ÖĢÕ¡Õ½Õ¥Õ¶Õµ Õ¡Õ¯Õ¨
ĠÕ¯Õ½Õ¿ Õ¥Õ²Õ®
ÕĢÕ«Õ´ Õ¶
ĠÕ³Õ¶Õ· Õ¸ÖĤÕ´
ĠÔ²Õ¥Õ¬ Õ£
ĠÕĦÕ«Õ¶Õ¹ Õ¤Õ¥Õ¼
ĠÕĦÕ¡Õµ Õ«Õ½
ĠÕ£ÖĢÕ¡Õ¼ Õ¸ÖĤÕ´Õ¶Õ¥ÖĢÕ¨
ĠÕ¬ÖĦ Õ¥Õ¬
ĠÕ¥Õ¶Õ©Õ¡Õ¯Õ¡Õ¼Õ¸ÖĤÖģ Õ¾Õ¡Õ®ÖĦÕ¶Õ¥ÖĢÕ«
Õ¸ÖĤÕ¬Õ² Õ¡ÖĢÕ«
Õ¡Õ¢Õ¡ÖĢÕ± Õ¸ÖĤÕ¶Õ¥ÖĢÕ«
Õ¾Õ¯ Õ«Õ¡Õ¶
ĠÕ¡ÕµÕ¢Õ¢ Õ¥Õ¶Õ¡Õ¯Õ¡Õ¶
i es
l ur
Ð ĺ
Ġ >
Õ¡Õ į
ĠÕ° Õ¶Õ¤
ĠÕº Õ¸Õ¿
ĠÕ£ ÖĢÕ¯
ĠÕ¤ Õ¤
ĠÕ¢ ÕŃÕ¸Õ²
ĠÕĢ Õ¥Õ¿Öĩ
ĠÕĢ ÕĸÕĸ
Õ£ Õ¡
Õ¡Õº Õ¸Õ¬
ĠÕŃ Õ¿ÖĢÕ¡Õ¯Õ¡Õ¶
Õ«Õ¯ Õ¸Õ¾
ĠÕĦ Õ¡ÕµÖĦ
ĠÕį Õ¾
ĠÕį Õ¸ÖĨ
ĠÕ°Õ¡Õµ Õ¸ÖĤÕ©ÕµÕ¡Õ¶
Õį Õ¡Õ´
Õ«Õ¾ Õ¡Õ¶
Õ® Õ¡Õ¶Õ¸Õ©
Õı ÔµÕį
ĠÖħÖĢ Õ«Öģ
Ô² Õ¡Õ¶Õ¯
Õ¶Õ¡Õ¯ Õ¡Õ¬
Ô¼ Õ¸Õ¼Õ¸ÖĤ
ĠÕ¡Õ´Õ¥Õ¶ Õ¸ÖĤÖĢ
ĠÕ¡Õ´Õ¥Õ¶ Õ¡Õ©
ĠÕĪ ÖĢÕ¤
Õ¥Õµ ÖĢ
Õ¸ÖĦ Õ½
ĠÕķ ÖĢÕ¾Õ¡
at eg
ĠÕī Õ«
ĠÕ¶Õ¥ÖĢ Õ¸Õ²Õ¸ÖĤÕ©ÕµÕ¸ÖĤÕ¶
ĠÕ¡ÖĢÕª Õ¥
ĠÕ¡ÖĢÕª Õ¥Õ©Õ²Õ©
ĠÕ«Õ¶ÖĦÕ¶ Õ¥ÖĢÕ¤
ĠÕ°Õ¡Õ¾Õ¡ÖĦ Õ¾Õ¡Õ®
ĠÕ£Õ¸ÖĢÕ®Õ¸Õ² Õ¸ÖĤÕ©ÕµÕ¸ÖĤÕ¶
ĠÔ¾ ÖĢÕ¡Õ£ÖĢÕ«
ĠÕ°Õ¡Õ²Õ¸ÖĢÕ¤ Õ¡Õ£ÖĢÕ¸ÖĤÕ©ÕµÕ¸ÖĤÕ¶
Ġ0 5
ĠÕ¬Õ¸ÖĤÕ½ Õ¡Õ¢Õ¡Õ¶
ĠÕ½Õ¿Õ¸ÖĢ Õ¡Õ£ÖĢÕ¾Õ¡Õ®
ĠÕ°Õ¡Õ³Õ¡ÕŃ Õ¡Õ¯Õ«
ĠÕºÕ¡Õ¿Õ£Õ¡Õ´Õ¡Õ¾Õ¸ÖĢ Õ¶Õ¥ÖĢÕ¨
ĠÕ¯Õ«Õ¶ Õ¸ÕµÕ«
Ô±Ô³ ÕĪÕĲÔ¾
ĠÕ°Õ¥Õ¿Õ¡Õ¦Õ¸Õ¿ Õ¡Õ¯Õ¡Õ¶
Õ¸ÖĢÕ¾ Õ¥Õ£
ĠÕ°Õ¡Õ¶ÖĢÕ¡ÕºÕ¥Õ¿ Õ¸ÖĤÕ©ÕµÕ¸ÖĤÕ¶Õ¸ÖĤÕ´
Õ¶Õ¿ Õ«ÖĢ
ĠÕ¾Õ¥ÖĢÖģ Õ¶Õ¸ÖĤÕ´
ĠÖĥÖĢÕ¯ Õ¥Õ¬
ĠÖĥÕ¡Õ½Õ¿Õ¡Õ©Õ²Õ© Õ«
ĠÕ¡ÖĢÕ±Õ¡Õ¯ Õ¾Õ¥Õ¬
ĠÕĢÕ¸ÖĤÕ¶ Õ«Õ½
ĠÕ¿Õ¡ÖĢÕ¡Õ®ÖĦ Õ¶Õ¥ÖĢ
ĠÕ¤Õ¡Õ¤Õ¡ÖĢ Õ¥ÖģÕ¶Õ¥Õ¬
ĠÕ¡Õ²Õ¢ÕµÕ¸ÖĤÖĢ Õ¶Õ¥ÖĢÕ«
Õ¡Õ·Õ¾ Õ«Õ¬Õ«Õ¶
ĠÕ¯Õ¶ÖĦ Õ¥Õ¬
ĠÕ¤Õ¥ÖĢÕ¡Õ½Õ¡Õ¶ Õ¸ÖĤÕ°Õ«
ĠÕ¾Õ¥ÖĢÕ¡Õ® Õ¾Õ¥Õ¬
ĠÕ¡Õ¯Õ¡Õ¤Õ¥Õ´ Õ«Õ¡Õ¯Õ¡Õ¶
ĠÕĦÕ¡ÖĢÕ¿Õ«ÖĢ Õ¸Õ½
ĠÔ±ÖĨ ÖĢ
ĠÕ¶Õ¾Õ¡Õ£ Õ¡ÕŃÕ´Õ¢Õ«
ĠÕ°ÖĢÕ¡ÕªÕ¡ÖĢ Õ¡Õ¯Õ¡Õ¶Õ¨
ĠÕ°Õ¡Õ³Õ¡ÕŃÕ¸ÖĢÕ¤ Õ¶Õ¥ÖĢÕ«Õ¶
ĠÕĦÔ»Õĭ Ô±Ô¶Ô³Ô±ÕħÔ»ÕĨ
ĠÕºÕ¡ÖĢÕ¸ÖĤÕ¶Õ¡Õ¯ Õ¸Õ²
ĠÔ³Õ¥ÖĢÕ´Õ¡Õ¶Õ« Õ¡ÕµÕ¸ÖĤÕ´
ĠÕºÕ¡Õ¿Õ³Õ¥Õ¶ Õ¥ÖĦ
ĠÕ¦Õ«Õ¶Õ¾ Õ¸ÖĢÕ«
ĠÕ´Õ¡Õ¶Õ¯Õ¡ÕºÕ¡ÖĢÕ¿ Õ¥Õ¦
6 8
Õ¸ÖĤÕ ³
Õ¡ÖĢ Õ¡ÕµÕ«Õ¶
Õ¥Õ¬ ÖĦÕ«
ĠÕ¯ Õ¬Õ«Õ´
ĠÕ¥ Õ¾ÖĢÕ¸Õº
Õ¯ Õ¨
Õ¯ Õ¼
Õ¸ÖĢÕ ·
ĠÕ£ Õ¡ÖĢ
ĠÕ¤ Õ¡ÖĥÕ¶
ĠÕ¤ Õ¡Õ¶Õ¤Õ¡Õ²
ĠÕ¢ ÕµÕ¸ÖĤÖĢ
Õ¬ Õ¥Õ¿
ĠÕĢ Õ¡Õ½Õ¡Õ¶
ĠÕĢ Õ½Õ¿Õ¡Õ¯
Õ© ÕµÕ¸ÖĤÕ¶
ÕĢ ÕħÔ´
Ô±Õ »
ĠÕ¬ Õ³
ĠÕĦ Õ«Õ°
ĠÕĦ ÕĩÔ±Ô¿ÕĪÕĴÕħÔ¹
ĠÕį Õı
ĠÕį Õ¯Õ¦Õ¢
ĠÕį Õ¡Õ¸ÖĤÕ¤ÕµÕ¡Õ¶
ĠÕį Õ¥ÖĨÕ«Õ¬
Õ¸ÖĤÕ½ Õ¡ÕµÕ«Õ¶
ĠÔ¿ Õ«ÖĢ
ĠÔ² Õ¡Õ¦Õ´
ĠÕ± Õ´Õ¥Õ¼Õ¡ÕµÕ«Õ¶
ÖĢÕ¾ Õ¥Õ¶
Õ«Õ¾ Õ¡Õį
Õ¡Õ¶Öģ Õ«Õ¶Õ¥ÖĢÕ¨
Õ® Õ¡Õ¼
ĠÕİ Õ«Õ¬
Õı ÔµÕĦÔ²ÔµÕĲÔ»
ĠÕ´Õ«Õ» Õ¡Õ¶Öģ
ÕĪÕĴ Ô¿
Ô³ Õ¬
ĠÕ°Õ¡ÕµÕ¿ Õ¶Õ¥Õ¬Õ¸Õ¾
ĠÕ³ Õ¡Õº
ĠÕŃÕ¸Õ½ ÖĦÕ¸ÖĤÕ´
ĠÕŃÕ¸Õ½ ÖĦÕ¶
Ġ4 4
ĠÕķ Õ¬
ĠÕ´Õ¸Õ¿ Õ¡Õ¯Õ¡
er e
ĠÕ£Õ¶ Õ¡Õ³
ĠÕ£Õ¶ Õ¡Õ¬Õ¸Õ¾
Õ¸ÖĤÕ° Õ¸ÖĤÕ¶
Õ¾Õ¥Öģ Õ«
ĠÕ¸ÖĤÕ²Õ² Õ¸ÖĢÕ¤
ĠÕ¡Õ´Õ¢ Õ¡Õ½Õ¿Õ¡Õ¶
ĠÕ°Õ¡ÕµÕ¿Õ¶ Õ¡Õ¢Õ¥ÖĢ
ĠÕ¶ÕºÕ¡Õ¿Õ¡Õ¯ Õ¶Õ¥ÖĢÕ«
ĠÕ¿Õ¶Õ¿Õ¥Õ½ Õ¸ÖĤÕ©ÕµÕ¸ÖĤÕ¶Õ¨
ĠÕ°Õ¡Õ½Õ¡ÖĢÕ¡Õ¯ Õ¸ÖĤÕ©ÕµÕ¸ÖĤÕ¶
Õĵ ÕµÕ¸ÖĤÕ¶
Ġ0 6
Õ«Õ¶Õ£ Õ¨
ĠÕ°Õ¡Õ³ Õ¸ÖĤÕµÖĦ
ĠÕ¯ÖĢ Õ¸Õ¶
ĠÕ¦Õ¢Õ¡Õ² Õ¾Õ¥Õ¬Õ¸ÖĤ
ĠÔ±ÖĢÕ¿ Õ¡Õ¯Õ¡ÖĢÕ£
ĠÕ¶Õ¡ÕŃÕ¡Õ£Õ® Õ¥ÖĢ
ĠÕ£Õ¥ÖĢ Õ¡Õ£Õ¸ÖĤÕµÕ¶
ĠÕ¡Õ¼Õ¸Õ²Õ» Õ¸ÖĤÕ©ÕµÕ¸ÖĤÕ¶
ĠÕ¯Õ° Õ¡Õ½
ĠÕĮÕ¸ÖĤÕ½Õ¡Õ½Õ¿Õ¡Õ¶Õ« Öģ
Ġ199 1
ĠÕ´Õ¡Õ¶ Õ¡Õ¾Õ¡Õ¶Õ¤
ic e
ĠÔ±Õ¢ Õ¸Õ¾ÕµÕ¡Õ¶Õ«
ro id
Õ¾Õ¥ÖĢ Õ¡Õ¶Õ¸ÖĢÕ¸Õ£
ĠÕ°Õ¡Õ¾Õ¥Õ¬ Õ¥Õ¬
Õ¡Õ¯Õ¡Õ¦Õ´ Õ«
ĠÕ§Õ¶Õ¥ÖĢÕ£ Õ«Õ¡ÕµÕ«
ĠÕĪÖĢ ÖĦÕ¡Õ¶
ĠÕĦÕŃÕ«Õ© Õ¡ÖĢÕµÕ¡Õ¶Õ«
ĠÕ¡ÕºÖĢÕ¥Õ¬ Õ¡Õ¯Õ¥ÖĢÕº
ĠÕ¡Õ·ÕŃÕ¡Õ¿Õ¡Õ¾Õ¡ÖĢÕ± Õ¨
ĠIn stagram
ĠÕºÕ¸Õ²Õ¸Õ¿ Õ¡ÕµÕ¸ÖĤÕ´
ĠÕ³Õ£Õ¶Õ¡ÕªÕ¡Õ´ Õ«
ĠÕ¥ÖĢÕ©ÖĩÕ¥Õ¯ Õ¸ÖĤÕ©ÕµÕ¡Õ¶
ĠÕ°Õ«Õ´Õ¶Õ¡ÕŃ Õ¶Õ¤
ĠÕ¯Õ² Õ¦
ĠÕĢÕ«Õ· Õ¥ÖģÕ¶Õ¥Õ¶ÖĦ
ÕĢÕ¥Õ²Õ«Õ¶Õ¡Õ¯ Õ¡ÕµÕ«Õ¶
ĠÔ±ÕĩÔ½ Ô±ÕĲÕĢ
ĠÕĢÕ¡Õ½ Õ´Õ«Õ¯
ĠÕ©Õ¡Õ¿Õ¥ÖĢ Õ¡Õ¯Õ¡Õ¶
Ô¹ÖĢÕ¡Õ´Öĥ Õ¨
Ô¼ÕĤ ÕĢ
ĠÕĸÖĢÕ¡Õ¶Õ¯Õ¸ÖĨ Õ¸Õ¶Õ«Õ¡ÕµÕ«
ĠÕ°Õ¡ÕµÕ° Õ¸Õµ
7 5
l d
Öģ ÖĦ
ĠÕ§ Õ©
ĠÕ§ Õ«ÖĦ
Õ¸Õ² Õ¶Õ¥ÖĢÕ¶
Õ¤ Õ«Õ´
ĠÕ¢ Õ¡Õ¯Õ¸ÖĤÕ´
Õ© ÕµÕ¡Õ¶
ÕĢ Õ¡Õ·Õ¾
Õ¡Õ² Õ«
ĠÕ«Õ¶Õ¹ Õ¸Õ¾
ĠÔ³ Ô±Ô¼Ô±
Õ«Õ¾ Õ¨
Õ¼ Õ¬Õ¡Õ¶Õ¤
ĠÕ¡ÕµÕ¤ Õ¿Õ¥Õ²
ĠÕ´Õ¥Õ¯ Õ¸ÖĤÕ½
ĠÕ¨Õ¶Õ¤ Õ°Õ¡Õ¿
Ô´ Õ¥
ĠÕ£ÖĢ Õ¸Õ°
ĠÔ¹ Õ¡Õ¬
ĠÔ¹ Õ¸Õ´
ĠÕ°Õ¡ÖĢÖģ Õ¡ÖĦÕ¶Õ¶
Õ«Õ½Õ¿ Õ¨
Õ¡Õ³ Õ¡Õ¼Õ¸ÖĤÕ´
ĠÕŃÕ¡Õ² Õ«Õ¶
ĠÕ¡Õ¶Õ° Õ¡Õ»Õ¸Õ²
ĠÕ´Õ«Õ»Õ¸Öģ Õ«
ÕºÖĢ Õ¸ÖģÕ«
ĠÕ´Õ¡ÖĢÕ¦ Õ¡Õ¯Õ¡Õ¶
ĠÕ°Õ¡Õ´Õ¡Õ¯Õ¡ÖĢÕ£ Õ¥ÖĢ
ĠÕ¨Õ¶Õ¤Õ¸ÖĤÕ¶ Õ¥Õ¬Õ¸ÖĤ
Õĩ Õ«ÖĢÕ¡Õ¯
Õ¸ÖĤÕ½Õ¿ Õ¡Õ´
Õ«Õ¤ ÖĢ
ĠÕ´Õ¡ÖĢÕ¤Õ¯ Õ¸ÖĤÕ©ÕµÕ¡Õ¶
Ô±Õ¶ Õ¾
Õī Õ¸ÖĢ
Ġ12 0
ĠÕ¿ÖĢÕ¡Õ´ Õ¡Õ¤ÖĢÕ¾Õ¸ÖĤÕ´
ĠÔ¹Õ¸ÖĤÖĢÖĦÕ« Õ¡ÕµÕ«Õ¶
ĠÕ¸ÖĢÕ¸Õ¶Öģ Õ¸Õ¾
ĠB log
ĠÕ°Õ¥ÖĢÕ© Õ¡ÕºÕ¡Õ°
ĠÕ°Õ¡Õ´Õ¡Õ¬Õ½ Õ¡ÖĢÕ¡Õ¶Õ¨
ĠÕ®ÖĢÕ¡Õ£Õ«ÖĢ Õ¶
ĠÕ¯Õ¿ Õ¡Õ¶
ĠÕ¥ÖĢÖĩ Õ¡Õ¶ÕµÕ¡Õ¶
ĠÔ»Õ½ Õ¬Õ¡Õ´Õ¡Õ¯Õ¡Õ¶
ĠÕ¤Õ¥Õ½ÕºÕ¡Õ¶ Õ¡Õ¿Õ¡Õ¶
ĠÕºÕ¡ÖĢÕ¿Õ¡Õ¾Õ¸ÖĢ Õ¸ÖĤÕ©ÕµÕ¸ÖĤÕ¶Õ¶Õ¥ÖĢÕ«
ĠÕŃÕ¸Õ½Õ¿ Õ¸Õ¾Õ¡Õ¶
ĠÕįÕ¡Õ°Õ¡Õ¯ ÕµÕ¡Õ¶Õ«
ĠÕ¬ÖĢÕ¡Õ¿Õ¾ Õ¸ÖĤÕ©ÕµÕ¡Õ¶
ĠÕ¡Õ¶Õ¨Õ¶Õ¤ Õ´Õ¥Õ»
ĠÕ¡Õ´ÖĥÕ¸Öĥ Õ¸ÖĤÕ´
ĠÕºÕ¡ÖĢÕ£ Õ¥ÖĤ
ĠÕ°Õ¡Õ´Õ¡Õ¬Õ«ÖĢ Õ«
Õ¯Õ¸Õ¶ Õ¸Õ´
ĠÕ¬Õ«Öģ ÖĦ
Õ°Õ¡Õµ Õ¥ÖĢÕ¥Õ¶
ĠAn d
ÕħÕĪÕĴ ÕĮ
ĠÕ¯Õ¡Õ¶ÖģÕ¯Õ¡Öģ Õ¾Õ«
ĠÕ¯Õ«Õ¬ Õ¸Õ´
erc edes
ÕªÕ¤ Õ¥Õ°
6 4
d u
§ Õ¶
Ð ¡
Õ¥ Õ¡
Õ¶ Õ¸
ĠÕ° Õ«Õº
ĠÕ´ Õ¨
ĠÕ´ Õ¡Õ·Õ¯
Õ¡Õ´ Õ¡Õ¿
Õ¡Õ´ Õ¸Õ¬
ĠÕ¯ ÕºÕ¡Õ¿
Õ¸ÖĤÕ¶ ÖĦÕ¸ÖĤÕ´
Õ½ Õ¡
Õ¯ Õ´
Õ¯ ÕµÕ¡Õ¶
ĠÕ¿ Õ¸ÖĤ
Õ¤ ÖĢ
Õ¸ÖĢÕ ª
ĠÕº Õ¡ÖĢÕ¯
ĠÕ¢ Õ¡ÖĢÕ¢
ĠÕĢ Õ¡
ĠÕ½ Õ¡Õ¬
Ô±Õ ģ
ĠÕĦ Õ¡Õ©Öĩ
Õ¡Õ¢ Õ¸ÖĤÕµÕª
ÕĨ Ô±
ĠÕį Õ«Õ©Õ«
Õ¡ÖĢÕ£ Õ¡ÖģÕ´Õ¡Õ¶
ĠÕ´Õ«Õ» Õ¸Õ¾
ĠÔ´ Õ¥Õ´
Ô³ ÖĢÕ¡Õ¯Õ¡Õ¶
ĠÔ±Õµ Õ£
Ô¼ ÖĢÕ¡Õ£ÖĢ
ĠÕ¡ÖĢÕ¿ Õ¡Õ¤ÖĢÕ¡Õ¯Õ¡Õ¶
ĠÕ¡Õ´Õ¥Õ¶ Õ¶
Õ¡ÖĢÕ¹ Õ¸ÖĤÕ©ÕµÕ¡Õ¶
Õ«Õ³ Õ¡Õ¯
ĠÕ¢Õ¡Öģ Õ¡Õ¼Õ¸ÖĤÕ´
ĠÕ¸ÖĤÕ¶Õ¥Öģ Õ¡Õ¶
ĠÔ½ ÕĪÕĲ
Ô½ Õ¶Õ¤ÖĢÕ¸ÖĤÕ´
ĠÕĢÕ¡Õ¶ÖĢÕ¡ÕºÕ¥Õ¿ Õ¸ÖĤÕ©ÕµÕ¸ÖĤÕ¶Õ¨
Õ¥Õ¼Õ¶ Õ¡ÖĢÕ¯
Ô¾ ÖĢÕ¡Õ£ÖĢ
ĠÕ½Õ¿Õ¥Õ²Õ® Õ¸ÖĤÕ´Õ¨
ĠÕ¸ÖĤÕª Õ¸Õ¾
Ô±ÕµÕ½ ÕºÕ«Õ½Õ¸Õ¾
ĠÕ°Õ¡Õ¾Õ¡ÖĦ Õ¾Õ¥Õ¬
ĠÕ¯ÖĢÕ© Õ¸ÖĤÕ©ÕµÕ¸ÖĤÕ¶Õ¨
ĠÔ±Õ¼ Õ¡Õ¾Õ¥Õ¬
ĠÔ±ÕµÕ¶ Õ¸ÖĤÕ°Õ¥Õ¿Öĩ
ĠÕ½Õ¯Õ¦Õ¢ Õ¶Õ¡Õ¯Õ¡Õ¶
ĠÕ¯Õ´ Õ¶Õ¡
ĠÕ¯Õ° Õ¡ÕµÕ¿Õ¶
ĠÕºÕ¡Õ°ÕºÕ¡Õ¶ Õ¾Õ¥Õ¬
ĠÕ¯Õ¿ ÖĢÕ¾Õ¡Õ®
Ġ199 3
Ġ199 4
ĠÕİÕ¡ÖĢÕ¤ Õ¡Õ¶ÕµÕ¡Õ¶Õ«
ĠD es
ĠÕ¨Õ¶Õ¤Õ¤Õ«Õ´ Õ¸ÖĤÕ©ÕµÕ¡Õ¶
ĠÕĬÕ¥Õ¿ÖĢÕ¸Õ½ ÕµÕ¡Õ¶Õ«
ĠÕ°Õ¡Õ·Õ¾Õ¥Õ¿ Õ¸ÖĤ
em ber
ĠÕ¡Õ¶Õ¨Õ¶Õ¤ Õ¸ÖĤÕ¶Õ¥Õ¬Õ«
ĠÔ³ÕµÕ¸ÖĤÕ´ÖĢÕ« Õ«
ĠÕ¨Õ¶Õ¤Õ¬Õ¡ÕµÕ¶ Õ¾Õ¡Õ®
ĠÕ¸ÖĤÕ½Õ¸ÖĤÖģÕ«Õ¹ Õ¶Õ¥ÖĢÕ«
ĠÕĦÕ¡ÖĢÕ« Õ¡
ĠÕ®Õ¥Õ® Õ«
ĠÖĥÕ¸ÕŃÕ¡Õ¶Õ¡Õ¯ Õ´Õ¡Õ¶
ĠÔ»ÖĢÕ¡Õ¾ Õ¸ÖĤÕ¶ÖĦ
ĠÕ°Õ¡ÖĢÖĩÕ¡Õ¶ Õ¸ÖĤÕ©ÕµÕ¡Õ´Õ¢
ĠÕ±Õ¡Õµ Õ¶Õ¥ÖĢÕ«
ĠÖĨÕ¸Õ¶Õ¤ Õ«
ĠÕ£Õ«Õ¿Õ¥Õ¬Õ«ÖĦ Õ¶Õ¥ÖĢ
ĠÕ®Õ¼ Õ¥ÖĢ
Ô±Õ¾Õ¥Õ¬ Õ«Õ¶
ĠÕ°Õ¡Õ¶ÖĢÕ¡ÖĦ Õ¾Õ¥Õ«
Ġ ðŁ
Õ« Õ¡Õ¦
Õ¡Õ¶ ÕµÕ¡Õ¶Õ«Õ¶
Õ¸ÖĤÕ´ ÕµÕ¡Õ¶
Õ¡Õ¿ Õ¡Õ¶Õ¨
Õ´ Õº
ĠÕ¿ Õ¡Õ½
ĠÕ¿ Õ¥Õ´Õº
ĠÕ½ Õ¡Õ²
Õº Õ¡Õ°
ÕĢ Õ¡Õ½Õ¡ÖĢÕ¡Õ¯
Õ¥Õ¯ Õ¿ÖĢ
Öĥ Õ¸ÕŃ
ÕĨ Õ¥ÖĢÖĦÕ«Õ¶
Õ«Õ¿ ÖĢÕ«
ÕĪ ÕĦ
ĠÕ°Õ¡Õµ Õ«
Õ° Õ¸ÖĤÕ¶
ĠÕ´Õ« Õ¡Õ¶Õ¡Õ¬
ĠÔ¿ Õ¸Õ¬
ĠÕĨ ÔµÕĲ
ĠÔ² Õ¡ÖĢÕ±ÖĢÕ¡Õ£Õ¸ÖĤÕµÕ¶
Õ¸ÖĢÕ¤ Õ¶Õ¥ÖĢÕ¨
Ô³ ÕĲ
Õİ Õ¡Õ¬
ĠÕı Õ¥ÕŃ
ĠÔ¹ ÕİÔ±Ô¿Ô±ÕĨ
ĠÕ¿Õ¥Õ½ Õ¹Õ¡Õ¯Õ¡Õ¶
ÕĶ Õ«Õ´
ĠÕ¨Õ¶Õ¿ÖĢ Õ¡Õ¯
ĠÕ¨Õ¶Õ¿ÖĢ Õ¡Õ¿Õ¥Õ²
ĠÕ» ÖĢÕ¡Õ´Õ¡Õ¿Õ¡Õ¯
ĠÕ¨Õ¶Õ¯Õ¥ÖĢ Õ¸ÖĤÕ©ÕµÕ¸ÖĤÕ¶Õ¶Õ¥ÖĢÕ¨
ĠÕºÕ¡Õ¿Õ´ Õ¡Õ´Õ·Õ¡Õ¯Õ¸ÖĤÕ©Õ¡ÕµÕ«Õ¶
ĠÕ½Õ¿Õ¥Õ²Õ® Õ¾Õ¸ÖĤÕ´
ĠÕ¤Õ«Õ´ Õ¡Õ¯Õ¡Õµ
Õ¸Õ¢ Õ¬
ÖĢÕµ Õ¡Õ¶Õ«
ĠÔ±Õ¶ Õ£
ĠÕ°Õ¸Õ£ Õ¥ÖĤÕ¸ÖĢ
ĠÕºÕ¡Õ°Õ¡Õ¶Õ» Õ¾Õ¸ÖĤÕ´
Õĵ ÕħÕĪÕĴÕĮ
ĠÕ¡ÕºÕ¡Õ°Õ¸Õ¾ Õ¸ÖĤÕ©ÕµÕ¡Õ¶
ĠÕ°Õ¡ÖĢÕ¯ Õ¸ÖĤÕ´
ĠÕ°Õ¡ÖĢÕ¯ Õ¡Õ¤Õ«ÖĢ
ĠÕ°Õ«Õ· Õ¡Õ¿Õ¡Õ¯Õ¨
ĠÔº Õ¡Õ¶
Õ«Õ® Õ¥Õ¼
ĠÕ·Õ¡ÖĢÖĦ Õ¡ÕµÕ«Õ¶
Õ£ÖĢ Õ«Õ¿
ĠÕ¬ÖĢÕ¡Õ£ÖĢ Õ¸Õ²Õ«
Õ¡ÖģÕ¸ÖĤÕ´ Õ«Öģ
Õ¥Õ«Õ¶ ÖĦ
Ġ199 6
ĠÕ°Õ¥Õ¿Õ¡Õ¦Õ¸Õ¿ Õ¸ÖĤÕ©ÕµÕ¡Õ¶
wik tionary
ĠÕĢÕ¥Õ¿ Õ¡Õ¤Õ¡ÖĢÕ±
Ô±Õ·ÕŃ Õ¡Õ¿
ĠÕ¡Õ¾Õ¿Õ¸Õ´Õ¥ÖĦÕ¥Õ¶ Õ¡Õ¶Õ¥ÖĢÕ«
ĠÕ£Õ¸ÖĢÕ®Õ«Õ¹ Õ¶Õ¥ÖĢ
ĠÕ¤Õ¡Õ¿Õ¡ÕºÕ¡ÖĢÕ¿ Õ¾Õ¡Õ®
ĠÕ»Õ¡Õ¶ÖĦ Õ¥ÖĢÕ¸Õ¾
ÂŃÂŃ ÂŃ
ĠÔ³Õ«Õ¿ Õ¸ÖĤÕ©ÕµÕ¸ÖĤÕ¶Õ¶Õ¥ÖĢÕ«
ĠÕ¯Õ¡ÖĢÕ£Õ¡Õ¾Õ«Õ³ Õ¡Õ¯Õ«
ĠÕ¢ÕªÕ«Õ·Õ¯ Õ¶Õ¥ÖĢÕ«
ĠIn tern
ĠÕ´Õ«Õ»Õ¡Õ¾Õ¡Õµ ÖĢÕ¸ÖĤÕ´
ĠÕ¬ÖĢÕ¡Õ¿Õ¾Õ¡Õ´Õ«Õ»Õ¸Öģ Õ¶Õ¥ÖĢÕ¨
ub l
ĠÕ°Õ¡ÖĢÕµÕ¸ÖĤÖĢ Õ¡Õ¾Õ¸ÖĢ
ĠÕ£Õ¡Õ²Õ¿Õ¶ Õ¡Õ¬Õ½
ĠÕ¡Õ¼Õ¯Õ¡Õµ Õ¸ÖĤÕ©ÕµÕ¸ÖĤÕ¶Õ¨
ĠÕ¡ÕŃÕ¿ Õ¸ÖĢÕ¸Õ·
ÕĦÕ«Õ¶Õ¹ Öĩ
ĠÕĦÕ¥Õ½ ÖĢÕ¸Õº
ĠÔ±Õ¶Õ¾ Õ¿Õ¡Õ¶Õ£Õ¸ÖĤÕ©ÕµÕ¡Õ¶
ĠÕ¡ÖĢÕ® Õ¡Õ©
ĠÕĤÕ¡Õ¦Õ¡ÕŃ Õ½Õ¿Õ¡Õ¶Õ«
Õ¡Õ°Õ¥Õ¿ Õ¡Õ¦Õ¸Õ¿Õ¡Õ¯Õ¡Õ¶
ams hyan
Õ«Õ¾Õ¡Õį Õ¥Õ¬
y s
Õ¡ u
Õ¥ÖĢ ÖĦÕ«
Õ¿ Õ¾Õ¡Õ®
ĠÕ° ÖĢÕ·Õ¥Õ»
Õ¥Õ¬ Õ¥Õ¯Õ¿
ĠÕ´ Õ¸ÖĤÕ©
Õ¡Õ´ Õ¥ÖĢÕ«Õ¯
ĠÕ¯ Õ¡Öģ
Õ¡Õ¿ Õ¥ÕŃÕ¶Õ«Õ¯Õ¡Õ¯Õ¡Õ¶
Õ½ Õ¡Õ¯
ĠÕ« Öģ
ĠÕ¤ Õ«ÖĢÖĦÕ¨
ĠÕĢ ÕĬ
ĠÕĢ Õ¡Õ·Õ¾
ĠÕ¡Õ¶ Õ¦
ĠÕ· Õ¸ÖĤ
ĠÕ· Õ¸ÖĤÕ¶Õ¹
Ô» Ô¶
Õ¸ÖĤÖĢ Õ¡
ĠÔµ ÖĢÕ¡Õª
ĠÕ£Õ¸ÖĢÕ® Õ¡ÖĢÕ¡Õ¶Õ«
Õ¥Õ¼ ÖĦ
ĠÔ¿ ÕµÕ¡Õ¶
ĠÕ«Õ¶Õ¹ Õ«Õ¶
ĠÕºÕ¥Õ¿ Õ¸ÖĤÕ©ÕµÕ¡Õ¶Õ¨
Õ«Õ¹ Õ¡ÖĢÕ¤
ĠÕ¡Õº Õ¡Õ¯
Õª Õ«Õ·Õ¯
Õİ Õ¡ÖĢÕ±Õ¸Õ¾
ĠÔ¼ Õ¸ÖĤÕ½Õ¡Õ¶Õ¯Õ¡ÖĢ
Õ¶Õ« Õ¡
ĠÕ£ÖĢ Õ¡Õ¼Õ´Õ¡Õ¶
ĠÕ¼ Õ¥Õ¯Õ¿Õ¸ÖĢ
Õħ Õ¸ÖĤÖĢÕ¡ÖĦÕ¡Õ¶Õ¹ÕµÕ¸ÖĤÖĢ
ĠÕ¶Õ¡ÕŃÕ¡ÖĢÕ¡ÖĢ Õ¸ÖĤÕ©ÕµÕ¡Õ¶Õ¨
ÖĢÕ¡Õ£ Õ«ÖĢÕ¨
Õ¡ÕºÕ¡Õ¿ Õ«
Õ«Õ© Õ¨
ĠÔ¶ Õ¸ÖĤÖĢÕ¡Õ¢
ĠÕ«ÖĢÕ¡Õ¾Õ¸ÖĤÕ¶ÖĦ Õ¸Õ¾
Ô»ÕĨ Õī
ĠÕ¶Õ¯Õ¡Õ¿ Õ¸ÖĤÕ´
ĠÕ¯Õ¡Õ¿ Õ¡Õ¬
ĠÕ¶Õ·Õ¡Õ¶Õ¡Õ¯ Õ¾Õ¡Õ®
Ġ8 5
ĠÕ°Õ¡Õ²Õ¸ÖĢÕ¤ Õ¡Õ¯Öģ
Õ¥ÕŃÕ¶ Õ¸Õ¬Õ¸Õ£
Õī Ô±Ô¿Ô±ÕĨ
ĠÕ¶ÕµÕ¸ÖĤÕ© Õ¨
ĠÕ¯Õ«ÖĢ Õ¡Õ¯Õ¡Õ¶
ĠÔº Õ¡Õ´Õ¨
ĠÔ±ÕµÕ¶ Õ¿Õ¥Õ²
ĠÖĦÕ¶Õ¶Õ¡ÖĢÕ¯ Õ¥Õ¬Õ¸ÖĤ
Õ¥Õ¯Õ¿ Õ¸ÖĢÕ«
Õ¡Õ¸ Õ³
Õ¡Õ´Õ¡Õ½ Õ¸ÖĤÕ´
ĠÕ©Õ¥Õ¯Õ¶Õ¡Õ® Õ¸ÖĤÕ©ÕµÕ¸ÖĤÕ¶Õ¨
Ð° ÑĢ
Ð° Ñı
Ġ199 5
ĠÕªÕ¡Õ´Õ¯Õ¥Õ¿ Õ«
el l
ĠÕ¸ÖĤÕ½Õ¡Õ¶ Õ¸Õ²Õ¶Õ¥ÖĢÕ«Õ¶
ĠÕ¬Õ¥Õ¦Õ¸ÖĤÕ¶ Õ¥ÖĢÕ«
Ô·Õ¬ Õ¥Õ¯Õ¿ÖĢÕ¸Õ¶Õ¡ÕµÕ«Õ¶
ĠÖĢÕ¸Õº Õ¥Õ«Õ¶
ĠÕ°Õ¸ÖĢ Õ«Õ¶
ĠÖĦÕ¡ÖĢÕ¸Õ¦ Õ¡ÖĢÕ·Õ¡Õ¾
ĠÕºÕ¡ÕµÕ´Õ¡Õ¶Õ¡Õ£ÖĢ Õ¡ÕµÕ«Õ¶
ĠÕ£Õ¬Õ¸ÖĤÕŃ Õ¨
ĠÕĦÕ¯ÖĢÕ¿Õ¹ ÕµÕ¡Õ¶
-- --
ĠÕ¡ÖĢÕ¤ÕµÕ¸ÖĤÕ¶Õ¡Õ¢Õ¥ÖĢ Õ¡Õ¯Õ¡Õ¶
ÕĦÕ¥Õ» Õ¢Õ¥ÖĢÕ¸ÖĤÕ´Õ¶Õ¥ÖĢ
ĠÕ¹Õ¾ Õ¥ÖĢÕ©
ĠÕ¯Õ¡ÖĢÕ£Õ¡Õ¾Õ¸ÖĢ Õ¸Õ²
ĠÕ¤Õ¥Õ¯ Õ¿Õ¥Õ´Õ¢Õ¥ÖĢÕ«Õ¶
ĠÕ¥ÖĢÕ¯ÖĢÕ¡Õ·Õ¡ÖĢÕª Õ«
ĠÕ½Õ¿Õ¡Õ¶Õ± Õ¶Õ¥Õ¬
ĠÔ¿ÕĲ Ô¹
ĠÔ¹Õ¸Õ¾ Õ´
ĠÕ¹Õ°Õ¡Õ´Õ¨Õ¶Õ¯ Õ¶Õ¥Õ¬
u p
Â ·
Õ¥ Õ¡Õ¶Õ¨
Õ« Õ¸Õ¿
Õ¸ÖĤÕ´ Õ«Õ¶
Õ¨ Õ½Õ¿
Õ¡Õ½ Õ¥Õ¶Õµ
Õ´ Õ¸ÖĤÕ¿ÖĦ
Õ¡Õ¯Õ¡Õ¶ Õ¸ÖĤÕ©ÕµÕ¸ÖĤÕ¶
ĠÕ¿ Õ«Õ¿Õ²
Õ¤ Õ¡Õ¬
ĠÕ¸ÖĤ Õ¿Õ¥Õ½
ĠÕ· Õ·
ĠÕĦ Õ¸ÖĤÕ½
Õ«Õ¿ Õ¡Õ¯Õ«
ĠÕ´Õ¡Õ½ Õ¡Õ´Õ¢
âĢ ¡
Õ¡Õ¦Õ´ Õ«
ĠÕ¿Õ¥Õ² Õ¶
Õį Õ¸Õ¾Õ¸ÖĢ
Õ¦ Õ¥
ĠÕİ Õ¡Õ¹
ĠÕ´Õ«Õ» ÕºÕ¥Õ¿Õ¡Õ¯Õ¡Õ¶
ĠÖħÖĢ Õ¡ÖģÕ¸ÖĤÕµÖģ
ĠÔ´ Õ«
ĠÔ´ Õ¡Õ¿Õ¡ÖĢ
Õİ ÕĪÕĴÕĦ
Õ«Õ¦ Õ«
Ô±Õµ ÕªÕ´
ĠÕŃÕ¶Õ¤ ÖĢÕ«Õ¶
Ô½ Ô±ÕĨ
Õ¸Õ¢ Õ«Õ¬
Ġ6 4
Ġ6 00
ĠÕ¤ÖĢ Õ¸ÖĤÕµÖĦ
ĠÕ«Õ·ÕŃÕ¡Õ¶ Õ¡Õ¯Õ¡Õ¶
ĠÕºÕ¡Õ°Õ¡Õ¶Õ» Õ¸Õ¾
ĠÕ½ÕºÕ¡Õ½ Õ¡ÖĢÕ¯Õ¸ÖĤÕ´
ĠT e
ĠÕ°Õ«Õ· Õ¥ÖģÕ¶Õ¸ÖĤÕ´
ĠÕ¸Õ½Õ¿Õ«Õ¯Õ¡Õ¶ Õ¶Õ¥ÖĢÕ«
ĠÕ¯Õ¡Õ¼Õ¸ÖĤÖģ Õ¥Õ¬Õ¸ÖĤ
ĠÕ«ÖĢÕ¡Õ¾Õ«Õ³ Õ¡Õ¯Õ«Õ¶
Õ¡ÖĢÖĦ Õ¥Õ©
ĠÕ¯Õ¸Õ¶ Õ¿
ÔµÕĨ ÕĶ
ĠÕ°Õ¡Õ¶Õ£ Õ½Õ¿Õ«
ĠÕ¤Õ¥Õ½ ÕºÕ¡Õ¶Õ«
ic ros
ĠÕ¾Õ«ÖĢ Õ¡Õ¾Õ¸ÖĢÕ¾Õ¥Õ¬
ĠÕ¡ÖĢÕ£Õ¥Õ¬ Õ¡ÖĥÕ¡Õ¯
ĠÕ´Õ¡Õ¯Õ¡ÖĢÕ¤ Õ¡Õ¯
ĠÔ»Õ¶ ÖĦÕ¶
ĠÕ£Õ¸ÖĤÕ´Õ¡ÖĢ Õ¶Õ¥ÖĢ
ĠÕĸÖĢÕ¡Õ¶Õ½ Õ«Õ¡
ĠÕ«ÖĢÕ¡Õ¤Õ¡ÖĢÕ± Õ¸ÖĤÕ©ÕµÕ¸ÖĤÕ¶Õ¶Õ¥ÖĢÕ¨
ĠÕ½Õ¿Õ¥Õ²Õ®Õ¡Õ£Õ¸ÖĢÕ® Õ¸ÖĤÕ©ÕµÕ¡Õ¶
ĠÕ¯Õ¥Õ½ Õ¨
Õ¡ÕµÕ© Õ¡Õ¯Õ²
ĠÖģÕ¡Õ¶Öģ Õ¥ÖĢ
ĠÕ¾Õ¥ÖĢÕ¬Õ¸ÖĤÕ® Õ¸ÖĤÕ©ÕµÕ¡Õ¶
ĠÕ°Õ¸Õ½ ÕºÕ«Õ¿Õ¡Õ¬
ĠÕ¢Õ¡ÖĢÕ¥Õ¯Õ¡Õ´ Õ¡Õ¯Õ¡Õ¶
ĠÕ½Õ¯Õ¦Õ¢Õ¸ÖĤÕ¶ÖĦ Õ¶Õ¥ÖĢÕ«
ĠÕ°Õ¡Õ½ÖģÕ¥ Õ¸Õ¾
ĠÕ¡Õ¶Õ· Õ¸ÖĤÕ·Õ¿
ĠÕ°Õ«Õ¾Õ¡Õ¶Õ¤Õ¡Õ¶Õ¸Öģ Õ¸ÖĤÕ´
ĠÕ¸ÖĤÕ²Õ¥Õ¯Öģ Õ¸ÖĤÕ©ÕµÕ¡Õ´Õ¢
ĠÕ¦Õ¡ÖĢÕ£Õ¡Öģ Õ¸ÖĤÕ´Õ¶Õ¥ÖĢÕ¨
Ô»ÖĢÕ¡Õ¾ Õ¡Õ¯Õ¡Õ¶
ĠÔ±Õ¾Õ¥Õ¿Õ«Õ½ ÕµÕ¡Õ¶
ĠÔ±Õ¾Õ¥Õ¿Õ«Õ½ ÕµÕ¡Õ¶Õ¨
ĠÖħÖĢÕ¾ Õ¡Õ¶
Ph oto
ĠÕ¦Õ¢Õ¡Õ²Õ¥Öģ ÖĢÕ¡Õ®
ĠÕ£Õ¸ÖĢÕ®Õ¡ÖĢÖĦ Õ¶Õ¥ÖĢÕ«
ĠÕĪÖĤÖĢ Õ¥Õ´Õ¶
ÔµÕĬ ÕĪÕĲÕı
ĠÕ´Õ¡Õ¿Õ¶ Õ¡Õ¶Õ·
ĠÔ±ÕĩÔ½ Ô±Õı
ĠÔ±Ô¶ Ô³
ÕĪÕĮ ÔµÕĬÕĪÕĲÕı
ĠÕĢÔ±ÕħÕı Ô±ÕĲÔ±ÕĲ
ĠÕįÕ´Õ¢ Õ¡Õ¿
ĠÕºÕ¸Õ¿ Õ¥Õ¶ÖģÕ«
Õ«Õ®Õ¥Õ¼ Õ¶Õ¡Õ¯
ÕĪÕĮÔµÕĬÕĪÕĲÕı Ô±Ôº
) [
9 8
v i
Õ¡Õ¶ Õµ
Õ¸ÖĤÕ©Õµ Õ¸
ĠÕ§ Õº
Õ¾ ÕµÕ¡Õ¬
ĠÕ¯ Õ¡ÖĢÕ¿
Õ¡Õ¿ Õ¾Õ«
Õ´ Õ¡Õ½Õ¶
ĠÕ¿ Õ«ÕºÕ«
ĠÕ£ ÖĢÕº
ĠÕĢ Õķ
ĠÕ¸ÖĤ ÖĢÕ¢Õ¡Õ©
ĠÕ© Õ¥Õµ
ĠÖĦ Õ¡ÕµÖĦ
ĠÕŃ Õ¸Õ¿
Õ· Õ¡Õ¿
Õ» Õ«Õ»
ĠÕ¡Õº Õ½Õ¿Õ¡Õ´Õ¢
Õ¼ Õ¸Õ¾
ĠÕ¡Õ½ Õ«
ĠÕ¡Õ½ Õ¥Õ¬Õ¸ÖĤ
ĠÔ¹ Õ¡Õ¤
ĠÔ¹ Õ«ÖĨ
ÕĬ Õ¸ÖĤÕ¿
ĠÕ´Õ¡ÖĢÕ¤ Õ¡Õ½Õ«ÖĢÕ¡Õ¯Õ¡Õ¶
ĠÕ¡Õ´Õ¥Õ¶ Õ¡Õ¿
ĠÕ´Õ¥Õ» Õ¢Õ¥ÖĢÕ¸ÖĤÕ´
Õ¡Õ³ Õ¡Õ·
ĠÕ´Õ¥Õ® Õ¡ÕºÕ¥Õ½
ÕºÖĢ Õ¸Õº
Ġ5 6
ĠÕ¨Õ¶Õ¯Õ¥ÖĢ Õ¸Õ»
ĠÔ¶ ÕĪÖĤ
ĠÕ¸ÖĤÕª Õ¥ÖĢÕ«Õ¶
ĠÕ´ÖĢÖģ Õ¡Õ·ÖĢÕ»Õ¡Õ¶Õ¸ÖĤÕ´
ĠÕ¦Õ¡ÖĢÕ£ Õ¡ÖģÕ¶Õ¥Õ¬
Õ¡Õ·ÖĢÕ» Õ¡Õ¶Õ¨
ĠÕ¿Õ¶Õ¿Õ¥Õ½ Õ¾Õ¡ÖĢ
Ô±ÕĦ Ô²
ĠÕ°Õ¡Õ½Õ¿Õ¡Õ¿ Õ¥Öģ
ĠÕ¡ÕºÕ¡Õ°Õ¸Õ¾ Õ¸ÖĤÕ´Õ¨
ÕĪÖĤ Õ½Õ¡Õ¶
ĠÕ¹Õ¡Öĥ Õ¥ÖĢÕ¸Õ¾
ou s
Ô±Ô³ Ô»ÕĲ
ĠÕ¡Õ¶Õ¤ÖĢ Õ¡Õ¤Õ¡Õ¼Õ¶Õ¡Õ¬
ĠÕ¡ÖĢÕ¤ÕµÕ¸ÖĤÕ¶Õ¡Õ¾Õ¥Õ¿ Õ¸ÖĤÕ©ÕµÕ¸ÖĤÕ¶Õ¨
ĠÕ¢Õ¡ÖģÕ¡Õ°Õ¡ÕµÕ¿ Õ¸ÖĤÕ´
ĠÕ¢Õ¸ÖĤÕª Õ¸ÖĤÕ´
ĠÕ·Õ¿ Õ¡Õ¢
av e
ĠÕĢÕ¸ÖĤÕ¶ Õ¾Õ¡ÖĢ
ĠÕ¿Õ¡ÖĢÕ¡Õ®ÖĦ Õ¶Õ¥ÖĢÕ¸ÖĤÕ´
ĠÕ«Õ´Õ¡Õ½Õ¿ Õ¨
ĠÕ¡Õ¶Õ¤ÖĢÕ¡Õ¤Õ¡ÖĢÕ± Õ¡Õ¾
ĠÕ»Õ¡Õ¶ÖĦ Õ¥ÖĢÕ«
Ô¹Õ¸ÖĤÖĢÖĦÕ« Õ¡
Ô»Õį Ô»
ĠÖħÖĢÕ¡Õ¯Õ¡ÖĢÕ£ Õ«
ĠÕ°Õ¡Õ¾Õ¡Õ¶ Õ¸ÖĤÕ©ÕµÕ¸ÖĤÕ¶
ĠÕ°Õ¸ÖĤÕ½ Õ¡Õ¬Õ«
ĠÕ¶Õ¥ÖĢÕ¯Õ¡ÕµÕ¡ÖģÕ¸ÖĤÖģ Õ¹Õ«
ĠâĢİ âĢ¡
ĠÕ¡Õ¶ÕŃ Õ¸ÖĤÕ½Õ¡Öĥ
ĠÕķÖĢÕ¥Õ¶ ÖĦÕ«
ÕĢÕ¡Õ¿ Õ¸ÖĤÕ¯
ĠÔ±Õ¬Õ¢ Õ¥ÖĢÕ¿
ĠÕ©Õ´ÖĢÕ¡Õ´ Õ«Õ»Õ¸Öģ
ÕįÕ¡ÖĢÕ£ Õ½
ĠÔ³Õ¸Õ° Õ¡ÖĢ
/ :
_ (
a in
Õ¥Õ¬ Õ¬
ĠÕ´ Õ§
Õ¡Öģ Õ«ÖĢ
Õ¸ÖĢ Õ¡ÕµÕ«Õ¶
ĠÕĢ Õ¡ÖĢÕ¯
ĠÕĢ Õ¸ÖĤÕ¬Õ«Õ½
ĠÕ¡Õ¶ Õ£
ÕĢ Õ¥Õ¶
ĠÕ°Õ¡Õ´ Õ¥Õ²
ĠÕ¹ Õ«Õ¶
ĠÕ¬ Õ®
ĠÕĦ Õ«Õ»Õ¸ÖģÕ¡Õ¼
ĠÖħ ÕºÕ¿
ĠÕį Ô±ÕĢ
ÕĦ Ô¿
ĠÕ¦ Õ¡Õ¶
ĠÕ¦ Õ½Õº
ĠÔ¿ Õ«Õ¶
ĠÕ¿Õ¥Õ² Õ¡Õ¢Õ¡Õ·ÕŃ
ĠÕ¡Õ´ Õ¡Õ¼
Õ¶Õ¤ ÖĢ
Õį Õ¥Õ²Õ´
ĠÕİ ÖĢ
ĠÕİ ÕıÔ²
ĠÕ¾Õ¥ÖĢ Õ«Õ¶
Õ¡Õ¶Õ¤ Õ«Õ½
ĠÕ°Õ«Õ´ ÖĦÕ¥ÖĢ
Õ¸Õµ Õ¡Õ¶Õ«Õ¶
ĠÕ¼ Õ¥Õ¦
ĠÕĶ Õ¶Õ¶Õ¹Õ¡Õ¯Õ¡Õ¶
ĠÕ¨Õ¶Õ¿ÖĢ Õ¥Õ¬Õ¸ÖĤ
Õ¡Õ¢Õ¡Õ¶ Õ¸ÖĤÕ©ÕµÕ¸ÖĤÕ¶Õ¨
ĠÕŃÕ¸ÖĢÕ°ÖĢÕ¤ Õ¡ÖĢÕ¡Õ¶
ĠÕ¢Õ¶Õ¡Õ¯ Õ¾Õ¸ÖĤÕ´
ĠÕºÕ¡Õ¿Õ¡Õ½ÕŃÕ¡Õ¶ Õ¶Õ¥ÖĢÕ¨
ĠÕºÕ¡Õ·Õ¿ÕºÕ¡Õ¶ Õ¸ÖĤÕ©ÕµÕ¸ÖĤÕ¶Õ¨
ĠÕ¢Õ¡Õª Õ¡Õ¶Õ¸ÖĤÕ´
Õķ ÖĢÕ¾Õ¡
ĠA m
ĠÕ°Õ¡Õ¯ Õ¡
ĠÕ¶Õ·Õ¡Õ¶Õ¡Õ¯ Õ¡Õ¬Õ«
ĠÕºÕ¡ÖĢÕ¦ Õ¾Õ¸ÖĤÕ´
Õ¸ÖĤÕª Õ¡Õ¶
ĠÕ°Õ¡Õ¾Õ¡ÖĦ Õ«
ĠC ont
ĠM ar
ĠÕ¬Õ¥Õ¦ Õ¾Õ¸ÖĤÕ´
ĠÕ¯Õ¡Õ¼Õ¡Õ¾Õ¡ÖĢÕ¸ÖĤÕ©ÕµÕ¡Õ¶ Õ¶
ĠÕ¶Õ¯Õ¡ÖĢ Õ¡Õ°Õ¡Õ¶Õ¸ÖĤÕ´
ĠÖĦÕ¶Õ¶Õ¡ÖĢÕ¯ Õ¸ÖĤÕ´Õ¨
Ġ, ,
ĠÕ°Õ¡Õ»Õ¸Õ² Õ¸ÖĤÕ©ÕµÕ¸ÖĤÕ¶Õ¶Õ¥ÖĢ
ĠÕ¡ÖĢÕ£Õ¥Õ¬ Õ¾Õ¡Õ®
ĠÕĸÖĢÕ¡Õ¶Õ½ Õ¥ÖĢÕ¥Õ¶
ĠÕ°Õ¡Õ´Õ¸Õ¦ Õ´Õ¸ÖĤÕ¶ÖĦ
Ô±ÖĢÕ¿ Õ¡Õ¯Õ¡ÖĢÕ£
ĠÕ¡ÖĢÕ±Õ¡Õ¯ Õ¥Õ¬
ĠÕ¨Õ¶Õ¤Õ£Õ® Õ¥Õ¬Õ¸Õ¾
ĠÕ¥Õ²Õ¢ Õ¡ÕµÖĢÕ¨
ĠÕ¦Õ«Õ¶Õ®Õ¡Õ¼Õ¡Õµ Õ¸Õ²Õ«
ĠÕ¸ÖĤÕ½Õ¸ÖĤÖģ Õ¸ÖĤÕ´
Õ¡Õ¾Õ¡Õ¼ Õ«
ĠÕ´Õ¡ÕµÖĢÕ¡ÖĦÕ¡Õ²Õ¡ÖĦ Õ¸ÖĤÕ´
ĠÕ°Õ¡ÖĢÖģÕ¡Õ¦ÖĢÕ¸ÖĤÕµÖģ Õ¨
ĠÔ½Õ¡Õ² Õ¥ÖĢ
ĠÕĦÕ¡Õ¶Õ¸ÖĤÕ¯ ÕµÕ¡Õ¶Õ«
Ô±Õ¾ Õ¡Õ£
ĠÕ¸Õ£ ÖĩÕ¸ÖĢ
ĠÕ¢ÖĢ Õ«Õ¿Õ¡Õ¶Õ¡Õ¯Õ¡Õ¶
Õ¡Õ°Õ¡Õ½ Õ¡Õ¯
Ô±Õ² Õ¢ÕµÕ¸ÖĤÖĢ
ĠÔ¼Õ¸ÖĤÕ½ Õ«Õ¶Õ¥
ĠÕ°Õ¡Õ½Õ¯Õ¡Öģ Õ¡
ĠÕ°Õ¡Õ¾Õ¡Õ¶Õ¡Õ¯Õ¡Õ¶ Õ¸ÖĤÕ©ÕµÕ¸ÖĤÕ¶Õ¨
ĠÕ©Õ²Õ© Õ¡Õ¯Õ«Öģ
ĠÖĦÖĢÕ«Õ½Õ¿ Õ¸Õ¶ÕµÕ¡Õ¶
ĠÕ¢Õ¼ Õ¶Õ¥Õ¬
ĠÕ¢Õ¼ Õ¶Õ«
Ô±ÖĢÕ½Õ¥Õ¶ Õ¡Õ¬
ĠÕķÕ£ Õ¸Õ½Õ¿Õ¸Õ½
ĠÕĦÕ¶Õ¡ÖģÕ¡Õ¯Õ¡Õ¶ ÕµÕ¡Õ¶Õ¨
ĠÖĥÕ¡ÕµÕ¬ Õ¸ÖĤÕ¶
Ô»Õ½ Õ¬Õ¡Õ´Õ¡Õ¯Õ¡Õ¶
ĠÖģÕ¥ÖĢÕ¥Õ¯ Õ¨
ÖħÕ²Õ¬ Õ¸ÖĤÕ¶
ĠÕ¶Õ¸ÖĢÕ¨ Õ¶Õ¿Õ«ÖĢ
ĠÕ¾ÖĢÕ¡Õ¥ÖĢÕ© Õ«
icros oft
O N
Õ¶ Õ£
Õ¸ÖĤ ÖĢÕ¡Õ¶
Õ¡Õ¶ Õ¡Õ½
ĠÕ§ ÖĨ
ĠÕ¸ ÖĢÕº
Õ¡Õ½ Õ¡ÖĢÕ¤
Õ´ Õ¡Õ¶Õ«
ĠÕ¶ Õ´Õ¸ÖĤÕ·
Õ¥Õ¶ Õ°
Ô± ÖĢÕ¾Õ¥Õ½Õ¿
ĠÕ£ Õ¸Õ¾
Õ¡Õ° Õ¡Õ¾
Õ¡Õ° Õ¡ÖĢÕ´Õ¡ÖĢ
ĠÕ· Õ¸Õ¸ÖĤ
ĠÕ¦ Õ¶Õ¶
ĠÕĢÕ¡Õµ Õ¿Õ¶
ÕĲ Ô±ÕĢ
Õ¡Õ¶Õ¤ Õ¡Õ¯Õ¡Õ¶
Õ¥ÖĤ Õ¶Õ¸ÖĤÕµÕ¶
ĠÕ°Õ¡Õ½ Õ¡Õ¾
Õ¸ÖĤÕ¿ Õ«
ĠÕ¢Õ¡Öģ Õ¾Õ¥Öģ
ĠÖĥÕ¸ÕŃ Õ°Õ¡ÖĢ
ÕĶ ÕĪÕĴÕĦ
ĠÕ¯Õ¡Õº Õ¸ÖĤÕµÕ¿
ÔµÕĲ ÕĬ
ĠÕ¥Õ² Õ¡Õ¶
ĠÔ½ Õ¸ÖĢÕ°Õ¸ÖĤÖĢÕ¤
ĠÕ´Õ¡ÖĢÕ¦ Õ¥ÖĢÕ«
ĠÕ£Õ«Õ¿ Õ¥
ĠÕ¨Õ¶Õ¯Õ¥ÖĢ Õ¶Õ¥ÖĢÕ¨
ĠÕ¬Õ¡Õ¾ Õ¨
ĠÔ¶ Õ¥ÕµÕ¶
ĠÕ¯Õ¥Õ¶Õ¿ÖĢÕ¸Õ¶ Õ¶Õ¥ÖĢ
on d
ĠÕ½Õ¯Õ½ Õ¥Õ¬Õ¸ÖĤ
Õ¡ÕµÕ¬ Õ¨
ĠÔ¿Õ¡ÖĢ Õ¸
ĠÕ«Õ¶ÖĦÕ¶ Õ«Õ·ÕŃ
ĠÕ¤ÖĢ Õ¸ÖĤÕµÕ©Õ¶Õ¥ÖĢÕ¨
ĠÕ°Õ¡Õ½Õ¡ÖĢÕ¡Õ¯ Õ¸ÖĤÕ©ÕµÕ¡Õ¶Õ¨
ĠÕĭ Õ¥ÕµÕ´
Õ¸Õ²Õ¡Õ¯Õ¡Õ¶ Õ¸ÖĤÕ©ÕµÕ¡Õ¶
ĠÕ¿ÖĢÕ¡Õ´ Õ¡Õ¢Õ¡Õ¶Õ¡Õ¯Õ¡Õ¶
ĠÕ·Õ¡Õ° Õ¡Õ¼
ĠÔ±ÖĢÖģÕ¡ÕŃ Õ¨
ĠÕ¥ÖĢÕ£ Õ¸ÖĤÕ´
ĠÔº Õ¡Õ´
ĠÔº Ô±ÕĦ
ĠÔ»Õ¶Õ¹ Õ¸ÖĤ
ĠÕ¡Õ¼Õ¸Õ²Õ» Õ¡ÕºÕ¡Õ°Õ¡Õ¯Õ¡Õ¶
ĠÕ¤Õª Õ¢Õ¡ÕŃÕ¿
ĠÕ¢Õ¡ÖģÕ¡Õ¼ Õ¾Õ¸ÖĤÕ´
Õ¶Õ¡ÕŃ Õ¡ÖĢÕ¡ÖĢÕ¨
ĠÕ¢Õ¶Õ¡Õ¯Õ«Õ¹ Õ¶Õ¥ÖĢÕ«Õ¶
ĠÕ°Õ¡Õ´Õ¡Õ£Õ¸ÖĢÕ®Õ¡Õ¯Öģ Õ¸ÖĤÕ´
ĠÕ¿Õ¡Õ¶ Õ¸Õ²
ĠÕ·Õ¥Õ¶ÖĦ Õ¸ÖĤÕ´
Ô±Ô´ Ô±ÕĲÕģ
ĠÕ¡Õ¼Õ¡ÖĢÕ¯ Õ¡Õ¶
Ð¾Ð ¼
ĠÕ¢Õ¡ÖĢÕ¥Õ¯Õ¡Õ´ Õ¸ÖĤÕ©ÕµÕ¡Õ¶
ĠÕ£Õ¸ÖĢÕ®Õ¡ÖĢÕ¡ÖĢ Õ¶Õ¥ÖĢÕ«
ĠÔ±ÕĨ Õİ
Õ¡Õ¿Õ«ÖĢ Õ¡Õ¯Õ¡Õ¶
ĠÕ¤Õ¡Õ¿Õ¡Õ¾Õ¸ÖĢ Õ«
ĠÕ°Õ¡ÕµÕ¡Öģ ÖĦ
ĠÕ¡Õ¼Õ¡Õ¾Õ¥Õ¬Õ¡Õ£Õ¸ÖĤÕµÕ¶ Õ¨
Õ¡Õ·Õ¯ Õ¥ÖĢÕ¿
Ġi Phone
ĠÕ¡Õ´Õ¸ÖĤÕ½ Õ«Õ¶Õ¨
ĠÕ«Õ¶Õ¿Õ¥ÖĢÕ¶Õ¥Õ¿ Õ¡ÕµÕ«Õ¶
ĠÕ¯Õ¸Õ¶Õ½ Õ¥ÖĢÕ¾
ĠÔ¶Õ¡ÖĢ Õ¸ÖĤÕ°Õ«
ĠÕ¡ÖĢÕªÕ¡Õ¶Õ¡ÕºÕ¡Õ¿ Õ¾
Õ¸ÖĤÕ¬Õ½ Õ¡ÖĢÕ«
vis it
ÔµÕįÔ¿ Õķ
7 6
8 7
A L
Ġ Õ¡ÖĦÕ½
Õ¡Õ¶ Õ¸
Õ¿ Õ«Õ¾
ĠÕ° ÕµÕ¸ÖĤÕºÕ¡Õ¿
ĠÕ´ Õ«Õ¶
ĠÕ¯ Õ¸Õ¼
Õ´ Õ¬
ĠÔ± Õ¿
ĠÔ± Õ´Õ¢Õ¸Õ²Õ»
ĠÕĢ Õ¡Õ¾Õ¡ÖĦ
Õ¢ ÕµÕ¸ÖĤÖĢÕ¨
Õ¸Õ¶ Õ¡ÕµÕ«Õ¶
ĠÕ© Õ¸Õ¼
ĠÕ© Õ«Õ¯Õ¶
Ô±Õ ī
Ô±Õ Ń
ĠÕŃ Õ¡ÕµÕ¿Õ¡Õ¼Õ¡Õ¯
ĠÕ¬ Õ¡Öģ
ĠÕ¬ Õ¸Õ£
ĠÕį Õ©
Õ¸Õ½ Õ¶
ĠÕ¶Õ¡ÕŃ Õ¡Õ¶Õ±
ĠÕ´Õ« Õ¡Õ½Õ¶
ĠÔ³ Õ¥
ĠÕ¸ÖĤÕ¶ Õ¥Õ½
Õį ÕµÕ¸ÖĤÕ¶
Õı Ô»
ĠÕ´Õ¥Õ¯ Õ«Öģ
Õ¡ÖĢÕ´ Õ¡Õ´Õ¢
ĠÕ¶Õ· Õ¡Õ¶Õ«
ĠÕªÕ¡Õ´Õ¡Õ¶Õ¡Õ¯ Õ¡Õ·ÖĢÕ»Õ¡Õ¶Õ¸ÖĤÕ´
ĠÕ¿Õ¥Õ½ Õ¡Õ¾
Õħ ÕĪÕĴÕĨ
ĠÕ´Õ¥Õ® Õ¡Õ£Õ¸ÖĤÕµÕ¶
ĠÕ½Õ¡Õ°Õ´Õ¡Õ¶ Õ¶Õ¥ÖĢÕ¨
ĠÕ½Õ¡Õ°Õ´Õ¡Õ¶ Õ¾Õ¥Õ¬
ĠÕ·Õ¡ÖĢ ÖĦÕ¨
ĠÕ¨Õ¶Õ¿ÖĢ Õ¸ÖĤÕ´
Ġ5 2
ĠÖĥÕ¸ÖĢÕ± Õ¡ÖĦÕ¶Õ¶Õ¸ÖĤÕ©ÕµÕ¡Õ¶
ĠÕŃÕ¸ÖĢÕ°ÖĢÕ¤ Õ¡Õ¿Õ¾Õ¸ÖĤÕ©ÕµÕ¸ÖĤÕ¶
ĠÕ°Õ¡ÕµÕ¿Õ¡ÖĢÕ¡ÖĢ Õ¸ÖĤÕ©ÕµÕ¸ÖĤÕ¶Õ¶Õ¥ÖĢ
ĠÕ¸ÖĤÕ²Õ² Õ¸ÖĤÕ©ÕµÕ¸ÖĤÕ¶Õ¶Õ¥ÖĢÕ¸Õ¾
ĠÕŃÕ¶Õ¤Õ«ÖĢ Õ¶Õ¥ÖĢÕ«Öģ
Õĵ Õ¸ÖĦÖĢ
ĠÕĭ Õ¥ÖĢÕ´
ĠÕ·Õ¡Õ° Õ¥ÖĢÕ«Öģ
ĠÖħÖĢÕ¥Õ¶ÖĦ Õ¶
Õ¡Õ°Õ¡Õ¶ Õ´Õ¡Õ¶
ĠÕ£Õ¡Õ² Õ©
ĠÕ¸ÖĢÕ¸Õ¶Öģ Õ¸ÖĤÕ´
ĠÕ¿Õ¥ÕŃÕ¶ Õ«Õ¯Õ¡
ĠÕ°Õ¡Õ»Õ¸Õ² Õ¾Õ¥Öģ
ĠÕ¥Õ¦ ÖĢ
ĠÕ·Õ¡ÖĢÕª Õ¸ÖĤÕ´
Ô±Ô³ Ô±ÕĢ
ĠÕ´Õ«Õ»Õ¸ÖģÕ¡Õ¼ Õ¸ÖĤÕ´Õ¨
ac t
ĠÕ¡ÖĢÕ£Õ¥Õ¬ Õ¥Õ¬
ĠÖĨÕ«Õ¬Õ´ Õ¥ÖĢ
ĠÕ¯Õ¸ÖĤÕ½Õ¡Õ¯Öģ Õ¡Õ¯Õ¡Õ¶
ĠÕ¯Õ¸ÖĤÕ¶Õ¥Õ¶ Õ¡Õ¶ÖĦ
ĠÖħÕ¤ Õ«
ĠÕ´Õ¥Õ¯Õ¶Õ¡Õ¢Õ¡Õ¶ Õ¸ÖĤÕ©ÕµÕ¸ÖĤÕ¶Õ¶Õ¥ÖĢÕ¨
Õ¸ÖĢÕ¾ Õ¡Õ©
ĠÔ·Õ¤ Õ´Õ¸Õ¶
ĠÔ±Õ¬Õ¥ÖĦÕ½ Õ¡Õ¶ÕµÕ¡Õ¶Õ¨
ĠÕ¿Õ«ÖĢ Õ¸Õ²
ĠÕ¶Õ¡Õ¾ Õ¡ÖĢÕ¯Õ¸ÖĤÕ©ÕµÕ¸ÖĤÕ¶
ĠÕ¤Õ¡Õ¿Õ¡ÕŃÕ¡Õ¦ Õ«
ĠÕ±Õ¥ÖĢÕ¢Õ¡Õ¯Õ¡Õ¬ Õ¾Õ¡Õ®
ĠÕ¥Õ¬Õ¸ÖĤÕµÕ© Õ¸ÖĤÕ´
ĠÕ°Õ¡ÖĢÕ±Õ¡Õ¯ Õ¾Õ¥Õ¬
ĠÕ±Õ¥ÖĤ Õ¸Õ¾
ĠÕ£Õ«Õ¿Õ¶Õ¡Õ¯Õ¡Õ¶ Õ¶Õ¥ÖĢÕ«
Õ¡Õ¶Õ¡ÖĦ Õ¥Õ¼
ĠÕ·Õ¥Õ·Õ¿ Õ¥Öģ
ÕĬÕ¥Õ¿ÖĢÕ¸Õ½ ÕµÕ¡Õ¶Õ«
ĠÕ½Õ¶Õ¶Õ¤ Õ¡Õ´Õ©Õ¥ÖĢÖĦÕ«
ĠÕ¿Õ¡ÖĢÕ«ÖĦ Õ¡ÕµÕ«Õ¶
ĠÔ±ÖĢÕ£ Õ¥Õ¶Õ¿Õ«Õ¶
ĠÔ»ÖĢÕ¡ÖĦ Õ«
ĠÔ±Õ¦Õ¶Õ¡Õ¾ Õ¸ÖĤÖĢÕ«
ex t
ĠÕ¡Õ¾Õ¿Õ¸Õ¢ Õ¸ÖĤÕ½
ĠÕ£Õ«Õ¿Õ¥Õ¬Õ« ÖĦÕ¶Õ¥ÖĢÕ«
ĠÕĬÕ¸ÖĢÕ¿ Õ¸ÖĤÕ£Õ¡Õ¬
ĠÕºÖĢÕ¸Öģ Õ¥Õ½
Ô³Õ¬ÕŃ Õ¡ÖĤÕ¸ÖĢ
ĠÕĸÕĪÕı ÕĪÕĮÔµÕĬÕĪÕĲÕıÔ±Ôº
ĠPol itik
ĠÕĮÕ¥Õ» Õ¥Öĥ
l ay
Ġ )
Õ¶ Õ¡Õ¶
Õ¾ Õ¡ÖĢÕ©Õ¶
ĠÕ¿ Õ¥
ĠÕ¢ Õ¸ÖĤÕ¼Õ¶
ĠÕ¢ Õ¡Õ½Õ¯Õ¥Õ¿Õ¢Õ¸Õ¬
ĠÕ½ ÕµÕ¸ÖĤÕ¶
Õº Õ«
ĠÕŃ ÖħÕ½
ĠÕ· Õ¸
Õ¡Õ· Õ¡ÖĢÕ¨
Õ«Õ½ Õ½
Õ¡Õ¢ Õ¸ÖĤÕ®
ĠÖĥ Õ·
Õ«Õ¿ Õ¡
Õ¡Õ´Õ¢ ÕµÕ¸ÖĤÕ²
ĠÔ¿ Õ¡
ĠÕ¡Õ´ Õ¡Õ¶
ĠÕ¯Õ¡ÖĢÕ¸Õ² Õ¡Õ¶Õ¡Õ¶ÖĦ
Ô² Õ¥Õ¬
Ô² Õ¡ÖĢÖĩ
ĠÔ¼ ÖĢÕ¡Õ£ÖĢ
ĠÕı Õ¡ÖĢÕ¢Õ¥ÖĢ
ĠÕ¶Õ¸ÖĢ Õ¡Õ¯Õ¡Õ¼Õ¸ÖĤÕµÖģ
ĠÕ¤Õ¥Õº ÖĦÕ¨
Õ¸ÖĤÕ² Õ«Õ¶
ĠÖĥÕ¸ÕŃ Õ¸ÖĤÕ´
Ô±ÕĲ ÕħÔ±ÕĨ
ĠÕ¯Õ¡Õº Õ«Õ¿Õ¡Õ¬Õ«
ĠÕŃÕ´Õ¢ Õ¡Õ¾Õ¸ÖĢÕ´Õ¡Õ¶
ĠÖĦÕ¶Õ¶ Õ¸ÖĤÕ©ÕµÕ¸ÖĤÕ¶Õ¨
ĠÕ¸ÖĤÕª Õ¡ÕµÕ«Õ¶
ĠÕ¿Õ¡ÖĢÕ« ÖĦÕ¸ÖĤÕ´
Õ¥Õ© Õ«
ĠÕŃÕ¶Õ¤Õ«ÖĢ Õ¶Õ¥ÖĢÕ¶
ĠÕ°Õ¡Õ¯ Õ¡Õ½Õ¸ÖĤÕ´
ĠÕ°Õ¡Õ´Õ¡Õ±Õ¡ÕµÕ¶ Õ¸ÖĤÕ©ÕµÕ¡Õ´Õ¢
ĠÕ¤ÖĢ Õ¸ÖĤÕµÕ©
ĠÕ°Õ¡Õ½Õ¿Õ¡Õ¿ Õ¸ÖĤÕ©ÕµÕ¡Õ¶
ĠÔ¾ ÖĢÕ¡Õ£ÖĢ
ĠÕ°Õ¡Õ¶Õ±Õ¶ Õ¡ÖĢÕ¡ÖĢÕ¡Õ¯Õ¡Õ¶
ĠÕ¯ÖĢÕ© Õ¡Õ©Õ¸Õ·
ĠÕ¨Õ¶Õ¯ Õ¡Õ¾
ĠÕĢÕ¡Õ´ Õ¡Õ¬Õ½
ÕĦÕ« Õ¡ÖģÕµÕ¡Õ¬
ĠÕ°Õ¥ÖĢ ÖĦÕ¸ÖĤÕ´
ĠÕ«Õ¶Õ¿ Õ¥Õ¶Õ½Õ«Õ¾
ĠÕ¥Õ¶Õ©Õ¡ÖĢÕ¯ Õ¥Õ¬Õ¸ÖĤ
ĠÕ£Õ¶Õ¸ÖĤÕ´ Õ¶Õ¥ÖĢÕ«
ĠÕ¡Õ¬ Õ¯Õ¸Õ°
ĠÕ´Õ¥Õ¯Õ¶Õ¡Õ¢Õ¡Õ¶ Õ¸ÖĤÕ©ÕµÕ¸ÖĤÕ¶Õ¶Õ¥ÖĢ
ĠÕªÕ¸Õ²Õ¸Õ¾Õ¸ÖĤÖĢÕ¤ Õ¶
ĠÖħÕºÕ¥ÖĢ Õ¡ÕµÕ«
ĠÖħÕºÕ¥ÖĢ Õ¡Õ¿Õ¸ÖĢ
ĠÕ¡Õ¿ Õ¸Õ´
ĠÕ¢Õ¶Õ¡Õ¯Õ¡Õ¶ Õ¸Õ¶
ĠÕ°Õ¸Õ² Õ¥ÖĢÕ«
ĠÕ®Õ¡Õ¾Õ¡Õ¬ Õ¶Õ¥ÖĢÕ¨
ĠÕ½Õ¿Õ¡Õ¶Õ¡Õ¬ Õ¸Õ¾
ĠÕ´Õ«Õ¡Õ¾Õ¸ÖĢ Õ¸Õ¾
ĠÕįÕ¡Õ°Õ¡Õ¯ ÕµÕ¡Õ¶
ĠÕ±Õ¥ÖĢÕ¢Õ¡Õ¯Õ¡Õ¬ Õ¥Õ¬
ĠÔ±Õ·Õ¸Õ¿ ÕµÕ¡Õ¶Õ¨
ĠÕ¼Õ¥ÕªÕ«Õ´ Õ¸ÖĤÕ´
ĠÕ´Õ¥Õ¯Õ¶Õ¡ÖĢÕ¯ Õ¨
ĠÕ¢Õ¡ÖĢÕ¥Õ¬ Õ¡Õ¾Õ¥Õ¬
Ð°Ð »
ĠÕĨÕ· Õ¥Õ¶ÖĦ
ĠÕ®Õ¡Õ£ Õ¸ÖĤÕ´
ĠÖĦÕ¡Õ¶Õ¡Õ¯ Õ«
ĠÕºÕ¡Õ¿ÕªÕ¡Õ´Õ«Õ»Õ¸Öģ Õ¶Õ¥ÖĢÕ«
ĠÕ©Õ¸ÖĤÕµÕ¬Õ¿Õ¾ Õ¸ÖĤÕ©ÕµÕ¸ÖĤÕ¶
ĠÔ·ÖĢ Õ¥Õ¢Õ¸ÖĤÕ¶Õ«
ĠÕ¿Õ«ÖĢÕ¡ÕºÕ¥Õ¿ Õ¸ÖĤÕ´
od ay
ĠÔ¿Õ¸Õ¾Õ¯ Õ¡Õ½Õ«
ĠÕ¤Õ¡Õ·Õ¶ Õ¡ÕµÕ«Õ¶
ĠÕ¿Õ¡ÖĢÕ¥Õ¬Õ«Öģ Õ«Õ¶
Õ¸ÖĤÕ¢Õ¡ÖĢ Õ¡Õ·Õ¥Õ¶
ĠÕ¡Õ¬Õ¢ Õ¸Õ´
ĠÔ²Õ¥Õ¼ Õ¬Õ«Õ¶
ĠÕ¡Õ¶Õ¾Õ¡Õ¶Õ¡Õ¯ Õ¡ÖĢÕ£
Õ¾Õ¥ÖĢÕ¡Õ¶Õ¸ÖĢÕ¸Õ£ Õ¾Õ¡Õ®
9 6
C opyright
N EWS
c a
i al
v ideo
Õµ Õ¸Õ¶
Õ¾ Õ¥Õ¶ÖĦ
ĠÕ¯ Õ¸Õ¯
ĠÕ¶ Õ«Õ°
Õ¥ÖĢÕ ¹
ĠÕ¿ Õ¥ÖĤ
ĠÕ½ Õ¡Õ¼Õ¨
Õ¹ Õ¸ÖĤÕ°Õ«
Õ¡ÖĦ Õ«
ĠÕ¬ Õ«Õ³
ĠÕ¬ Õ¸ÖĤÖĢÕ¨
Õ«Õ¯ Õ¶Õ¥ÖĢÕ¸Õ¾
ĠÕĦ Õ¸ÖĤÕ·
ÕĦ Õ¡Õ°
ĠÕºÕ¡Õ¿ Õ¡Õ°Õ¡ÖĢ
Ô¿ Ô±Õħ
Õ¡Õ» Õ¡Õ¶
Õ¡Õ´Õ¢ Õ¡ÖĢÕ«
ĠÕĨ Õ«Õ¤Õ¥ÖĢÕ¬Õ¡Õ¶Õ¤
ĠÔ² Õ¶Õ¡Õ¯Õ¡Õ¶
ĠÕİ Õ¥Õ°
ĠÕĬ Õµ
ĠÔ´ ÖĢÕ¡Õ¶
ĠÕ£ÖĢ Õ¸Õ²Õ¶Õ¥ÖĢÕ«
ĠÕı Õº
Õ¸ÖĤÕ² Õ¡ÖĢÕ¯
ĠÕ¿Õ¡ÖĢÕ¡Õ® Õ¾Õ¥Õ¬
Ô±Ô¿ Ô»
Ô±Ô¿ Ô±ÕĲÔ³
ĠÕ½Õ¡Õ°Õ´Õ¡Õ¶ Õ¥Õ¬Õ¸ÖĤ
ĠÕ¨Õ¶Õ©Õ¡Öģ ÖĦ
ĠÕ¾Õ¥ÖĢÕ» Õ¨
Ô½ Õ¸Õ·Õ¸ÖĢ
er n
Õ¡ÕºÕ¡Õ¿ Õ¯Õ¥ÖĢ
ĠÕ°Õ¶Õ¡ÖĢÕ¡Õ¾Õ¸ÖĢ Õ¸ÖĤÕ©ÕµÕ¡Õ¶
ĠÖĥÕ¸ÖĢÕ± Õ¥Õ¬Õ¸Õ¾
ĠÕºÕ¡Õ·Õ¿Õ¸Õ¶ Õ¡Õ¾Õ¡ÖĢÕ´Õ¡Õ¶
Õĩ Õ¡Õ°
at ch
ĠÕ¦Õ¡ÖĢÕ£ Õ¡Õ¶Õ¸ÖĤÕ´
ĠÕ¡Õ¶Õ¤Õ¡Õ´ Õ¡Õ¯Öģ
Õķ Õ¿Õ¡ÖĢ
ĠÕ¤Õ¡ÖĢÕ± Õ¡Õ¶
ĠÕ°Õ¡ÕµÕ¿Õ¶ Õ¾Õ¥Öģ
ĠÕ¡Õ¶Õ¯ Õ¡ÖĢÕ£
ĠÕºÕ¡Õ°Õ¡Õ¶Õ» Õ«
Õī Õ¡Öĥ
ĠÕ¿ÖĢÕ¡Õ´ Õ¡Õ¤ÖĢÕ¾Õ¸Õ²
ĠÕ¯Õ¡ÖĢÖĩÕ¸ÖĢ Õ¸ÖĤÕ´
Õ¥Õ¢ Õ¡Õ¶Õ¡Õ¯Õ¡Õ¶
ĠÕ°Õ¡Õ½Öģ Õ¶Õ¥Õ¬Õ¸ÖĤ
ĠÕ¡Õ¶Õ¸ÖĤÕ¶ Õ¶
ĠÕ¡Õ´Õ½ Õ«Õ¶
ĠÕºÕ¡Õ¿Õ£Õ¡Õ´Õ¡Õ¾Õ¸ÖĢ Õ¶Õ¥ÖĢ
Õ«Õ»Õ¸Öģ Õ¡Õ¼Õ´Õ¡Õ¶
ĠÕ¥ÖĢÕ¯Õ¡ÖĢ Õ¡ÕªÕ¡Õ´Õ¯Õ¥Õ¿
ĠÕ¯Õ«ÖĢÕ¡Õ¼ Õ¸ÖĤÕ´Õ¨
ĠÕ°Õ¥Õ²Õ«Õ¶Õ¡Õ¯ Õ¡Õ¾Õ¸ÖĢ
ĠÕ¾Õ¡ÖĢÕ¯ Õ¥ÖĢÕ«
ĠÕĢÕ¡Õ¯ Õ¡Õ¼Õ¡Õ¯
ĠO n
ĠÕ¡ÖĢÕ¤Õ¡ÖĢ Õ¸ÖĤÕ©ÕµÕ¡Õ¶
Õ«Õ² Õ³
Õĥ Õ¡Õ¶Õ¡ÕºÕ¡ÖĢÕ°
ĠÕ´Õ¥Õ²Õ¡Õ¤ ÖĢÕµÕ¡Õ¬
ĠÕ½Õ¶ Õ¡Õ¶Õ¯
ĠÕ¡Õ¼Öĩ Õ¡Õ¶Õ£
ĠÕŃÕ¸Õ·Õ¸ÖĢ Õ¡Õ£Õ¸ÖĤÕµÕ¶
ĠÕ¡ÕºÖĢÕ¡Õ¶ÖĦ Õ¶Õ¥ÖĢ
Ô±ÖĢ Õ¥ÖĤ
ĠÕ´Õ¸Õ¿Õ¥Öģ Õ¸ÖĤÕ´Õ¨
ĠÕ¿Õ¥Õ½Õ¡Õ¶ÕµÕ¸ÖĤÕ© Õ¨
ĠÖĨÕ¸ÖĤÕ¿Õ¢Õ¸Õ¬Õ«Õ½Õ¿ Õ«
ĠÕ½Õ¯Õ¦Õ¢Õ¸ÖĤÕ¶ÖĦ Õ¸Õ¾
ĠÕ½ÕºÕ¸ÖĢÕ¿ Õ¡ÕµÕ«Õ¶
ĠÕ¯Õ½Õ¿ Õ¡Õ¶Õ¡Õ¶
Ô¹Õ¸ÖĤÖĢÖĦÕ« Õ¡Õ¶
ĠÕ¡Õ¼Õ¡ÖĦÕ¥Õ¬ Õ¸ÖĤÕ©ÕµÕ¡Õ¶
ĠÕ£Õ«Õ¿Õ¶Õ¡Õ¯Õ¡Õ¶ Õ¶Õ¥ÖĢÕ¨
ĠÔ³Õ¡Õ¬ Õ¸ÖĤÕ½Õ¿
ĠÖģÕ¥Õ²Õ¡Õ½ÕºÕ¡Õ¶ Õ¸ÖĤÕ©ÕµÕ¸ÖĤÕ¶
ĠÕ°Õ¸ÖĤÕ·Õ¡ÖĢÕ± Õ¡Õ¶
ĠÕĢÕ¡ÕµÖĢÕ¡ÕºÕ¥Õ¿ ÕµÕ¡Õ¶Õ¨
ĠÕºÕ¿ Õ¸ÖĤÕ²
ĠÕºÕ¸Õ²Õ¸Õ¿ Õ¡
ĠÕ¶Õ¥ÖĢÕ´Õ¸ÖĤÕ® Õ´Õ¡Õ¶
ĠAn al
ĠÕ¡Õ½Õ¸ÖģÕ« Õ¡ÖģÕ«Õ¡ÕµÕ«
Ô±Õ· Õ¸Õ¿
Õ¥Õ²Õ¡ÖĥÕ¸ÕŃ Õ¡Õ¯Õ¡Õ¶
ĠÕīÕ¡ÖĢ Õ¥Õ¶Öģ
ĠÕ¯Õ¥Õ¶ÖģÕ¡Õ² Õ¡ÕµÕ«Õ¶
ĠÕ¡Õ¶ÕŃÕ¸ÖĤÕ½Õ¡Öĥ Õ¥Õ¬Õ«
ĠÖĥÕ¸ÕŃÕ°Õ¡ÖĢ Õ¡Õ¢Õ¥ÖĢ
Ñ ħ
ÖĦ Õ¥
Õ¡Õ½ Õ«Õ¶
ĠÕ¶ Õ¸ÕµÕ¥Õ´Õ¢
Õ¥Õ¶ Õ«Õ¶
Õ¡Õ® Õ¡ÕŃ
ĠÕ¢ Õ¥Õ¼Õ¶Õ¥Õ¬
ĠÕ½ ÖĢÕ³
ĠÕ¡Õ¶ Õ£Õ¸ÖĢÕ®
Õ¡Õ½Õ¿ Õ¡Õ¶Õ¶
ĠÖĦ Õ¹
ĠÕ«ÖĢ Õ¡Õ¶Õ¡Õ¯Õ¡Õ¶
Õ· ÕµÕ¡Õ¶Õ¨
Õ¡Õ¢ Õ¡Õ¦
ĠÕį Õ¸Õ¹
Õ¸ÖĤÖĢ Õ¡ÕµÕ«
ĠÕ£Õ¸ÖĢÕ® Õ¸ÖĤÕ²
ĠÔ³ Õ¸ÖĤÖģÕ¥
ĠÕ¿Õ¥Õ² Õ¸ÖĤÕ´Õ¶Õ¥ÖĢÕ«
ĠÕªÕ¡Õ´ Õ¥ÖĢÕ«Õ¶
ĠÕĬ Õ¬
Ô³ Õ¶
ĠÕ£ÖĢ ÖĦ
ĠÕ£ÖĢ ÖĦÕ¥ÖĢÕ«
ÖĨ Õ¡Õ¬
ĠÕ¶Õ¥ÖĢÕ¯Õ¡ÕµÕ¡Öģ Õ¸ÖĤÕ´
ĠÕ¶ÖĢÕ¡Õ¶ Õ¸ÖĤÕ´
ĠÕ¡Õ´Õ¥Õ¶ Õ¡ÕŃ
Õ¡ÖĢÕ¹ Õ«
ĠÕ¯Õ¡Õ¶ Õ¡ÖģÕ«
ÖĢÕ´ Õ¡Õ¶Õ¨
Ġ5 7
ĠÕķ Õ½Õ¯
ĠÕ¯Õ¡Õ¦Õ´Õ¡Õ¯Õ¥ÖĢÕº Õ«Õ¹
Õ¥Õ¤ Õ«Õ¿
ĠÕ¯Õ¡ÖĢÕ£ Õ¡ÕºÕ¡Õ°Õ¡Õ¯Õ¡Õ¶
ĠÕ¬Õ¡Õ¾ Õ¡Õ¿Õ¥Õ½
ĠÕ¡Õ·ÕŃÕ¡ÖĢÕ° Õ«Öģ
ĠÕ¯Õ¡Õ¼Õ¡Õ¾Õ¡ÖĢ Õ¸ÖĤÕ©ÕµÕ¸ÖĤÕ¶Õ¶
ĠÕ¤Õ¥Õ´ ÖĦÕ¨
ĠÕ¢Õ¡ÖĢÕ±ÖĢ Õ¡ÖģÕ¶Õ¸ÖĤÕ´
Ô· Õ½
ĠÕºÕ¡Õ¿ÖĢÕ¡Õ½Õ¿ Õ¾Õ¥Õ¬
ĠÖħÕ£Õ¿Õ¡Õ£Õ¸ÖĢÕ® Õ¸ÖĤÕ´Õ¶
Õ¡Õ£Õ¥Õ¿ Õ«
ĠÕ°Õ¡Õ½Õ¿Õ¡Õ¿ Õ¸ÖĤÕ©ÕµÕ¸ÖĤÕ¶Õ¶Õ¥ÖĢÕ¸ÖĤÕ´
ĠÕ°Õ¡Õ¶Õ±Õ¶ Õ¾Õ¥Õ¬
ĠÕ¹Õ¡Öĥ Õ¸ÖĢÕ¸Õ·
ĠÕ±Öĩ Õ¡Õ¾Õ¸ÖĢÕ¾Õ¡Õ®
ĠÕµÕ¸ÖĤÖĢ ÖħÖĢÕ«Õ¶Õ¡Õ¯
ĠÕºÖĢ Õ¥Õ´Õ«
ĠÕ¯Õ¥ÖĢÕº Õ¡ÖĢÕ¨
Õ¥Õª Õ«Õ½Õ¸ÖĢ
ĠÕ°Õ¡Õ½Õ¯ Õ¡ÖģÕ¥Õ¬
ĠÕºÕ¡Õ¿Õ¯Õ¥ÖĢ Õ¡ÖģÕ¸ÖĤÕ´
ĠÕ¥ÖĢÕ¥Õ¯ Õ¸
ĠÔ±ÖĢÕ ª
ĠÕ¸ÖĤÖĢÕ«Õ· Õ¶Õ¥ÖĢÕ«
ĠÔ±Õ·ÕŃ Õ¡Õ¿Õ¡Õ¶ÖĦÕ¡ÕµÕ«Õ¶
ĠÕ½ÕºÕ¡Õ¶ Õ¾Õ¥Õ¬
ĠÕ½Õ¿Õ¡Õ¶Õ¡Õ¬ Õ¸ÖĤÖģ
ĠÔ±ÖĢÕ¤ Õ¡ÖĢÕ¡Õ¤Õ¡Õ¿Õ¸ÖĤÕ©ÕµÕ¡Õ¶
ĠÕ°Õ¶Õ¹ Õ¥Öģ
ĠÕºÕ¡Õ¿Õ¾Õ«ÖĢÕ¡Õ¯ Õ¸ÖĤÕ©ÕµÕ¡Õ¶Õ¨
ĠÕ¬Õ¸ÖĤÕµÕ½ Õ«
ĠÔµÕ² Õ«Õ¡Õ¦
ĠÕ¢Õ¸Õ²Õ¸ ÖĦÕ¨
ĠÕ¯Õ¡ÕµÖĦ Õ§Õ»
ĠÕ½Õ¡ÖĢÖĦ Õ¡Õ¾Õ¸ÖĢÕ¸ÖĤÕ´Õ¶Õ¥ÖĢÕ«
ĠÔ³Õ«Õ¿ Õ¡Õ¯Õ¡Õ¶
ÕĢÕ¡ÖĢÖģ Õ¡Õ¦ÖĢÕ¸ÖĤÕµÖģ
ÕİÕ¡ÖĢÕ¹Õ¡ÕºÕ¥Õ¿ Õ¨
ĠÖĥÕ¸ÖĢÕ±Õ¡Õ£Õ¥Õ¿ Õ¶Õ¥ÖĢÕ«
ÕºÖĢÕ¸Öģ Õ¡Õ¯Õ¡Õ¶
ĠÕ´Õ¸ÖĤÕ¿ ÖĦÕ¨
ĠÕºÕ¿ Õ¿
ĠÕ°Õ¡Õ´Õ¡Õ¶Õ¡ÕŃÕ¡Õ£Õ¡Õ° Õ¶Õ¥ÖĢÕ«
ĠÕ¡ÕµÕ¬Õ¨Õ¶Õ¿ÖĢÕ¡Õ¶ÖĦ Õ¡ÕµÕ«Õ¶
ĠÕ¡Õ¶Õ½ Õ¡Õ°Õ´Õ¡Õ¶
ÕĪÕ½Õ¿Õ«Õ¯Õ¡Õ¶ Õ¸ÖĤÕ©ÕµÕ¡Õ¶
Õ¿Õ¸Õ´ Õ¥ÖĦÕ¥Õ¶
ĠÕ¡Õ¶Õ±Õ¶Õ¡Õ¯Õ¡Õ¦Õ´ Õ«
ĠÕ°Õ¥Õ¼Õ¸ÖĤÕ½Õ¿Õ¡Õ¼Õ¡Õ¤Õ«Õ¸Õ¨Õ¶Õ©Õ¥ÖĢÖģ Õ¸ÖĤÕ´Õ¶
ĠÕ°ÖĢÕ¡Õ¦ Õ¥Õ¶Õ¡ÕµÕ«Õ¶
ĠÕ¡Õ´Õ¥Õ¶Õ¡Õ¬ Õ¡Õ¾
ĠÔºÕ«ÖĢ Õ¡ÕµÖĢ
ĠÔ´Õ¥Õ´Õ« ÖĢÕ³
Õ¡Õ´Õ¥ÖĢÕ«Õ¯ ÕµÕ¡Õ¶
) &
) -
P osted
g mail
Õ¥ Õ¡Õ¶Õ«
Öģ Õ¡Õ¶Õ¯
Õ¥ÖĢ Õ¶Õ¥ÖĢ
Õ¡ÖĢ Õ¡
Õ¾ Õ¸ÖĢÕµ
Õ¡Õ¾ Õ«Õ¶
Õ¥Õ¶ Õ¹
ĠÕ¤ Õ½Õ¿Õ¥ÖĢ
ĠÕ¢ Õ¥Õ¶Õ¦
Õ¢ Õ«
ĠÕ¾ Õ¡Õ¶ÖĦ
ÕĢ Õ¡Õ¾
ÕĢ Õ¥Õ¿Öĩ
ĠÕ¹ Õ«Õ¶Õ¡Õ¯Õ¡Õ¶
ĠÖĥ Õ¡Öĥ
ÕĨ ÖĢÕ¡Õ¶Öģ
ĠÕį Õ¡ÖĦ
ĠÕį Ô´
Õ¥Õ´ Õ¡ÖĢÕ¡Õ¶
ÖĢÕ¤ Õ¸Õ¾
ĠÔ¿ Õ¡Õ¬
ĠÔ¿ Ô¸ÕĢ
ĠÕ¡Õ´ ÖĢÕ¡Õ£ÖĢ
ÕĲ Ô±Ô³ÕĲ
Ô² Õ¡ÖĦ
ĠÕ£ÖĢ ÖĦÕ¸ÖĤÕ´
ÖĨ ÖĢ
Õ¸ÖĤÕ¬ Õ¨
Õ¸ÖĤÕ¬ Õ©
ĠÕ¯Õ¡Õ¼ Õ¡Õ»
ĠÕĵ Õ¥Õ¿ÖĢÕ¾Õ¡ÖĢÕ«
ĠÕŃÕ¸Õ½ Õ¥Õ¬Õ¸Õ¾
ĠÕ¯Õ¡Õº Õ¥ÖĢÕ¨
ĠÕ½Õ¡Õ°Õ´Õ¡Õ¶ Õ¡Õ®
ĠÕ¢Õ¡Õ¶ Õ»
ĠÕ¿Õ¥Õ²Õ¥Õ¯ Õ¸ÖĤÕ©ÕµÕ¸ÖĤÕ¶Õ¨
Õ¥Õ¼Õ¶ Õ¾Õ¡Õ®
ĠÕ¨Õ¶Õ¯Õ¥ÖĢ Õ¸ÖĤÕ©ÕµÕ¸ÖĤÕ¶Õ¶Õ¥ÖĢ
ĠÕ°Õ¡Õ´Õ¡Õ¯Õ¡ÖĢÕ£ Õ¸Õ¾
ĠÕ¨Õ¶Õ¤Õ¸ÖĤÕ¶ Õ¸ÖĤÕ´Õ¨
ĠÕī Õ¥Õ¶
ĠÕ²Õ¥Õ¯Õ¡Õ¾Õ¡ÖĢ Õ¸ÖĤÕ´
ĠÕ°Õ¡Õ¶ÖĢ Õ¸ÖĤÕ©ÕµÕ¸ÖĤÕ¶Õ¨
ĠÕºÕ¡Õ¿ÖĢÕ¡Õ½Õ¿ Õ´Õ¡Õ¶
ĠÕ£Õ¡Õ¬ Õ«ÖĦ
ĠÕ´Õ¡Õ° Õ¨
ĠÔµÖĢ ÖĢÕ¸ÖĢÕ¤
ĠÕ¥ÖĢÕ«Õ¿Õ¡Õ½Õ¡ÖĢÕ¤ Õ¶Õ¥ÖĢÕ«Õ¶
ĠÕ¿Õ¡ÖĢÕ¾ Õ¸ÖĤÕ´
ĠÕµÕ¸ÖĤÖĢ Õ¡ÖĦÕ¡Õ¶Õ¹ÕµÕ¸ÖĤÖĢÕ¨
ĠÕ¡Õ¶Õ¸ÖĤÕ¶ Õ¶Õ¥ÖĢ
ĠÕºÕ¡Õ¿Õ¥ÖĢÕ¡Õ¦Õ´ Õ«Öģ
ĠÕ¾Õ¶Õ¡Õ½ Õ¡Õ¯Õ¡ÖĢ
ĠÕ¯Õ¡Õ¶ÕŃ Õ¥Õ¬Õ¸ÖĤ
Õ¡Õ¹Õ¡Öĥ Õ«
ĠÔ·Õ»Õ´Õ«Õ¡Õ® Õ¶Õ¸ÖĤÕ´
ĠÕ¢ÕµÕ¸ÖĤÕ» Õ¥Õ¶
ĠÕ¡Õ¾Õ¿Õ¸Õ´Õ¥ÖĦÕ¥Õ¶ Õ¡
ĠÕ£Õ¸Õ¿ Õ«Õ¶
ĠÕ¨Õ¶Õ¤Õ£ÖĢÕ¯ Õ¾Õ¥Õ¬
ĠÕ¾Õ¡ÖĢÕ± Õ¸Õ¾
ĠÕ¯Õ½Õ¿ Õ¡Õ¶Õ¡
ĠÕ¢ÕªÕ«Õ·Õ¯ Õ¶Õ¥ÖĢÕ¨
Õ½ÖĢ Õ¡ÕµÕ¥Õ¬
ĠÕºÕ¡ÕµÕ´Õ¡Õ¶Õ¡Õ£ÖĢ Õ¥ÖĢÕ«
Ð°Ð ²
Õ«ÖĢÕ¿ Õ¸ÖĤÕ¡Õ¬
ĠÕ¦Õ¢Õ¸Õ½Õ¡Õ·ÖĢÕ» Õ«Õ¯Õ¶Õ¥ÖĢÕ«
ĠÕ¢Õ¡ÖģÕ¡Õ¯Õ¡Õµ Õ¸ÖĤÕ©ÕµÕ¸ÖĤÕ¶Õ¨
ĠÕ·Õ¸ÖĤÕ¯Õ¡Õµ Õ¡Õ¯Õ¡Õ¶
Õ°Õ¡Õµ Õ¯Õ¡Õ¯Õ¡Õ¶
ĠÕ¡Õ¾Õ¿Õ¸Õ³Õ¡Õ¶Õ¡ÕºÕ¡ÖĢÕ° Õ«
ĠÕĢÕ¡Õ½Õ¡ÖĢÕ¡Õ¯ Õ¡Õ¯Õ¡Õ¶
ÕĸÖĢÕ¡Õ¶Õ½ Õ«Õ¡ÕµÕ«
ĠÕ£Õ¥Õ²Õ¥ÖģÕ¯ Õ¸ÖĤÕ©ÕµÕ¡Õ¶
Õ°Õ¡ÖĢ Öģ
ĠÕĶÔ±ÕĤÔ±ÕĶ Ô±Ô¿Ô±ÕĨ
ĠÕ¯Õ¡ÖĢÕ« Õ¥ÖĢÕ¡Õ¶
ĠÕ¶Õ¡ÕŃÕ¨Õ¶Õ¿ÖĢ Õ¸ÖĤÕ´
Õ¡ÖĢÕ¤ÕµÕ¸ÖĤÕ¶Õ¡Õ¢Õ¥ÖĢ Õ¡Õ¯Õ¡Õ¶
ĠÔ±Õ½Õ¿Õ¾Õ¡Õ®Õ¡Õ· Õ¸ÖĤÕ¶Õ¹
ĠÔ»ÖĢÕ¡Õ¯Õ¡Õ¶ Õ¸ÖĤÕ´
ĠÕ¡Õ¸ÖĤ Õ¤
ĠÕ¢Õ¡ÕªÕ¶Õ¥Õ¿Õ¸Õ´Õ½ Õ¥ÖĢÕ«
ĠÕ«Õ¤ Õ¥Õ¡Õ¬
ĠÕ¤Õ¡ÖĥÕ¶ Õ¥Õ¯
ĠÕĦÕ«Õ° ÖĢÕ¡Õ¶
. `
S A
Õ¿ Õ¥
Õ¾ Õ¥ÖĢÕ¤
ĠÕ¯ Õ¸ÖĢÕ½
Õ¡Õ½ Õ¥ÖĢÕ«
Õ¡Öģ Õ¡Õ¶ÖĦ
Õ¡Öģ Õ¾Õ¸Õ²
Õ¡Öģ Õ¸ÖĤÕ´Õ¶Õ¥ÖĢ
ĠÔ± Õ·Õ¿
Õº Õ¡Õ½Õ¿Õ«
ĠÕ© Õ¥ÖĦ
ĠÕ°Õ¡Õ´ Õ¡ÖĢÕ¾Õ¸Õ²
Õ¥Öģ Õ¸ÖĤÕµÖģ
ĠÕ¹ Õ¢
ĠÕ¹ Õ¾Õ¥ÖĢ
Õ¾Õ¡Õ® Õ¨
Õ· Õ¡Õ´Õ¡ÖĢÕ¿Õ«
ĠÕĦ Õ¥Õ¤
ĠÕĦ Õ¥ÖĦÕ½
Öĥ ÖĢÕ¯
ĠÕ¶Õ¡ÕŃ Õ¡ÕºÕ¡ÕµÕ´Õ¡Õ¶
ĠÕĢÕ¡Õµ Õ¥Õ¬Õ«
ĠÕª Õ¡Õ¶ÖĢ
ĠÕİ Õ½Õ¿Õ¡Õ°
ĠÕ¾Õ¥ÖĢ Õ¡ÖģÕ´Õ¡Õ¶
Õ¡Öĥ Õ¸ÖĢÕ±
Õ¸Õ· Õ¡ÖĢÖĦ
ĠÕ¡ÖĢÕ¤ Õ«
ĠÕı Õ¡Õ©Öĩ
ĠÕ«ÖĢÕ¡Õ¾ Õ¡ÕºÕ¡Õ·Õ¿ÕºÕ¡Õ¶
ĠÕ¼ Õ¥ÕµÕ¿
ÕĬ Õ¡Õ°
ĠÕªÕ¡Õ´Õ¡Õ¶Õ¡Õ¯ Õ¶Õ¥ÖĢÕ«
Ô±ÕĲ Ô»
ĠÕºÕ¡ÕµÕ´Õ¡Õ¶ Õ¡Õ¯Õ¡Õ¶
ĠÕŃÕ¸ÖĢÕ°ÖĢÕ¤ Õ¡Õ¯Öģ
ĠÕ¥ÖĢÕ¯ÖĢ Õ«Õ¶
ĠÕ¯Õ¡Õ¼Õ¡Õ¾Õ¡ÖĢ Õ¡Õ¯Õ¡Õ¶
Ġ6 8
Ġ6 9
ĠÔ±Õ¶ Õ¸ÖĤÕ·
Õ¸ÖĤÕ´Õ¶ Õ¡Õ½Õ«ÖĢ
ĠÕ¡Õ¶Õ¤Õ¡Õ´ Õ¶Õ¥ÖĢÕ«Öģ
Õ¡Õ£Õ«Õ¿ Õ¸ÖĤÕ©ÕµÕ¸ÖĤÕ¶Õ¨
ĠÕ°Õ¡Õ¶ÖĢ Õ¡Õ°Õ¡ÕµÕ¿
ĠÕĮÕ¸ÖĤÕ½ Õ¡Õ¯Õ¡Õ¶
ĠC l
Õ¯Õ«Õ¶ Õ¸ÖĤÕ´
ĠÔ±Õ¤ÖĢÕ¢Õ¥Õ» Õ¡Õ¶Õ¶
ĠÔ±Õ¼ Õ¡Õ¶Öģ
ĠÕ£Õ¸ÖĤÕ´ Õ¡ÖĢÕ´Õ¡Õ¶
ĠÕ¡Õ¼Õ¡Õ»Õ¡ÖĢÕ¯ Õ¸ÖĤÕ©ÕµÕ¸ÖĤÕ¶Õ¶Õ¥ÖĢ
Õ¡Õ´Õ¡Õ½ Õ¶Õ¡Õ¯Õ¡Õ¶
ĠÕ¾Õ«ÖĢ Õ¡Õ¾Õ¸ÖĢÕ¸ÖĤÕ´
ĠD aily
ĠÕ¯Õ¡Õ¶ÕŃ Õ¥Õ¬
200 4
ĠÕ°Õ¡Õ¿Õ¾Õ¡Õ® Õ¶Õ¥ÖĢÕ¸ÖĤÕ´
ĠÕ¦Õ«Õ¶Õ¾Õ¸ÖĢ Õ¶Õ¥ÖĢÕ«
ĠÕ¸ÖĤÖĢÕ«Õ· Õ«
ĠÔ±ÕĲ Õı
ĠÕĦÕ¥Õ® Õ«
ĠÕ½Õ¿Õ¥Õ²Õ®Õ¡Õ£Õ¸ÖĢÕ® Õ¸ÖĤÕ©ÕµÕ¸ÖĤÕ¶Õ¶Õ¥ÖĢÕ¨
ÕºÕ¡Õ¿ Õª
ĠÖħÖĢÕ¥Õ¶Õ½Õ£ÖĢ ÖĦÕ¸ÖĤÕ´
ĠÕ¢ÕµÕ¸ÖĤÕ» Õ¥Õ¿Õ¡ÕµÕ«Õ¶
ĠÕ°Õ¡Õ¶ÖģÕ¡Õ£Õ¸ÖĢÕ® Õ¸ÖĤÕ©ÕµÕ¸ÖĤÕ¶
ĠÕ¤ÖĢÕ½ Õ¸ÖĤÕ´
ĠÕ¤Õ¡Õ¤Õ¡ÖĢ Õ¥Öģ
ĠÕ³Õ· Õ£ÖĢÕ«Õ¿
ct ion
ĠÕ¸Õ½Õ¯ Õ¸ÖĤ
ĠÕ´Õ¸Õ¼ Õ¡Õ¶Õ¡Õ¬
Õ¥ÖĢÕµ Õ¡Õ¶Õ«
ÕİÕ¡ÖĢÕ¹Õ¡ÕºÕ¥Õ¿ Õ«
ĠÕºÕ¡ÕµÕ´Õ¡Õ¶Õ¡Õ£ÖĢ Õ¥ÖĢ
ul t
ĠÕ¢Õ¡ÖĢÕ¥Õ¬Õ¡Õ¾ Õ´Õ¡Õ¶
ĠÕ°Õ¡Õ´Õ¡ÕªÕ¸Õ²Õ¸Õ¾ Õ¨
ĠÕ¿Õ¡Õ² Õ¡Õ¾Õ¡ÖĢ
Ô½Õ´Õ¢ Õ¡Õ£ÖĢÕ¸ÖĤÕ©ÕµÕ¸ÖĤÕ¶Õ¨
Ô±ÖĢÕ´ Õ¡Õ¾Õ«ÖĢ
ĠÔ¿Õ¸ÖĢ Õ¥Õ¡ÕµÕ«
ĠÔ±ÖĢÕ® ÖĢÕ¸ÖĤÕ¶
ĠÖĥÕ¡Õ½Õ¿Õ¡Õ©Õ¸ÖĤÕ²Õ© Õ¨
ĠÕ¾Õ¥ÖĢÕ¡ÕºÕ¡Õ¿ÖĢÕ¡Õ½Õ¿ Õ´Õ¡Õ¶
Õ¡ÖĢÕ¸ÖĤÕ¶ Õ¡Õ¯Õ«
ĠÔ±ÖĢÕ·Õ¡Õ¯ Õ¸ÖĤÕ¶ÕµÕ¡Öģ
ĠÕªÕ¸Õ²Õ¸Õ¾Õ¡Õ® Õ¸ÖĤ
ĠÔ»ÕĨ Õī
crip tion
ĠÕºÖĢÕ¸Õ¤ ÕµÕ¸ÖĤÕ½
2 000
C hat
ÖĢ Õ¥Õ¬Õ¸ÖĤ
Õµ Õ¡ÕµÕ«
Õ¥ÖĢ Õ¥Õ½
Õ¡Õµ Õ¶Õ¥ÖĢ
ĠÕ° Õ¡ÖĤ
ĠÕ´ Õ½
ĠÕ¯ Õ¡Õ¤
Õ½ Õ¥Õ¬
Õ¡Õ° Õ¡ÖĢÕ¯
Õ£ ÖĢÕ¿
ÕĢ Õ¡ÖĢÕ¯
Õ¡Õ½Õ¿ Õ¡Õ¶ÖģÕ«
Õ¥Öģ Õ«ÖĦ
ĠÕ· Õ¸Õ·
ÕĨ Õ¯Õ¡ÖĢ
ÕĨ ÕıÔµÕį
Ôµ Ô±ÕĨ
ĠÕį Õ¡Õ²
ÕĦ Õ¡ÖĢÕ¦
Õ¥Õ´ Õ¡
ĠÕ¶Õ¡ÕŃ Õ¡Õ¤Õ¡Õ½
Ô¿ Õ¡Õ¦Õ´Õ¡Õ¯Õ¥ÖĢÕº
Õ¡Õ£ÖĢ Õ«Õ¶
ĠÕ± Õ´
ĠÖģ Õ¥Õ²
ÕĪÕĴ Õĩ
ĠÕ¡Õº ÖĢÕ¡Õ¶ÖĦÕ«
ĠÔ¼ Õ«Õ¶
ĠÕı ÖĢ
ÖĨ Õ¸
Õ¸ÖĤÕ¬ Õ´Õ¡Õ¶
ĠÕ¶Õ¸ÖĢ Õ¡Õ±Öĩ
ÕµÕ¡Õ¬ Õ¨
Õ¸ÖĤÕµÕ© Õ«Õ¶
ĠÕ¯Õ¡Õµ ÖĦÕ¥ÖĢÕ«
ĠÕ¨Õ¶Õ©Õ¡Öģ ÖĦÕ«Õ¶
ĠÕ¯Õ¡Õ¦Õ´Õ¡Õ¯Õ¥ÖĢÕº Õ¾Õ¸ÖĤÕ´
ĠÕ£Õ«Õ¿ Õ¸ÖĤÕ©ÕµÕ¸ÖĤÕ¶
ĠÕºÕ¡ÕµÕ´Õ¡Õ¶ Õ¶Õ¥ÖĢÕ¸Õ¾
ĠÕºÕ¡Õ¿Õ´ Õ¥Öģ
ĠÕ¯Õ¡Õ¿Õ¡ÖĢ Õ¸Õ²Õ¡Õ¯Õ¡Õ¶
ĠÔ±Õ¶ Õ¯Õ¡ÖĢ
ĠÕ¥Õ¶Õ© Õ¡Õ¤ÖĢ
Ġ7 7
Õĳ Ô±Ô½
Ô±Õį Ô±ÕĲÔ´
ĠÖĥÕ¸ÖĥÕ¸ÕŃ Õ¸ÖĤÕ©ÕµÕ¸ÖĤÕ¶Õ¨
ĠÕ¡Õ¼Õ¡Õ»Õ¶ Õ¸ÖĤÕ©ÕµÕ¸ÖĤÕ¶Õ¨
ÕĤ Ô»
ĠÕ¬Õ¸ÖĤÕ½ Õ¡Õ¾Õ¸ÖĢ
ĠÕ¶Õ«Õ½Õ¿ Õ«Öģ
ĠÕ½Õ¸Õ¾Õ¸ÖĢ Õ¥Õ¬Õ¸ÖĤ
ĠÕ¡Õ¾Õ¡ÖĢÕ¿ Õ¨
ĠÕ¡Õ¾Õ¡ÖĢÕ¿ Õ¾Õ¸ÖĤÕ´
20 01
Õ¡Õ°Õ¡ÖĢ Õ¸ÖĤÕ´
ĠÕ£Õ¶Õ¡Õ°Õ¡Õ¿ Õ¡Õ¯Õ¡Õ¶Õ¨
ĠÕºÕ¡Õ¿Õ¾ Õ¡Õ½Õ¿
Õ¥ÖĢÕ¤ ÖĢÕ¸ÖĤÕ´
ĠH ay
ĠÕµÕ¸ÖĤÖĢÕ¡ÖĦÕ¡Õ¶Õ¹ÕµÕ¸ÖĤÖĢ Õ«
ĠÕ¡ÖĢÕ¿Õ¡Õ°Õ¡ÕµÕ¿ Õ¸ÖĤÕ´
ĠÖĨÕ«Õ¬Õ´ Õ¸ÖĤÕ´
ĠÕ¯Õ£ Õ¸ÖĢÕ®
ĠÕ£Õ¸ÖĤÕ´Õ¡ÖĢ Õ¶Õ¥ÖĢÕ«
ĠÕ¡ÖĢÕªÕ¥ÖĦ Õ¶Õ¥ÖĢÕ¨
ĠÕ«Õ¶Õ¿ Õ¥Õ¬Õ¥Õ¯Õ¿
ĠÕ¯Õ¥Õ¶Õ½ Õ¡Õ¯Õ¡Õ¶
ĠÕ´Õ¥Õ¯Õ¶Õ¡Õ¢Õ¡Õ¶ Õ¸ÖĤÕ©ÕµÕ¸ÖĤÕ¶Õ¨
ĠÕ¤Õ«ÖĢÖĦ Õ¥ÖĢÕ¨
ĠÕ¢Õ¡ÕªÕ¡Õ¶ Õ´Õ¸ÖĤÕ¶ÖĦ
Õ¡Õ£Õ¶ Õ¡Õ°Õ¡Õ¿
ĠÕ·Öĥ Õ¸Õ©
ĠÕ¤ÖĢÕ¡Õ¶ Õ¸ÖĤÕ´
ĠÕ¸ÖĢÖĦÕ¡Õ¶ Õ¸Õ¾
ĠÕªÕ¡Õ´Õ¡Õ¶Õ¡Õ¯Õ¡Õ°Õ¡Õ¿Õ¾Õ¡Õ® Õ«
ĠÕ°Õ¡Õ´Õ¡ÕµÕ¶ÖĦ Õ¡ÕºÕ¥Õ¿
ĠÕ´Õ¡Õ½Õ¶Õ¡Õ£Õ«Õ¿ Õ¡ÖģÕ¾Õ¡Õ®
ÕĦÕ¡ÖĢÕ¤ Õ«Õ¯
ĠÕ¯Õ¡ÖĢÕ£Õ¡Õ¾Õ«Õ³ Õ¡Õ¯Õ¨
Õ¡Õ£Õ® Õ¸ÖĤÕ´
ĠÔ»ÖĢÕ¡Õ¶ Õ¸ÖĤÕ´
ĠÕ¹Õ£Õ«Õ¿ Õ¥Õ½
ÕĪÕĳ Ô»
ĠY erevan
ĠÕ©Õ·Õ¶Õ¡Õ´ Õ«Õ¶
ĠU n
ĠÕįÖĩ Õ¡Õ¯
ĠÕ¾Õ¥ÖĢÕ¡Õ¢Õ¥ÖĢÕ´ Õ¸ÖĤÕ¶ÖĦÕ«
ĠÕ¨Õ¶Õ¿Õ¡Õ¶Õ«ÖĦ Õ¶Õ¥ÖĢÕ«Õ¶
Õ¼Õ¸Õ´ Õ¥Õ¡Õ¯Õ¡Õ¶
ĠÕ©Õ¸ÖĤÕµÕ¬Õ¡Õ¿ ÖĢÕ¾Õ¸ÖĤÕ´
ĠÕ¡ÕºÕ¡ÖģÕ¸ÖĤÖģ Õ¥Õ¬
ĠÕ¢Õ¡ÖģÕ¡Õ¿ ÖĢÕ¸ÖĤÕ´
ĠÕ°Õ¸ÖĢÕ¤ Õ¸ÖĢÕ¸ÖĤÕ´
ĠÕ°Õ´Õ¿ Õ¸ÖĤÕ©ÕµÕ¸ÖĤÕ¶Õ¶Õ¥ÖĢ
ĠÕ´Õ«Õ»Õ¡Õ¤Õ¥Õº Õ«
ĠÕ°Õ¡Õ´Õ¨Õ¶Õ¯ Õ¶Õ¥Õ¶
ĠÔ²Õ¡Õ²Õ¤Õ¡Õ½ Õ¡ÖĢÕµÕ¡Õ¶Õ¨
ĠÕħÕ¸ÖĢ ÖĦÕ«
ĠÕ®ÕŃ Õ¡ÕŃ
ĠÕĢÕ¼Õ¸Õ´ Õ«
Ġy erkir
ĠÖĦÕ¡Õ°Õ¡Õ¶ Õ¡
ĠÕŃÕ¸Õ¶ Õ¡ÖĢÕ°
ĠÕıÕ«ÖĢ Õ¸Õ»
ĠÕĢÕ¡Õ¬ Õ¥Õº
ĠÕ°Õ¸Õ¯ Õ¿Õ¥Õ´Õ¢Õ¥ÖĢÕ«Õ¶
ĠÔ¼Õ¸ÖĤÕ½Õ¡Õ¾Õ¸ÖĢ Õ«Õ¹
ĠÕ¾Õ¯Õ¡ÕµÕ¡Õ¯Õ¸Õ¹ Õ¥Õ¬Õ¸Õ¾
ĠÔ½ÕĪÕĲ ÕĢ
. ):
I V
Õ¡Õ´ Õ¡Õ¶Õ¯
ĠÕ¯ Õ«
Õ´ Õ¡ÖĢÕ¤
Õ¥Õ¿ Õ¶
ĠÕº Õ¡Õ½Õ¿
ĠÕ½ Õ¥Õ¦
ĠÕ¾ Õ¡Õ¶
Õ© Õ¸Õ¶Õ¨
ĠÂ« Â«
ĠÕ¡Õ¼ Õ¡Õ¿
ĠÕĦ Õ¸ÖĤÕ¿ÖĦ
ĠÕĦ Õ°Õ¥ÖĢ
ÖĢÕ¡Õ¶ Õ¡
Õ¸ÖĤÕ½ Õ¡Õ¯ÖģÕ¡Õ¯Õ¡Õ¶
Ô¿ Õ¥Õ¶Õ½
Õ° Õ¸Õ£
ĠÕ°Õ¡Õ¶ Õ¸ÖĤÕ´
Õ¡Õ¯Öģ Õ«Õ¶
ĠÕ¿Õ¥Õ² Õ«Öģ
Õŀ :
ĠÕ¾Õ¥ÖĢ Õ¡ÖĥÕ¸ÕŃ
ĠÕ¯Õ¡ÖĢÕ¸Õ² Õ¸ÖĤÕ©ÕµÕ¸ÖĤÕ¶Õ¶Õ¥ÖĢÕ«
Õ¡Õ¤ÖĢ Õ¡Õ®
Õ¡Õ£Õ¸ÖĢÕ® Õ¸ÖĤÕ©ÕµÕ¡Õ¶
ĠÕ¿Õ¥Õ½ Õ¬
ĠÕ¿Õ¥Õ½ Õ¶Õ¥Õ¬Õ¸Õ¾
ĠÕ¤Õ¥Õº Õ¡ÖĢÕ¿Õ¡Õ´Õ¥Õ¶
ĠÕ¡Õ¶Öģ Õ¶Õ¸Õ²
ĠÕ«ÖĢÕ¡Õ¯Õ¡Õ¶ Õ¸ÖĤÕ©ÕµÕ¸ÖĤÕ¶Õ¨
ĠÕ«ÖĢÕ¡Õ¯Õ¡Õ¶ Õ¸ÖĤÕ©ÕµÕ¡Õ¶Õ¨
ĠÕŃÕ¸Õ½ Õ¥Õ¬Õ¸ÖĤ
ĠÕ¶Õ¯ Õ¡ÖĢÕ¨
ĠÕ´Õ¿ ÖĦÕ¥ÖĢ
ĠÕ¯Õ¡Õ¦Õ´Õ¡Õ¯Õ¥ÖĢÕº Õ¸ÖĤÕ©ÕµÕ¸ÖĤÕ¶Õ¶Õ¥ÖĢÕ«Õ¶
Õ¥Õ· Õ¶Õ¹
ĠÕ¡Õ·ÕŃÕ¡Õ¿Õ¡Õ¶ÖĦ Õ«Õ¶
ĠÕ¸ÖĤÕ½ Õ´Õ¡Õ¶
ĠÖħÕ£Õ¿ Õ¾Õ¸ÖĤÕ´
ĠÕ¨Õ¶Õ¯Õ¥ÖĢ Õ¡Õ¯Õ¡Õ¶
Ô±ÕµÕ½ ÕºÕ¥Õ½
ĠÕ¶Õ¯Õ¡Õ¿ Õ¾Õ¸ÖĤÕ´
ĠA pple
ĠÕ«Õ¶ÖĦÕ¶ Õ¸ÖĢÕ¸Õ·Õ´Õ¡Õ¶
ĠÕ¡ÕºÕ¡Õ°Õ¸Õ¾ Õ¾Õ¡Õ®
ĠÕĦÕ« Õ¡ÕªÕ¡Õ´Õ¡Õ¶Õ¡Õ¯
ĠÕ¡Õ¯Õ¿ Õ¥ÖĢ
ĠÕ¯Õ¶ Õ·
ĠÕ¯Õ¶ ÕºÕ¡Õ½Õ¿Õ«
ĠÔ±ÕµÕ¶ Õ¸ÖĤÕ¡Õ´Õ¥Õ¶Õ¡ÕµÕ¶Õ«Õ¾
Õ¡Õ°Õ¡ÖĢ Õ¸ÖĤÕ½Õ¿
ĠÕ©Õ¥Õ´ Õ¡ÕµÕ«
ĠÕ¡Õ¼Õ¡Õ»Õ¡ÖĢÕ¯ Õ¾Õ¸ÖĤÕ´
ĠÕ¦Õ¸Õ° Õ¥ÖĢ
ĠÕºÕ¡Õ°ÕºÕ¡Õ¶ Õ¾Õ¸ÖĤÕ´
ĠÕ·Õ¡ÖĢÕª Õ¾Õ¸ÖĤÕ´
ĠÕ¢Õ¼Õ¶ Õ¡Õ¢Õ¡ÖĢ
ÕĦÕ« Õ¡ÕªÕ¡Õ´Õ¡Õ¶Õ¡Õ¯
Õ¡Õ¶Õ¿ Õ«Õ¶
Ð¾ ÑĢ
ÕĢÕ¥Õ¿ Õ¥ÖĤ
ĠÕŃÕ¡ÕŃÕ¿ Õ¥Õ¬Õ¸ÖĤ
ĠÕ£Õ¸ÖĢÕ®Õ¨Õ¶Õ¯Õ¥ÖĢ Õ¶Õ¥ÖĢÕ«Õ¶
ĠÕ®Õ¡Õ¶Õ¸Õ© Õ¡Õ¶Õ¡Õ¬Õ¸ÖĤ
ĠW indows
un d
ĠÕ¤Õ¡Õ·Õ«Õ¶ ÖĦ
ĠÕ´Õ¡Õ¿Õ¸ÖĤÖģ Õ¸ÖĤÕ´
ĠÕĢÔ±ÕĦ Ô±ÕħÕĨ
ĠÕ¯Õ· Õ¡ÖĢÕ¸ÖĤÕ¶Õ¡Õ¯Õ«
ĠÕ³Õ¡ÖĢÕ¿Õ¡ÖĢ Õ¡ÕºÕ¥Õ¿Õ¡Õ¯Õ¡Õ¶
ĠÕ°ÕµÕ¸ÖĤÖĢÕ¡Õ¶ Õ¸ÖģÕ«
ĠÕ¥ÖĢÕ£Õ¹ Õ¸ÖĤÕ°Õ«Õ¶
igh ts
Õ«ÖĨ Õ«Õ¯
ÖħÕ£ Õ¸ÖĤÕ¿
ĠÕĬÕ¡ÖĢÕ¦ Õ¡ÕºÕ¥Õ½
ĠÕŃÖĥ Õ¥Õ¬
ĠÕ´Õ«Õ£ Õ¸ÖĤÖģÕ¥
Ô²Õ¡Õ¶ Õ¡Õ¶Öģ
ĠÕ¯Õ¸Õ¬ Õ¥Õ¯Õ¿Õ«Õ¾
ĠÕ°Õ¸Õ¢ Õ¥Õ¬ÕµÕ¡Õ¶
ĠÕŃÕ¸Öģ Õ¥Õ¬Õ«
ĠÕ£Õ¸ÖĢÕ®Õ¡ÖĢ ÖĦÕ«
ĠÕ¯Õ¸Õº Õ«Õ¿
ĠÔ±ÖĢÕ¿Õ¡Õ· Õ¥Õ½
ĠÔ±Õ¼Õ¸Õ²Õ» Õ¡ÕºÕ¡Õ°Õ¸ÖĤÕ©ÕµÕ¡Õ¶
Ô¿Õ¡ÖĢÕ¤ Õ¡ÖģÕ¥ÖĦ
ĠÕ¡Õ´ÖĢÕ¡Õ£ ÖĢÕ¾Õ¡Õ®
Whats Chat
ĠÕ¦Õ¥Õ² Õ¹
ĠÔ»Õ¿ Õ¡Õ¬Õ«Õ¡ÕµÕ¸ÖĤÕ´
) `
8 5
f t
Õ¸ Õ¸ÖĤÖĢÕ«Õ¶
Õ¸ÖĤÕ¶ Õ»
Õ´ Õ«Õ¿ÖĢÕ«
Õ¡Õ¾ Õ¸ÖĤÕ´
ĠÕ¶ Õ¸ÖĤÖĢÕ¢
Õ¡Öģ Õ¸ÖĤÕ´Õ¶Õ¥ÖĢÕ«
Õ¥Õ¿ Õ«Õ¯Õ«
Ô± Ô±Ô¾
ĠÕ£ Õ¡ÕµÕ©Õ¡Õ¯Õ²
Õ¬ Õ¸Õ´
ĠÔ± ÖĢÖĦ
ĠÕ½ Õ¸ÖģÕ«
ĠÕ¾ Õ«Õ¿Õ¡Õ´Õ«Õ¶
ĠÕ¾ Õ¡Õ³Õ¡Õ¼Õ¸ÖĤÕ´
ĠÕ¡Õ¶ Õ¡ÖĢÕ¤Õ¡ÖĢ
ĠÕŃ Õ¶Õ±
ĠÕ¹ Õ¿Õ¥Õ½
Õ«ÖĢ Õ¡Õ¶
Õ¸ÖĤÕµ Õ·
ĠÕĦ Õ¸Õ¿
Ôµ Ô²
ĠÕ¦ Õ¡Õ´Õ¢ÕµÕ¸ÖĤÕ²
ĠÕª ÕµÕ¸ÖĤÖĢ
Õ¥Õ¶ÖĦ Õ¨
Õ¡Õ¶ÖĦ Õ«Öģ
Õ¡Õ© Õ²Õ©
ĠÕ¡ÕµÕ¤ Õ´
Õ¡Õ¶Õ¤ Õ«Õ¬
Õİ ÕĪÕĤ
Ô² Õ¸Õ¬
ĠÔ· Õ¶
ÖĢÕ´ Õ¡Õ´Õ¢
ĠÕĩ Õ«ÖĢ
ĠÕ´Õ¿ Õ¡Õ¾Õ¸ÖĢÕ¡Õ¯Õ¡Õ¶
Ġ5 1
ĠÕ¡ÖĢ Õ¡
ÖĢÕ¡Õ£ Õ«ÖĢ
ĠÕ£Õ«Õ¿ Õ¡Õ¯ÖģÕ¸ÖĤÕ©ÕµÕ¡Õ¶
ĠÕ¬Õ¡Õ¾ Õ¶
ĠÕ¡Õ·ÕŃÕ¡ÖĢÕ° Õ¡ÖĦÕ¡Õ²Õ¡ÖĦÕ¡Õ¯Õ¡Õ¶
ĠÕ´ÖĢÖģ Õ¡Õ·ÖĢÕ»Õ¡Õ¶Õ«
or m
ĠÕĪÖĤ Õ·
ĠA d
ĠÕ°Õ¡Õ¯ Õ¾Õ¡Õ®
ĠÕ®Õ¶ Õ¸Õ²Õ¶Õ¥ÖĢÕ«Õ¶
Ô±Õ¦ Õ£
ĠÔ±ÕµÕ¤ ÕºÕ¥Õ½
ĠÕ©Õ«Õ¾ Õ¶
ĠÕ°Õ¡Õ»Õ¸Õ² Õ¾Õ¸ÖĤÕ´
Õ«Õ¢ ÖĢ
ĠÕ´Õ¡ÖĢÕ´Õ«Õ¶ Õ¶Õ¥ÖĢÕ«Õ¶
ĠÕ©Õ«Õ´ Õ«Õ¶
ĠÕ¡Õ¦Õ£ Õ¡ÕµÕ¶
ĠÕ¸ÖĤÕ½Õ¡Õ¶ Õ¸Õ²Õ¶Õ¥ÖĢ
ĠÕĨÕ¡ÕŃ Õ¸ÖĢÕ¤
ĠÕ¹Õ° Õ¡Õ½
ĠÕĦÕ¸Õ½Õ¯ Õ¾Õ¡Õ¶
ĠÕ°ÖĢÕ¡Õ´Õ¡Õ¶ Õ¸Õ¾
ĠÕ´Õ¡ÖĢÕ¦ÕºÕ¥Õ¿ Õ«
ĠÔ³ÖĩÕ¸ÖĢÕ£ ÕµÕ¡Õ¶Õ¨
ĠÖĦÕ¡Õ· Õ¡ÕµÕ«Õ¶
ĠÕ¡ÕµÕ£ Õ«Õ¶
Õ¡ÖĢÕ¥Õ¯ Õ¡Õ´
ĠÕ¯Õ¡Õ¼Õ¸ÖĤÖģÕ¾Õ¡Õ® ÖĦÕ¨
ĠÕ½Õ¥Õ¼ Õ«
Õ¸Õ¾Õ¯ Õ¡Õ½ÕµÕ¡Õ¶
ĠÕ¦Õ¢Õ¸Õ½Õ¡Õ·ÖĢÕ» Õ¡ÕµÕ«Õ¶
ĠÕĦÕ¡Õ¯ ÖĢ
ĠÕ¡Öĥ Õ«Õ¶
ĠÔ±ÖĢÕ¡Õ¢ Õ¯Õ«ÖĢ
ĠÕ¦Õ£Õ¡Õ¬Õ« Õ¸ÖĢÕ¥Õ¶
Õ¡Õ¿Õ¸Õ´Õ½ Õ¥ÖĢÕ«
Õ¸ÖĤÕ¼Õ¶ Õ¡Õ¬
ĠÔ´Õ¡Õ¾Õ© ÕµÕ¡Õ¶Õ¨
ĠÕ°ÖĢÕ¡Õ¾Õ« ÖĢÕ¾Õ¡Õ®
Õ¥ÕµÕ© Õ¸ÖĤÕ¶
Ô¼Õ¸ÖĤÕ½ Õ¡Õ¾Õ¸ÖĢ
ĠÕ°Õ²Õ« Õ¸ÖĤÕ©ÕµÕ¡Õ¶
ĠÖĦÕ¡Õ²ÖģÕ¯ Õ¥Õ²Õ«
ĠÕ½Õ«Õ´ ÖĨÕ¸Õ¶
ÕİÕ¡Õ¶ Õ¡Õ±Õ¸ÖĢ
ĠÕİÕ¡Õ² Õ¡ÖĢÕ·
ĠÕ°Õ¡Õ¦Õ¾ Õ¡Õ¤Õ¥Õº
ĠÕ½ÖĥÕµÕ¸ÖĤÕ¼ÖĦ Õ¡Õ°Õ¡Õµ
ĠÕ±Õ¥Õ¼ÖĦÕ¢ Õ¥ÖĢÕ´Õ¡Õ¶
ĠÕ¯ÖħÕ£Õ¶ Õ¥Õ¶
ĠÔ¹ÕİÔ±Ô¿Ô±ÕĨ Ô»
E O
G ame
a ch
· Õ¶Õ¹
Õ¶ Õ¸ÖĤÕµÕ©
Õ¸ÖĤ ÖĨ
Õ¡Õ¶ Õ¡ÖĢ
Õ¡Õ¶ ÕµÕ¡Õ¶Õ¶
ÖĦ Õ´
Õ¡Õ¯ Õ¡Öģ
Õ¿ Õ¡ÖĢÕ¡Õ¯
ĠÕ¯ Õ¡Õ¾Õ¡ÖĢÕ¿
Õ½ Õ´
Õ¯ Õ¸ÖĤÕ´
Õ¡Öģ Õ´Õ¡Õ´Õ¢
Õ¸ÖĢ Õ¸ÖĤÕ½
ĠÕ£ Õ¡Õ°
ĠÕ£ Õ¶Õ¥Õ¬Õ¸ÖĤ
ĠÕĢ Õ¡Õ²Õ©
Õ¥Õ½ ÕºÕ¡Õ¶
ĠÕ½ Õ¥ÖĤ
Õ¢ Õ«Õ¦Õ¶Õ¥Õ½
ĠÕ¡Õ¶ Õ®Õ¡Õ¶Õ¸Õ©
ÕĢ Õ¡Õ¾Õ¥Õ¬
ĠÕ°Õ¡Õ´ Õ¡ÖĢÕµÕ¡
ĠÕ¹ Õ¸ÖĤÕ¶Õ¥
ĠÕ«ÖĢ Õ¡ÖģÕ´Õ¡Õ¶
Õ«Õ¯ Õ¸Õ¶
Õ«Õ¯ ÕµÕ¡Õ¶Õ«
ĠÕĦ Õ¡Õ¤
Õ¡ÖĢÕ¤ Õ«
Öĥ Õ¸ÖĢÕ±
ĠÕį Õ«Õ½Õ«
Õ«Õ¿ Õ¡ÖĢ
Õ° Õ¡Õ¶Õ£
Õ¸Õ¬ ÖĢÕ¡Õ£ÖĢ
ĠÔ¿ Õ¡ÖĢÕ®
ĠÔ¿ Ô±Ô¶
ĠÕĨ ÕªÕ¤Õ¥Õ°
ĠÕ¿Õ¡ÖĢ Õ¡Õ±Õ¡ÕµÕ¶
ĠÖĦÕ¡Õ²Õ¡ÖĦ Õ¶Õ¥ÖĢ
Ô³ Õ¡Õ¶Õ±
ĠÔ¹ Ôµ
ĠÕ¶Õ¸ÖĢ Õ¡Õ£Õ¸ÖĤÕµÕ¶
Õ¸ÖĤÕ¯ Õ¶Õ¥ÖĢ
ĠÕ¯Õ¡Õµ Õ¡ÖģÕ¶Õ¥Õ¬
ĠÔ· Õµ
ÕĶ Õ¶Õ¶Õ¡ÖĢÕ¯
ÔµÕĲ ÔµÕĨ
ĠÕĩ Õ¡ÖĢÕª
ĠÕ¾Õ¡ÖĢÕ¹ Õ¸ÖĤÕ©ÕµÕ¸ÖĤÕ¶
ĠÕŃÕ´Õ¢ Õ¡ÕµÕ«Õ¶
ĠÕ¯Õ¡Õ¦Õ´Õ¡Õ¯Õ¥ÖĢÕº Õ¸ÖĤÕ©ÕµÕ¸ÖĤÕ¶Õ¶Õ¥ÖĢÕ¨
Õ«Õ© Õ¸ÖĢ
ĠÖĥÕ¸ÖĢÕ± Õ¡Õ£Õ«Õ¿Õ¡Õ¯Õ¡Õ¶
ĠÕŃÕ¸ÖĢÕ°ÖĢÕ¤ Õ¡Õ¿Õ¾Õ¡Õ¯Õ¡Õ¶
ĠÕ¡Õ¦Õ¡Õ¿ Õ¸ÖĤÕ©ÕµÕ¸ÖĤÕ¶
ĠÕ¸ÖĤÕ²Õ² Õ¡Õ©Õ«Õ¼
ĠÕºÕ¥Õ¿Õ¡Õ¯Õ¡Õ¶ Õ¸ÖĤÕ©ÕµÕ¡Õ¶
ĠÖģÕ¡Õ¶Õ¯ Õ¡ÖģÕ¥Õ¬
ĠÕºÕ¡Õ¿Õ¡Õ½ÕŃÕ¡Õ¶ Õ¡Õ¿Õ¸ÖĤÕ¶
ĠÕ¤Õ¡Õ½ Õ¡Õ£ÖĢ
ĠÕ«Õ· ÕŃ
ĠÕ¶Õ·Õ¡Õ¶Õ¡Õ¯ Õ¥Õ¬Õ¸ÖĤ
ĠÕ°Õ¡Õ´Õ¡Õ±Õ¡ÕµÕ¶ Õ¸ÖĤÕ©ÕµÕ¸ÖĤÕ¶Õ¨
ĠÕ¶ÕºÕ¡Õ¿Õ¡Õ¯ Õ¡ÕµÕ«Õ¶
Ġ8 00
ĠÕ£Õ¬ÕŃÕ¡Õ¾Õ¸ÖĢ Õ¸ÖĤÕ´
Õ¡Õ£Õ¥Õ¿ Õ¨
ĠÕ°Õ¡ÖĢÕ¯ Õ¡Õ¶Õ«
ĠÕ¡Õ¯Õ¿ Õ«
ĠÕħ ÕĪÕĴÕĨ
ĠÕ½ÕºÕ¡Õ½ Õ¾Õ¸Õ²
ĠÕĨÕ«Õ¯Õ¸Õ¬ Õ¡Õµ
ĠÕ¿Õ² Õ¡Õ¶Õ¥ÖĢÕ¨
ĠÕ¢Õ¥ÖĢ Õ¡Õ®
ĠÕ½Õ¿Õ¸ÖĢ Öĩ
ĠÐ ł
ĠÕ¶Õ¡ÕŃÕ¡Õ£Õ® Õ«Õ¶
ĠÕ£Õ¥ÖĢ Õ¡Õ¯Õ¡
Õ¾Õ¸ÖĢ Õ¡Õ¯Õ¡Õ¶
ÕĢÕ¡Õ´ Õ¡Õ·ÕŃÕ¡ÖĢÕ°Õ¡ÕµÕ«Õ¶
ac e
ĠL ife
Õľ ,
ĠÕ¾Õ¡ÖĢÕ¯ Õ¡Õ®
ĠÔµÖĢÕ¯ ÖĢ
ĠÕ¿Õ¡ÖĢÕ¢Õ¥ÖĢÕ¡Õ¯ Õ¸Õ¾
ĠÕ´Õ¥Õ²Õ¡Õ¤ ÖĢÕ¾Õ¸ÖĤÕ´
ĠÕ£Õ«Õ· Õ¥ÖĢÕ¡ÕµÕ«Õ¶
ĠÕ£Õ¸Õµ Õ¸ÖĤÕ©ÕµÕ¡Õ¶
ĠÕ´Õ«Õ¿ ÖĦ
ĠÕ£Õ¶Õ¤ Õ«
ĠÕ°Õ¥Õ²Õ¡ÖĥÕ¸ÕŃ Õ¸ÖĤÕ©ÕµÕ¸ÖĤÕ¶
ÔµÕ¾ ÖĢÕ¡Õ´Õ«
Õ¡Õ¤ÖĢÕ¾ Õ¥Õ¬Õ¸ÖĤ
ÕºÕ¡ÖĢÕ¿ Õ¡Õ¤Õ«ÖĢ
ÕĢÕ¡Õ¶ÖĢ Õ¡ÕºÕ¥Õ¿Õ¡Õ¯Õ¡Õ¶
ĠÕ®Õ¡Õ£ Õ´Õ¡Õ¶
ĠÕ©Õ¡Õ£Õ¡Õ¾Õ¸ÖĢ Õ«
ĠÕ¶Õ¡ÕŃÕ¡ÕºÕ¡Õ¿ÖĢÕ¡Õ½Õ¿ Õ¡Õ¯Õ¡Õ¶
ĠÕ¦Õ¡ÖĢÕ£Õ¡Öģ Õ¸ÖĤÕ´Õ¶Õ¥ÖĢÕ«
ĠÕ«Õ½ Õ¬Õ¡Õ´
ĠÕ¼Õ«Õ½Õ¯ Õ«
ĠÕ°Õ¸ÖĤÕ´ Õ¡Õ¶Õ«Õ¿Õ¡ÖĢ
ĠÕ©Õ¼Õ¹ Õ¸ÖĤÕ¶
ĠÕħÕ¸ÖĤÕ¶Õ¡ÕµÕ©Õ¥Õ¤ Õ«
ĠÕ©Õ¸ÖĤÕµÕ¬Õ¿Õ¾ Õ¸ÖĤÕ©ÕµÕ¡Õ¶
Õ£Õ«Õ¿ Õ¥Õ´
ĠÕ´Õ¡Õ²Õ© Õ¸ÖĤÕ´
SS N
ĠÕ¡Õ£ÖĢÕ¥Õ½ Õ«Õ¾
ĠÔ²Õ¡Õ¢Õ¬ Õ¸ÕµÕ¡Õ¶Õ¨
ĠÕ¡ÖĢÖģÕ¡ÕŃ ÕµÕ¡Õ¶
ĠÕ°Õ¡Õ¬ Õ¡Õ®
ĠÕ¼Õ¸ÖĤÕ¢ Õ¬Õ«
MEN I
p ro
Ġ \\
Õ¥ÖĢ Öģ
ĠÕ° Õ¸Õ¬
ĠÕ° Õ¼
ĠÕ´ ÖĢÕ£
Õ¡Õ¾ Õ¡Õ³Õ¡Õ¼
Õ¥Õ¶ Õ¡ÕµÕ¶
Õ¥Õ¿ Õ¾
Ô± ÖĢÕ£
Õ¡Õ£ Õ¡ÕµÕ©
Õ¡Õ£ Õ¸ÖĤÕ·Õ¡Õ¯
Õ¡Õ° Õ½Õ¯
ĠÔ± ÖĢÕ©
Õ¢ ÕµÕ¸ÖĤÕ»
ĠÕ¸ÖĤ ÕŃÕ¿
ĠÕ°Õ¡Õ´ Õ¡ÕºÕ¡ÖĢÖĥÕ¡Õ¯
Õ«Õ½ Õ¶
ĠÕ¡Õ¼ Õ¥Õ¬
ĠÕĦ Õ¡ÖĢÕ«Õ¶
ĠÖĥ Õ¥Õ¿ÖĢÕ¾
ĠÕį Õ¯Õ½
ĠÕį Õ¸Õ²Õ¸Õ´
Õ¡Õ¾Õ¸ÖĢ Õ¸ÖĤÕ´Õ¶Õ¥ÖĢ
Ô» Õ£Õ¡Õ¯Õ¡Õ¶
Õ½Õ¿ Õ¡Õ¶
ĠÔ¿ Ô±
ĠÔ¿ Õ¡Õ½Õº
ĠÔ² ÕµÕ¸ÖĤÖĢ
ĠÕİ Õ¡ÖĢÕ¯
ĠÕ¾Õ¥ÖĢ Õ¡Õ´Õ·Õ¡Õ¯
ĠÕĬ Ô±ÕıÕĦ
ĠÔ´ Ô±Õı
Ô´ Õ¡Õ¿Õ¡Õ¯Õ¡Õ¶
ĠÕı ÔµÕį
ÕĬ Ô¾
ĠÕĶ Õ¥Õ¦
Õ¡Õ³ Õ¡Õ¶Õ¡Õ¹
ĠÕ¶Õ¡ÕŃÕ¡Õ£Õ¡Õ° Õ¸ÖĤÕ©ÕµÕ¡Õ¶
Ġ5 4
ĠÕ°Õ¥Õ¼ Õ¡Õ¾Õ¸ÖĢ
ĠÕ£Õ«Õ¿ Õ¡Õ°Õ¥Õ¿Õ¡Õ¦Õ¸Õ¿Õ¡Õ¯Õ¡Õ¶
ĠÕ¯Õ¡ÖĢÕ£ Õ«Õ¶
âĢ¦ Â»
ĠÕ¯Õ¡Õ¿Õ¡ÖĢ Õ¥Öģ
Õ¸Õ° Õ«Õ·
ĠÕºÕ¡ÖĢÕ¿ ÖĦÕ¨
ĠÕģ Õ¡ÕµÕ¶
ĠÕ¢Õ¡ÖĢ Õ¥ÕŃ
ĠÕ¶Õ¯Õ¡Õ¿ Õ¥Õ¬Õ«
ĠÕ²Õ¥Õ¯Õ¡Õ¾Õ¡ÖĢ Õ«Õ¶
ĠÕ´Õ·Õ¡Õ¯ Õ¾Õ¥Õ¬
ĠÕ£ÕµÕ¸ÖĤÕ² Õ«Öģ
Õĵ Õ¡ÖĢ
ĠÕ¡ÕºÕ¡Õ°Õ¸Õ¾ Õ¡Õ£ÖĢÕ¸ÖĤÕ©ÕµÕ¡Õ¶
Õ¡Õ°Õ¡ÕµÕ¿ Õ¶Õ«
ÕĪÖĤ Õ¦Õ¸ÖĤÕ´
Õ¸Õ¶Õ« Õ¡ÕµÕ¸ÖĤÕ´
ĠN ational
ĠÕ¡Õ¾Õ¡ÖĢÕ¿ Õ¡Õ¯Õ¡Õ¶
Ô±Õ¼ Õ¡Õ¶Öģ
ĠB r
ĠÕ¯Õ¡Õ¿Õ¡ÖĢÕ¥Õ¬ Õ«Õ½
ĠÕ¥ÖĢÕ¯Õ¡ÖĢ Õ¡Õ¿Öĩ
ĠÔ³ÖĢÕ«Õ£Õ¸ÖĢÕµ Õ¡Õ¶Õ«Õ¶
200 2
ĠÕ¾Õ¡Õ³Õ¡Õ¼ Õ¾Õ¥Õ¬
ĠE x
ÕħÔ±ÕĨ Ô¸
ĠÕ¢Õ¸Õ¾Õ¡Õ¶Õ¤Õ¡Õ¯ Õ¸ÖĤÕ©ÕµÕ¡Õ´Õ¢
ĠÕ¬Õ¥Õ¦Õ¸ÖĤÕ¶ Õ¥ÖĢ
ĠÕ¤Õ¡Õ·Õ¿ Õ¨
un k
ĠÕ°Õ¸Õ² Õ¡Õ´Õ¡Õ½
199 9
Ô±Õ¬ Õ¡Õ·Õ¯Õ¥ÖĢÕ¿
ĠÕ¾Õ¥ÖĢÕ¬Õ¸ÖĤÕ® Õ¡Õ¯Õ¡Õ¶
ĠÕ¾Õ¥ÖĢÕ¬Õ¸ÖĤÕ® Õ¸ÖĤÕ©ÕµÕ¸ÖĤÕ¶
ĠÕ£ÖĢÕ¡Õ¾ Õ¸ÖĤÕ´
ĠÕ£ÖĢÕ¡Õ¾ Õ«Õ¹
ĠÔ³Õ¥ÖĢÕ´ Õ¡Õ¶Õ«Õ¡
ĠÕ¯ÖĢÕ¡Õ¯ Õ¥Õ¬
ĠÔ²Õ¡ÖĦ Õ¸ÖĤÕ¶
ĠÕ°Õ¡ÖĢÕ¾Õ¡Õ® Õ¥Õ¬
ĠÕ¾Õ¥ÖĢÕ¡Õ¯Õ¡Õ¶Õ£Õ¶ Õ¸Õ²Õ¡Õ¯Õ¡Õ¶
ĠÔ±Õ¬Õ« ÖĩÕ¨
ĠÕ¡Õ¯Õ¶Õ¯Õ¡Õ¬ Õ«ÖĦ
ĠÕºÕ¡Õ¿Õ¯Õ¡Õ¶ Õ¥Õ¬
ĠÕ£ÖĢÕ¡Õ¤ Õ¡ÖĢÕ¡Õ¶Õ«
ĠÕ°Õ¡ÕµÕ¡Öģ ÖĦÕ«Öģ
ÕıÕ¥Õ²Õ¥Õ¯ Õ¡Õ¿Õ¾Õ¡Õ¯Õ¡Õ¶
ĠÕ¦Õ¡Õ¾ Õ¡Õ¯
ĠÖĥÕ¡Õ½Õ¿Õ¡Õ¢Õ¡Õ¶ Õ¶Õ¥ÖĢÕ«
ĠÕ¾Õ¡Õ½Õ¿Õ¡Õ¯ Õ¥Õ¬
ĠÔ½Õ¸Õ½ ÖĦÕ¨
ĠÕ´Õ¡Õ´Õ¸ÖĤÕ¬ Õ¨
ÔµÖĢÕ¥ÖĤ Õ¡Õ¶Õ«
ĠÕ¢ÕªÕ·Õ¯ Õ¸ÖĤÕ©ÕµÕ¡Õ¶
ÖĢÕ¡Õ¶Õ½ÕºÕ¸ÖĢÕ¿ Õ¡ÕµÕ«Õ¶
Ô¸Õ¶Õ¿ Õ¡Õ¶Õ«
ĠÕķÕĲÔµÕĨ Õį
ĠÕ°Õ¡Õ¯Õ¡Õ¯ Õ¸Õ¼Õ¸ÖĤÕºÖģÕ«Õ¸Õ¶
ĠÕ¼Õ¸Õ´ Õ¡Õ¶Õ¿
ĠÕŃÕ¶Õ¤ÖĢÕ¡Õ¶ÖĦ Õ¸Õ¾
ĠÕ«Õ¶Õ¤ Õ¥ÖĦÕ½
ĠÕ¦Õ¡Õ¶ Õ¡Õ¦Õ¡Õ¶
ĠÕ·Õ¸Õ· Õ¡Öĥ
5 00
l us
Õ¡Õ¾ Õ¡ÖĢÕ¡ÖĢ
Õ¥Õ¿ Õ¸ÖĢ
Ô± ÖĢÕ¡
ĠÕ£ Õ¸Õ¼
Õ¡Õ¼ Õ¸ÖĤÕ©ÕµÕ¸ÖĤÕ¶Õ¨
Õ¡Õ¼ Õ¸ÖĤÕ©ÕµÕ¡Õ´Õ¢
Õ¡Õ¦ Õ¸ÖĤÖĢÕ¯
ĠÕ¬ Õ¸ÖĤÕ¼
ĠÕĦ Õ¥Õ¬ÖĦÕ¸ÖĤÕ´
ĠÖĥ Õ¸ÖĢ
ÕĨ ÕµÕ¸ÖĤ
ĠÖħ Õ®
ĠÖħ Õ¬Õ«Õ´ÕºÕ«Õ¡Õ¤
ĠÕį Õ¥ÖĢ
ÕĦ Õ«Õ¬
ÕĦ Õ¡ÖĢÕ«
Õ° ÖĢ
ĠÕ´Õ« Õ¡Õ¶Õ¸ÖĤÕ´
ĠÕĨ Õ¥ÖĢÖĦÕ«Õ¶
ĠÔ³ Õ¸ÖĢ
ĠÕ£ÖĢ Õ¡Õ®
ĠÕ£ÖĢ Õ¥Õ¬Õ¸ÖĤ
ĠÕ¯Õ¸Õ²Õ´ Õ¥ÖĢÕ«Õ¶
ĠÕ¡Õ´Õ¥Õ¶ Õ¡Õ£
ĠÕĶ ÕĬ
ĠÕ¯Õ¡Õµ Õ¡ÖģÕ¾Õ¥Õ¬
ÕĶ ÖĢÕ¥Õ¡Õ¯Õ¡Õ¶
ĠÕŃÕ¡Õ² Õ¡ÖĢÕ¯
ĠÕ¢Õ¡ÖĢÕ± ÖĢÕ¡Õ¶Õ¸ÖĤÕ´
ĠÕºÕ¡Õ¿Õ´ Õ¡Õ¢Õ¡Õ¶
Ô¾ Õ¶Õ¾Õ¥Õ¬
ĠÕ°Õ¡ÕµÕ¿Õ¡ÖĢÕ¡ÖĢ Õ¸ÖĤÕ©ÕµÕ¸ÖĤÕ¶Õ¶Õ¥ÖĢÕ¨
ĠÕ¤Õ¥Õ´ Õ¸Õ¯ÖĢ
ĠÖģÕ¸ÖĤÖģ Õ¡Õ¤ÖĢÕ¥Õ¬
Ġ10 2
Õ¡ÖģÕ«Õ¶ ÖĦ
ĠÔ¿Õ¡ÖĢ Õ¥Õ¬Õ«
ĠÕ°Õ¡ÕµÕ¿Õ¶ Õ¾Õ¡Õ®
ĠÕ¶ÕºÕ¡Õ¿Õ¡Õ¯ Õ¶Õ¥ÖĢÕ¸Õ¾
ĠÕ°Õ¡Õ¾Õ¡ÖĦ Õ¸ÖĤÕ´
ĠÕĭ Õ¸ÖĢÕ»
ĠÕ±Öĩ Õ¡Õ¾Õ¸ÖĢÕ¥Õ¬
Õĸ Õ¸ÖĤÕ¿Õ¢Õ¸Õ¬
ĠÕ·Õ¡Õ° Õ¸ÖĤÕ©
ĠÕ¡Õ¶ÖģÕ¯Õ¡Öģ Õ¾Õ¥Öģ
ĠÕ©Õ¸Õ² Õ¶Õ¥Õ¬Õ¸Õ¾
Õ¸Õ¬Õ¸Õ£ Õ«Õ¡ÕµÕ«
ĠÕ¡ÕµÖģÕ¥Õ¬ Õ¥Öģ
ĠÕ¥ÖĢÕ¯ÖĢÕ¸ÖĢÕ¤ Õ¨
Õ«Õ¢ Õ¥Õ¯
ĠÖĦÕ¡Õ²Õ¡ÖĦÕ¡ÖģÕ« Õ¸ÖĤÕ©ÕµÕ¸ÖĤÕ¶
ĠÕ°Õ¡Õ½Õ¯ Õ¡Õ¶Õ¡Õ¬Õ¸ÖĤ
ĠÕĢÕ¡ÖĢÕ¸ÖĤÕ©ÕµÕ¸ÖĤÕ¶ ÕµÕ¡Õ¶Õ¶
ĠÕ°Õ¡ÕµÖĢÕ¥Õ¶ Õ«ÖĦÕ¨
ĠÕºÕ¡Õ¿Õ¯Õ¥ÖĢ Õ¡ÖģÕ¶Õ¥Õ¬
ĠÕ´Õ¡Õ¯Õ¡ÖĢÕ¤ Õ¡Õ¯Õ¸ÖĤÕ´
el ine
ĠÖħÖĢÕ«Õ¶Õ¡Õ¯ Õ¸Õ¾
ĠÕ¾Õ³ Õ¡ÖĢÕ«
ĠE n
ĠÕ¢Õ¡ÕªÕ¡Õ¶ Õ´Õ¸ÖĤÕ¶ÖĦÕ«
ĠÕ¢Õ«Õ¦Õ¶Õ¥Õ½ Õ¨
ĠÕ¯Õ¥Õ¶Õ¤ Õ¡Õ¶
ĠÕ´Õ¥Õ¶ Õ¡Õ·Õ¶Õ¸ÖĢÕ°
ĠÕ¿Õ¡ÖĢÕ¡Õ®ÖĦ Õ¶Õ¥ÖĢÕ¨
ĠÕ¾Õ¡ÖĢÕ± Õ¡Õ¿ÖĢ
ĠÕĦÕŃÕ«Õ© Õ¡ÖĢÕµÕ¡Õ¶
ĠÕŃÕ¡Õ¹ Õ«
ĠÕ¿Õ¸ÖĤÕª Õ¥Õ¬
ĠÕ´Õ¸Õ¼ Õ¡ÖģÕ¥Õ¬
ĠÕ¢Õ¡ÕªÕ¶ Õ«Öģ
ĠÕĬÕ¸Õ² Õ¸Õ½ÕµÕ¡Õ¶Õ«
ĠY ou
Õ¡Õ¶Õ£Õ¬ Õ¥ÖĢÕ¥Õ¶
Ô½Õ¡Õ² Õ¡ÕµÕ«Õ¶
Õ¡ÖĢÕ¤ÕµÕ¸ÖĤÕ¶ Õ¡Õ¾Õ¥Õ¿
ĠÕ£Õ¸ÖĢÕ®Õ¶Õ¡Õ¯Õ¡Õ¶ Õ¸ÖĤÕ´
ĠÕ¾Õ¡ÕµÕ¥Õ¬ Õ¸ÖĤÕ´
Ô²Õ¡ÖĢÕ½Õ¥Õ¬Õ¸Õ¶ Õ¡
ÕįÕº Õ¡Õ½
ĠÕ¸Õ²Õ»Õ¸ÖĤÕ¶ Õ¸ÖĤÕ´
ĠÕ©Õ¡Õ²Õ¡Õ´Õ¡Õ½ Õ¸ÖĤÕ´
Ô±Õ´Õ¥ÖĢÕ«Õ¯ ÕµÕ¡Õ¶
ĠÕ¤Õ¼ Õ¶Õ¥ÖĢÕ¨
ĠÕ¯Õ¯Õ¡ÖĢÕ¸Õ² Õ¡Õ¶Õ¡
ĠÔ¼Õ¸Õ¶Õ¤ Õ¸Õ¶Õ«
ÕĢÕ¡Õ¯ Õ¸Õ¢
ĠÕºÕ² Õ¶Õ±
ĠÕŃÕ¸Õ¶ Õ¡Õ¾
ĠÕºÕ¸ Õ¥Õ¦
ĠÖĥÕ¸ÕŃÕ£Õ¸ÖĢÕ® Õ¡Õ¯ÖģÕ¸ÖĤÕ©ÕµÕ¡Õ¶
ÔºÕ¡Õ¼Õ¡Õ¶Õ£ Õ¸ÖĤÕ©ÕµÕ¸ÖĤÕ¶
ĠÕ¯Õ¡ÖĢÕ«Õ¥ÖĢ Õ¡ÕµÕ«
ĠÕĲÕ¡ÖĨ ÖĨÕ«
ĠÕ´Õ¡Õ£ Õ«Õ½Õ¿ÖĢ
ĠÕĢÔ» ÕĦÕĨ
Õ¯Õ¸Õ¶Õ¸Õ´ Õ«Õ¯Õ¡ÕµÕ«
Õ«Õ®Õ¥Õ¼Õ¶Õ¡Õ¯ Õ¡Õ¢Õ¥ÖĢÕ¤
Õ¸Õ°Õ«Õ· ÕµÕ¡Õ¬
8 6
9 4
A T
s s
ÖĤ Õ¥Õ¬
Öģ Õ«Õ¶Õ¥ÖĢÕ«
ĠÕ§ Õ©Õ¶
Õ¡Õ´ Õ¡Õ¯
Õ¡Õ´ Õº
Õ¡Õ¿ Õ¸ÖĤÕ½
Õ¡Õ¾ Õ¡Õ¬Õ«
ĠÕ¢ Õ¸ÖĢÕ½
ĠÕĢ Õ¡Õ¾
ĠÕĢ Õ¸Õ¤Õ¾Õ¡Õ®
ĠÕ© Õ¸ÖĤ
Õ«Õ¯ Õ«Öģ
Õ¸Õ½ Õ´
ÖĢÕ¡Õ¶ ÕµÕ¸ÖĤÕ©
Ô» Ô³
ĠÕ¶Õ¡ÕŃ Õ¡Õ°
Õ° Õ«Õ´
Õ¡Õ¯Öģ Õ¥Õ¶
ĠÕ¿Õ¡ÖĢ Õ¸Õ¾
ĠÕ¡Õ¾ Õ¥Õ¿
Õ«Õ¾ Õ¸ÖĤÕ¤
ĠÕ¶Õ¥ÖĢÕ ·Õ¶Õ¹
ĠÕ¾Õ¥ÖĢ Õ¡ÖģÕ¶Õ¥Õ¬
Õ¸ÖĤÕµÕ¶ Õ«
ĠÕ¨Õ¶Õ¤ Õ°Õ¡Õ¶ÖĢ
ĠÕ°Õ¡Õ½ Õ¡Õ¯Õ¸ÖĤÕ´
ĠÕ¼ Õ´Õ¢
Ô¹ Õ¢Õ«Õ¬Õ«Õ½Õ«
ĠÕ°Õ¡ÖĢÖģ Õ´Õ¡Õ¶
ĠÕĮ Õ«Õ¹Õ¡ÖĢÕ¤
ĠÕ´Õ¡Õ½Õ¶ Õ¡Õ·
ĠÕ°Õ¡Õ¾ Õ«Õ¿
ĠÕºÕ¡Õµ Õ®Õ¡Õ¼
ĠÕ¸ÖĢÕ¸Õ· Õ¾Õ¸ÖĤÕ´
ÖĢÕº Õ¡ÖĢÕ¿
ĠÕ¡Õ¶Õ° Õ¡ÖĢÕ´Õ¡ÖĢ
ĠÕ½Õ¡Õ°Õ´Õ¡Õ¶ Õ¶Õ¥ÖĢÕ«Öģ
201 9
in k
ĠÖĦÕ¶Õ¶ Õ«Õ¹
ĠÕ¡Õ·ÕŃÕ¡Õ¿Õ¡Õ¶ÖĦ Õ¸Õ¾
ĠÖħÕ£Õ¿ Õ¾Õ¸Õ²
ĠÕ¡Õ² Õ¿Õ¸Õ¿
ĠÕ¡Õ¦Õ¡Õ¿ Õ¥Õ¬
ĠÕĸ ÖĢÕ¡Õ¶Öģ
Ô¶ Õ¡Õ¶Õ£
ĠÕ´Õ·Õ¡Õ¯ Õ¾Õ¡Õ®
Ô±Õį Ô½Ô±ÕĨ
Õ¡Õ£Õ¥Õ¿ Õ¶Õ¥ÖĢÕ¨
ĠÕ¿Õ¾ Õ¥ÖģÕ«Õ¶
ĠÕ¹Õ¡Öĥ Õ«Öģ
ĠÕ¯Õ¸Õ¹ Õ¾Õ¸Õ²
ĠÕ½Õ¸Õ¾Õ¸ÖĢ Õ¸Õ²Õ¶Õ¥ÖĢÕ«
ÖĢÕ¥Öģ Õ«
ĠÕ¶Õ¯Õ¡ÖĢ Õ¥Õ¬
ĠB BC
ĠÕĦÕ¡Õ¶ Õ¥
ĠÕ´Õ¡Õµ Õ«Õ½Õ«Õ¶
ĠÕ¾Õ¶Õ¡Õ½ Õ«
ĠÕ¯Õ¡Õ¶Õ¸Õ¶ Õ¡Õ¾Õ¸ÖĢ
ĠÕ£Õ¸ÖĢÕ®Õ¨Õ¶Õ©Õ¡Öģ Õ¶Õ¥ÖĢÕ¨
ĠÕ¯Õ¡ÖĢÕ®Õ«ÖĦ Õ¶Õ¥ÖĢÕ¶
ĠÕ¶Õ¡ÕŃÕ¡Õ± Õ¥Õ¼Õ¶Õ¥Õ¬
ĠÕ¢Õ¼Õ¶ ÖģÖĦ
ĠÕĤÕ¡ÖĢÕ¡Õ¢Õ¡Õ² Õ¸ÖĤÕ´
ĠÕ¥Õ¯Õ¥Õ²Õ¥Öģ Õ¡Õ¯Õ¡Õ¶
ĠÕ¥ÖĢÕ¡ÕªÕ·Õ¿ Õ¸ÖĤÕ©ÕµÕ¸ÖĤÕ¶Õ¨
ĠÕĶÕ¸Õ¹ Õ¡ÖĢÕµÕ¡Õ¶
Õ¸ÖĤÖĢÕ£ Õ¥Õ¶
ĠÕ¡Õ¾Õ¡Õ¶Õ¤ Õ¸ÖĤÕµÕ©
ĠÕ¸ÖĤÕ½Õ¸ÖĤÕ´Õ¶Õ¡Õ½Õ«ÖĢ Õ¸ÖĤÕ´
Ô±Õĳ ÕĦÔ±ÕĨ
ĠÕ°Õ¡Õ¯Õ¡Õ´Õ¡ÖĢÕ¿ Õ¸ÖĤÕ©ÕµÕ¸ÖĤÕ¶Õ¨
ĠÕĦÕ¡ÖĢÕ£ Õ¡ÖĢÕ«Õ¿
ĠÕĶÖĢÕ«Õ½Õ¿ Õ¸Õ½
ÕıÕ¥Õ² Õ«
Ô±ÖĢÕ¤ ÕµÕ¸ÖĤÕ¶
Ô»Õį Õı
ĠÔµÕ¯ Õ¥Õ²Õ¥ÖģÕ«Õ¶
ĠÕ©Õ·Õ¶Õ¡Õ´ Õ¸ÖĤ
ĠÕįÕ«Õ´ Õ¸Õ¶
Õ¡ÕºÕ¡ÖĢ Õ¡Õ¯Õ«
Ô½Õ¡Õ² Õ¡Õ²
ĠÕ°Õ¥Õ¿ÖĩÕ¡Õ¶ÖĦ Õ¶Õ¥ÖĢÕ«
ĠÕĦÕ¡Õµ Õ«Õ½Õ«
Õ¾Õ¡ÖĢÕ¤ Õ«
ĠÕ¢Õ¡Õ²Õ¡Õ¤ÖĢ Õ¡Õ¿Õ¸Õ´Õ½
ĠÕĦÕ¡Õ´ Õ¥Õ¤
ĠÕ°Õ¡Õ¶Õ±Õ¶Õ¡ÖĢÕ¡ÖĢ Õ¥Õ¬
ĠÕįÖĥÕµÕ¸ÖĤÕ¼ ÖĦ
ÖĩÕ¸ÖĢÕ¾ Õ¥Õ¬
ĠÔ¶Õ¸Õ°ÖĢÕ¡Õ¢ ÕµÕ¡Õ¶Õ¨
ĠÕ³Õ·Õ´Õ¡ÖĢÕ¿ Õ¸ÖĤÕ©ÕµÕ¸ÖĤÕ¶Õ¨
ĠÕ½Õ¥ÖĦÕ½ Õ¸ÖĤÕ¡Õ¬
ĠÔ¸Õ¶Õ¿ÖĢ Õ¡Õ¯Õ¡Õ¶
ÕİÕ¡ÖĢÕ¤ Õ¡Õ¶
ĠÕ¶Õ¥ÖĢÕ¸ÖĤÕª Õ¨
ĠÕ¯ÖĦ Õ¶Õ¶Õ¡ÖĢÕ¯
ĠÕĩÕ¾Õ¥ÕµÖģÕ¡ÖĢÕ« Õ¡ÕµÕ«
ÕĬÕ¡Õ¿ÖĢÕ¡Õ½Õ¿ Õ¾Õ¡Õ®
ĠÕĢÕ¥Õ²Õ«Õ¶Õ¡Õ¯ Õ¡ÕµÕ«Õ¶
ĠÕ¡ÖĢÕ¿Õ¡Õ£ Õ¡Õ²Õ©
ĠÕ¯Õ«Õ¬Õ¸Õ´ Õ¥Õ¿ÖĢ
r on
Ġ u
Õ« Õ¡Õ°Õ¡Õµ
Õ¸ÖĤ Õ¡Õ¶
Õ¡Õ¶ Õ«Õ¾
Õ¡Õ¯ Õ¸Õ®
Õ¥ÖĢ Õ¶Õ¥ÖĢÕ¨
Õ¿ Õ¡ÖĢÕ«
Õ¸Õ¾ Õ¥Õ¿Õ¡Õ¯Õ¡Õ¶
Õ¸Õ² Õ¸ÖĤÕ©ÕµÕ¸ÖĤÕ¶Õ¶Õ¥ÖĢÕ¨
Õ¸Õ² Õ¸ÖĤÕ©ÕµÕ¸ÖĤÕ¶Õ¶
ĠÕĢ ÔµÕĮ
Õ¡Õ¬ ÖĦ
Õ£ Õ¡Õ´Õ¢
Õ¡Õ¼ Õ¸ÖĤÕ©ÕµÕ¸ÖĤÕ¶
Õ¡Õ² Õ¥Õ½Õ¿
Õ¥Öģ Õ¥ÖĦ
Õ¾Õ¡Õ® Õ¶Õ¥ÖĢÕ«
Õ¡ÖĦ Õ¡ÖĢÕ«
Ôµ Ô±ÕĢÔ¿
ĠÕį Õ¡Õ°
ĠÕį Õ¡ÕµÕ¡Õ©
ÕĦ Õ¸Õ¶
Õ¡ÖĢÕ¯ Õ¥Õ¬Õ¸ÖĤ
Ô» Ô¹
Ô» Õ¿Õ¡Õ¬
ĠÕ£Õ¸ÖĢÕ® Õ¡ÖĢÕ¡Õ¶
ĠÕ¡Õ¼Õ¡Õ» ÕŃÕ¡Õ²
ĠÔ² ÕĨ
ĠÕ¿Õ¡ÖĢ ÖĢÕ¡Õ¯Õ¡Õ¶
ĠÕ¡Õ´ ÕºÖĢÕ¸Õº
Õ¦ Õ¯
ĠÕ½Õ¿ Õ¾
Ô±ÕĨ Õį
ĠÕĬ Õ¡ÖĢÕ½
ĠÔ´ Õ¸ÖĤÕ¢
Ô³ Õ¡ÖĢ
Õİ ÔµÕĲ
ĠÕ¡Õ½ Õ¡
ĠÔ¹ Õ¡Õ¶Õ¯
Ô¼ ÖĩÕ¸Õ¶
ĠÕ¡ÖĢÕ¿ Õ¡Õ°Õ¸Õ½
ĠÕªÕ¡Õ´Õ¡Õ¶Õ¡Õ¯ Õ¡Õ¾Õ¸ÖĢÕ¡ÕºÕ¥Õ½
ĠÕĮ Õ¸ÖĤÕ½Õ¿Õ¡Õ´
Õ¸ÖĤÕ² Õ²Õ¡Õ¯Õ«
ĠÕºÕ¡Õµ Õ¸ÖĤÕ½
ĠÕ¯Õ¡Õµ Õ¡Õ¶Õ¸ÖĤÕ´
ĠÔ· Õ½Õ¿
Ġ19 20
ĠÕ´Õ¿ Õ¡Õ¾
ĠÕ´Õ¸Õ¿ Õ¡Õ¯Õ¡ÕµÖĦÕ¸ÖĤÕ´
ĠÕ¯Õ¡Õ¦Õ´Õ¡Õ¯Õ¥ÖĢÕº Õ¡Õ®
Õ¡ÕºÕ¡Õ¿ Õ¸ÖĤÕ´
ĠÖĥÕ¸ÖĢÕ± Õ¡Õ¼Õ¸ÖĤ
ĠÕ¡Õ·ÕŃÕ¡Õ¿Õ¡Õ¶ÖĦ Õ¶Õ¥ÖĢÕ¶
ĠÕ¡Õ² Õ¡Õ¶Õ¤
ĠÕ¢Õ¶Õ¡Õ¯ Õ¸ÖĤÕ©ÕµÕ¡Õ¶
Õ¾ÖĢ Õ¡ÖģÕ¡Õ¯Õ¡Õ¶
ÕĮ Õ¡Õ¦Õ´
ÕĮ Õ¸Õ´
ĠÕ¯Õ¡Õ¼Õ¡Õ¾Õ¡ÖĢ Õ¸ÖĤÕ©ÕµÕ¸ÖĤÕ¶Õ¸ÖĤÕ´
ar an
or ld
Õķ Õ£Õ¿Õ¡Õ£Õ¸ÖĢÕ®Õ´Õ¡Õ¶
ĠÕ¥Õ¶Õ© Õ¡Õ¤ÖĢÕ¥Õ¬
ĠÕ«Õ¶ÖĦÕ¶ Õ¡Õ¿Õ«Õº
Õ¡Õ¥ Õ¦ÖĢÕ¡ÖĥÕ¡Õ¯
ĠÕ£ÕµÕ¸ÖĤÕ² Õ¥ÖĢÕ«
ĠÕ£ÕµÕ¸ÖĤÕ² Õ¥ÖĢÕ¸ÖĤÕ´
Õ¡Õ£Õ¥Õ¿ Õ¶Õ¥ÖĢÕ«
ĠÕ¯Õ¡ÖĢÖĩÕ¸ÖĢ Õ¸ÖĤÕ©ÕµÕ¸ÖĤÕ¶Õ¨
Õ¡Õ¯Õ¡Õµ Õ¡Õ¶Õ«
ĠÔ±Õ´ Õ¸ÖĤÕ¬Õ½Õ¡ÖĢÕ«
ĠÕ¥ÖĢÕ£ Õ¥ÖĢÕ¨
ĠÕ¼Õ¡Õ¦Õ´ Õ¡Õ¾Õ¡ÖĢÕ¸ÖĤÕ©ÕµÕ¡Õ¶
ĠÕ°Õ¡Õ´Õ¡ÕºÕ¡Õ¿Õ¡Õ½ÕŃÕ¡Õ¶ Õ¡Õ¢Õ¡ÖĢ
ĠÕ½Õ¯Õ¦Õ¢ Õ¶
ĠÕ°Õ¡Õ¶Õ£ Õ¥ÖģÕ¶Õ¥Õ¬
ĠÕ¯Õ«ÖĢÕ¡Õ¼ Õ¾Õ¸Õ²
ĠÕ¿Õ¥Õ½Õ¡Õ¯ Õ¶Õ¥ÖĢÕ¨
16 8
ÕĨÕ¡ÕŃ Õ¡ÖĢÕ¡ÖĢ
ĠÕ¶Õ¾Õ¡Õ¦ Õ¥ÖģÕ´Õ¡Õ¶
ĠÕ¡ÖĢÕ±Õ¡Õ¶ Õ¡Õ£ÖĢÕ¾Õ¡Õ®
ĠÕ¤Õ¥Õ½ÕºÕ¡Õ¶ Õ«Õ¶
ĠÕ¾Õ¡ÕµÖĢ Õ¥ÖĢ
ĠÕ¾Õ¥ÖĢÕ¡Õ¤Õ¡ÖĢÕ± Õ¶Õ¥Õ¬
un g
ĠÖĥÖĢÕ¯ Õ¡ÖĢÕ¡ÖĢ
ĠÕ½Õ¿Õ¸ÖĤÕ£ Õ´Õ¡Õ¶
ĠÕĦÔ±Õį ÕĨ
ĠÕ¨Õ¶Õ©Õ¥ÖĢÖģ Õ´Õ¡Õ´Õ¢
ĠÕ¤Õ¡Õ¿Õ¡ÕºÕ¡ÖĢÕ¿ Õ¥Õ¬
ĠÕ°Õ«Õ¶Õ£ Õ¥ÖĢÕ¸ÖĢÕ¤
ĠÕ°Õ¡Õ¶Õ± Õ¶Õ¸ÖĤÕ´
ĠÕ´Õ¸Õ¤ Õ¥Õ¬Õ«
ĠÕ³Õ¡Õ¯Õ¡Õ¿ Õ¡Õ£Õ«ÖĢÕ¨
ĠÕ´Õ¥Õ¯Õ¶Õ¡ÖĢÕ¯ Õ¥Öģ
ĠÕŃÕ´ Õ¥Õ¬
ĠÕ´Õ¥ÖĢÕª Õ¸ÖĤÕ´
ĠÕ¡ÕµÕ£ Õ¸ÖĤ
Õ¸ÖĤÕ°Õ¥Õ¿ Õ¥ÖĤ
ĠÖħÕ¢ÕµÕ¥Õ¯Õ¿ Õ¶Õ¥ÖĢÕ«
ĠÕ¡ÖĢÕ¿Õ¡Õ¤ ÖĢÕ¡Õ¶ÖĦ
ĠÕ¸ÖĤÕ¿ Õ¥Õ¬
ĠÖĦÕ¡Õ¼ ÖħÖĢÕµÕ¡
ĠÕ¾Õ³Õ¼ Õ¡Õ¢Õ¥Õ¯
ĠÕ©Õ¥Õ¯Õ¶Õ¡Õ®Õ¸ÖĤÕ¶ Õ¥ÖĢÕ¨
ĠÖħÕª Õ¿Õ¾Õ¡Õ®
ĠÕ¡Õ¾Õ« Õ¡Õ¨Õ¶Õ¯Õ¥ÖĢ
ĠÕ´Õ¸Õ¶ Õ«Õ©Õ¸ÖĢ
ĠÕ¹Õ¥Õ² ÕµÕ¡Õ¬
ĠÕ£Õ¸ÖĤÕµÕ¶ Õ«
ÕĵÕ¡Õ·Õ«Õ¶ ÕµÕ¡Õ¶Õ¨
ĠÔµÔ½ Ô½Õİ
ĠÕĢÕ¡Õ¶Õ±Õ¶ Õ¡ÕªÕ¸Õ²Õ¸Õ¾Õ«
ĠÕ¡ÖĢÕ¡Õ¢ Õ¡Õ¯Õ¡Õ¶
ĠÕ¤Õ¡ÖĢÕºÕ¡Õ½ Õ¡ÕºÕ¡Õ°
ĠÕ°ÖĢÕ¡Õ¿ Õ¡Õº
ĠÕ§Õ´ Õ¸ÖģÕ«
Ô·ÖĢ Õ¥Õ¢Õ¸ÖĤÕ¶Õ«
ĠÔ¿Ô±ÕıÔ±ÕĲ ÔµÔ¼ÕĪÕĴ
ÕĪÕĵ ÕĪÔ½
ĠAnd roid
Õ¾Õ¡ÖĢÕ©Õ¶ Õ¸Öģ
ĠÕ¢Õ¡Õ¶Õ» Õ¡ÖĢ
ĠÕ¼Õ¥ÕµÕ¿ Õ«Õ¶Õ£Õ¡ÕµÕ«Õ¶
3 00
Ð ±
Ġ Õ¡ÖĢÕ»
Õ¸ÖĤ Õ¡
Õ¸ÖĤ Õ«Õ¶
Õ¡Õ¶ Õ¾Õ¥Õ¬
Õµ Õ¡ÖĢ
Õ¡Õµ Õ¡
Õ¿ Õ¡Õ¯
Õ¡ÖĢ Õ¶Õ¥ÖĢÕ¨
Õ¾ Õ¸Õ¬
ĠÕ¸ ÖĦÕ«
Õ¸ÖĢ Öģ
ĠÕ¤ Õ§
ĠÕ¢ Õ¥Õ¯
ĠÕ¢ Õ¥ÖĢÕ¤
ĠÕ¢ Õ¸ÖĢÕ¢
ĠÕ¢ Õ»Õ«Õ»
Õ¡Õ° Õ¡ÖĢÕ¯Õ«
ĠÕ½ Öĥ
Õ¢ ÖĢ
Â» `
Õ© Õ¸Õ¶
ĠÕ¡Õ¶ Õ¥Õ¶ÖĦ
ĠÕ¡Õ¶ Õ¸ÖĢÕ¸Õ·
Õ¸Õ¶ Õ«Õ¡Õ¶
ĠÖĦ Õ¾
ĠÖĦ Õ¶Õ¥Õ¬
ĠÕ°Õ¥Õ¿ Õ¡ÖĦÕ¶Õ¶Õ¸ÖĤÕ©ÕµÕ¡Õ¶
ĠÖĥ Õ¡Õ¯Õ¸ÖĤÕ´
ĠÖħ Õ¾Õ¯Õ«Õ¡Õ¶
ÕĦ Õ¥Õ¤Õ«Õ¡
Ô» Õ½Õº
ĠÕ°Õ¡Õµ Õ¡Õ¦Õ£Õ«
ĠÕ¦ ÖĢÕºÕ¡ÖĢÕ¿
ĠÕ°Õ¡Õ´Õ¡ÖĢ Õ¡Õ¶Õ«Õ·Õ«
ĠÔ¿ Õ¸Õ²Õ´
Õ¥Õ¶ÖĦ Õ¸Õ¾
ĠÕ¡Õ¼Õ¡Õ» Õ¡ÖģÕ¶Õ¥Õ¬
ĠÔ² Õ¸ÖĤÕ¬Õ²Õ¡ÖĢÕ«
ÖĢÕ¾ Õ¥ÖģÕ«Õ¶
Õį Ôº
Õı Õ¡ÖĢÕ¾Õ¡
ĠÕ½Õ¿ Õ¾Õ¥ÖĢ
ĠÖĦÕ¡Õ²Õ¡ÖĦ Õ«Öģ
Õ¥Õº Õ¥Õ¿
Õ¼ Õ¥Õ¬Õ«
Õ¸Õ· Õ¿Õ¡Õ¶Õ£
ĠÕ¯Õ¡ÖĢÕ¸Õ² Õ¡ÖģÕ¡Õ¾
ĠÕ¨Õ¶Õ¤ Õ´Õ«Õ»
Õ¡ÖĢÕ´ Õ¡Õ¶Õ¨
Õ¶Õ« Õ¡ÕµÕ«
ĠÕ°Õ«Õ´ ÖĦÕ¥ÖĢÕ¨
Õ¸Õµ Öģ
ĠÕ¶Õ¥ÖĢÕ¯Õ¡Õµ Õ¸ÖĤÕ©ÕµÕ¡Õ´Õ¢
ĠÔ¹ Õ¡Õ¶Õ¤Õ«Õ¬
Õ¸ÖĤÕ¶ÖĦ Õ¶Õ¥ÖĢÕ¨
ĠÕ¡Õ´Õ¥Õ¶ Õ¡Õ·Õ¡Õ¿
ÖĢÕ¯ Õ¶
ĠÕ·Õ¡Õ¿ Õ¥ÖĢÕ¶
ĠÕ¿Õ¡ÖĢÕ¡Õ® Õ¡Õ®
Õ¥Õµ Õ¡Õ¶
ĠÕ¡Õ¶Õ¾ Õ¥ÖĢÕ»
ĠÕŃÕ´Õ¢ Õ«Õ¶
ĠÕķ ÖĢÕ¨
Õĩ Õ¡Õ¢Õ¡Õ©
ĠÕ¶Õ¸ÖĤÕµÕ¶ Õ¨
ĠÖĥÕ¡Õ½Õ¿ Õ«
ĠÕºÕ¡Õ¿Õ³Õ¡Õ¼ Õ¡Õ¢Õ¡Õ¶
ĠÕ±Õ¥Õ¼ ÖĦÕ«Õ¶
ÖĢÕ£ Õ¸ÖĢÕ®
ĠÕ°Õ¥Õ² Õ¡Õ·ÖĢÕ»
ĠÕ¦Õ£ Õ¡ÖģÕ¸ÖĤÕ´
ĠÕªÕ¸Õ²Õ¸Õ¾ÖĢÕ¤ Õ¡Õ¾Õ¡ÖĢ
ĠÕ¿ÖĢÕ¡Õ´ Õ¡Õ¤ÖĢÕ¾Õ¥Õ¬
ĠÕ´Õ¡Õ° Õ¡ÖģÕ¸ÖĤ
ĠÕ¸Õ½Õ¿Õ«Õ¯Õ¡Õ¶ Õ¡ÕºÕ¥Õ¿
ĠÕ©Õ¸Õ² Õ¡Õ®
ĠÕ¥ÖĢÕ«Õ¿Õ¡Õ½Õ¡ÖĢÕ¤ Õ¶Õ¥ÖĢÕ¨
ĠÕ¯Õ¸Õ¶ Õ£ÖĢÕ¥Õ½
ĠÐ ļ
ĠI SSN
ĠÕºÕ¡Õ°ÕºÕ¡Õ¶ Õ¾Õ¸Õ²
Õ¯Õ¡Õµ Õ¡Õ¶ÖĦÕ¶Õ¥ÖĢÕ¸Õ¾
ĠÕ¯Õ«ÖĢÕ¡Õ¼ Õ¾Õ¥Õ¬
ĠÕ¯Õ«Õ¶ Õ¶
ĠÕ¾Õ½Õ¿Õ¡Õ° Õ¸ÖĤÕ©ÕµÕ¸ÖĤÕ¶Õ¨
ĠÖĥÕ¸Õ²Õ¸Öģ Õ¶Õ¥ÖĢÕ¸ÖĤÕ´
ĠÕ¶Õ¡ÕŃÕ¡Õ±Õ¥Õ¼Õ¶ Õ¸ÖĤÕ©ÕµÕ¸ÖĤÕ¶Õ¶Õ¥ÖĢÕ«
ÖĢÕ¸Õº Õ¸Õ¬Õ«Õ¿
Ð¸ Ñı
ĠÕ¶Õ½Õ¿ Õ¡Õ·ÖĢÕ»Õ¡Õ¶Õ«
ÕħÔ±ÕĨ Ô»ÕĨ
ĠÕ¡Õ¦Õ¤Õ¥Öģ Õ«Õ¯
ĠÕ±Õ¥Õ¼Õ¶Õ¡ÖĢÕ¯ Õ¡Õ¿Õ¥ÖĢ
ĠÕ¢Õ¡ÕªÕ«Õ¶ Õ¶Õ¥ÖĢÕ¨
ĠÕ¬Õ¡ÕµÕ¶ Õ¡Õ®Õ¡Õ¾Õ¡Õ¬
ĠÕ¡Õ²Õ¢ÕµÕ¸ÖĤÖĢ Õ«
ĠÕ¢Õ¸Õ²Õ¸ ÖĦÕ¸ÖĤÕ´
Ô±ÖĢÕ¤ ÕµÕ¸
ĠÕ°Õ¡Õ¶Õ± Õ¶Õ¥Õ¬Õ¸ÖĤ
ĠÕ³Õ· Õ£ÖĢÕ¿
ĠÕ¿Õ¥Õ½Õ¡Õ¯Õ¥Õ¿ Õ¨
ĠÕºÕ¡Õ¿Õ¡Õ° Õ¥Õ¬
ĠÕ£Õ¡Õ²Õ¡ÖĥÕ¡ÖĢ Õ¡ÕŃÕ¸Õ½
ĠÖģÕ¸ÖĤÖģÕ¡Õ°Õ¡Õ¶Õ¤Õ¥Õ½ Õ«
ĠÕ¾Õ«ÖĢÕ¡Õ¾Õ¸ÖĢ Õ¶Õ¥ÖĢ
ĠÕ¯Õ¡Õ¼Õ¸ÖĤÖģÕ¾Õ¡Õ® ÖĦÕ¡ÕµÕ«Õ¶
ĠÕ£Õ¸Õ¬ Õ«
ĠÕ¬Õ«Õ£ Õ¡
ĠÕ¯Õ¬ Õ¸ÖĢ
ĠÕ¤ÖĢÕ½ÖĩÕ¸ÖĢ Õ¸ÖĤÕ´
ĠÕ¾Õ¥ÖĢÕ¡Õ¶Õ¸ÖĢÕ¸Õ£ Õ¾Õ¡Õ®
ĠÕ¥Õ¦ÖĢÕ¡Õ¯Õ¡Öģ Õ¸ÖĤÕ©ÕµÕ¡Õ¶
ĠÕ´Õ¸Õ¬Õ¸ÖĢ Õ¡Õ¯Õ«
ĠÕ½Õ¯Õ«Õ¦Õ¢ Õ¨
ĠÕ¢Õ¡ÕªÕ¶Õ¥Õ¿ Õ«ÖĢÕ¡Õ¯Õ¡Õ¶
ĠÖĥÕ¸ÕŃÕ°Õ¡Õ¿ Õ¸ÖĤÖģÕ¸ÖĤÕ´
ĠÖĥÕ¡ÕŃÕ½Õ¿ Õ¡Õ¯Õ¡Õ¶Õ¶Õ¥ÖĢÕ«
ÕĦÕ¸Õ¼ Õ¡ÖģÕ¥
ĠÔ¿Ô±ÕĮÔ±ÕİÔ±ÕĲ ÕĪÕĴÔ¹ÕħÔ±ÕĨ
ĠÕ½Õ¥Õº Õ¿Õ¥Õ´Õ¢Õ¥ÖĢÕ«Õ¶
ĠÕŃÕ¸ÖĢÕ°ÖĢÕ¤Õ¡Õ¶Õ· Õ¡Õ¯Õ¡Õ¶
ÕĦÕ¡Õ¶Õ¯ Õ¡Õ¯Õ¡Õ¶
ĠÕĶÕ¡ÖĢÕ¤Õ¡Õ· ÕµÕ¡Õ¶Õ¨
ĠÕ¡Õ½ÕºÕ¡ÖĢÕ¥Õ¦ Õ¸ÖĤÕ´
ĠÕ¡Õ¶Õ¤ÖĢÕ¡Õ¤ Õ¡Õ¼Õ¶Õ¸ÖĤÕ´
Ô³Õ¡Õ¦ ÕºÖĢÕ¸Õ´
ÕħÕ¸ÖĤÕ¾ Õ¥Õ¶Õ¿
ĠÕĢÕ½Õ¿Õ¡Õ¯ Õ¥ÖģÕ¶Õ¥Õ¬
ĠÔ±Ô¶Ô³ Ô±ÕħÔ»ÕĨ
ĠÕ¤Õ¡ÖĥÕ¶Õ¥Õ¯ Õ«ÖĢ
. âĢĵ
: -
Ð ¿
Ð ł
Õ¶ Õ¡Öģ
Õ¡Õ¶ Õ¥Õ¿
ÖĢÕ Ń
Õ¡Õµ Õ«Õ¬
Õ¸ÖĤÕ´ ÕµÕ¡Õ¶Õ«
ĠÕ´ Õ«Õ½
ĠÕ¯ Õ¨Õ¶Õ¤
Õ¡Õ¿ Õ¸Õ¾
ĠÕ¿ Õ¸Õ°
ĠÕ¤ Õ¡Õ¼Õ¶
Õ¬ Õ¥ÖĦÕ½
ĠÕĢ Ô²Ô¸ÕĦ
ĠÕ½ Õ¿ÖĢ
ĠÕ½ Õ¥ÖĢÕ¾
Õ¢ Õ¡ÖĢ
ĠÕ© Õ¸ÖĤÕ²Õ©
ĠÕ«ÖĢ Õ¥ÖĢ
Õ¡ÖĢÕ¤ Õ¡ÕŃ
ÕĦ ÕĢ
Õ¶Õ¹ Õ¶
ÕĪ Ô´
ĠÕºÕ¡Õ¿ Õ¡ÖĢÕ¡Õ£
Ô» Õ·ÕŃÕ¡Õ¶
Ô¿ Õ¡ÕµÖĦ
Õ½Õ¿ Õ«Õ¯
Õ¥Õ¬Õ« ÖĦÕ¨
ĠÕ± Õ¯Õ¶
ĠÕ¿Õ¡ÖĢ Õ¥Õ¾
ĠÕ¡ÕµÕ¶ ÕºÕ«Õ½Õ«Õ¶
ĠÕ¥ÖĢÕ¯ Õ¸ÖĤÕ½Õ¨
Õ¡Öĥ Õ¡Õ¶Öģ
Öħ Õ£Õ¿Õ¡Õ£Õ¸ÖĢÕ®Õ´Õ¡Õ¶
ĠÔ» Õ¾
ĠÕĬ Ô±Õħ
ĠÔ´ ÕĬÕĲ
ĠÕ¯Õ¡ÖĢÕ¸Õ² Õ¡Õ¶Õ¡Õ¶
Õ³ Õ¡Õ¶Õ¡Õ¹
ĠÖĨ Õ«ÖĦÕ½
Ô¼ ÕĪÕĴ
ĠÕ¼ Õ¥Õ£
ĠÕĮ Õ¸ÖĤÕ¦
Õħ ÕĪÕĴÕĲ
Õ¡ÖĢÕª Õ¥
ĠÕ¡Õ´Õ¥Õ¶ Õ¡Õ°Õ¡ÕµÕ¿Õ¶Õ«
Õ¸ÖĤÕµÕ© Õ¸ÖĤÕ´
ÖĢÕ« Õ«
Õ¡Õ¯Õ¡ÖĢÕ£ Õ¹Õ¡ÕµÕ«Õ¶
ĠÕĵ ÕĪÕĵÕĪÔ½
Õ¡Õ¹ Õ¸ÖĤ
ÕĶ Ô¸
ĠÕ½Õ¡Õ°Õ´Õ¡Õ¶ Õ¡ÕºÕ¡Õ°
ĠÕ¨Õ¶Õ¿ÖĢ Õ¡Õ¿Õ¡ÖĢÕ¡Õ®
Ġ4 9
ĠÖĦÕ¶Õ¶ Õ¾Õ¸Õ²
ĠÕºÕ¡Õ·Õ¿Õ¸Õ¶ Õ¥Õ¡Õ¯Õ¡Õ¶
ĠÕ½Õ¿Õ¥Õ²Õ® Õ¡Õ®
ĠÕºÕ¡ÖĢÕ¿ ÖĦÕ«
ĠÕĸ Ô»
Õ¸Õ¢ Õ¸Õ¿
Ġ6 3
ar s
Õ¥ÖĢÕ¥Õ¶ Õ«
ĠÕ½Õ¯Õ½ Õ¶Õ¡Õ¯
Ġ9 5
Õ¥Õ²Õ¥Öģ Õ¯
Ġ0 4
ĠÕ¯Õ¶ Õ¾Õ¡Õ¦
ĠÔ±ÖĢÖģÕ¡ÕŃ Õ«Öģ
Õ¡Õ£Õ«ÖĢ Õ¶
Õ«Õ¬Õ« Õ«
ĠÕ¿Õ² Õ¡ÕµÕ«
ĠÖĦÕ¡ÕµÕ¬ Õ«
ĠÕ¶Õ¯Õ¡ÖĢ Õ¸ÖĤÕ´
ĠÕ¶Õ¯Õ¡ÖĢ Õ¶Õ¥ÖĢÕ¨
ĠÕ¡ÕµÖģÕ¥Õ¬ Õ¸ÖĤÕ´
ĠÕįÕ¿ Õ¡ÖģÕ¾Õ¸ÖĤÕ´
ĠÕ¬ÖĢÕ¡Õ£ÖĢ Õ¸Õ²Õ¶Õ¥ÖĢ
ĠÕ´Õ¡Õµ Õ«Õ½
ĠÕ·Õ¡ÖĢÕª Õ¾Õ¥Õ¬
ĠÕ¾Õ³Õ¡ÖĢ Õ¶Õ¥ÖĢÕ«
ĠÕ¿Õ¥Õ½Õ¡Õ¯ Õ¶Õ¥ÖĢÕ«
oo d
Õ¸ÖĤÕ¶Õ¤ Õ«
ĠÕ°Õ¥Õ¼Õ¸ÖĤÕ½Õ¿ Õ¡ÖģÕ¸ÖĤÕµÖģ
ĠÔµÖĢÕ¯ ÖĢÕ«
ĠÕ¡Õ²Õ» Õ¯Õ¡Õ¶
200 3
ĠÕ¡ÖĢÕ¿Õ¡Õ°Õ¡ÕµÕ¿ Õ¥Õ¬
ĠÕ¶Õ¾Õ¡Õ¦ Õ¥ÖģÕ¶Õ¥Õ¬
ĠÕ¯Õ¡Õ¼Õ¸ÖĤÕµÖģ Õ¶Õ¥ÖĢÕ¨
ÕĮÕ¸ÖĤÕ½ Õ¡Õ½Õ¿Õ¡Õ¶
Ô±ÖĢ Öĥ
ĠÕ¯Õ¡ÖĢÕ«ÖĦ Õ¶Õ¥ÖĢÕ«
ĠÕ¹Õ£ Õ«Õ¿Õ«
ab le
ĠÕ½Õ¥Õ² Õ¡Õ¶
ĠÕ¸ÖĤÕ²Õ¡ÖĢÕ¯ Õ¥ÖĦ
ĠÕ¡Õ¯Öģ Õ«Õ¡Õ¶
ĠÔ¿Õ¡Õº Õ¡Õ¶Õ«
ĠÕ¡Õ½Õ¿Õ«Õ³Õ¡Õ¶ Õ¸Õ¾
ÕĪÕĴÔ¹ÕħÕĪÕĴÕĨÕĨÔµÕĲ Ô¸
ĠÖħÖĢÕ«Õ¶ Õ¡Õ¯Õ¨
ĠÔ±ÖĢÕ¡ÖĢÕ¡Õ¿ ÕµÕ¡Õ¶
ĠÕ£Õ¸ÖĢÕ®Õ¡Õ¼ Õ¸ÖĤÕµÕ©Õ¶Õ¥ÖĢÕ«
ĠÕ£Õ¸ÖĢÕ®Õ¡Õ¼ Õ¸ÖĤÕµÕ©Õ¶Õ¥ÖĢÕ¨
ĠÕ¯Õ¸Õ¿ Õ¸ÖĢ
ĠÕ°ÖĢÕ¤Õ¥Õ° Õ«
ÕĦÕ¡Õ¶ Õ¾Õ¥Õ¬
ĠÕ´Õ«Õ»Õ¸ÖģÕ¡Õ¼Õ¸ÖĤÕ´ Õ¶Õ¥ÖĢÕ«Õ¶
ĠÕ¦Õ¸ÖĢÕ¡Õ´Õ¡Õ½ Õ«
ĠÔ´Õ¡Õ¶Õ« Õ¥Õ¬
ĠÕ¬Õ¥Õ¼ Õ¡Õ¶
ĠÖħÕ¤Õ¡Õ¶Õ¡Õ¾Õ¡Õ¯Õ¡Õµ Õ¡Õ¶Õ¸ÖĤÕ´
ĠÕ½Õ¿Õ¡Öģ Õ¾Õ¥Öģ
ĠÕĢÕ¥Õ¼ Õ¸ÖĤÕ½Õ¿
ĠÕĥÕ¡Õº Õ¸Õ¶Õ«Õ¡ÕµÕ«
ĠAl l
ĠÔ¶Õ«Õ¶ Õ¾Õ¡Õ®
ĠRe al
ÕĬÔ±ÕĨ ÕĪÕĴÔ¹ÕħÔ±ÕĨ
ĠÖĨÕ¸ÖĢÕ¸ÖĤÕ´ Õ«
ĠÔ±Õ¶Õ¯Õ¡ÕŃ Õ¸ÖĤÕ©ÕµÕ¡Õ¶
ĠÕĸÕ«Õ¬ Õ«Õº
ĠÕķÕ¢ Õ¡Õ´
ÕįÖĥÕµÕ¸ÖĤÕ¼ ÖĦ
ĠÕ·Õ¶Õ¸ÖĢÕ°Õ¡Õ¶Õ¤Õ¥Õ½ Õ¨
7 2
p ort
Õ¸ÖĤÕ »
Õ¸ÖĤÕ¶ Õ¿
Õ´ Õ¨
ĠÕ¤ ÕµÕ¸ÖĤÖĢ
Õ£ Õ¸ÖĤÕ´
Õ£ Õ«Õ¶
ĠÕ½ Õ¸Õ½Õ¯
Õ¥Õ² Õ¢
ĠÕ¡Õ¶ Õ¡ÕºÕ¡Õ°Õ¸Õ¾
Õ¸Õ¶ Õ¶Õ¥ÖĢ
Õ· ÖĢÕ»
ÖĢÕ¡Õ¶ Õ¸Öģ
ÕĪ Ô³
Ô¿ Õ«Õ¶
ĠÕ¡Õ¼Õ¡Õ» Õ¡ÖģÖĢÕ¥Õ¬
ĠÕ¡Õ´ Õ¡Õ¹
Õį Õ¥Õ¢Õ¡Õ½Õ¿
ĠÕ¥ÖĢÕ¯ Õ¸ÖĤÕ½Õ¶
ĠÖģ Õ´Õ¡Õ°
ĠÖĦÕ¡Õ²Õ¡ÖĦ Õ¡Õ¯ÖĢÕ©
ÕĪÕĴ ÕĢ
Õ¼ Õ¸ÖĤÕ´
ĠÕĬ Õ¡Õ¬
ĠÔ´ ÕºÖĢÕ¸Öģ
ĠÔ´ Õ´Õ«Õ¿ÖĢÕ«
Õİ ÖĢ
Ô² Õ¡ÖĢÕ±ÖĢ
ĠÕ¨Õ¶Õ¤ Õ¡ÖĢÕ±Õ¡Õ¯
ĠÔ¹ Õ¸ÖĤÖĢÖĦ
ĠÕ¿Õ¥Õ½ Õ¥ÖĦ
ĠÕĶ Õ¡Õ¶Õ¡ÖĦÕ¥Õ¼
Õ¡ÖĢÕ¡Õ¶ Õ±
Õ«Õ¦ Õ¡
Ô±ÕĲ Ô±Ô¿
ĠÕŃÕ¸Õ½ ÖĦÕ¥ÖĢ
Ġ19 18
ĠÕ¯Õ¡Õº Õ¡Õ°Õ¸Õ¾
ĠÕ¡Õ¶Õ¾ Õ¡Õ¶Õ¡Õ¯Õ¡Õ¶
ĠÕ¥Õ¯ Õ¥ÖĦ
Ôº Õ¡Õ´
ĠÕŃÕ¸ÖĢÕ°ÖĢÕ¤ Õ¡Õ¯ÖģÕ¸ÖĤÕ©ÕµÕ¸ÖĤÕ¶
ĠÕ£Õ¶ Õ´Õ¡Õ¶
ĠÕ¨Õ¶Õ¯Õ¥ÖĢ Õ¸ÖĤÕ©ÕµÕ¸ÖĤÕ¶Õ¸ÖĤÕ´
ĠÕºÕ¡ÖĢÕ¿ Õ¾Õ¥Õ¬
ĠÕ¡Õ·ÕŃÕ¡ÖĢÕ° Õ¡Õ°Õ¼Õ¹Õ¡Õ¯
ĠÕ°Õ¸Õ£ Õ¥Õ°
ĠÕ°Õ¸Õ£ Õ¶Õ¡Õ®
Ġ7 8
ĠÕ«Õ·ÕŃÕ¡Õ¶ Õ¸ÖĤÕ©ÕµÕ¸ÖĤÕ¶Õ¶
ĠÕ¶ÕºÕ¡Õ¿Õ¡Õ¯ Õ¡Õ°Õ¡ÖĢÕ´Õ¡ÖĢ
ĠÕ°ÖĢÕ¡ÕºÕ¡ÖĢÕ¡Õ¯ Õ¾Õ¸Õ²
ĠÕ¾Õ¡ÖĢÕ¹Õ¡ÕºÕ¥Õ¿ Õ¶
ĠÕ£Õ¡Õ¬ Õ¸Õ¾
ĠÕ£Õ¸ÖĢÕ®Õ¸Õ² Õ¸ÖĤÕ©ÕµÕ¸ÖĤÕ¶Õ¨
ĠÕĤ ÖĢÕ«Õ´
Õī Õ«Õ¶
Õī Õ§
Õ¸ÖĤÕµÕ¬ Õ¡Õ¿ÖĢÕ¥Õ¬Õ«
Ô±Õ¼ ÖģÕ¡Õ¶Öģ
ĠÕ¶Õ¯Õ¡ÖĢ Õ¡Õ£ÖĢÕ¸ÖĤÕ©ÕµÕ¸ÖĤÕ¶Õ¨
Õ¡Õ°Õ¡ÖĢ Õ¸ÖĤÕµÖģ
ĠÕ©Õ¥Õ´ Õ¡ÕµÕ«Õ¶
ĠÕ©Õ«Õ´ Õ¸ÖĤÕ´
ĠÕ£ÖĢÕ¡Õ¶Öģ Õ¸ÖĤÕ´
ÕĬÕ¡Õ¿ Õ¯Õ¥ÖĢ
ĠÕ¡Õ´Õ«Õ½ Õ¨
ĠÕİÖĢÕ¡Õ½Õ¿ Õ¡Õ¶Õ¨
ĠÕ¬Õ¸ÖĤÕ½Õ¡Õ¶Õ¯Õ¡ÖĢ Õ«Õ¹
ĠÕ¢Õ¡ÖģÕ¡Õ°Õ¡ÕµÕ¿ Õ¾Õ¥Õ¬
ĠÔ±ÕĲ Ô´
ĠÕ¼Õ¡Õ¤Õ« Õ¸ÕµÕ«
Õĥ Õ¡Õº
Õ¥ÖĢÕ¬Õ¸ÖĤÕ® Õ¡Õ¯Õ¡Õ¶
ĠÕ¿Õ¸Õ¶ Õ«Õ¶
ĠÕ·Öĥ Õ¾Õ¥Õ¬
ĠÔ·Õ¤ Õ£Õ¡ÖĢ
ĠÕºÕ¡ÕµÕ´Õ¡Õ¶Õ¡Õ¾Õ¸ÖĢÕ¾Õ¡Õ® Õ¸ÖĤÕ©ÕµÕ¸ÖĤÕ¶
ĠÕ©Õ¡Õ¿ÖĢ Õ¸Õ¶Õ¨
ĠÕ¾Õ¥ÖĢÕ¡Õ¶ Õ¡Õµ
ĠÔ±Õ¶Õ¤ ÖĢÕ¥
ĠÕ£Õ¬ÕŃ Õ«
ĠÕºÕ¶Õ¤ Õ¥Õ¬
ĠÕºÕ¡ÕµÖĦÕ¡ÖĢ Õ¥Õ¬Õ¸ÖĤ
ĠÕ´Õ¸Õ¤ Õ¥Õ¬Õ¨
ĠÕ°Õ¸Õ£Õ¥Õ¢ Õ¡Õ¶
ĠÕ¸Õ£ Õ¥Õ·Õ¶Õ¹
ĠÕĦÔµ Õĭ
ĠÕ¤Õ«ÖĢÖĦÕ¸ÖĢÕ¸Õ· Õ´Õ¡Õ¶
ĠÕ³Õ¶Õ· Õ´Õ¡Õ¶
ĠÕ³Õ¡ÖĢÕ¿Õ¡ÖĢ Õ¡ÕºÕ¥Õ¿Õ¸ÖĤÕ©ÕµÕ¡Õ¶
ĠÖħÖĢÕ£ Õ¡Õ¶Õ«Õ¦Õ´Õ«
ĠÕ¯Õ¡Õ¬Õ¡Õ¶ Õ¡Õ¾Õ¸ÖĢÕ¾Õ¡Õ®
ĠÖĦÕ¡Õ¼ Õ¸ÖĢÕ¤
ĠÕ¯Õ¼ Õ«Õ¾
ĠÕĦÕ¡Õ½ Õ«Õ½
ĠÕ£ÖĢÕ¡Õ¼ Õ¸ÖĤÕ´Õ¨
ĠÕ°Õ¡Õ¾Õ¥Õ¬Õ¾Õ¡Õ® Õ«
ĠÕ©Õ¥Õ´Õ¡Õ¶ Õ¥ÖĢÕ¸Õ¾
ĠÕ¤Õ¡Õ½Õ¿Õ«Õ¡ÖĢÕ¡Õ¯ Õ¸ÖĤÕ©ÕµÕ¡Õ¶
ĠÖĥÕ¸ÕŃÕ°Õ¡Õ¿ Õ¸ÖĤÖģ
ĠÕ¯Õ¡Õ©Õ¸Õ²Õ«Õ¯ Õ¸Õ½
ĠÕĮÕ¸ÖĤÕ½Õ¡Õ½Õ¿ Õ¡Õ¶Õ¶
ÕĨÕĪÕĲ ÕĪÕĴÔ¹ÕħÕĪÕĴÕĨÕĨÔµÕĲ
ĠÔ¿ÖĢÕ© Õ¸ÖĤÕ©ÕµÕ¡Õ¶
Õ«Õ¿Õ¡Õ¶ Õ¡ÖģÕ«
ĠÕ¢Õ¶Õ¡Õ£Õ¡Õ¾Õ¡Õ¼ Õ¶Õ¥ÖĢÕ¸ÖĤÕ´
Õ«Õ¬Õµ Õ¡Õ´
ĠÕ£Õ¥ÖĢÕ´Õ¡Õ¶ Õ¡ÖģÕ«
ĠÕ¤Õ¡Õ¿Õ¡Õ¾Õ³ Õ«Õ¼
ĠÕŃÕ¸Õ½Õ¿Õ¸Õ¾ Õ¡Õ¶Õ¥Õ¬
ĠÕ½Õ© ÖĢÕ¥Õ½
ĠÕ¢ÖĢÕ¸Õ¶ Õ¦Õ¥
ĠÕ¥ÖĢÕ¡Õ¶ Õ£
ĠÕ¤ÖĢÕ¸ÖĤÕµÖĦ Õ¡Õ¹Õ¡Öĥ
ĠÕ¡Õ´Õ¥Õ¶Õ¡Õ¿ Õ¡ÖĢÕ¢Õ¥ÖĢ
ĠOn line
/ ,
6 1
S h
e et
i le
ÖĢ Õ¥ÖĢÕ«
ÖĢ Õ¸Õ¾Õ«
Õ¸Õ §
Õµ Õ¸Õ´
ĠÕ° Õ¸
ĠÕ° Õ¸ÖĢÕ¨
ĠÕ´ Õ¯ÖĢÕ¿
ĠÕ´ Õ¥ÖĢÕ±Õ¡Õ¾Õ¸ÖĢ
Õ¾ Õ«Õ¯
Õ½ Õ¸ÖĤÕ´
ĠÕ¿ Õ¸ÖĤÕµÕª
ĠÕº Õ¸Õ¯
ĠÕ£ Õ¡Õ¶Õ£
ĠÕ¤ Õ¥ÖĢÕ«
ĠÔ± ÖĢÕ¾Õ¥Õ½Õ¿
ĠÕĢ Ô±Õİ
ĠÕĢ Õ¡Õ·Õ¾Õ«
Õ£ Õ¥ÖĢ
ĠÕ½ Õ¡Õ°
ĠÕ¾ Õ¡Õ°
Õº Õ¡Õ·Õ¿
Õ© Õ«Õ¶
Õ¸Õ¶ ÖĦ
Õ¸Õ¶ Õ«Õ¡
ÕĢ Õ¡Õ·Õ¾Õ«
ÕŃ Õ¡Õ¬
Õ¡Õ¢ Õ¶Õ¸ÖĤÕµÕ©
Ôµ ÖĤ
ĠÕį Õ¥ÖĤ
ĠÕį Õ¸ÖĤÖĦÕ«
ÕĦ Õ«Õ¶
ÕĦ Õģ
Ô¿ Õ¥Õ¶Õ¤
Õ¸Öģ Õ¥Õ¶Õ¿
ĠÔµ ÖĢÕ¾Õ¡Õ¶Õ¤
ĠÕ¯Õ¡ÖĢ Õ«ÖĦÕ¨
ĠÔ² Õ¡ÖĢÕ±ÖĢ
Õı Õ¥ÕŃÕ¶Õ«Õ¯Õ¡Õ¯Õ¡Õ¶
ĠÔ» Õ¾Õ¡Õ¶
Õİ Ô»ÕĲ
ĠÕ¯Õ¡Õ´ ÖĦÕ«
ĠÕºÕ¡Õ° Õº
ĠÕĶ Õ¶Õ¶
ĠÖħÕ£ Õ¶Õ¥Õ¬Õ¸ÖĤ
ÕĢÕ¡Õµ Õ¿Õ¡ÖĢÕ¡ÖĢ
ĠÕ¢Õ¡Öģ Õ¾Õ¡Õ®
ĠÕ¢Õ¡Öģ Õ©Õ¸Õ²
ĠÕ¸ÖĢÕ¸Õ· Õ¥Õ¬Õ¸ÖĤ
ĠÕŃÕ¡Õ² Õ«Öģ
ĠÕŃÕ¡Õ² Õ¥ÖĢÕ¸ÖĤÕ´
ĠÕŃÕ´Õ¢ Õ¥ÖĢ
Ġ5 3
ĠÕķ ÕºÕ¥ÖĢ
ĠÕºÕ¡ÕµÕ´Õ¡Õ¶ Õ¶Õ¥ÖĢÕ«Õ¶
ĠÕ¨Õ¶Õ¯Õ¥ÖĢ Õ¸ÖĤÕ©ÕµÕ¸ÖĤÕ¶Õ¶
Õ¡Õ¿Õ¾ Õ¥Öģ
ĠÕ¡Õ¦Õ¡Õ¿ Õ¸ÖĤÕ©ÕµÕ¸ÖĤÕ¶Õ¨
ĠÕ«ÖĢÕ¡Õ¯Õ¡Õ¶Õ¡Öģ ÖĢÕ¡Õ®
ĠÕ¸ÖĤÕ²Õ² Õ¥Õ¬
Õ¡Õ¬Õ« ÖĦÕ¨
ĠÕ¢Õ¡Õª Õ¡Õ¶Õ¥Õ¬
ĠÖģÕ¸ÖĤÖģ Õ¡ÖĢÕ¡ÖĢÕ¶Õ¥ÖĢÕ«
Ô±ÕµÕ½ Õ«Õ¶ÖĦÕ¶
ĠÕ§Õ» Õ«
ĠÕºÕ¡Õ¿Õ³Õ¡Õ¼ Õ¾Õ¡Õ®
Ġ7 00
ĠÕ°Õ¡Õ´Õ¡Õ±Õ¡ÕµÕ¶ Õ¸ÖĤÕ©ÕµÕ¸ÖĤÕ¶
ĠÕºÕ¡ÖĢÕ¦ Õ¾Õ¥Öģ
ĠÕ´Õ·Õ¡Õ¯ Õ¥Õ¬Õ¸ÖĤ
ĠÕ¿Õ¶Õ¿Õ¥Õ½ Õ¸ÖĤÕ©ÕµÕ¸ÖĤÕ¶
ĠÔ±ÖĢ Õ¸Õ¶ÕµÕ¡Õ¶Õ¨
ĠÕ¾Õ¡ÖĢ Õ¡Õ®
ĠÕ¦Õ¢Õ¡Õ² Õ¥ÖģÕ¶Õ¥Õ¬Õ¸ÖĤ
ĠÕ¸Õ² Õ¸ÖĢÕ´
ĠÕ¯Õ¸Õ¶ Öģ
oo t
ĠÕ¡Õ¶Õ¯Õ¡ÕŃ Õ¸ÖĤÕ©ÕµÕ¸ÖĤÕ¶Õ¨
ĠÕ¯Õ£ Õ¡Õ¶
Ġ: )
Ô±ÕĮ Ô¿Ô±
ĠÕ¼Õ¥Õª Õ«Õ½
Õ¡Õ£Õ¶ Õ¡Õº
ĠÕ¸ÖĤÕ½Õ¸ÖĤÕ´Õ¶Õ¡Õ½Õ«ÖĢ Õ¸ÖĤÕ©ÕµÕ¸ÖĤÕ¶Õ¶Õ¥ÖĢÕ«
ĠÕĢÕ¸ÖĤÕ¶ Õ«Õ½Õ«
ĠÕ´Õ¡Õ¿Õ¸ÖĤÖģ Õ´Õ¡Õ¶
ĠÕ¿Õ¥Õ½Õ¡Õ¶ÕµÕ¸ÖĤÕ© Õ¥ÖĢ
ĠÕ´Õ¥Õ¤ Õ¡Õ¬Õ¸Õ¾
ĠÕ°Õ¡ÖĢÕ£ Õ¸ÖĤÕ´
ĠÔ¿Õ¡Õ¼ Õ¡Õ¾Õ¡ÖĢ
ĠÔ¿Õ¡Õ¼ Õ¡Õ¾Õ¡ÖĢÕ¸ÖĤÕ©ÕµÕ¸ÖĤÕ¶Õ¨
Ð¾Ð »
ĠÕ½Õ¯Õ¦Õ¢Õ¸ÖĤÕ¶ÖĦ Õ¶Õ¥ÖĢÕ¨
ĠÕ´Õ¡ÖĢÕ¦ÕºÕ¥Õ¿ Õ¡ÖĢÕ¡Õ¶Õ«
ĠÕ¸Õ£ Õ«Õ¶
ĠÕ¨Õ¶Õ¤Õ¬Õ¡ÕµÕ¶ Õ¥Õ¬
ĠÕŃÕ´ Õ«Õ¹
ĠÕ£Õ¡Õ²Õ¡ÖĥÕ¡ÖĢ Õ¶Õ¥ÖĢ
ĠÔ±Õ´Õ¥ÖĢÕ«Õ¯ ÕµÕ¡Õ¶
ĠÕ¤Õ«ÖĢÖĦÕ¸ÖĢÕ¸Õ· Õ¸ÖĤÕ´
ĠÕĦÕ¡ÖĢÕ¿Õ«ÖĢ Õ¸Õ½ÕµÕ¡Õ¶
ĠÕ¯Õ¸ÖĤÕ¿ Õ¡Õ¯Õ¡ÕµÕ«Õ¶
Ô¸Õ¶ Õ©Õ¥ÖĢÖģ
ĠÕ´Õ¡Õ¿Õ¡Õ¯ Õ¡ÖĢÕ¡ÖĢÕ´Õ¡Õ¶
ĠÕ¢Õ¡Õ²Õ¡Õ¤ÖĢ Õ«Õ¹
ĠÕ£Õ«Õ¶ Õ¸ÖĤ
ĠÕ¡Õ¶Õ´Õ«Õ»Õ¡Õ¯Õ¡Õ¶ Õ¸ÖĢÕ¥Õ¶
ĠÕ¨Õ´Õ¢ Õ¼
ĠÕħÕ¸ÖĢ ÖĦÕ¸ÖĤÕ´
ĠÕ®Õ¼ Õ¥ÖĢÕ«
ÖħÕ¤ Õ¡ÕµÕ«Õ¶
ĠÕ±ÖĩÕ¡Õ¹Õ¡Öĥ Õ¸Õ¾
ĠÕĦÕ·Õ¡Õ¯ Õ¸ÖĤÕµÕ©Õ«
ĠÕĢÕ¸Õ¬ Õ¡Õ¶Õ¤
ĠÕĦÕ¡ÖĦÕ½ Õ¡ÕµÕ«Õ¶
ĠÕ¡ÖĤ Õ¥Õ¬Õ«
ĠÕ½Õ´Õ¡ÖĢÕ© ÖĨÕ¸Õ¶
ĠÕ£Õ¥ÖĢÕ¡Õ¿Õ¥Õ½Õ¹ Õ¸ÖĤÕ©ÕµÕ¸ÖĤÕ¶Õ¶Õ¥ÖĢÕ«
ĠÔ¿Õ«Õ¬ Õ«Õ¯Õ«
ĠDes cription
ĠÕ°Õ¼ Õ¥Õ¿Õ¸ÖĢ
' '
7 9
F acebook
i x
i re
Ġ com
Õ¥ Õ¸Õ¬
Õ¶ Õ¥Öģ
ĠÕ¶ Õ¡Õ°Õ¡Õ¶Õ»
ĠÕº Õ¸Õ¼Õ¶
ĠÕĢ Õ¥Õ¬Õ½Õ«Õ¶
Õ¢ Õ¸Õ½
Õ¹ ÕµÕ¡Õ¶Õ¨
ÕĢ Õ¥Õ¶Öģ
ĠÖĦ ÖĢÕ£Õ¸ÖĢÕ®
ĠÕŃ Õ¶Õ¡Õµ
Õ¥Öģ Õ£Õ¥Õ¿
ĠÕ¹ Õ¡ÖĢÕ«
ÕµÕ¡Õ¶ Õ¶Õ¥ÖĢÕ«
Õ«Õ½ Õ¸ÖĤÕ½
Õ«Õ½ ÕµÕ¡Õ¶Õ«
ÕĦ Õ¸Õ¿
ÕĦ Õ«Õ»Õ¸ÖģÕ¡Õ¼
ĠÕ¶Õ¡ÕŃ Õ¡ÖĦÕ¶Õ¶Õ¸ÖĤÕ©ÕµÕ¡Õ¶
Ô¿ Ô±ÕĬ
ĠÕ¿Õ¥Õ² Õ¡Õ¤ÖĢÕ´Õ¡Õ¶
ĠÕ¥ÖĢÕ¯ Õ¸ÖĤÕ·Õ¡Õ¢Õ©Õ«
ĠÕ¡Õº Õ¡Õ½Õ¿Õ¡Õ¶
ĠÕĬ Õ¡Õ¿Õ¾
ĠÕ¡Õ·ÕŃÕ¡Õ¿ Õ¸Õ²Õ«
Ô² Õ¶Õ¡Õ¯Õ¡Õ¶
ĠÕ°Õ¡Õ½ Õ¡Õ®
ĠÕ°Õ«Õ´ ÖĦÕ¸Õ¾
ĠÕ¶Õ¥ÖĢÕ¯Õ¡Õµ Õ¸ÖĤÕ©ÕµÕ¸ÖĤÕ¶Õ¨
Õħ Ô±Ô¿
ĠÕ°Õ¡Õ¾ Õ¡Õ¯Õ¶
Õ¸ÖĤÕ¯ Õ¶Õ¥ÖĢÕ«
Õ¡ÖĢÕ¡Õ¶ Õ«Õ¶
ĠÕ¯Õ¡Õµ Õ¡ÖģÕ¶Õ¥Õ¬Õ¸ÖĤ
Õ«Õ¦ Õ¡ÕµÕ«Õ¶
Õ«Õ¦ Õ«Õ¯Õ¡Õ¯Õ¡Õ¶
ĠÕŃÕ¸Õ½ Õ¾Õ¸ÖĤÕ´
ÕĶ Õ¸
ĠÕĩ Õ¿
ĠÕ´Õ¿ Õ¡Õ¾Õ¡ÕŃ
ĠÕ¡Õ·ÕŃÕ¡Õ¿Õ¡Õ¶ÖĦ Õ¶
ĠÕ¸ÖĤÕ¶Õ¥Õ¶ Õ¡Õ¶ÖĦ
Õ¸Õ° Õ¡Õ´
Õĩ Ô¼
ĠÕ°Õ«Õ´Õ¶ Õ¡ÖĢÕ¯Õ«
ĠÖģÕ¸ÖĤÖģ Õ¡Õ¢Õ¥ÖĢÕ¸ÖĤÕ´
Õ¸Õ© Õ¡Õ¿ÖĢ
Õķ ÖĢÕ¥Õ¶
ĠÕŃÕ¶Õ¤Õ«ÖĢ Õ¶Õ¥ÖĢÕ¸Õ¾
Õ«Õ¤ Õ¥Õ¶Õ¿
ĠÕ°Õ¡ÕµÕ¿Õ¶ Õ¥ÖģÕ«Õ¶
ĠÕ¡Õ¶Õ¯ Õ¡Õ¶
Õ¸ÖĤÕª Õ«
Ô±Õ¶ Õ°ÖĢÕ¡ÕªÕ¥Õ·Õ¿
ĠÔ¾ Õ«Õ®Õ¥Õ¼Õ¶Õ¡Õ¯Õ¡Õ¢Õ¥ÖĢÕ¤
ĠÕ¾Õ¡ÖĢ Õ¥Õ¬Õ¸ÖĤ
ĠÕ´Õ¡Õ° Õ«Öģ
ĠÕ¥ÖĢÕ£ Õ¥ÖĢÕ«
ĠÕ¯Õ¡Õ¼Õ¸ÖĤÖģ Õ¸Õ²Õ¡Õ¯Õ¡Õ¶
ĠÕ°Õ¡Õ½Öģ Õ¶Õ¸ÖĤÕ´
ĠÖĦÕ¶Õ¶Õ¡ÖĢÕ¯ Õ¸ÖĤÕ´Õ¶Õ¥ÖĢÕ¨
Õ¡Õ« ÖĢÕ¡Õ¾
ĠÕ¤Õ¥Õ½ ÕºÕ¡Õ¶Õ¸ÖĤÕ©ÕµÕ¡Õ¶
ĠÕºÕ¡Õ¿Õ¡Õ½ÕŃÕ¡Õ¶Õ¡Õ¿Õ¾ Õ¸ÖĤÕ©ÕµÕ¡Õ´Õ¢
ĠÕ¡ÖĢÕ¿Õ¡Õ°Õ¡ÕµÕ¿ Õ¸ÖĤÕ©ÕµÕ¸ÖĤÕ¶Õ¨
ĠÕ¶Õ¾Õ¡Õ¦ Õ¸ÖĤÕ´
ĠÕ«Õ¶Õ¿ Õ¥Õ£ÖĢ
ĠÕĢÕ¥Õ¿ Õ¡Õ£Õ¡ÕµÕ¸ÖĤÕ´
ĠÕ¤Õ«Õ¾ Õ¥ÖĢÕ½
ĠÕ°Õ¡Õ´Õ¸Õ¦ Õ´Õ¡Õ´Õ¢
ĠÖģÕ¡Õ¶Öģ Õ¥ÖĢÕ«
ĠAr menian
ĠÕ¾ÖĢ Õ¡Õµ
ĠÕĢÕ¸ÖĤÕ¶ Õ¡Õ½Õ¿Õ¡Õ¶Õ«
ĠÖĦÕ¡ÖĢÕ¿Õ¸ÖĤÕ² Õ¡ÖĢÕ¨
ĠÕĦÕ¡ÖĢÕ£ Õ¡ÖĢÕµÕ¡Õ¶
ĠÔ±Õ¶Õ¤ ÖĢÕ¥Õµ
ĠÕĦÔ» Ô±Õİ
ĠÕ¸ÖĤÕ²Õ²Õ¡Õ¯Õ« Õ¸ÖĢÕ¥Õ¶
ĠÕĢÔ±ÕĦ Ô±Ô¼
ĠÕĬÕ¡Õ·Õ¿ Õ¸Õ¶Õ¡Õ¯Õ¡Õ¶
ĠÕ´Õ¡Õ½Õ¶Õ¡Õ£Õ«Õ¿ Õ¸ÖĤÕ©ÕµÕ¡Õ´Õ¢
ĠÕ´ÖĢÖģÕ¸ÖĤÕµÕ© Õ¸ÖĤÕ´
ĠÕĬÕ¥Õ¿Õ¥ÖĢÕ¢Õ¸ÖĤÖĢÕ£ Õ¸ÖĤÕ´
ĠÕ°Õ¡Õ´Õ¡Õ¬Õ«ÖĢ Õ¸ÖĤÕ´
ĠÔ±Õ¯ Õ¶
Ô»Õİ Ô±ÕĨ
ĠÕ¢Õ¡Õ¬ Õ¥Õ¿Õ«
ĠÕ´Õ¿Õ¡Õ®Õ¥Õ¬ Õ¡Õ¯Õ¥ÖĢÕº
ĠÕŃÕ¡Õ¶Õ£ Õ¡ÖĢ
ÕĬÕ¥Õ¿ÖĢÕ¸Õ½ ÕµÕ¡Õ¶Õ¨
ĠÕ±Õ¡Õµ Õ¶Õ¥ÖĢ
ĠÕĩÕ¶Õ¸ÖĢÕ° Õ¡Õ¯Õ¡Õ¬Õ¸ÖĤÕ©ÕµÕ¸ÖĤÕ¶
Ô¿ÖĢÕ© Õ¸ÖĤÕ©ÕµÕ¸ÖĤÕ¶
ĠÕİÕ¡ÖĢÕ¹Õ¡ÕºÕ¥Õ¿ Õ¨
ĠÕĢÕ¡Õ¶Õ¤Õ«Õº Õ´Õ¡Õ¶
ĠÕ¿Õ«Õ¥Õ¦Õ¥ÖĢ Õ¡Õ¯Õ¡Õ¶
ĠÕīÕ¥ÕŃ Õ«Õ¡ÕµÕ«
ĠÕķÕ°Õ¡Õ¶ ÕµÕ¡Õ¶Õ¨
Ô±Õ¶Öģ Õ¡Õ®
ĠÔ¼Õ«Õ£ Õ¡
ĠÕ¹Õ¯Õ¡ÖĢÕ¸Õ² Õ¡ÖģÕ¡Õ¾
ĠÕĦÕ·Õ¡Õ¯ Õ¸ÖĤÕµÕ©
out ube
Õ¥ÖĢÖĩ Õ¸ÖĤÕµÕ©
ĠÕºÕ¡ÖĢÕ¡Õº Õ´Õ¸ÖĤÕ¶ÖĦ
ĠÖĦÖĢ Õ¸Õ»
ĠÕ³Õ¡Õ¼ Õ¡Õ£Õ¡ÕµÕ©
< <
? ?
G oogle
I T
Õ¿ Õ¡Õ¯Õ¡Õ¶
Õ«Õ¶ Õ¡Õ¬Õ«Öģ
ĠÕ´ Õ¸ÖĤÕ½
Õ¡Õ¯Õ¡Õ¶ Õ¡ÖģÕ´Õ¡Õ¶
ĠÕ¶ Õ¡Õ°Õ¡Õ¿Õ¡Õ¯
Õ¥ÖĢÕ §Õ¶
Õ¯ Õ¸Õ¾
Õ¡Öģ ÖĦ
Õ¸ÖĢ Õ¶Õ¥ÖĢÕ¨
ĠÕ£ Õ¡Õ¶
ĠÕ£ Õ¸ÖĢÕ£
ĠÕ¤ Õ¡Õ¤
Õ¡Õ£ Õ¡Õµ
ĠÔ± Õį
ĠÕ¾ ÖĢÕ¤Õ¸Õ¾
Õ¹ Õ¥Õ¬
ĠÕ¡Õ¶ Õ¸Õ©
ÕĢ Õ¸Õ¾
ÕĢ Õ¶Õ¡ÖĢÕ¡Õ¾Õ¸ÖĢ
ĠÕ°Õ¡Õ´ Õ¨Õ¶Õ¤Õ°Õ¡Õ¶Õ¸ÖĤÖĢ
Öī [
Õ¥Õ¯ Õ¡Õ¾
Õ¡Õ¤ Õ«Õ¶
ĠÕ«ÖĢ Õ¡Õ¿Õ¥Õ½
Õ¡ÖĢÕ¯ Õ¸ÖĤÕ´Õ¨
ĠÕ¶Õ¡ÕŃ ÖĦÕ¡Õ¶
Ô¿ Õ¸Õ¿
Õ° Õ¥Õ¼
ĠÔµ ÖĢÕ¡Õ¶
Õ¡Õ£ÖĢ Õ¥ÖĦ
Õ¡ÕµÕ« Öĥ
ĠÕ¡Õ¼Õ¡Õ» Õ¡ÖģÕ´Õ¡Õ¶
ĠÔ² Õ¥Õ¶
ĠÔ² Õ¡ÖĢÕ½Õ¥Õ¬Õ¸Õ¶
Õį ÕĵÕħÕĪÕĴÕĮ
Õı ÕĬ
Õ«Õ· Õ¥
Õ¡Õ© Õ«
ĠÔ´ Õ¡Õ¬
ĠÔ´ Õ¸Õ¶
Õ¡Õ¤ÖĢ Õ¸ÖĤÕ´Õ¶Õ¥ÖĢ
Ô² Õ¡ÖĢÕ£Õ¡Õ¾Õ¡Õ³
ĠÔ¼ Õ¥Õ¸Õ¶
Ô´ Õ¥ÖĢÕ¡Õ½Õ¡Õ¶
ĠÕı Ô»ÕĦ
ĠÕ«ÖĢÕ¡Õ¾ Õ¡Õ¢Õ¡Õ¶
ĠÔ¹ Õ¡ÕµÕ«Öĥ
ĠÕ¼ Õ«Õ½
ÖĨ Õ«Õ¶
ĠÕ¡ÖĢÕ¿ Õ¡Õ¿Õº
ĠÕºÕ¡Õ° Õ¾Õ¸ÖĤÕ´
ĠÕ¯Õ¸Õ²Õ´ Õ¥ÖĢÕ«Öģ
ĠÕ¯Õ¡Õ¦Õ´ Õ¸Õ¾
am a
ĠÕ¯Õ¡Õµ Õ¡Õ¶
Ô±Õµ Õ¢
ĠÕŃÕ´Õ¢ Õ¡Õ¯ÖģÕ¸ÖĤÕ©ÕµÕ¸ÖĤÕ¶Õ¨
ĠÕ¿Õ¶ Õ«Öģ
âĢ¤ -
ĠÕ®Õ¡Õ¼Õ¡Õµ Õ¸ÖĤÕ©ÕµÕ¸ÖĤÕ¶Õ¶Õ¥ÖĢÕ«Öģ
ĠÕºÕ¡Õ¿Õ´ Õ¸Õ²
ĠÕ¨Õ¶Õ¤Õ¸ÖĤÕ¶ Õ¡Õ®
ĠÕ°Õ«Õ´Õ¶ Õ¡Õ°Õ¡ÖĢ
ĠÖģÕ¡Õ¶Õ¯ Õ¸ÖĤÕ©ÕµÕ¸ÖĤÕ¶Õ¨
ĠÖģÕ¡Õ¶Õ¯ Õ¡ÖģÕ¸Õ²
Ġ6 6
Ġ6 7
ĠÕ´ÖĢÖģ Õ¸ÖĤÕµÕ©Õ¨
ĠÕ¯ÕµÕ¡Õ¶ ÖĦÕ¸Õ¾
Õ¥Õ© Õ¥Õ©
ĠÕ¤Õ¡ÖĢÕ± Õ¶Õ¥Õ¬Õ¸Õ¾
ĠÕ°Õ¸Õ£ Õ¡Õ¿Õ¡ÖĢ
Õ¡ÕµÕ¬ Õ«
ĠÕ¶Õ·Õ¡Õ¶Õ¡Õ¯ Õ¸ÖĤÕ©ÕµÕ¸ÖĤÕ¶Õ¨
ĠÕ«Õ·ÕŃÕ¡Õ¶ Õ¡ÖĥÕ¸ÕŃ
ĠÕ¡ÕºÕ¡Õ°Õ¸Õ¾ Õ¸Õ²
Ô±Õ¶ Õ¯
ĠÕ¡Õ» Õ¡Õ¯Õ«Öģ
ĠÕ·Õ¡ÖĢÕ¸ÖĤÕ¶Õ¡Õ¯ Õ¥Öģ
ĠÕ¢Õ¡Õ¦Õ´ Õ¡Õ¯Õ¸Õ²Õ´Õ¡Õ¶Õ«
Õ¡Õ¶Õ± ÖĢ
ĠÕ°Õ«Õ· ÕµÕ¡Õ¬
ĠÕĨÕ¡ Öĩ
Õģ ÕĨ
ĠÖĦÕ¡ÕµÕ¬ Õ¸ÖĤÕ´
ĠÕĨÕ¸ÖĢ ÖĦÕ«
ĠÐ ¡
ch e
ĠÕ°Õ¡Õ»Õ¸Õ² Õ¡Õ¯
Õ¡Õ³Õ¡Õ¼ Õ¾Õ¸ÖĤÕ´
ĠÕ¡Õ´Õ½ Õ¸ÖĤÕ´
ĠÕ´ÕµÕ¸ÖĤÕ½ Õ«
ĠÕ½Õ¯Õ¦Õ¢ Õ¸ÖĤÕ¶ÖĦÕ¨
Õ¥ÖĢÕ¾ Õ¡
ĠÕ¯Õ° Õ¡Õ¶Õ¤Õ«Õº
Õ¾Õ¥ Õ«Õ¶
ĠÖĥÕ¸ÕŃÕ¡Õ¶Öģ Õ´Õ¡Õ¶
ĠÖĦÕ¶ Õ¡Õ®
ĠÕ¢Õ¡ÖģÕ¡Õ¼ Õ¥Õ¬
Õ¡Õ¸ÖĤ Õ½
ĠÕ°Õ¥ÖĢ Õ¸Õ½Õ«
ĠÕĸÖĢÕ¡Õ¶Õ½ Õ«Õ¡Õ¶
ĠÖħÕ¤ Õ¡ÕµÕ«Õ¶
ÕĢÕ¡ÖĢ Õ¡Õ¾Õ¡ÕµÕ«Õ¶
ĠÕ´ÖĢÖģÕ¡Õ¶Õ¡Õ¯ Õ¡Õ¯Õ«ÖĢ
ĠÕ¾ÖĢ Õ¡ÖģÕ¡Õ¯Õ¡Õ¶
ĠÖĦÕ¡ÖĢÕ¸Õ¦ Õ¹Õ¸ÖĤÕ©ÕµÕ¡Õ¶
ĠÕ¤Õ¡Õ¿Õ¡ÕºÕ¡ÖĢÕ¿ Õ¸ÖĤÕ´
ĠÕŃÕ¡Õ¹ ÖĦÕ¡ÖĢ
ĠÕ¸ÖĤÕ²Õ¡ÖĢÕ¯ Õ¾Õ¡Õ®
ĠÕ»Õ¡Õ¶ÖĦ Õ¥ÖĢ
ĠÕ³Õ¡Õ¯Õ¡Õ¿ Õ¡Õ´Õ¡ÖĢÕ¿
ĠÕ£ÖĢÕ¡Õ½Õ¥Õ¶Õµ Õ¡Õ¯Õ¸ÖĤÕ´
Ġs h
Ô±Õĩ Õİ
ĠÕ¯Õ¡ÕµÕ¸ÖĤÕ¶ Õ¸ÖĤÕ©ÕµÕ¡Õ¶
ĠÕ°ÖĢÕ¡Õ· ÖĦ
Ô±Ô² Ô±ÕĨ
ĠÕ¡ÖĢÕ¿Õ¸Õ¶ ÕµÕ¡Õ¬
Ġv ideo
ĠÕ½Õ¡ÖĢ ÖĦÕ¥ÖĢ
ĠÕ«Õ½ ÕºÕ¡Õ¶
ĠÕ¿ÕºÕ¡Õ¾Õ¸ÖĢ Õ«Õ¹
ĠÕ°Õ¡Õ´Õ¡ÕªÕ¸Õ²Õ¸Õ¾ Õ«Õ¶
ĠÔ±ÖĨ Õ²Õ¡Õ¶
ĠÕ¡ÕºÕ¡ÖģÕ¸ÖĤÕµÖģ Õ¶Õ¥ÖĢ
ĠÕ¯ÖĢÕ® ÖĦ
Ô¿ÖĢÕ© Õ¡Õ¯Õ¡Õ¶
ĠÔ¿Õ¸Õ¾Õ¯ Õ¡Õ½Õ¸ÖĤÕ´
ĠÕ°Õ¡Õ¾Õ¡ÖĦÕ¡Õ® Õ¸ÖĤ
ĠÕĦÕ¸ÖĤÖĢÕ¡Õ¤ ÕµÕ¡Õ¶Õ¨
Õ¬Õ¸Õ¾ Õ¡Õ¯Õ«
ĠÕĳÕ¡Õ¶Õ¯ Õ¡ÖģÕ¡Õ®
ĠÕ¿Õ¡Õ²Õ¡Õ¶Õ¤ Õ¡Õ¾Õ¸ÖĢ
ĠÕ¾Õ¡ÖĢÕ±Õ¡Õ¯Õ¡Õ¬ Õ¸ÖĤÕ©ÕµÕ¡Õ¶
ĠÕŃÕ¡Õ¹Õ´Õ¥ÖĢÕ¸ÖĤÕ¯ Õ¸ÖĤÕ´
ĠÕ¡Õ¦Õ£Õ¡Õ¶Õ¸ÖĤÕ¶ Õ¨
Õ³Õ¼ Õ¡Õ¢Õ¥Õ¯
ĠÕ¢Õ¡ÖĢÕ¥ÖĢ Õ¡ÖĢ
ĠCont in
ÕĤÔ» ÕĤ
8 4
8 9
A C
b o
Ð ĵ
Õ¡Õµ Õ¥Õ¬Õ¨
Õ¿ Õ¸Õ¶
ĠÕ° Õ¸Õ¬Õ¸Õ¾
ĠÕ´ Õ¸ÖĢÕ¨
ĠÕ¯ Õ±
Õ´ ÕŃ
Õ´ Õ«Õ¶Õ¹
Õ½ Õ¡Õ°Õ´Õ¡Õ¶
ĠÕº Õ«
ĠÕ¤ ÖĢÕ¾Õ¥Õ¬
Õ¢ Õ¡Õ²
ĠÕ¸ÖĤ ÖĢÕ¾
ĠÕŃ Õ¡Õ¼
ĠÕ¹ Õ¡Õ½
ĠÕ¹ Õ©Õ¸Õ²
ĠÕ«ÖĢ Õ¡Õ¶
Õ«ÖĢ Õ¡Õ¾
Õ«ÖĢ Õ¡Õ¶Õ¿
Õ¡Õ· Õ¡Õº
ĠÕ¡Õ¼ ÖħÖĢÕµÕ¡
ĠÕ¬ Õ¸Õ¯
ĠÕĦ Õ¥Õ°
ÕĨ Ô±Õį
Õ¸Õ¬ Õ«Õ¶
ĠÔµ Õ¶Õ©
Õ¿ÖĢ Õ«
ĠÔ² Õ¥ÖĢÕ¤
Õ¦ Õ«Õ»
ĠÕ¶Õ¥ÖĢÕ ©
ĠÕİ Õ«
Õı Õ¡Õ¾Õ¸ÖĤÕ·Õ«
Õı Õ²Õ¡Õ´Õ¡ÖĢÕ¤
ĠÖģ Õ¸ÖĤÖĢÕ¿
ĠÔ´ ÕªÕ¾Õ¡ÖĢ
Õ¡ÖĢÕ¾ Õ¥Õ¬Õ¸Õ¾
Ô´ Õ¡Õ¿Õ¡ÖĢ
ĠÕ«Õ¶ ÖĨ
ĠÕ°Õ«Õ´ Õ¡ÖĢ
ĠÕ¶Õ· Õ¾Õ¥Õ¬
ĠÖĨ Õ¥ÖĢÕ´
Õ¡ÖģÕ« Õ¡Õ¶Õ¥ÖĢÕ«
Ô¼ Õ¸Õ¶Õ¤
Õ¸Õ£ Õ«
ĠÕ¼ Õ¥ÖĨ
Ô¹ Õ¸ÖĤÖĢÖĦ
ĠÕªÕ¡Õ´Õ¡Õ¶Õ¡Õ¯ Õ¸ÖĤÕ´
Õ¸ÖĤÕ¿ Õ¸Õ¾
ĠÕ¯Õ¡Õ¦Õ´ Õ¥Õ¬Õ¸ÖĤ
Õ¨Õ¶ Õ¿ÖĢÕ¡Õ¯Õ¡Õ¶
Õ«Õ¶Õ¹ ÕºÕ¥Õ½
ĠÕĩ Õ¡Õ¢Õ¡Õ©
Õ¡Õ¯Õ¡Õ¬ Õ¸ÖĤÕ©ÕµÕ¡Õ¶
ĠÕ°Õ¡Õ´Õ¡Õ¯Õ¡ÖĢÕ£ Õ¡ÕµÕ«Õ¶
ĠÕ¯Õ¥Õ¶Õ¿ÖĢÕ¸Õ¶ Õ«Öģ
Õĩ Õ¸Õ¸ÖĤ
Ô¶ Ô¼ÕĦ
ĠÕ¢Õ¡ÖĢ Õ¥Õ°
ĠÕ¤Õ¡ÖĢÕ± ÖĢÕ¥Õ¬
Ô±Õı ÕĲ
ĠÔ¾ Õ¼
ĠÕ¡Õ¼Õ¡Õ»Õ¶ Õ¸ÖĤÕ©ÕµÕ¡Õ¶Õ¨
ĠÕ¹Õ¸ÖĤÕ¶ Õ¥ÖĢ
ĠÕ°Õ«Õ· Õ¸Õ²Õ¸ÖĤÕ©ÕµÕ¡Õ¶
ĠÕ¡Õ¶ÖģÕ¯Õ¡Öģ ÖĢÕ¥Öģ
ĠÕ¶Õ¡ÕŃÕ¡Õ¿Õ¥Õ½ Õ¾Õ¸Õ²
ĠÕ¥ÖĢÕ«Õ¿Õ¡Õ½Õ¡ÖĢÕ¤ Õ¶Õ¥ÖĢ
ĠÕ¿Õ¶ÖħÖĢÕ¥Õ¶ Õ«Õ¶
ĠÕ´ÕµÕ¸ÖĤÕ½ Õ¶Õ¥ÖĢÕ«
ĠÕ¡Õ° Õ¼Õ¥Õ¬Õ«
ĠÕ¾Õ¶Õ¡Õ½ Õ¨
ic le
ĠÕ°Õ¥Õ¿Õ¥ÖĤ Õ¥Õ¬
Ð¸ ÑĤ
ĠÕ¾Õ¿Õ¡Õ¶Õ£ Õ¨
ĠÕ´Õ¥ÖĦÕ¥Õ¶ Õ¡Õ¶Õ¥ÖĢ
ĠÕ¯Õ¡Õ¼Õ¸ÖĤÕµÖģ Õ¶Õ¥ÖĢ
ĠÕ¡ÖĢÖĩ Õ¡ÕµÕ«Õ¶
ĠÕºÕ¬ Õ¡Õ½Õ¿Õ«Õ¯
ĠÕ¡Õ·ÕŃÕ¡Õ¿Õ¡Õ¯Õ«Öģ Õ¶Õ¥ÖĢÕ«Õ¶
ĠÕ¿Õ¸Õ¶ Õ¡Õ¯Õ¡Õ¿Õ¡ÖĢ
ĠÖħÖĢÕ¥Õ¶Õ½Õ¤ Õ«ÖĢ
ĠÕ±Õ¥Õ¼Õ¶Õ¡ÖĢÕ¯ Õ¸ÖĤÕ©ÕµÕ¸ÖĤÕ¶Õ¶Õ¥ÖĢÕ«
ĠÕ¡Õ´Õ¸ÖĤÕ½Õ¶ Õ¡ÖģÕ¡Õ®
ĠÕ´Õ¸Õ¿Õ¥Öģ Õ¸ÖĤÕ´Õ¶Õ¥ÖĢÕ¨
ĠÕ¿Õ¥Õ½Õ¡Õ¶ÕµÕ¸ÖĤÕ© Õ¸ÖĤÕ´
ĠÕįÕ¡Õ°Õ´Õ¡Õ¶ Õ¡Õ¤ÖĢÕ¸ÖĤÕ©ÕµÕ¡Õ´Õ¢
ĠÕ¡Õ·Õ¡Õ¯Õ¥ÖĢÕ¿ Õ¶Õ¥ÖĢÕ«Õ¶
Õ¡ÖģÕ«Õ¸Õ¶ Õ¡Õ¬
ĠÕ¯Õ¡Õ½Õ¯Õ¡Õ® Õ«
ĠÕ¬Õ¸ÖĤÕµÕ½ Õ¨
ÕĨÕ· Õ¾Õ¸ÖĤÕ´
Ô±Õ¾ Õ¡ÖĢÕ¿
ÕĪÕį Õı
ĠÖĥÕ¡ÕŃ Õ¸ÖĤÕ½Õ¿Õ«
ĠÔ²Õ¡ÖĦ Õ¸ÖĤ
ĠÕ£Õ¸Õ¾Õ¡Õ¦Õ¤ Õ¶Õ¥ÖĢÕ«
ĠÔ¿Õ¸Õ¶ Õ£ÖĢÕ¥Õ½Õ«
ĠÕ©Õ²Õ© Õ¡Õ¯ÖģÕ«
ĠÕºÕ¡ÖĢÕ¿Õ¡Õ¯Õ¡Õ¶ Õ¸ÖĤÕ©ÕµÕ¸ÖĤÕ¶Õ¶Õ¥ÖĢÕ«
ĠÔ±Õ¯ Õ¸ÖĤÕ´Õ¢
ĠÕ¡ÖĢÕ´ Õ¡Õ¿Õ¡Õ¯Õ¡Õ¶
ĠÕ¡ÕºÕ¡ÖģÕ¸ÖĤÖģ Õ¸ÖĤÕ´
ĠÕ¶Õ¯Õ¡ÖĢÕ¡Õ°Õ¡Õ¶ Õ¥Õ¬
ĠÕ·Õ¿Õ¡Õº Õ¸ÖĤÕ´
ĠÕĦÕ¸Õ¾Õ½ Õ«Õ½ÕµÕ¡Õ¶Õ¨
ĠÕ°Õ¡Õ¶Õ£Õ½Õ¿ ÕµÕ¡Õ¶
ĠÕĢÕ¡ÖĢÖģ Õ¡Õ¦ÖĢÕ¸ÖĤÕµÖģ
ĠÕ¾Õ¥ÖĢÕ¡Õ¤Õ¡Õ¼Õ¶Õ¡Õ¬ Õ¸ÖĤ
Ô±ÖĢÕ½Õ¥Õ¶ Õ¡Õ¬Õ«
ĠÕĳÕ¥Õ²Õ¡Õ½ ÕºÕ¡Õ¶
ĠÕ°Õ¡ÕµÕ¿Õ¡ÖĢ Õ¡ÖĢÕ¾Õ¥Õ¬
Ġre ad
ÕĦÕ¸Õ½Õ¯ Õ¾Õ¡
ĠÕ¡Õ·ÕŃÕ¡Õ¿Õ¡Õ¿Õ¥Õ² Õ¥ÖĢ
ĠÕ«Õ¶ÖĦÕ¶Õ¡Õ½ ÕºÕ¡Õ¶
ĠÕ¡Õ¶Öĥ Õ¸ÖĥÕ¸ÕŃ
ĠÔ±Õ½Õ¿Õ¾Õ¡Õ®Õ¡Õ· Õ¶Õ¹
ĠÕ¯Õ¸Õ¶Õ¾Õ¥Õ¶Öģ Õ«Õ¡ÕµÕ«
ĠÕºÕ¥Õ¿ÖĦÕ¡ÖĢÕ¿Õ¸ÖĤÕ² Õ¡ÖĢ
ĠÕ°Õ¡Õ´Õ¡ÕŃ Õ¸Õ°
ĠÕ¡Õ¬Õ¯Õ¸Õ° Õ¸Õ¬
ĠÕ¶Õ¸ÕµÕ¥Õ´Õ¢ Õ¥ÖĢÕ«Õ¶
Õ¡Õ«ÖĢÕ¡Õ¾ Õ¡Õ¯Õ¡Õ¶
U N
Öģ Õ¡Õ¶
Õ¡ÖĢ Õ¡Õ¯Õ«
ĠÕ¸ ÖĢÕ¿Õ¥
Õ¡Õ¾ Õ¥Õ¶
Õ¡Õ¾ Õ¥Õ¬Õ«
Õ½ Õ«Õ¤
Õ¸Õ² Õ¸ÖĦÕ«
ĠÕ¿ Õ¡Õ¶Õ¯
ĠÕº Õ¡ÖĢÕ¡Õ¶
ĠÕº Õ¸Õ¹
Ô± ÖĢÕ¡Õ£
ĠÕ¤ Õ¼Õ¶
Õ¡Õ° Õ¡Õ¾Õ¡Õ¿
ĠÔ± Õ³
ĠÔ± Õ¶Õ¶
ĠÕĢ ÕµÕ¸ÖĤÖĢ
Õ£ Õ¡ÖĢÕ«
Õ¡ÕŃ Õ¸Õ½Õ«
Öĩ Õ¥Õ¼
ĠÕ°Õ¡Õ´ Õ¥Õ½Õ¿
Õ¡Õ½Õ¿ Õ²
ĠÕį Ô±ÕĲÔ³
Õ¡Õ¾Õ¸ÖĢ Õ¶Õ¥ÖĢÕ¨
Õ«Õ¿ Õ«Õ´
ĠÕ¦ Õ¡Õ¿
ĠÕ£Õ¸ÖĢÕ® Õ¸ÖĤÕ¶
ĠÔ³ Õ¡Õ¦
ĠÕ¿Õ¥Õ² Õ¡Õ¤ÖĢÕ¾Õ¥Õ¬
ĠÕ¡Õ´ Õº
Õ¡Õª Õ«
ÕĲ ÔµÕĲ
Õ¡Õ¶Õ£ Õ«Õ½Õ¿
ĠÔ¼ Õ«
ĠÕ³ Õ¥Õº
ĠÖĨ Õ¬
ÕĬ ÔµÕį
ĠÕĮ Õ¡Õ¤Õ«
ĠÕ¯Õ¸Õ²Õ´ Õ«Õ¶
ĠÕ¯Õ¡Õ¦Õ´ Õ¸Õ²
ĠÕĪ Õī
ĠÔ· ÖĢÕ«Õ¯
ĠÕ¿Õ¥Õ²Õ¥Õ¯ Õ¡ÖģÕ¾Õ¡Õ®
an u
ĠÕ°Õ¡ÕµÕ¿Õ¡ÖĢÕ¡ÖĢ Õ¸ÖĤÕ©ÕµÕ¡Õ¶Õ¨
ĠÕ¡Õ·ÕŃÕ¡ÖĢÕ° Õ¡Õ£ÖĢÕ¡Õ¯Õ¡Õ¶
ÕĮ Õ¸ÖĤÕ¢Õ¥Õ¶
Ô¶ Õ¸ÖĢ
at v
ĠÕ¸ÖĤÕª Õ£Õ¶
ĠÕ²Õ¥Õ¯Õ¡Õ¾Õ¡ÖĢ Õ¡Õ®
ĠÕ²Õ¥Õ¯Õ¡Õ¾Õ¡ÖĢ Õ¶Õ¥ÖĢÕ«Õ¶
ĠÔ¿Õ¡ÖĢ Õ«Õ¶Õ¥
ĠÕ°Õ¡Õ·Õ¾ Õ¡ÕºÕ¡Õ°
ÕµÕ¡Õ¯ Õ¡ÕµÕ«Õ¶
ĠÕ¤ÕºÖĢÕ¸Öģ Õ¶Õ¥ÖĢ
ĠÕ¡Õ¯Õ¿ Õ¥ÖĢÕ¸Õ¾
Õĸ Õ«Õ¬Õ´
ĠÕ´Õ¡ÖĢÕ¤Õ¯Õ¡Õ¶Öģ Õ«Öģ
ĠN ew
ĠÖĦÕ¶Õ¶Õ¡ÖĢÕ¯ Õ´Õ¡Õ¶Õ¨
ĠÕ½Õ¿Õ¸ÖĢ Õ¡Õ£
ÔµÔ¼ Ô»
ĠÕºÕ¡Õ°ÕºÕ¡Õ¶ Õ¾Õ¡Õ®
ĠÕ°Õ¡Õ¶Õ£ Õ¥ÖģÕ¶Õ¸ÖĤÕ´
ĠÖĦÕ¡Õ²Õ¡ÖĦÕ¡ÕºÕ¥Õ¿ Õ¨
ĠÕ°Õ¥Õ²Õ«Õ¶Õ¡Õ¯ Õ¶Õ¥ÖĢÕ¨
ÔµÖĢ Õ¥ÖĦ
ĠÕ¯Õ«Õ½ Õ¡Õ¥Õ¦ÖĢÕ¡ÖĥÕ¡Õ¯
ĠÕĤÕ¡ÖĢÕ¡Õ¢Õ¡Õ² Õ¨
ĠR es
ĠÖĥÕ¡Õ¯ Õ¥Õ¬Õ¸ÖĤ
ĠO p
Ð¸ Ð½
Õ°Õ¡Õ¿ Õ¡Õ¯Õ¡Õ¶
ĠÕ±Õ¡ÕµÕ¶ Õ«
Õ½Õ¿Õ«Õ¿ Õ¸ÖĤÖģ
ĠÕ¼Õ¡Õ¤Õ« Õ¸
ĠÕ°Õ¥Õ¿Õ¡Õ¦Õ¸Õ¿ Õ¸ÖĤÕ©ÕµÕ¸ÖĤÕ¶
ĠÕ¡Õ¿ Õ¥Õ¶
ĠÕĢÖĢ Õ¡Õ¿Õ¡ÖĢÕ¡Õ¯
ĠÕ®Õ¡Õ¾Õ¡Õ¬ Õ¶Õ¥ÖĢÕ«
ĠÕ°Õ¡Õ´Õ¸Õ¦ Õ¥Õ¬
Ġ28 00
ĠÕ¡ÖĢÕ±Õ¡Õ£ Õ¡Õ¶ÖĦÕ¸ÖĤÕ´
ĠÕ¯Õ¡ÖĢÕ¤ Õ¡ÖģÕ¥Õ¬
Õ¡Õ¯Õ¡Õ¼ Õ¸ÖĤÖģÕ´Õ¡Õ¶
ĠÕ¨Õ¶Õ¤Õ¤Õ«Õ´ Õ¸ÖĤÕ©ÕµÕ¸ÖĤÕ¶
ĠÕ¤Õ¡Õ¤Õ¡ÖĢ Õ¥ÖģÕ¾Õ¥Õ¬
ĠÔ±Õ² Õ»
ĠÕ¨Õ¶Õ¤Õ£ÖĢÕ¯ Õ¸ÖĤÕ´
ĠÕ¤Õ«Õ¾Õ¡Õ¶ Õ¡Õ£Õ«Õ¿Õ¸ÖĤÕ©ÕµÕ¡Õ¶
ĠÕºÕ¡Õ¿Õ¯ Õ¥ÖĢÕ¾Õ¡Õ®
ÔµÕĤ ÔµÕĳ
Ô±ÕµÕ¶ Õ¸ÖĤÕ°Õ¥Õ¿Öĩ
ĠÕ´Õ¡Õ½Õ¶Õ¡Õ£Õ«Õ¿ Õ¸ÖĤÕ©ÕµÕ¡Õ¶
ĠÖģÕ¸ÖĤÖģÕ¡Õ¶Õ«Õ· Õ¶Õ¥ÖĢÕ¨
ĠÕ£Õ¡Õ²Õ¿Õ¶Õ« ÖĦ
ĠÕ¯Õ¿ÖĢ Õ¡Õ´
Ô¹Õ¸ÖĤÖĢÖĦÕ« Õ¡ÕµÕ¸ÖĤÕ´
ĠÕ¡ÖĢÕ±Õ¡Õ£Õ¡Õ¶ÖĦ Õ¥Öģ
ĠÕįÕº Õ¡Õ½
ĠÕ´ÖĢÖģÕ¸ÖĤÕµÕ© Õ«Õ¶
Ô±Õ² Õ¢ÕµÕ¸ÖĤÖĢÕ¨
ĠÕ°Õ¡Õ·Õ¾Õ¥Õ¿Õ¾ Õ¸ÖĤÕ©ÕµÕ¸ÖĤÕ¶Õ¨
ra p
ĠÕ¼Õ¥Õ½Õ¸ÖĤÖĢÕ½ Õ¶Õ¥ÖĢ
ĠÕįÕ«Õ´ Õ¸Õ¶ÕµÕ¡Õ¶
ĠÕ·Õ¥Õ·Õ¿ Õ¥Õ¬
eg le
ĠÕ¦Õ¥Õ¯Õ¸ÖĤÕµÖģ Õ¨
Õ¡ÕŃÕ¸ÖĤÕ¦ Õ¡Õ¯Õ¡Õ¶
ĠÔ¿ÖĢ Õ¥Õ´
ĠÕ¥ÖĢÕ©ÖĩÕ¥Õ¯ Õ¥Õ¬Õ«
ÕķÖĢ Õ«Õ¶Õ¡Õ¯
ĠÕ¸Õ²Õ»Õ¸ÖĤÕ¶ Õ¥Õ¬
ĠÕ½Õ¥Õ²Õ´ Õ¥ÖĦ
ĠÕ©Õ´ ÖĢÕ¡Õ¶ÕµÕ¸ÖĤÕ©
ÖĢÕ§ Õ»
Õ¥ÕµÕ¿ Õ¥Õ¶
ĠÕ¾Õ¡ÖĢÕ¤ Õ¡ÕºÕ¥Õ¿
ÕıÕ¶Õ¿Õ¥Õ½ Õ¡Õ¯Õ¡Õ¶
ÕĦÔ±Ô¿ ÔµÕĲÕĬ
ĠÕ½Õ¸Öģ ÖģÕ¡Õ¶Öģ
ĠÕ°Õ¸ÖĤÕ¶Õ¾Õ¡ÖĢ Õ«Õ¶
ĠÔ¼Õ«Õ£ Õ¡ÕµÕ«
ĠÔ²ÖĢÕµÕ¸ÖĤÕ½ Õ¥Õ¬Õ¸ÖĤÕ´
ĠÕºÕ¡ÖĢÕ£ÖĩÕ¡Õ¿ ÖĢÕ¾Õ¥Õ¬
ĠÕ°Õ«Õ´Õ¶Õ¡ÕŃÕ¶Õ¤Õ«ÖĢ Õ¶Õ¥ÖĢÕ¨
ĠÕ°Õ¥ÖĢÖĦ Õ¥Õ¬
ĠÕ´Õ¡ÖĢÕ¦Õ¡Õ¤Õ¡Õ·Õ¿ Õ¸ÖĤÕ´
ĠÕ¯Õ¸Õ¶ÖĨÕ¬Õ«Õ¯ Õ¿
ĠÔ±ÖĢÕŃÕ«Õ¾ Õ¡ÖģÕ¾Õ¡Õ®
ee k
ĠÖħÖĢÕ«Õ£ Õ«Õ¶Õ¡Õ¬Õ«Öģ
ĠÕıÕ¥ÕŃ Õ¡Õ½
ĠÕįÔ±ÕĢ ÕĦÔ±ÕĨ
ĠÕºÖĢÕ¥Õ´Õ« Õ¥ÖĢÕ¡Õ¶
ĠÕºÖĢÕ¸Õ¤ÕµÕ¸ÖĤÕ½ Õ¥ÖĢ
ĠÕ¼Õ«Õ½ Õ¯Õ¥ÖĢ
I X
T Y
Y ou
u ro
Ð ³
Ġ ar
Ġ %-
Õ¡Õ¯ Õ¡Õº
ĠÕ´ Õ´
ĠÕ´ Õ¡ÖĢÖĦÕ¥Õ©
Õ´ Õ«Õ·Õ¿
Õ´ Õ¥Õ®
Õ¡Õ¾ Õ¡Õ¶Õ«
Õ¡Õ¬ Õ¸ÖĤÕ´
ĠÕ½ Õ¡Õ¼Õ¶
Õ¢ Õ¡ÕµÖģ
Õ¡Õ¼ Õ«Õ¯
ĠÕ¡Õ¶ Õ¶Õ¯
Õ¸Õ¶ Õ¡Õ¬
ÕĢ ÕĲ
Õ¾Õ¡Õ® Õ«
ĠÕ· Õº
ĠÕ· Õ¸Õ¯
Õ¡Õ· Õ«
Õ«Õ¯ Õ¡ÕµÕ¸Õ¾
ĠÕĦ ÔµÔ¿
ĠÖĥ Õ¸Õ©
ÕĨ Ô´
Õ«Õ´ Õ«
Ô¿ Õ¡ÖĢÕ¤Õ¡Õ¬
ĠÕ® Õ«ÖĢÕ¡Õ¶Õ«
ĠÕª Õ¡Õµ
ĠÕ¸ÖĤÕ¶ Õ¯
ĠÕ¡Õ´ Õ§Õ¶
Õį Õ¯
ÕĲ ÕĪÕĴÕħÕĳ
ĠÕ½Õ¿ Õ¡ÖģÕ¡Õ¶
ĠÕ¾Õ¥ÖĢ Õ¡Õ¯Õ¡Õ¦Õ´
ĠÕ¡Õº Õ·
Ô² Õ¸ÖĢÕ¸ÖĤÕ½
ĠÔ¼ Õ¡
ĠÔ¼ Ô³
ĠÕ£ÖĢ ÖĦÕ¥ÖĢÕ¨
ĠÕ£ÖĢ Õ¡Õ¾Õ«
ÖĨ Õ«Õ¬
Ô¹ ÔµÕĲ
Ô¹ Õ¸ÖĤÖĢÖĦÕ¡Õ¯Õ¡Õ¶
ÕĬ ÔµÔ¿
ĠÕ¶Õ¸ÖĢ Õ¡ÖĢÕ¡ÖĢ
ĠÕ¯Õ¡Õµ ÖĦÕ«Öģ
ĠÕ¢Õ¡Öģ Õ¾Õ¸ÖĤÕ´
ĠÕ·ÖĢÕ» Õ¡Õ¶Öģ
ĠÕ·ÖĢÕ» Õ¡ÖĥÕ¡Õ¯
ĠÕĵ ÖĢÕ¯
ĠÕĵ Õ¡ÕµÕ¬
ĠÕ¹Õ§ Õ«Õ¶ÖĦ
ĠÕ¿Õ¡ÖĢÕ¡Õ® ÖĦÕ«Öģ
ĠÕ¾Õ¡ÖĢÕ¹ Õ¸ÖĤÕ©ÕµÕ¸ÖĤÕ¶Õ¨
ĠÕ´Õ¡ÖĢÕ¦ Õ¡Õ¤
ĠÖĥÕ¸ÖĢÕ± Õ¥Öģ
Õ¡Õ·Õ«Õ¶ Õ¡Õ¯Õ¡Õ¶
ĠÕ«Õ´ Õ¡ÖģÕ¥Õ¬
âĢ¦ .
ĠÕ¿Õ¡ÖĢÕ¢Õ¥ÖĢ Õ¸ÖĤÕ©ÕµÕ¸ÖĤÕ¶Õ¨
ĠÕ¯Õ¡Õ¿Õ¡ÖĢ Õ¥Õ¬Õ¸Õ¾
ĠÕ¨Õ¶Õ¤Õ¸ÖĤÕ¶ Õ¡Õ¯
ĠÕ°Õ¡Õ¶Õ¤Õ«Õº Õ¥Õ¬Õ¸ÖĤ
ĠÕ¤Õ¥Õ´ Õ½
on s
ĠÕ´ÖĢÖģ Õ¡Õ¶Õ¡Õ¯Õ¨
ĠÔ±Õ¶ Õ°
ĠÕ¯Õ¡Õ¿ Õ¡ÖĢÕ¾Õ¥Öģ
ĠÕ¨Õ¶Õ¿ ÖĢÕ¡Õ¶
ĠÕ¤ÖĢ Õ¥Öģ
ĠÕ£Õ¸ÖĢÕ®Õ¸Õ² Õ¸ÖĤÕ©ÕµÕ¸ÖĤÕ¶Õ¶Õ¥ÖĢÕ«Õ¶
ĠÕĭ Õ¡Õ¾Õ¡ÕŃ
ĠÕ°Õ¡Õ³ Õ¸ÖĤÕµÖĦÕ¸Õ¾
ĠÕ¢Õ¥ÖĢ Õ¥Õ¬Õ¸Õ¾
ĠÕ¯ÖĢ Õ¥Õ¬Õ¸ÖĤ
ĠÕ½Õ¿Õ¸ÖĢ Õ«Õ¶
ĠÕ½Õ¿Õ¸ÖĢ Õ¡Õ£ÖĢÕ¾Õ¥Õ¬
ĠÐ ¿
ĠÕ¨Õ¶Õ¯ Õ¥ÖĢÕ¨
ĠÕ¡Õ´Õ½ Õ¡Õ£ÖĢÕ«
Õĭ Õ¥ÖĢÕ´
ĠÕ°Õ¡Õ³Õ¡ÕŃ Õ¸ÖĢÕ¤Õ«
ĠÕ¯ÖĢÕ¯ Õ¶Õ¸ÖĤÕ´
ĠÕ¾Õ¶Õ¡Õ½ Õ¾Õ¡Õ®
ĠÕ´Õ¡ÖĢÕ´Õ«Õ¶ Õ¶Õ¥ÖĢ
ĠÕ¯Õ«Õ¶ Õ¸Õ¶
ĠÕŃÕ¸ÖĢ Õ¡Õ´Õ¡Õ¶Õ¯
ĠÕ¾Õ³Õ¡ÖĢ Õ¥Õ¬Õ¸ÖĤ
ĠÕªÕ¡Õ´Õ¯Õ¥Õ¿ Õ¡ÕµÕ«Õ¶
ĠÕªÕ¡Õ´Õ¯Õ¥Õ¿ Õ¶Õ¥ÖĢÕ¸ÖĤÕ´
ĠÕ¾Õ¡ÖĢÕ¯ Õ«
ĠÕĢÕ¡ÖĢÕ¸ÖĤÕ©ÕµÕ¸ÖĤÕ¶ ÕµÕ¡Õ¶Õ«Õ¶
ĠÔ±Õ½ Õ«Õ¡ÕµÕ«
ĠÖĦÕ¾Õ¥ Õ¶Õ¥ÖĢ
Õ¡Õ¯Õ¥ÖĢÕ¿ Õ«
ÔµÖĢÕ¯ Õ¡ÖĢ
ĠÕ°Õ¸ÖĤÕ· Õ¡Õ°Õ¡Õ´Õ¡Õ¬Õ«ÖĢ
ĠÕ´Õ¡Õ½Õ¶Õ¡Õ£Õ¥Õ¿ Õ«
ĠÕ¾Õ¡ÕµÖĢ Õ«Öģ
ÕĮÕ¸ÖĤÕ½ Õ¡Õ½Õ¿Õ¡Õ¶Õ¨
ĠÕ°Õ¸Õ² Õ¡Õ¿Õ¡ÖĢÕ¡Õ®
ĠÕ¶ÕºÕ¡Õ½Õ¿ Õ«
Ô±ÖĢ Õ¡Õ¢
ĠÕ¾ÖĢ Õ¡Öģ
ĠÕ¾ÖĢ Õ¥Õª
ĠÔ±ÖĢÕ¤ ÕµÕ¸ÖĦ
ĠÕ´Õ¥Õ¶ Õ¥Õ»
ĠÕ°Õ¥ÖĢÕ¸Õ½ Õ¨
ĠÕ¤Õ¡Õ¤Õ¡ÖĢ Õ¥ÖģÕ¶Õ¥Õ¬Õ¸ÖĤ
ĠÕ°Õ¥Õ²Õ¡ÖĥÕ¸ÕŃ Õ¸ÖĤÕ©ÕµÕ¸ÖĤÕ¶Õ¨
ĠÕ°Õ«Õ¶Õ£ Õ·Õ¡Õ¢Õ©Õ«
ĠÕ°ÕµÕ¸ÖĤÖĢ Õ¥ÖĢÕ«Õ¶
ĠÕ½Õ¥Õ¶Õµ Õ¡Õ¯Õ¸ÖĤÕ´
ĠÕ½Õ¡ÖĢÖĦ Õ¥ÖĢÕ«
ĠÔ¾Õ¡Õ¼Õ¸ÖĤÕ¯ ÕµÕ¡Õ¶
ĠÕ¡Õ¯Öģ Õ«Õ¡ÕµÕ«
ĠÕ°Õ¡Õ¾Õ¡Õ½Õ¡ÖĢ Õ¸ÖĤÕ©ÕµÕ¡Õ¶
Ġf or
Ô±Õ² Õ»
ĠÕ°Õ¡Õ·Õ¾Õ¥Õ¿Õ¾ Õ¸ÖĤÕ©ÕµÕ¸ÖĤÕ¶Õ¶Õ¥ÖĢ
ĠÕįÕ«Õ´ Õ¸Õ¶ÕµÕ¡Õ¶Õ«
ĠÕįÖĩ Õ¡Õ¶Õ«
ĠÖĦÖĢÕ«Õ½Õ¿ Õ¸Õ¶ÕµÕ¡
Õ¡ÖĢÖĩ Õ¥Õ¬ÕµÕ¡Õ¶
ĠÕĦÕ¡Õ¯ Õ¥Õ¤
ĠÔ²Õ¡Õ¶Õ¯ Õ¨
ĠÕ¡Õ¶ÖģÕµÕ¡Õ¬ Õ«
ĠÕ¦Õ¥Õ¯Õ¸ÖĤÕµÖģ Õ«
ĠÕºÕ¡Õ¿Õ· Õ£Õ¡Õ´Õ¢
ĠÕ¶Õ¯Õ¡ÖĢÕ¡Õ°Õ¡Õ¶ Õ¾Õ¥Õ¬
ĠÔ¿Õ¡Õ©Õ¸Õ²Õ«Õ¯ Õ¸Õ½Õ«
ĠÕ´Õ©Õ¶Õ¸Õ¬Õ¸ÖĢÕ¿ Õ¸ÖĤÕ´
ĠÔºÕ¸Õ²Õ¸Õ¾ Õ«
ĠÕ©Õ¼Õ¹ Õ¸Õ²
ÕĦÕ¡Õ½Õ¶ Õ¡Õ£Õ«Õ¿Õ¡Õ¯Õ¡Õ¶
Ô²Õ¡ÖĢÕ½Õ¥Õ¬Õ¸Õ¶ Õ¡Õ¶
ÕįÕº Õ«Õ¿Õ¡Õ¯
ĠÕ¯Õ¡Õ¤ÖĢ Õ¡ÕµÕ«Õ¶
ĠÕ¡Õ¶Õ½ Õ¸Õ¾Õ¸ÖĢ
ĠÕĵÕ¡ÖĢÕ«Õ¦ Õ«
ĠÔ³Õ¡Õ½Õº Õ¡ÖĢÕµÕ¡Õ¶Õ«
ĠÕ¥Õ© Õ§
ĠÕ¶Õ¥ÖĢÕ¤ÖĢ Õ¸ÖĤÕ´Õ¨
ĠÔ¼ÖĢ Õ¡Õ¿Õ¾Õ¡Õ¯Õ¡Õ¶
Ô·Õ¤ Õ¸ÖĤÕ¡ÖĢÕ¤
ĠÕ¡Õ²Õ´ Õ¸ÖĤÕ¯
ĠÕİÔµÕĲ Ô±Ô²ÔµÕĲ
ĠÕ·Õ¡Õ°Õ¡Õ£ÖĢÕ£ Õ¼Õ¾Õ¡Õ®
ĠÖĦÕ¡Õ²ÖģÕ¯ Õ¥Õ²
Õ´Õ«Õ¶ Õ«Õ½Õ¿ÖĢ
ĠÕ«Õ¿Õ¡Õ¬ Õ¡Õ¯Õ¡Õ¶
ĠÔ¸Õ¶Õ¿ Õ¡Õ¶Õ«
ĠÕķÖĢÕ¥Õ¶Õ½ Õ£ÖĢ
ĠÕ°Õ«Õ´Õ¶Õ¡ÕŃÕ¶Õ¤ ÖĢÕ«
ĠÕĭÕ¥ÕµÕ´ Õ½
ĠÕ¶Õ¥ÖĢÕ© Õ¡ÖĥÕ¡Õ¶Öģ
Õ½Õ¿Õ«Õ¿Õ¸ÖĤÖģ Õ«Õ¸Õ¶Õ¡Õ¬
7 4
9 1
b all
e y
ĠÕ Ľ
Õ« ÖĢÕ´
Õ¡Õ¶ Õ°
Õ¡ÖĢ Õ«Öģ
Õ«Õ¶ Õ¶Õ¥ÖĢÕ¨
Õ¥Õ¬ Õ½Õ«
ĠÕ¯ Õ©Õ¸Õ²
ĠÕ£ Õ¥Õ¶
ĠÕ£ ÖĢÕ¡Õ´
ĠÕ£ ÖĢÕ¾Õ¥Õ¬
ĠÕ¢ Õ¸ÖĤÕ½Õ¡Õ¯Õ¡Õ¶
ĠÕĢ ÖĢÕ¡Õ¶
ĠÕĢ Ô½
Õ¡Õ¶Õ« ÖĢ
Õ¡Õº ÖĢ
Õ¡Õ¼ Õ¡Õ¶Öģ
Õ¸Õ¶ Öģ
Õ¡Õ² Õ¡ÕºÕ¡ÖĢ
ĠÕŃ Õ¶
Õ¥Öģ Õ«Õ¯
ĠÕĦ Õ¡ÖĦ
ÕĨ Ô±ÕıÕķ
Ôµ ÕĢ
Õ¡ÖĢÕ¯ Õ²
Õ¡ÖĢÕ£ Öĩ
Õ° Õ¡
ĠÔ» Õ¼Õ¬Õ¡Õ¶Õ¤
Õ¼ Õ¡ÕµÕ¬
Õª Õ¡Õ´Õ¡Õ¶Õ¡Õ¯
Õ¡Õ¤ÖĢ Õ¸ÖĤÕ©ÕµÕ¸ÖĤÕ¶Õ¶Õ¥ÖĢÕ«
Ô² Õ¬
Ô² Õ¡Õ¾Õ¡ÖĢ
ĠÖĨ Õ¸Õ¶Õ«Õ¶
ÖĨ Õ¥ÖĢ
Ô¹ Õ¸ÖĤÕ´
ĠÕ¿Õ¥Õ½ Õ¶Õ¥Õ¶ÖĦ
ĠÕ¿Õ¥Õ½ Õ¸ÖĤÕ¹
ĠÕŃÕ¡Õ² Õ¡Õ¯
ĠÕ´Õ¥Õ® Õ¡Õ¶Õ¸ÖĤÕ´
ĠÕ¨Õ¶Õ¿ÖĢ Õ¸ÖĤÕ©ÕµÕ¸ÖĤÕ¶Õ¶Õ¥ÖĢÕ¶
ĠÕ´Õ¸Õ¿ Õ«Õ¾
ĠÔµÖĢÖĩ Õ¡Õ¶Õ«Öģ
ĠÕ¯Õ¡Õ¦Õ´Õ¡Õ¯Õ¥ÖĢÕº Õ¸ÖĤÕ´Õ¨
Õ¥Õ¼Õ¶ Õ´ÕŃ
ĠÕ£Õ«Õ¿ Õ¡ÕªÕ¸Õ²Õ¸Õ¾
ĠÕŃÕ¸ÖĢÕ°ÖĢÕ¤ Õ«Õ¶
ĠÕ¯Õ¡ÖĢÕ£ Õ¡Õ¾Õ¸ÖĢÕ¸ÖĤÕ´Õ¨
ĠÕ¥ÖĢÕ¯ÖĢ Õ¶Õ¥ÖĢÕ«Õ¶
Õ¸ÖĤÕ· Õ¡ÖĢÕ±
ĠÕ¨Õ¶Õ¯Õ¥ÖĢ Õ¸ÖĤÕ©ÕµÕ¡Õ¶Õ¨
Õ¡Õ¯Õ¡Õ¬ Õ¡Õ¾
ĠÕºÕ¡Õ¿Õ´ Õ¸ÖĤÕ©ÕµÕ¸ÖĤÕ¶Õ¶Õ¥ÖĢ
ĠÕ¡Õ¦Õ¡Õ¿ Õ¸ÖĤÕ©ÕµÕ¸ÖĤÕ¶Õ¶Õ¥ÖĢÕ«
ĠÕ¢Õ¶Õ¡Õ¯ Õ¡ÖĢÕ¡Õ¶Õ«
Õ¸Õ¢ Õ¥Õ¬ÕµÕ¡Õ¶
ĠÕ¤Õ¡Õ¿ Õ¡Õ¾Õ¸ÖĢÕ¨
ĠÖģÕ¸ÖĤÖģ Õ¡ÖĢÕ¡ÖĢ
ĠÖģÕ¸ÖĤÖģ Õ¡Õ¯Õ«
ar at
or s
ĠÕ¢Õ¡ÖĢÕ±ÖĢ Õ¡Õ¯Õ¡ÖĢÕ£
ĠÕ¢Õ¡ÖĢÕ±ÖĢ Õ¡ÖģÕ¶Õ¥Õ¬Õ¸ÖĤ
ĠÕ¶Õ¯Õ¡Õ¿ Õ¡Õ¼Õ¸ÖĤÕ´
ĠÕĪÖĤ Õ½Õ¡Õ¶
ĠÕ²Õ¥Õ¯Õ¡Õ¾Õ¡ÖĢ Õ¥Õ¬
ĠÕ½Õ«ÖĢ Õ¸ÖĤÕ¶
Õ¸ÖĤÖĦ Õ½
ĠÕºÕ¡Õ°Õ¡Õ¶Õ» Õ¶Õ¥ÖĢ
ĠÕ®Õ¶ Õ¾Õ¸ÖĤÕ´
Ġ0 2
ĠÕ¿Õ¡ÖĢÕ«Õ¶ Õ¥ÖĢÕ¨
ĠÕ´Õ¡Õ° Õ´Õ¥Õ¤
ĠP R
ĠÕ¡Õ¾Õ¥Õ¬ Õ¡ÖģÖĢÕ¥Õ¬
ĠÕ¿Õ² Õ¡Õ¶Õ¥ÖĢÕ«
ĠÕ¦Õ¡ÖĢÕ£Õ¡ÖģÕ´Õ¡Õ¶ Õ¶
ĠÕ¯Õ¡Õ¼Õ¸ÖĤÖģ Õ¡ÕºÕ¡Õ¿
ĠÕ¡Õ¾Õ¡ÖĢÕ¿ Õ¾Õ¡Õ®
ĠÕ¡Õ¼Õ¡Õ»Õ¡ÖĢÕ¯ Õ¥Öģ
ĠÕ°Õ«Õ¾Õ¡Õ¶Õ¤ Õ¸ÖĤÕ©ÕµÕ¸ÖĤÕ¶
ĠÕ°Õ¡Õ¶Õ±Õ¶Õ¡ÕªÕ¸Õ²Õ¸Õ¾ Õ¶Õ¥ÖĢÕ«
ĠÕ¯Õ«Õ¶ Õ¸Õ©Õ¡Õ¿ÖĢ
ĠÕ¾Õ½Õ¿Õ¡Õ° Õ¥Õ¬Õ«
ĠÕ£Õ¸ÖĤÕµ ÖĦÕ¡ÕµÕ«Õ¶
ĠÕ°Õ¡Õ¾Õ¡Õ¿ Õ¡Õ¬
ĠÖħÖĢÕ«Õ¶Õ¡Õ¯ Õ¥Õ¬Õ«
ĠÕ¶Õ¾Õ¡Õ¦ Õ¥Öģ
ĠÕ¶Õ½Õ¿ Õ¸ÖĤÕ´
ĠÕ¦Õ¡Õ¶Õ£ Õ¡Õ°Õ¡ÖĢ
ĠÕ¢Õ¡ÖģÕ¡Õ°Õ¡ÕµÕ¿ Õ´Õ¡Õ¶
ĠÕ´Õ¥ÖĦÕ¥Õ¶ Õ¡Õ¶Õ¥ÖĢÕ¨
ĠÕ¡Õ·ÕŃÕ¡Õ¿Õ¡Õ¯Õ«Öģ Õ¶Õ¥ÖĢ
Ô±Õ·ÕŃ Õ¡Õ¿Õ¡Õ¶ÖĦ
ĠÕ¥Õ¼ Õ¡Õ¶Õ¤
ĠÔ±ÖĢÕ¤ ÕµÕ¸
ĠÔ²Õ¡Õ¢ Õ¡Õ»
ĠÔ²Õ¡Õ¢ Õ¡ÕµÕ¡Õ¶Õ«
ĠÔ¿Õ¡Õ¶ Õ¡Õ¶Öģ
ĠÕĪÕĴ Õį
Ġ198 9
ĠÕ°ÕµÕ¸ÖĤÖĢ Õ¶
ĠÕ°Õ¡Õ´Õ¥Õ´Õ¡Õ¿ Õ¡Õ¢Õ¡ÖĢ
ĠÕ¯Õ¢ Õ¥ÖĢÕ«
ĠÕ¯Õ¢ Õ¡ÖĢÕ±
ĠÔ½Õ¡Õ² Õ¡Õ²
Ô±Õ¾ Õ¥Õ¿
ĠÕ¡Õ¶Õ£Õ¬ Õ«Õ¡Õ¯Õ¡Õ¶
ĠÔ´Õ¡Õ·Õ¶ Õ¡Õ¯Öģ
ĠÕ¾Õ¯Õ¡Õµ Õ¡Õ¯Õ¡Õ¶
Õ¡Õ´Õ½ ÕµÕ¡
ĠÕ°Õ¡Õ¿Õ¯Õ¡Öģ Õ¾Õ¡Õ®
Ô¿Õ¡Õ¼ Õ¡Õ¾Õ¡ÖĢÕ¸ÖĤÕ©ÕµÕ¸ÖĤÕ¶Õ¨
ĠÕĦÕ¯ÖĢÕ¿Õ¹ ÕµÕ¡Õ¶Õ«
ĠÔ±Õº Õ¡Õ°Õ¸Õ¾
ĠÕ«Õ½ Õ¬Õ¡Õ´Õ¡Õ¯Õ¡Õ¶
ĠÕ¿Öĩ Õ¡Õ¯Õ¡Õ¶
ĠÕ·ÖĢÕ»Õ¡ÕºÕ¡Õ¿ Õ¸ÖĤÕ´
Õ¡Õ£Õ¸ÖĤÕ´ Õ¡ÖĢ
ĠÕºÕ¸Õ²Õ¸Õ¿ Õ¡ÕµÕ«
ÖħÕ£Õ¶ Õ¸ÖĤÕ©ÕµÕ¸ÖĤÕ¶
ÕĦÕ¡Õ½Õ¶ Õ¡Õ¾Õ¸ÖĢÕ¡ÕºÕ¥Õ½
ĠÔ³Õ¡Õ½Õº Õ¡ÖĢÕµÕ¡Õ¶
ÖĩÕ¸ÖĢÕ¾ Õ¸ÖĤÕ´
ĠÕĢÕ¡Õ¿ Õ¯Õ¡ÕºÕ¥Õ½
ĠÕ©Õ¡Õ²Õ¡Õ´Õ¡Õ½ Õ«
ĠÕıÕ¥Õ²Õ¥Õ¯ Õ¡Õ¿Õ¾Õ¡Õ¯Õ¡Õ¶
ÔµÕĮ ÕĨ
ĠÔ²Õ¡Õ²Õ¤Õ¡Õ½ Õ¡ÖĢÕµÕ¡Õ¶
ĠÕ¯ÖĢÕ©Õ¡Õ°Õ¡Õ´Õ¡Õ¬Õ«ÖĢ Õ«
ĠÕ©Õ¡Õ£ Õ¡Õ¾Õ¸ÖĢÕ¨
ĠÕ¶Õ¾Õ¥ÖĢ Õ¶Õ¥ÖĢ
ĠÔ¿Ô³ ÕĨ
ĠÕºÕ¡Õ¿ÖĢÕ¡Õ½Õ¿Õ¡Õ¯Õ¡Õ´ Õ¸ÖĤÕ©ÕµÕ¸ÖĤÕ¶
ĠÕĦÕ¡Õ¿ Õ¥Õ¶
ĠÕ¡Õ½Õ¿Õ¥ÖĢÕ¸Õ«Õ¤ Õ¶Õ¥ÖĢÕ«
ank akh
ĠÔ¿Õ¡Õ¶Õ¡Õ¤ Õ¡ÕµÕ«
ĠÕ¡Õ® ÕŃ
Ô³Õ¥ÖĢÕ´ Õ¡Õ¶Õ«Õ¡ÕµÕ«
ĠÕ´Õ«Õ¯ ÖĢ
ĠÕ«Õ¶ÕªÕ¥Õ¶Õ¥ÖĢ Õ¡Õ¯Õ¡Õ¶
ĠÕ¸ÖĤÕ¼ Õ¸ÖĤÖģ
ĠÕ®Õ¡Õ¶ÖĢÕ¡Õ¢ Õ¥Õ¼Õ¶Õ¾Õ¡Õ®
ĠÕĢÕ¥Õ¿Öĩ Õ¡Õ¢Õ¡ÖĢ
7 1
7 3
M L
a w
Ð Ĵ
Ġ st
ÖĢ Õ¡Õ¾Õ¥Õ¬
Õ¡Õ¶ Õ«Õ½
Õ¡ÖĢ ÖĦÕ«
Õ¾ Õ¡Õ¿
ĠÕ¯ Õ©
Õ´ Õ¶
Õ´ Õ¡Õ½Õ¿
Õ¯ Õ¸Õ´Õ«
Õ¥Õ¶ Õ¯Õ¸Õ¶
Õ¡Öģ Õ¡Õ¶Õ¯
Ô± ÖĢÕ«
ĠÕ¤ Õ¶Õ¥Õ¬Õ¸ÖĤ
ĠÕ¢ Õ¸Õ¶
Õ¡Õ¬ ÕµÕ¡Õ¶Õ«
ĠÕ½ ÖĢÕ¡
ĠÕ¾ Õ«ÖĢÕ¿Õ¸ÖĤÕ¡Õ¬
Â» âĢ¦
Â» ),
Õ© Õ¥ÖĢÕ¶
ĠÕ¡Õ¶ Õ¸ÖĤÕ²Õ²Õ¡Õ¯Õ«
ĠÕ¡Õ¼ Õ¡Õ¶Õ±
ĠÕ¡Õ¼ Õ¡Õ½Õº
ĠÕĦ Õ«Õ·Õ¿
ĠÕ¨ Õ´Õº
ĠÕ´Õ¡Õ½ Õ½
Õ¸ÖĤÕ½ Õ¡Õ¯Öģ
Õ¸Õ¬ Õ¡Õ¤
Õ¡Õ´Õ¢ Õ¥ÖĢ
ĠÔ¿ Õ¥Õ½
ĠÕĨ Õ¯Õ¡ÖĢ
ĠÕĨ Õ¥ÕµÕ´
ĠÔ³ Ô»Õı
ĠÕ¡Õ´ Õ¸Õ©
Õį Õ¢
ĠÕ½Õ¿ Õ¡Õ¶Õ¡
ĠÕ½Õ¿ Õ¸ÖĤÕ¤
ĠÕ¾Õ¥ÖĢ Õ¥Õ¬
ĠÖĦÕ¡Õ²Õ¡ÖĦ Õ¶Õ¥ÖĢÕ«
Õ«Õ¹ Õ¸Õ¾
ĠÔ¼ Õ¸Õ¼
ĠÔ¼ ÖĢÕ¡Õ°Õ¸Õ½
Ô¹ Õ¡Öĥ
ĠÕ¡ÖĢÕ¿ Õ¡Õ°
ĠÕªÕ¡Õ´Õ¡Õ¶Õ¡Õ¯ Õ¡ÖģÕ¸ÖĤÕµÖģ
ĠÕªÕ¡Õ´Õ¡Õ¶Õ¡Õ¯ Õ¡Õ·ÖĢÕ»Õ¡Õ¶Õ«
Õ¸Õ´ Õ«Õ¶
ĠÕ¿Õ¥Õ½ ÖĦÕ¨
ĠÕ·Õ¡Õ¿ Õ¥ÖĢÕ«Õ¶
ĠÖĥÕ¸ÕŃ Õ¾Õ«
ĠÕ°Õ¡Õ¿ Õ¸ÖĤÖģ
ĠÕĢÕ¡Õ¶ÖĢÕ¡ÕºÕ¥Õ¿ Õ¸ÖĤÕ©Õ¥Õ¡Õ¶
ĠÕ®Õ¡Õ¼Õ¡Õµ Õ¸Õ²Õ¶Õ¥ÖĢÕ¨
Õ¡ÕµÕ¿ Õ¡ÖĢÕ¡ÖĢ
ĠÔ¶ Õ¡Õ¶Õ£
ĠÕĸ Õ«Õ¬Õ´
ĠÕ´ÖĢÖģ Õ¡Õ¯ÖģÕ¡ÕµÕ«Õ¶
Õ¸ÖĤÕ½Õ¿ ÖĢÕ¨
ĠÕ¥Õ¶Õ© Õ¡Õ¯Õ¥Õ¿
Ġ7 1
Ô· ÖĢÕ¤Õ¸Õ²
ĠÕ¶ÕºÕ¡Õ¿Õ¡Õ¯ Õ¶Õ¥ÖĢÕ¨
Ġ9 9
ĠÕ¾Õ¥ÖĢÕ»Õ«Õ¶ Õ¶Õ¥ÖĢÕ½
ĠÔ±Õ¬ Õ¥Õ¶
ĠÕ±Öĩ Õ¡Õ¾Õ¸ÖĢÕ¾Õ¥Õ¬
ĠÕ´Õ¡Õ° Õ¡Õ¶Õ¸ÖĤÕ´
ĠM edia
ĠÕ¡Õ¶ÖģÕ¯Õ¡Öģ Õ¸ÖĤÕ´Õ¨
ĠÖħÖĢÕ¥Õ¶ÖĦ Õ¶Õ¥ÖĢÕ¨
ĠÕ¸Õ½Õ¿Õ«Õ¯Õ¡Õ¶ Õ¡Õ¯Õ¡Õ¶
ĠÕ¡ÕºÖĢ Õ¡Õ®
ĠÕ¯Õ¡Õ¼Õ¸ÖĤÖģ Õ¸ÖĤÕ´Õ¨
ĠÕ¤Õ«Õ¿ Õ¡ÖĢÕ¯Õ¥Õ¬
ĠÔ±Õ¾ Õ½Õ¿ÖĢÕ¡Õ¬
ĠÔ±Õ¾ Õ¿Õ¸Õ´Õ¥ÖĦÕ¥Õ¶
ĠÕ¡Õ¼Õ¡Õ»Õ¡ÖĢÕ¯ Õ¾Õ¸Õ²
ĠÐ ľ
ĠÕ¡Õ¯Õ¿Õ«Õ¾ Õ¸ÖĤÕ©ÕµÕ¡Õ¶
ĠÕ¡Õ¯Õ¿Õ«Õ¾ Õ«Õ½Õ¿
ĠÕ£Õ¥ÖĢ Õ¡Õ¯Õ¡Õµ
ĠÕĢÕ¡Õ´ Õ¡Õ£Õ¸ÖĢÕ®
Õ¸ÖĨ Õ«Õ¬
ĠÕ©Õ«Õ´ Õ¥ÖĢÕ«
ĠÕ¡Õ´Õ«Õ½ Õ¶Õ¥ÖĢ
Õ¸ÖĤÕ©Õ«ÖĤÕ¶ Õ¶Õ¥ÖĢ
ĠÕĨÕ¡ÕŃ Õ¡ÖĢÕ¡ÖĢ
ĠÕ¿Õ¥ÕŃÕ¶Õ¸Õ¬Õ¸Õ£ Õ«Õ¡Õ¶
âĢĿ ,
ĠÕ¾Õ¡Õµ ÖĢÕ§Õ»
Õ¡Õ£Õ¶ Õ¡
Ô±Õĳ ÕĨ
ĠÕ¸ÖĢÕ¡Õ¯ Õ¡Õ¾Õ¸ÖĢÕ¸ÖĤÕ´
Ô±ÖĢ Õ¡ÖĢÕ¡Õ¿Õ«
ĠÖģÕ¡Õ¶Öģ Õ¸ÖĤÕ´
Õ¡Õ¿Õ¶Õ¿Õ¥Õ½ Õ¸ÖĤÕ©ÕµÕ¡Õ¶
ĠÕ¾ÖĢ Õ«Õº
199 8
ĠÕ«Õ´Õ¡Õ½Õ¿ Õ¸ÖĤÕ¶
ĠÕ½Õ¿Õ¸ÖĤÕ£ Õ¸ÖĤÕ´
ĠÕ½Õ¿Õ¸ÖĤÕ£ Õ¸ÖĤÕ´Õ¶Õ¥ÖĢÕ«
ĠÕ¤Õ¥Õ² Õ¸ÖĢ
Õ¡Õ¤ÖĢÕ¾ Õ¥Öģ
ĠÕ©Õ¥ÖĢ Õ¥ÖĤÕ½
ÕĪÕĴÕħ Õį
ĠÕ¿Õ¥ÖĦÕ½Õ¿ Õ¨
ĠÕ°Õ¸Õ£Õ¥Õ¢ Õ¡Õ¶Õ¸ÖĤÕ©ÕµÕ¡Õ¶
ĠÕĦÕ¯ÖĢÕ¿ Õ«Õ¹
ĠÕŃÕ´ Õ¥Õ¬Õ¸ÖĤ
ĠÔ´Õ¡Õ·Õ¶ Õ¡ÕµÕ«Õ¶
ĠÔ¿Õ¡Õµ ÖĦÕ«Öģ
ĠÔ±Õº Õ¡
ĠÕ¸ÖĤÕ¿ Õ¸ÖĤÕ´
ĠÕ¾Õ¡Õ¾Õ¥ÖĢ Õ¡Õ£ÖĢÕ¡Õ¯Õ¡Õ¶
ĠÕ¼Õ«Õ½Õ¯ Õ¥ÖĢÕ«
ĠÔ¸ÕĨ ÕıÕĲ
ĠÔ¼Õ¡Õ¾ Õ¡Õ£Õ¸ÖĤÕµÕ¶
ĠÕ¡Õ¶Õ°Õ¶Õ¡ÖĢ Õ«Õ¶
ĠÕ°Õ¡Õ£Õ¸ÖĤÕ½Õ¿ Õ«
ÕĬÕ¡Õ¿Õ´ Õ¸ÖĤÕ©ÕµÕ¸ÖĤÕ¶
ĠÕ¨Õ´Õ¢ Õ·Õ¡Õ´Õ¡ÖĢÕ¿Õ«
ĠÕ£Õ¸Õ° Õ¸ÖĤÕ¶Õ¡Õ¯
ĠÕĩÕ¡ÖĢÕ´Õ¡Õ¦Õ¡Õ¶ Õ¸Õ¾
ĠÕ¡Õ½Õ¸ÖĤÕ¬Õ«Õ½ Õ¨
ĠÕ¦Õ«Õ» Õ¸ÖĤÕ´
ĠÕĢÕ¥Õ¼ Õ¡ÕŃÕ¸Õ½
AR MENI
ĠÕ°Õ¸ÖĢÕ«Õ¦Õ¸Õ¶Õ¡Õ¯Õ¡Õ¶ Õ¨
ÔµÕ¯ Õ¥Õ²Õ¥Öģ
ĠÕ¨Õ¶Õ±Õ¥Õ¼ Õ¸ÖĤÕ´
ĠÕ´ÖĢÖģÕ¡Õ· Õ¡ÖĢÕ¸ÖĤÕ´
Õ§Õ¿ ÖĦ
Ð¾ÑģÑĤ Ð¸
ĠÕĨÕ¡Õ¾ Õ¡Õ½Õ¡ÖĢÕ¤
ĠÕ½Õ¿Õ¡Õ¶Õ±Õ¶ Õ¡Õ®
ĠÕĳÕ¡Õ¾ Õ¸ÖĦ
ĠÔ±ÖĢÕ¦ Õ¸ÖĤÕ´
Õ¥ÖĢÖģ Õ«Õ¸Õ¶
ĠÔ´ÕĬÕĲ ÕĪÕĳ
' s
L E
m in
u c
Ġ are
Õ« ÖĦÕ¸ÖĤÕ´
Õ¸ÖĤÕ §
Õ¿ Õ¸
Õ¿ Õ¥ÖĢ
Õ¡Õ´ Õ¥
ĠÕ¯ Õ¡ÖĢÕ´
Õ¡Õ¿ Õ«Õ¯Õ¡Õ¯Õ¡Õ¶
Õ´ Õ¡ÖĢÕ¦
Õ´ Õ·Õ¡Õ¯Õ¸ÖĤÕ©Õ¡ÕµÕ«Õ¶
Õ¸Õ² Õ¸ÖĤÕ©ÕµÕ¸ÖĤÕ¶Õ¶Õ¥ÖĢÕ«
ĠÕ¿ Õ«Õº
Õ¸ÖĢ Õ¶Õ¥ÖĢÕ«
Õ¡Õ® Õ¶Õ¥ÖĢÕ¨
ĠÕ£ Õ¡Õ¾Õ¡Õ¼Õ¸ÖĤÕ´
ĠÕ¤ Õ¨
ĠÕ¤ Õ¸ÖģÕ¥Õ¶Õ¿
ĠÕĢ Ô±Õį
ĠÕ½ Õ¡Õ¤ÖĢÕ¡Õ¶ÖĦ
Â» [
Õ¡Õº Õ¡
Õ¡Õ¼ Õ¸Õ²Õ»
ĠÕ¡Õ¶ Õ¥Õ¶
ĠÕ© Õ¡Õ¾Õ·ÕµÕ¡
ÕĢ Õ«Õ¶Õ£
ÕĢ Õ¡Õ¶Õ¸ÖĤÕ¶
Õ¡Õ² Õ¿Õ¶
ĠÖĦ ÖĢÕ¿
ĠÕĦ Õ¥Õ¬
ĠÕĦ Õ¥Õ¿
ĠÕĦ Õ¢
ĠÕĦ Õ«Õ£
ĠÕ°Õ¥Õ¿ Õ«Õ¸Õ¿
ĠÖĥ Õ¥Õ½
ĠÕį Õ¯
ÕĦ Õ·Õ¡Õ¯Õ¸ÖĤÕ©Õ¡ÕµÕ«Õ¶
Õ¡ÖĢÕ¯ Õ¾Õ¸ÖĤÕ´
ĠÕ¶Õ¡ÕŃ Õ¡Õ¶Õ·
Ô¿ Õ¡ÖĢÕ´Õ«ÖĢ
ĠÕ£Õ¸ÖĢÕ® Õ¡Õ¼Õ¶
ĠÔ¿ Ô±ÕĦ
ĠÕ¡Õ¼Õ¡Õ» Õ¡Õ¤ÖĢÕ¡Õ¶ÖĦ
ĠÔ³ ÕĨ
Õ¸Õ¿ ÖĢ
ĠÕºÕ¥Õ¿ Õ¢ÕµÕ¸ÖĤÕ»
ĠÕ¥ÖĢÕ¯ Õ«Õ¶ÖĦ
ĠÕ¾Õ¥ÖĢ Õ¡Õ¯Õ¡Õ¼Õ¸ÖĤÖģ
ĠÖħÖĢ Õ¥ÖĢÕ¸ÖĤÕ´
ĠÕĬ Õ«
ĠÔ´ ÖĢÕ¡Õ´
ĠÕ³ Õ¯Õ¸ÖĤÕ¶
ĠÕ¯Õ¡Õ´ ÖĦÕ¨
ĠÕ¶Õ¥ÖĢÕ¯Õ¡Õµ Õ¸ÖĤÕ´
ĠÔ¹ Õ¡Õ´Õ¡ÖĢ
ÕĬ ÔµÕı
Õ¸Õ´ Õ¡Õ¿
ĠÕ¸ÖĤÕ² Õ¥Õ²
ĠÕ¡Õ´Õ¥Õ¶ ÖĩÕ«Õ¶
ÕµÕ¡Õ¬ Õ¶Õ¥ÖĢÕ¨
ÕµÕ¸ÖĤÕ¶ ÕŃ
ĠÕ¡Õ¶Õ° Õ«Õ´Õ¶
Õ¥Õµ Õ¡Õ¶Õ¨
ĠÕ¢Õ¡Õ¶ Õ¡Õ±Õ¥ÖĤ
ĠÕ¿Õ¥Õ²Õ¥Õ¯ Õ¡Õ¶Õ¸ÖĤÕ´
ĠÕ¥Õ¯ Õ¡
ĠÕ¡Õ¼Õ¡Õ»Õ«Õ¶ Õ¶
Õ¸ÖĤÕ° Õ«Õ¶Õ¥ÖĢÕ«
ĠÔ¶ Õ¡ÕŃ
ĠÔ¶ Õ¡ÖĢÕ£Õ¡ÖģÕ´Õ¡Õ¶
ĠÕ´Õ¡Õ½Õ¶Õ¡Õ¯Öģ Õ¥ÖģÕ«Õ¶
ĠÕºÕ¡Õ¿Õ¡Õ½ÕŃÕ¡Õ¶ Õ¥Õ¬Õ¸Õ¾
Õ¡Õ¾Õ¸ÖĢÕ¾ Õ¥Öģ
ĠÕ°Õ¸Õ£ Õ¸Õ¾
ĠÕ°Õ¸Õ£ Õ¡Õ¢Õ¡ÖĢÕ±Õ¸ÖĤÕ¶Õ¥ÖĢÕ«
ĠÕ¶Õ·Õ¡Õ¶Õ¡Õ¯ Õ´Õ¡Õ¶
ĠÕ«Õ·ÕŃÕ¡Õ¶ Õ¸ÖĤÕ©ÕµÕ¸ÖĤÕ¶Õ¶Õ¥ÖĢÕ¶
Ġ8 4
Ô±Õ¶ Õ°
ĠÖĦÕ¡Õ¶ Õ«Õ½Õ¨
ĠÕ¹Õ¡Öĥ Õ¥ÖĢÕ«
ĠÕĢÕ¡ÖĢ Õ¡Õ¾
ĠÕ¼Õ¡Õ¦Õ´ Õ¡
ĠÔº Õ¶
ĠÔº ÕĪÕĤÕĪÕİ
ĠÕ©Õ¥Õ´ Õ¡
ĠÕ°Õ¡Õ»Õ¸Õ² Õ¾Õ¡Õ®
ĠÕ°Õ¡Õ»Õ¸Õ² Õ¸ÖĤÕ©ÕµÕ¸ÖĤÕ¶Õ¶Õ¥ÖĢÕ«
ĠÕ´ÕµÕ¸ÖĤÕ½ Õ¶Õ¥ÖĢÕ¨
ĠÕ¥Õ¬ ÖĦ
ĠÕ¥Õ¬ Õ¸ÖĤÕµÕ©Õ«
ĠÕ¯Õ¡Õ¶Õ¸Õ¶ Õ¡Õ¤ÖĢÕ¡Õ¯Õ¡Õ¶
ĠÕ¯Õ¡Õ¶Õ¸Õ¶ Õ¡Õ¤ÖĢÕ¸ÖĤÕ©ÕµÕ¡Õ´Õ¢
Õ¿Õ¡ÖĢ Õ¡Õ®
Ô±Õ´ Õ¡Õ¼Õ¡ÕµÕ«Õ¶
ĠÕĦÕ¡ÖĢÕ¿ Õ«Õ¶
ĠÕ¿Õ¡ÖĢÕ¥Õ¯Õ¡Õ¶ Õ¶Õ¥ÖĢÕ«
ĠÕĬÕ¡Õ¿ Õ¯Õ¥ÖĢ
ĠÕ¾Õ¥ÖĢÕ¡Õ¤Õ¡ÖĢÕ± Õ¶Õ¥Õ¬Õ¸ÖĤ
ĠÕ°Õ¶Õ¹ Õ¥Õ¬
ĠÕ°Õ¶Õ¹ ÕµÕ¸ÖĤÕ¶
ĠÕ°Õ¥ÖĢÕ¸Õ½ Õ¶Õ¥ÖĢÕ«
ĠÕ¨Õ¶Õ¤Õ¤Õ«Õ´ Õ¸ÖĤÕ©ÕµÕ¸ÖĤÕ¶Õ¨
ĠÕ¡Õ²Õ¢ÕµÕ¸ÖĤÖĢ Õ¶Õ¥ÖĢÕ¨
ĠÕ°Õ¡Õ¯Õ¡Õ¼Õ¡Õ¯ Õ¸ÖĢÕ¤Õ¨
ĠÕ¥ÖĢÕ¡Õ¦ Õ¡Õ¶ÖĦ
ĠÕ°Õ¸Õ½ ÖĦ
ĠÖĥÕ¸ÕŃÕ¡ÖĢÕ¥Õ¶ Õ¨
ĠÕįÕĬ ÕĪÕĲÕı
ĠÖĥÕ¡Õ¼Õ¡Õ¿ Õ¸Õ¶
ĠÔ²ÖĢÕ«Õ¿ Õ¡Õ¶Õ«Õ¡
ĠÕ¨Õ¶Õ¤Õ¬Õ¡ÕµÕ¶ Õ´Õ¡Õ¶
ĠÕ¡Õ¼Õ¡ÖĦÕ¥Õ¬ Õ¡Õ¯Õ¡Õ¶
ĠÕ¡ÕµÕ£ Õ«
Ô±Õ¤ÖĢÕ¢Õ¥Õ» Õ¡Õ¶Õ¨
ĠÕ£Õ¸Õ¬ Õ¨
ĠÕĨÕ· Õ¾Õ¡Õ®
ĠÕ¹Õ¯ Õ¡Õ¿Õ¡ÖĢ
Ô½Õ¡Õ² Õ¥ÖĢ
ĠÕ°Õ¡ÖĢÕ¡Õ¦Õ¡Õ¿ Õ¶Õ¥ÖĢÕ«Õ¶
ĠÕ©Õ¡ÖĦ Õ¶Õ¾Õ¡Õ®
ĠÕ£Õ¸ÖĢÕ®Õ¡Õ¼ Õ¸ÖĤÕµÕ©
ĠÖĥÕ¡Õ©Õ¥Õ© Õ¨
ĠÕ®Õ¥Õ® Õ¯Õ¼
ĠÕĩÕ¡Õ° Õ¶Õ¡Õ¦
ĠÔ±ÖĢÕ¡Õ¢ Õ¡Õ¯Õ¡Õ¶
ĠÕ¾Õ¥ÖĢÕ»Õ¶Õ¡Õ¯Õ¡Õ¶ Õ¡ÕºÕ¥Õ½
ĠÕ¯Õ¸Õ¿ ÖĢÕ¾Õ¡Õ®
ĠÔ±Õ¾Õ¥Õ¿Õ«Õ½ ÕµÕ¡Õ¶Õ«
ÐµÐ ´
ĠÕ´Õ©Õ¶Õ¸Õ¬Õ¸ÖĢÕ¿ Õ¨
ĠÔºÕ¸Õ²Õ¸Õ¾ ÖĢÕ¤Õ¡Õ¯Õ¡Õ¶
Õ¡Õ·Õ¯ Õ¡Õ¶Õ¤
ĠÕĨÕ¡Õ¬Õ¢Õ¡Õ¶Õ¤ ÕµÕ¡Õ¶
ĠÔ³Õ¡Õ½Õº Õ¡ÖĢÕµÕ¡Õ¶Õ¨
Ô±ÕĲÔ¿ ÕĪÕĴÕĦ
ÕĮÕ¥Õ¡Õ¬ Õ¨
ĠÕ¹Õ¡ÖĥÕ¡Õ¶Õ«Õ· Õ¶Õ¥ÖĢÕ«Õ¶
ĠÕ£Õ¸ÖĤÕµÕ¶ Õ¨
ĠÖĥÕ¸ÕŃÕ°Õ¡Õ¿ Õ¸ÖĤÖģÕ´Õ¡Õ¶
ĠÕ¿Õ¡ÖĢÕ¥Õ¬Õ«Öģ Õ«
ĠÕ½ÖģÕ¥Õ¶ Õ¡ÖĢ
ĠÔµÕ£Õ«ÕºÕ¿ Õ¸Õ½Õ«
ĠÕĮÕ¸Õ¶Õ¡Õ¬Õ¤ Õ¸ÖĤÕ¶
Ô»ÖĢÕ¡Õ¯Õ¡Õ¶ Õ¸ÖĤÕ´
Ô±Ô³Ô»Õı Ô±Ô¿Ô±ÕĨ
Õ¶Õ¡ÕºÕ¡Õ° ÕºÕ¡Õ¶Õ¸ÖĤÕ©ÕµÕ¡Õ¶
ĠÔ±Õ¾Õ½Õ¿ÖĢÕ« Õ¡ÕµÕ«
ĠÕ¯ÖģÕ¡Õ¶Õ¯ Õ¡Õ¶Õ¡ÕµÕ«
ĠÕ«ÖĢÕ¡Õ¾Õ¡ÕŃÕ¡ÕŃÕ¿ Õ¸ÖĤÕ´Õ¶Õ¥ÖĢÕ«
ĠAR M
ĠÕ½Õ¸ÖĤÕº Õ¥ÖĢÕ´
Õ¡Õ´Õ¢Õ¬ Õ¥Õ¡ÕµÕ«
ĠÕ¥Õº Õ«Õ½Õ¯Õ¸ÕºÕ¸Õ½
ĠÕĩÕ¥Õ¶Õ£ Õ¡Õ¾Õ«Õ©
ĠÕ«Õ¤Õ¥Õ¡Õ¬ Õ¡Õ¯Õ¡Õ¶
ĠÕºÕ¡Õ½Õ¿ Õ¡Õ¼
ĠÕ°Õ¸Õ¢Õ¥Õ¬ÕµÕ¡Õ¶ Õ¡Õ¯Õ¡Õ¶
ĠÕİÔµÕĲÔ±Ô²ÔµÕĲ ÕħÔ±Ô¼
S t
r om
s c
Ñ Ī
Ġ o
Õµ Õ¸ÖĤÕª
Õ¡Õ¯ Õ·Õ«Õ¼
Õ¡Õµ Õ¬Õ«Õ¶
ĠÕ° Õ¡ÖĢÕ£Õ¥Õ¬
Õ¡ÖĢ Õ¥ÖĤ
Õ¥Õ¬ Õ¡ÕµÕ«Õ¶
Õ¾ Õ«Öģ
ĠÕ¸ Õ½Õ¯Õ«
Õ¸ÖĤÕ¶ Õ¡Õ¯Õ«
Õ¡Öģ ÖĦÕ«
Õ¸Õ¾ Õ¡ÕµÕ«Õ¶
ĠÕ¿ Õ¥ÖĢÕ¨
ĠÕ£ Õ¡ÖĢÕ¸ÖĤÕ¶
Õ¡Õ° Õ«
Õ¬ Õ«Õ½Õ«
Õ¬ Õ¥Õ¿Õ«Õ¯
ĠÔ± Ô»
ĠÕĢ Õ¡Õ¾Õ¡Õ¿
Öĩ Õ¿Õ¸ÖĤÖĢ
ĠÕ°Õ¡Õ´ Õ¡Õ´Õ¡Õ½Õ¶Õ¡Õ¯Õ¡Õ¶
ĠÕŃ Õ¸ÖĤÕ¬
ĠÕŃ Õ¸Õ·Õ¿Õ¡Õ¶Õ£
ĠÕ· Õ¸Õ£
Õ«Õ¯ Õ¡ÕºÕ¥Õ½
ĠÕĦ Õ«Õ¯
ĠÕĦ Õ«Õ·
Ôµ Ô³
ĠÕį Õ«
ÕĦ Õ¡Õ¬
Ô¿ Õ¸Õ¤
ĠÕ´Õ« Õ¡Õ±Õ¡ÕµÕ¶
ĠÔ¿ ÕĪÕĤ
ĠÔ² Õ¡Õ©
ĠÔ² Ô±Ôº
Õ¸ÖĢÕ¤ Õ¡Õ¯Õ¡Õ¶
ĠÕ¿Õ¥Õ² Õ¥ÖĢÕ¸ÖĤÕ´
Õ¡Õ¶Öģ Õ«Õ¶
ĠÕ°Õ¡ÖĢ Öĩ
ÕĪÕĴ ÕįÕı
ĠÔ´ ÖĢ
ĠÔ´ Õ«Õ¶
Õ¡Õ¤ÖĢ Õ«Õ¹
ĠÕ°Õ¡Õ½ Õ¶Õ«
ĠÕı Õ²Õ¡Õ´Õ¡ÖĢÕ¤
ĠÔ¹ ÔµÕĦ
Õ¸Õ£ ÖĢÕ¡Õ´
ÕĬ Õ¡Õ¿Õ¾
ĠÕĮ Õ¸ÖĤÕ¢
ĠÕ¿Õ¥Õ½ Õ¸ÖĤÕ©ÕµÕ¡Õ¶
Ġ3 000
ĠÕ¸ÖĤÕ² Õ¥ÖĤÕ¸ÖĢ
ĠÕ¸ÖĤÕ² Õ¥ÖģÕ¸ÖĤÕµÖģ
ĠÕĪ Õ²Õ»
Ô±ÕĲ ÕĨÔµÕĲ
Õ¸ÖĤÕµÖģ Õ«
ĠÕ¥Õ² Õ¡Õ¶Õ¡Õ¯Õ¨
ĠÕķ Õ¤
ĠÕ¡ÖĢ Õ¥ÖĦ
Õ¡Õ¢Õ¥ÖĢÕ ´
Õ¸ÖĤÕ· Õ¯Õ«Õ¶
an n
Õ¥Õ£ Õ¬
ĠÕ¦Õ¡ÖĢÕ£ Õ¡ÖģÕ¸Õ²
ĠÕ¥Õ¶Õ© Õ¡Õ¯Õ¡ÕµÕ¸ÖĤÕ©ÕµÕ¡Õ¶
ĠÕ«Õ¶ÖĦÕ¶ Õ«Õ¶
ĠÕ°Õ¡Õ·Õ¾ Õ¥Õ°
ĠÕ£ÕµÕ¸ÖĤÕ² Õ¡ÕºÕ¥Õ¿
ĠÕ¡Õ¶Õ¯ Õ¡Õ½Õ¯Õ¡Õ®
ĠÕ£Õ¸ÖĢÕ®Õ¸ÖĤÕ¶Õ¥ Õ¸ÖĤÕ©ÕµÕ¸ÖĤÕ¶Õ¶
ĠÕ°Õ¡ÖĢÕ¡Õ¢Õ¥ÖĢ Õ¡Õ¯Õ¡Õ¶
ĠÕ¾Õ¡ÖĢ Õ¸ÖĤÕµÕ©Õ«
Õ¥Õ¢ Õ¡ÕŃÕ¿
ĠÕ±Õ¥Õ¼ÖĦ Õ¥ÖĢÕ¨
ĠM ercedes
ĠÕ´Õ¡Õ¿ Õ¥Õ¶
ĠÕºÖĢ Õ¥Õ´Õ«Õ¥ÖĢ
ĠÕ¯Õ¸Õ¶ ÕµÕ¡Õ¯Õ«
ĠÕ¡ÖĢÕ¤ÕµÕ¸ÖĤÕ¶ÖĦ Õ¶Õ¥ÖĢÕ¶
ĠÖĦÕ¡Õ²Õ¡ÖĦÕ¡ÕºÕ¥Õ¿ Õ¡ÖĢÕ¡Õ¶Õ¨
ĠÕ°Õ¥Õ²Õ«Õ¶Õ¡Õ¯ Õ¸ÖĤÕ©ÕµÕ¸ÖĤÕ¶
ĠÕ¯Õ¡Õ¶Õ¸Õ¶ Õ¶Õ¥ÖĢ
ÕĢÕ¡Õ´ Õ¡ÖģÕ¡Õ¶Öģ
ĠÕ°Õ¡Õ¶Õ¤Õ«Õ½ Õ¡Õ¶Õ¡Õ¬
re vi
ĠÕ¾Õ¡Õ³Õ¡Õ¼ Õ¾Õ¸ÖĤÕ´
[...]
