{"<s>": 0, "<pad>": 1, "</s>": 2, "<unk>": 3, "<mask>": 4, "!": 5, "\"": 6, "#": 7, "$": 8, "%": 9, "&": 10, "'": 11, "(": 12, ")": 13, "*": 14, "+": 15, ",": 16, "-": 17, ".": 18, "/": 19, "0": 20, "1": 21, "2": 22, "3": 23, "4": 24, "5": 25, "6": 26, "7": 27, "8": 28, "9": 29, ":": 30, ";": 31, "<": 32, "=": 33, ">": 34, "?": 35, "@": 36, "A": 37, "B": 38, "C": 39, "D": 40, "E": 41, "F": 42, "G": 43, "H": 44, "I": 45, "J": 46, "K": 47, "L": 48, "M": 49, "N": 50, "O": 51, "P": 52, "Q": 53, "R": 54, "S": 55, "T": 56, "U": 57, "V": 58, "W": 59, "X": 60, "Y": 61, "Z": 62, "[": 63, "\\": 64, "]": 65, "^": 66, "_": 67, "`": 68, "a": 69, "b": 70, "c": 71, "d": 72, "e": 73, "f": 74, "g": 75, "h": 76, "i": 77, "j": 78, "k": 79, "l": 80, "m": 81, "n": 82, "o": 83, "p": 84, "q": 85, "r": 86, "s": 87, "t": 88, "u": 89, "v": 90, "w": 91, "x": 92, "y": 93, "z": 94, "{": 95, "|": 96, "}": 97, "~": 98, "¡": 99, "¢": 100, "£": 101, "¤": 102, "¥": 103, "¦": 104, "§": 105, "¨": 106, "©": 107, "ª": 108, "«": 109, "¬": 110, "®": 111, "¯": 112, "°": 113, "±": 114, "²": 115, "³": 116, "´": 117, "µ": 118, "¶": 119, "·": 120, "¸": 121, "¹": 122, "º": 123, "»": 124, "¼": 125, "½": 126, "¾": 127, "¿": 128, "À": 129, "Á": 130, "Â": 131, "Ã": 132, "Ä": 133, "Å": 134, "Æ": 135, "Ç": 136, "È": 137, "É": 138, "Ê": 139, "Ë": 140, "Ì": 141, "Í": 142, "Î": 143, "Ï": 144, "Ð": 145, "Ñ": 146, "Ò": 147, "Ó": 148, "Ô": 149, "Õ": 150, "Ö": 151, "×": 152, "Ø": 153, "Ù": 154, "Ú": 155, "Û": 156, "Ü": 157, "Ý": 158, "Þ": 159, "ß": 160, "à": 161, "á": 162, "â": 163, "ã": 164, "ä": 165, "å": 166, "æ": 167, "ç": 168, "è": 169, "é": 170, "ê": 171, "ë": 172, "ì": 173, "í": 174, "î": 175, "ï": 176, "ð": 177, "ñ": 178, "ò": 179, "ó": 180, "ô": 181, "õ": 182, "ö": 183, "÷": 184, "ø": 185, "ù": 186, "ú": 187, "û": 188, "ü": 189, "ý": 190, "þ": 191, "ÿ": 192, "Ā": 193, "ā": 194, "Ă": 195, "ă": 196, "Ą": 197, "ą": 198, "Ć": 199, "ć": 200, "Ĉ": 201, "ĉ": 202, "Ċ": 203, "ċ": 204, "Č": 205, "č": 206, "Ď": 207, "ď": 208, "Đ": 209, "đ": 210, "Ē": 211, "ē": 212, "Ĕ": 213, "ĕ": 214, "Ė": 215, "ė": 216, "Ę": 217, "ę": 218, "Ě": 219, "ě": 220, "Ĝ": 221, "ĝ": 222, "Ğ": 223, "ğ": 224, "Ġ": 225, "ġ": 226, "Ģ": 227, "ģ": 228, "Ĥ": 229, "ĥ": 230, "Ħ": 231, "ħ": 232, "Ĩ": 233, "ĩ": 234, "Ī": 235, "ī": 236, "Ĭ": 237, "ĭ": 238, "Į": 239, "į": 240, "İ": 241, "ı": 242, "Ĳ": 243, "ĳ": 244, "Ĵ": 245, "ĵ": 246, "Ķ": 247, "ķ": 248, "ĸ": 249, "Ĺ": 250, "ĺ": 251, "Ļ": 252, "ļ": 253, "Ľ": 254, "ľ": 255, "Ŀ": 256, "ŀ": 257, "Ł": 258, "ł": 259, "Ń": 260, "Õ¡": 261, "Õ¡Õ": 262, "ĠÕ": 263, "ÖĢ": 264, "Õ¸": 265, "Õ¥": 266, "Õ¶": 267, "Õ«": 268, "ÖĤ": 269, "Õ¸ÖĤ": 270, "Õ¡Õ¶": 271, "Õ¥Õ": 272, "ÖĢÕ": 273, "Õ¸ÖĤÕ": 274, "Öģ": 275, "Õ¸Õ": 276, "Õµ": 277, "ÖĦ": 278, "Õ¡Õ¯": 279, "Õ¥ÖĢ": 280, "Õ¡Õµ": 281, "Õ¿": 282, "ĠÕ°": 283, "Õ¸ÖĤÕ´": 284, "Õ¡ÖĢ": 285, "Õ«Õ¶": 286, "Õ¡ÖĢÕ": 287, "Õ¥Õ¬": 288, "Õ«Õ": 289, "ĠÔ": 290, "Õ¸ÖĤÕ©": 291, "Õ¸ÖĤÕ©Õµ": 292, "Õ¨": 293, "ĠÕ§": 294, "ĠÕ´": 295, "Õ¡Õ´": 296, "Õ¾": 297, "ĠÕ¯": 298, "ĠÕ¸": 299, "Õ¸ÖĤÕ¶": 300, "ĠÕ¥": 301, "Õ¡Õ¿": 302, "Õ¡Õ½": 303, "Õ¶Õ¥ÖĢ": 304, "Õ´": 305, "ĠÖ": 306, "Õ¡Õ¯Õ¡Õ¶": 307, "Õ¡Õ¾": 308, "Õ½": 309, "ĠÕ¶": 310, "Õ¥ÖĢÕ": 311, "Õ¯": 312, "Õ¥Õ¶": 313, "Õ¸ÖĤÕ©ÕµÕ¸ÖĤÕ¶": 314, "Õ¡Öģ": 315, "Õ¥Õ¿": 316, "Õ¸Õ¾": 317, "Õ¸Õ²": 318, "ĠÕ¿": 319, "Õ¤": 320, "ĠÕ¡Õ": 321, "Õ¸ÖĢ": 322, "Õ¸ÖĢÕ": 323, "ĠÕº": 324, "Ô±": 325, "Õ¡Õ®": 326, "ĠÕ«": 327, "ĠÕ£": 328, "ĠÕ¤": 329, "Õ¡Õ£": 330, "Õ¸ÖĤÕ©ÕµÕ¡Õ¶": 331, "ĠÕ¢": 332, "Õ¡Õ°": 333, "Õ¬": 334, "ĠÔ±": 335, "Õ¶Õ¥ÖĢÕ«": 336, "ĠÕĢ": 337, "Õ¥Õ½": 338, "Õ¡Õ¬": 339, "Õ£": 340, "ĠÕ½": 341, "ĠÕ¸ÖĢ": 342, "Õ¢": 343, "ĠÕ¸ÖĤ": 344, "ĠÕ¾": 345, "Õº": 346, "ĠÖĩ": 347, "ĠÕ¥Õ¶": 348, "Õ¡Õ¶Õ«": 349, "ĠÕ¡Õµ": 350, "Â»": 351, "Õ¹": 352, "Â«": 353, "Õ¥ÖĢÕ¨": 354, "Õ©": 355, "Õ¡ÕŃ": 356, "Õ¡Õº": 357, "Õ¡Õ¼": 358, "Õ¥Õ²": 359, "ĠÕ¡Õ¶": 360, "Öĩ": 361, "Õ¸Õ¶": 362, "Õ´Õ¡Õ¶": 363, "ĠÕ©": 364, "ÕĢ": 365, "ĠÕ°Õ¡Õ´": 366, "Õ¡Õ²": 367, "Õ«Öģ": 368, "Õ¡Õ½Õ¿": 369, "Ô±Õ": 370, "ÕĿ": 371, "ÕŃ": 372, "ĠÖĦ": 373, "ĠÕŃ": 374, "Õ¥Öģ": 375, "Õ¡ÕµÕ«Õ¶": 376, "Õ¡Õ¦": 377, "ĠÕ¹": 378, "ÕµÕ¡Õ¶": 379, "Öī": 380, "ĠÂ«": 381, "Õ¾Õ¡Õ®": 382, "Õ¥Õ¯": 383, "ĠÕ·": 384, "Õ¡Õ¤": 385, "ĠÕ«ÖĢ": 386, "Õ«ÖĢ": 387, "Õ¡Õ·": 388, "Õ¶Õ¥ÖĢÕ¨": 389, "Õ¡ÖĦ": 390, "Õ«Õ½": 391, "ĠÕ¡Õ¼": 392, "ĠÕ¬": 393, "Õ·": 394, "Õ«Õ¯": 395, "Õ²": 396, "Õ¸ÖĤÕµ": 397, "ĠÕĦ": 398, "ĠÕ¨": 399, "Õ¸ÖĢÕ®": 400, "Õ¡ÖĢÕ¤": 401, "Ġ1": 402, "ĠÕ°Õ¥Õ¿": 403, "ĠÕ¨Õ¶": 404, "Õ¥ÖĢÕ«": 405, "Õ¡Õ¢": 406, "ĠÖĥ": 407, "Öĥ": 408, "ÕĨ": 409, "Ġ2": 410, "Ôµ": 411, "ĠÖħ": 412, "Õ¥Õ¬Õ¸ÖĤ": 413, "ĠÕį": 414, "ÕĦ": 415, "Õ¡Õ¾Õ¸ÖĢ": 416, "Õ«Õ¿": 417, "Õ¸Õ½": 418, "ÖĢÕ¡Õ¶": 419, "Õ¡ÖĢÕ¿": 420, "Õ¶Õ¹": 421, "ÕĪ": 422, "ĠÕ´Õ¡Õ½": 423, "Õ¡ÖĢÕ¯": 424, "Õ¸ÖĤÕ©ÕµÕ¸ÖĤÕ¶Õ¨": 425, "Õ¸ÖĤÕ½": 426, "Õ¡ÖĢÕ£": 427, "ĠÕºÕ¡Õ¿": 428, "Ô»": 429, "Õ¥Õ´": 430, "ÖĦÕ«": 431, "ĠÕ¶Õ¡ÕŃ": 432, "Õ«Õ´": 433, "âĢ": 434, "Ô¿": 435, "ĠÕ°Õ¡Õµ": 436, "Õ°": 437, "Õ¡Õ»": 438, "ĠÕ¦": 439, "ÖĢÕ¤": 440, "ĠÕ´Õ«": 441, "Õ¡Õ¶Õ¡Õ¯": 442, "ĠÕ¥ÖĢÕ": 443, "Õ¸ÖĤÖĢ": 444, "Õ¾Õ¥Õ¬": 445, "Ġ(": 446, "Õ¸Õ¬": 447, "Õ¸Öģ": 448, "ĠÔµ": 449, "ĠÕ®": 450, "Õ¡Õ´Õ¢": 451, "Õ»": 452, "Õ¡ÕµÕ¶": 453, "ĠÕĢÕ¡Õµ": 454, "ĠÕ£Õ¸ÖĢÕ®": 455, "ĠÕ°Õ¡Õ´Õ¡ÖĢ": 456, "Õ½Õ¿": 457, "Õ¥Õ¼": 458, "Õ¡Õ£ÖĢ": 459, "ĠÕª": 460, "ĠÕ°Õ¡Õ¶": 461, "Õ¡ÖĢÕ±": 462, "Õ¡Õ¶Õ¸ÖĤÕ´": 463, "ÕĪÕ": 464, "ĠÔ¿": 465, "ĠÕĨ": 466, "Õ«Õ»": 467, "..": 468, "Õ¡ÕµÕ«": 469, "Õ¥ÖĦ": 470, "ĠÕ¯Õ¡ÖĢ": 471, "Õ±": 472, "ĠÕ´Õ¥Õ": 473, "Õ¸ÖĤÖģ": 474, "Õ¥Õ¶ÖĦ": 475, "Õ¥Õ¬Õ«": 476, "Õ¾Õ¸ÖĤÕ´": 477, "Õ¡Õ¯Öģ": 478, "Õ¿ÖĢ": 479, "·ÕŃ": 480, "ĠÕ¡Õ¼Õ¡Õ»": 481, "01": 482, "Õ¡Õ¦Õ´": 483, "ĠÕ«Õ¶Õ¹": 484, "ĠÔ²": 485, "Õ¸ÖĢÕ¤": 486, "ĠÔ³": 487, "ĠÕ¿Õ¥Õ²": 488, "ĠÕ±": 489, "Õ¶Õ¥Õ¬": 490, "ĠÕ¿Õ¡ÖĢ": 491, "Õ¡Õ²Õ¡ÖĦ": 492, "ĠÕĢÕ¡ÕµÕ¡Õ½Õ¿": 493, "ÖĢÕ¡": 494, "ĠÕ¸ÖĤÕ¶": 495, "ÖĢÕ¾": 496, "ĠÕ¡Õ¾": 497, "Õ¡ÖĢÕ¡ÖĢ": 498, "Õ¡ÕºÕ¥Õ¿": 499, "Õ¶Õ¸ÖĤÕ´": 500, "ĠÕ¡Õ´": 501, "ĠÕ¡Õ·ÕŃ": 502, "Õ¡Õª": 503, "Õ¶Õ¤": 504, "Õį": 505, "Õ«Õ¾": 506, "ĠÕ¥ÖĤ": 507, "ĠÕ§ÖĢ": 508, "ĠÕ¡ÕµÕ¶": 509, "ÕĲ": 510, "Õ¸Õ¿": 511, "ĠÕºÕ¥Õ¿": 512, "ĠÕ¥ÖĢÕ¯": 513, "ÖĦÕ¸ÖĤÕ´": 514, "Õ¡Õ¶Öģ": 515, "Õ®": 516, "Õ¦": 517, "ĠÕ¶Õ¥ÖĢÕ": 518, "Õ¸ÕŃ": 519, "Õ¸ÖĤÕ©ÕµÕ¸ÖĤÕ¶Õ¶Õ¥ÖĢ": 520, "ĠÕİ": 521, "Õ¡Õ¶Õ¯": 522, "ĠÕ¶Õ¡": 523, "ÖĢÕ¨": 524, "Õı": 525, "ÖĢÕ»": 526, "ĠÕ´Õ¡Õ½Õ«Õ¶": 527, "ĠÕ´Õ«Õ»": 528, "ĠÕ½Õ¿": 529, "Õŀ": 530, "ĠÕ¾Õ¥ÖĢ": 531, "ĠÕ°Õ¡ÖĢ": 532, "ĠÕªÕ¡Õ´": 533, "Õ¡Öĥ": 534, "ĠÖģ": 535, "ÕµÕ¡Õ¶Õ¨": 536, "ĠÕ¡ÕµÕ½": 537, "Õ¡Õ¶ÖĦ": 538, "ĠÖĦÕ¡Õ²Õ¡ÖĦ": 539, "Õ«Õ¹": 540, "Õ¸ÖĤÕ©ÕµÕ¸ÖĤÕ¶Õ¶Õ¥ÖĢÕ«": 541, "ÖĢÕ¡Õ´": 542, "ÕĪÕĴ": 543, "Õ«Õ·": 544, "Õ¡Õ¶Õ¨": 545, "Õ§": 546, "Öħ": 547, "ĠÖħÖĢ": 548, "ĠÔ»": 549, "Õ¡Õ©": 550, "ĠÕ¥ÖĢ": 551, "00": 552, "Õ½Õ¯": 553, "ĠÕ¡Õº": 554, "Õ¥Õº": 555, "Ô±ÕĨ": 556, "Õ¼": 557, "ĠÕ¡ÕµÕ¤": 558, "Õ¡Õ·Õ¿": 559, "Õ¸Õ·": 560, "Õ¡Õ¶Õ¤": 561, "ĠÕĬ": 562, "ĠÔ´": 563, "Ô³": 564, "ĠÕ°Õ¡ÕµÕ¿": 565, "Õ¸ÖĤÕµÕ¶": 566, "ĠÕ¯Õ¡ÖĢÕ¸Õ²": 567, "ÕºÕ¥Õ½": 568, "Õ¡Õ¶Õ£": 569, "Õª": 570, "Õ«Õ¬": 571, "Ġ-": 572, "ÕºÕ¡Õ¶": 573, "ĠÕ¡Õ·ÕŃÕ¡Õ¿": 574, "Õ¸ÖĤÕ©ÕµÕ¡Õ´Õ¢": 575, "Õİ": 576, "ĠÕ´Õ¥Õ¯": 577, "Õ¡ÖĢÕ¾": 578, "¯Õ¡Õµ": 579, "ĠÕ§Õ¬": 580, "Õ¡Õ¤ÖĢ": 581, "ĠÕ¡Õ½": 582, "ÖĦÕ¨": 583, "Õ¥ÖĤ": 584, "Õ¡Õ¿Õ¡ÖĢ": 585, "Õ¡Õ¾Õ¡ÖĢ": 586, "ĠÕ©Õ¥": 587, "Ô²": 588, "Õ¸ÖĢÕ°": 589, "ĠÕ¨Õ¶Õ¤": 590, "Õ¸ÖĤÕ´Õ¨": 591, "ĠÔ¼": 592, "ĠÔ±Õµ": 593, "Ô´": 594, "Õ³": 595, "Õ¡ÖĢÕ´": 596, "Õ¶Õ¥ÖĢÕ«Õ¶": 597, "Ġ_": 598, "ĠÕ¡ÖĢÕ¤": 599, "Ġ201": 600, "ĠÕ«Õ¶": 601, "ĠÕ³": 602, "ĠÕĢÕĢ": 603, "ĠÕ¡ÕµÕ¬": 604, "Õ¶Õ¡Õ¯": 605, "ĠÕ¯Õ¡Õ´": 606, "Õ¥Õ¦": 607, "ĠÕ¥Õ´": 608, "Õ¶Õ«": 609, "ĠÕ¡Õ¦": 610, "Õ¡ÖĢÕ°": 611, "ĠÕ¹Õ«": 612, "ĠÕ£ÖĢ": 613, "ĠÕ°Õ¡Õ½": 614, "ĠÕ°Õ«Õ´": 615, "Õ¸Õµ": 616, "Õ¸Õ²Õ´": 617, "ĠÕı": 618, "ĠÕ¶Õ·": 619, "ĠÖĨ": 620, "ÕŃÕ¡Õ¶": 621, "Õ´Õ¢": 622, "Õ¡ÖģÕ«": 623, "ĠÕ«ÖĢÕ¡Õ¾": 624, "ĠÕĢÕ¡ÕµÕ¡Õ½Õ¿Õ¡Õ¶Õ«": 625, "ĠÕ¶Õ¥ÖĢÕ¯Õ¡Õµ": 626, "ĠÔ¹": 627, "Ô¼": 628, "Õ¸Õ£": 629, "ĠÕ¼": 630, "ÖĨ": 631, "Õ«Õº": 632, "Õ¸Õ²Õ¸Õ¾": 633, "Õ¶Õ¡Õ¯Õ¡Õ¶": 634, "ĠÕ¶Õ¡ÕŃÕ¡Õ£": 635, "Ô¹": 636, "Õ¡ÖĢÕ¦": 637, "Õ¡ÖĢÕ«": 638, "ĠÕ¡ÖĢÕ¿": 639, "Õ¸ÖĤÕ¬": 640, "ÕĬ": 641, "Õ¡Õ£Õ¸ÖĢÕ®": 642, "Õ¡Õ¯Õ«": 643, "ĠÕªÕ¡Õ´Õ¡Õ¶Õ¡Õ¯": 644, "...": 645, "ÕµÕ¡Õ¶Õ«": 646, "ĠÕ¸Õ¹": 647, "ĠÕ¶Õ¡Öĩ": 648, "Õ¸ÖĤÕ¿": 649, "Õ¸Õ´": 650, "ĠÕºÕ¡Õ·Õ¿": 651, "ÖħÖĢ": 652, "ĠÕ°Õ¡ÖĢÖģ": 653, "ĠÕĮ": 654, "ĠÕ¿Õ¥Õ½": 655, "ĠÕºÕ¡Õ°": 656, "Õ«ÖĦ": 657, "ĠÕ¯Õ¸Õ²Õ´": 658, "ĠÕ´Õ¡ÖĢÕ¤": 659, "ĠÕ¯Õ¡Õ¼": 660, "Õ¯Õ¥ÖĢ": 661, "Õ¥Õ¶Öģ": 662, "Õ¡Õ¶ÖĢ": 663, "Õ¡ÖĢÕ¡Õ¯": 664, "ĠÕ¶Õ¥ÖĢÕ¯Õ¡ÕµÕ¡Öģ": 665, "ĠÕ¯Õ¡Õ¦Õ´": 666, "ĠÕ¶Õ¸ÖĢ": 667, "Õ¡Õ±": 668, "ĠÕ¶ÖĢÕ¡Õ¶": 669, "Õ©Õ¡Öģ": 670, "ÖĢÕ¢": 671, "Õ¥ÖĢÕº": 672, "ĠÕ´Õ¡Õ½Õ¶": 673, "Õħ": 674, "ÖĢÖĩ": 675, "Õ¡ÖĢÕª": 676, "Õ¸ÖĤÕ¶ÖĦ": 677, "Ġ3": 678, "Õ£Õ¡ÕµÕ«Õ¶": 679, "ĠÕ°ÖĢ": 680, "ÖĢÕ¿": 681, "Õ¸Õ¬Õ¸ÖĢ": 682, "Õ¾Õ¡Õ¯Õ¡Õ¶": 683, "Õ¸Õ¤": 684, "ĠÕ¸ÖĤÕ²": 685, "ĠÕ°Õ¡Õ¾": 686, "ĠÕ¡Õ´Õ¥Õ¶": 687, "ĠÕ¤Õ¥Õº": 688, "Õ¸ÖĤÕ²": 689, "ĠÕ´Õ¥Õ»": 690, "ÕµÕ¡Õ¬": 691, "ĠÕ¬Õ«Õ¶": 692, "ĠÕºÕ¥Õ¿ÖĦ": 693, "ĠÕĶ": 694, "Õ¶Õ¶": 695, "Õ¸ÖĤÕµÕ©": 696, "ÖĢÕ¯": 697, "Õ¸ÖĤÕ¯": 698, "ĠÕ¥Õ¶ÖĦ": 699, "ĠÕ°Õ¡Õ¶Õ¤": 700, "Õ¥Õ¬Õ¸Õ¾": 701, "Õ¡ÖĢÕ¡Õ¶": 702, "ĠÕ´Õ¥ÖĢ": 703, "Õ£Õ¡Õ´": 704, "ĠÕĪ": 705, "Õ«Õ½Õ¿": 706, "Â»,": 707, "am": 708, "Õ¡ÖĢÕ¹": 709, "Õ¡Õ³": 710, "ĠÖħÕ£": 711, "ĠÕ·Õ¡Õ¿": 712, "Õ¥ÖĢÕ»": 713, "Õ¡ÕºÕ¥Õ½": 714, "ÕĢÕ¡Õµ": 715, "Õ«Õ³": 716, "ĠÕºÕ¡Õµ": 717, "ÖĢÕ«": 718, "ĠÕ¯Õ¡Õµ": 719, "Õ¡Õ°Õ´Õ¡Õ¶": 720, "Õ¡Õ¯Õ¡ÖĢÕ£": 721, "ĠÕ¢Õ¡Öģ": 722, "Õ¸ÖĤÕ©ÕµÕ¸ÖĤÕ¶Õ¶Õ¥ÖĢÕ¨": 723, "ÖĢÖģ": 724, "Õ¥ÖĢÕ«Õ¶": 725, "ĠÕ·ÖĢÕ»": 726, "ĠÕĵ": 727, "Õ¶Õ¥ÖĢÕ¸ÖĤÕ´": 728, "Õ¾Õ«": 729, "Õ¿Õ¥Õ½": 730, "ĠÖĥÕ¸ÕŃ": 731, "Õ¥Õ²Õ®": 732, "ĠÕ¸ÖĢÕ¸Õ¶": 733, "ĠÕ¸ÖĢÕ¸Õ·": 734, "Õ«Õ¦": 735, "ĠÕ¶Õ¡ÕŃÕ¡Õ£Õ¡Õ°": 736, "Õ¥ÕŃ": 737, "ĠÔ·": 738, "Ô±ÕĲ": 739, "ÖĢÕ¡Õ£ÖĢ": 740, "Õ¡Õ¾Õ¸ÖĢÕ": 741, "Õ¡Õ¹": 742, "ĠÕ¹Õ§": 743, "Õ¸ÖĤÕµÖģ": 744, "ĠÕ¡Õ¶Öģ": 745, "Õ¡ÖĢÕ¢": 746, "Õ©Õ¥": 747, "ĠÕ¡Õ¾Õ¥Õ¬Õ«": 748, "ÖĢÕ¥Õ¬": 749, "Õ¥ÖĢÕ¸ÖĤÕ´": 750, "Õ¡ÕµÖģ": 751, "Õ¨Õ¶": 752, "ĠÕ«ÖĢÕ¡Õ¯Õ¡Õ¶": 753, "ĠÕŃÕ¸Õ½": 754, "ĠâĢ": 755, "Õ¡ÖĢÕµ": 756, "ÕĶ": 757, "Ô¸": 758, "Õ¡ÕµÕ¸ÖĤÕ´": 759, "Ô±Õµ": 760, "Õ¥Õ´Õ¢": 761, "ÕĽ": 762, "Õ¡ÖģÕ¥Õ¬": 763, "Õ¿ÖĢÕ¸Õ¶": 764, "ÖĢÕº": 765, "ĠÕ¯Õ¡Õ¶": 766, "Ġ19": 767, "ĠÕ¯Õ¡Õº": 768, "Õ¶Õ¥ÖĢÕ«Öģ": 769, "ĠÕ¢Õ¸Õ¬Õ¸ÖĢ": 770, "ĠÕ¥Õ½": 771, "Õ¡Õ¯Õ¥ÖĢÕº": 772, "ĠÕ¸ÖĤÕ¶Õ¥Öģ": 773, "ĠÕ§Õ«Õ¶": 774, "Õ¡ÖģÕ´Õ¡Õ¶": 775, "Õ¡Õ½ÕŃÕ¡Õ¶": 776, "ĠÕ«Õ½Õ¯": 777, "Õ«Õ½Õ«": 778, "ĠÕ©Õ¾Õ¡Õ¯Õ¡Õ¶": 779, "ÔµÕĲ": 780, "ÕµÕ¸ÖĤÕ¶": 781, "ĠÕ¯Õ¸Õ²Õ´Õ«Öģ": 782, "Õ¡Õ¼Õ¡Õµ": 783, "ÖĢÕ´": 784, "Õ¶Õ¡ÖĢ": 785, "ĠÕ¯Õ¥Õ¶": 786, "ĠÕŃÕ¡Õ²": 787, "ĠÕ¥Õ²": 788, "ĠÕ¡Õ¶Õ°": 789, "ÖĦÕ¶": 790, "Õ¡Õ¶Õ¡Õ¬": 791, "ĠÕŃÕ¸ÖĢÕ°": 792, "ĠÕ¸ÖĢÕ¨": 793, "Õ¡Õ¯Õ¸ÖĤÕ´": 794, "Õ«Õ¶Õ¹": 795, "ĠÔ½": 796, "ÕµÕ¸ÖĤÕ©": 797, "Õ¾Õ¸Õ²": 798, "ĠÕ¾ÖĢÕ¡": 799, "ÖĢÕ½": 800, "ĠÕ¿Õ¡ÖĢÕ¡Õ®": 801, "ĠÕ«Õ¶Õ¹ÕºÕ¥Õ½": 802, "ĠÕ´Õ¥Õ®": 803, "ĠÕ°Õ¥Õ¿Õ¸": 804, "ĠÕ½Õ¯": 805, "ÖĢÕ¡Õ½Õ¿": 806, "ÖĢÕ¸ÖĤÕ´": 807, "Ô±Ô¿": 808, "Õ¥Õµ": 809, "ĠÕ¶Õ¯": 810, "Õ¡ÖĢÕ¢Õ¥ÖĢ": 811, "ĠÕ´Õ«Õ»Õ¸Öģ": 812, "ĠÕŃÕ¶Õ¤": 813, "ĠÕ¡Õ¶Õ±": 814, "ĠÕ½Õ¡Õ°Õ´Õ¡Õ¶": 815, "ĠÕĩ": 816, "ĠÕ´Õ¿": 817, "Õ¥ÖģÕ«Õ¶": 818, "ĠÕ¾Õ¡ÖĢÕ¹": 819, "ĠÕ·Õ¡ÖĢ": 820, "ĠÕ¡Õ¶Õ¾": 821, "Õ«Õ¡ÕµÕ«": 822, "Õ¸ÖĢÕ±": 823, "Õ¶Õ¥Õ¬Õ¸ÖĤ": 824, "ĠÕŃÕ´Õ¢": 825, "ĠÕĢÕ¡Õ¶ÖĢ": 826, "ÖĢÕºÕ¥Õ½": 827, "ĠÕ¨Õ¶Õ©Õ¡Öģ": 828, "ÖĢÕ©": 829, "ÕºÖĢ": 830, "ĠÕ¤Õ¸ÖĤ": 831, "Õ¸Õº": 832, "ĠÕ¨Õ¶Õ¿ÖĢ": 833, "Õ¶Õ¥ÖĢÕ¸Õ¾": 834, "Õ¸Õ¯": 835, "Õ¸ÖĢÕ¿": 836, "ĠÕ°Õ¡Õ¿": 837, "ÂŃ": 838, "Õ«Õ£": 839, "Õ¥Õ»": 840, "Õ¸Õ²Õ»": 841, "Õ¸ÖĤÕ©ÕµÕ¡Õ¶Õ¨": 842, "ĠÕ´Õ¡ÖĢÕ¦": 843, "ĠÕ¥ÖĢÕ¢": 844, "Õ¡Õ¯Õ¨": 845, "Õ¸ÖĦ": 846, "ĠÕ¶Õ¡ÕŃÕ¡ÖĢÕ¡ÖĢ": 847, "Õ¯Õ¡Õ¯Õ¡Õ¶": 848, "Õ¥ÖĢÕ©": 849, "ĠÕ¿Õ¶": 850, "ÖĢÕ¡Õ¶ÖĦ": 851, "Õ¡Õ¢Õ¡Õ¶": 852, "ĠÕ«ÖĢÕ¥Õ¶Öģ": 853, "ĠÕ¢Õ¡Õ¶": 854, "âĢ¤": 855, "ĠÕ¾Õ¥ÖĢÕ»": 856, "ĠÕ¿Õ¥Õ²Õ¥Õ¯": 857, "Ġ4": 858, "ĠÕ¸ÖĢÕºÕ¥Õ½": 859, "Ô½": 860, "Ġ5": 861, "Õ¡ÕµÖĢ": 862, "ĠÕķ": 863, "Õ¶Õ¡ÖĢÕ¡Õ¾Õ¸ÖĢ": 864, "ĠÕ´Õ¸Õ¿": 865, "ĠÕ¡ÖĢ": 866, "201": 867, "ĠÕĢÕ¡Õ¶ÖĢÕ¡ÕºÕ¥Õ¿": 868, "ĠÔµÖĢÖĩ": 869, "ĠÕ½Õº": 870, "ĠÕ»": 871, "Õ¿Õ¶": 872, "er": 873, "ÖĢÕ¡Õ£": 874, "ÖĢÕ¾Õ¡Õ®": 875, "Õ¶Õ¥ÖĢÕ¶": 876, "ĠÕ°Õ¥Õ¼": 877, "in": 878, "ĠÕªÕ¸Õ²Õ¸Õ¾": 879, "ĠÕ¯Õ¡Õ¦Õ´Õ¡Õ¯Õ¥ÖĢÕº": 880, "Õ«Õ¡": 881, "Õ¡ÕºÕ¡Õ¿": 882, "Õ¥Õ¼Õ¶": 883, "Õ¸Õ¹": 884, "ĠÕ¥ÖĦ": 885, "Õ¬ÕŃ": 886, "Õ¸ÖĤÕ©ÕµÕ¸ÖĤÕ¶Õ¶": 887, "ĠÕ®Õ¡Õ¼Õ¡Õµ": 888, "ĠÕ¡Õ¶Õ¤": 889, "Õ¡Õ¢Õ¥ÖĢ": 890, "Õ¥Õ·": 891, "Õ«Õ©": 892, "ĠÕ£Õ«Õ¿": 893, "ĠÕ¶ÖĢÕ¡": 894, "ĠÖĦÕ¡Õ²Õ¡ÖĦÕ¡Õ¯Õ¡Õ¶": 895, "Õ¿Õ¥Õ´Õ¢": 896, "Õ¡ÖĢÕ®": 897, "ĠÕºÕ¡ÕµÕ´Õ¡Õ¶": 898, "ĠÕ°Õ¡Õ²": 899, "ĠÕ°Õ¶Õ¡ÖĢÕ¡Õ¾Õ¸ÖĢ": 900, "ĠÕ¥Õ¯": 901, "ĠÖĥÕ¸ÖĢÕ±": 902, "ĠÕ°Õ¡Õ·": 903, "ĠÔ±ÕµÕ½": 904, "ĠÖĦÕ¶Õ¶": 905, "ĠÖĦÕ¡Õ¶Õ«": 906, "ĠÕ´Õ«Õ¡ÕµÕ¶": 907, "Ôº": 908, "Õ¡Õ·Õ«Õ¶": 909, "Õ´Õ¡Õ´Õ¢": 910, "Õ¡Õ¢Õ¥ÖĢÕ": 911, "Õ¡Õ¿Õ¡Õ¯": 912, "ĠÕ«Õ´": 913, "ĠÕ¡Õ¼Õ¡Õ»Õ«Õ¶": 914, "ĠÕŃÕ¸ÖĢÕ°ÖĢÕ¤": 915, "ĠÕ¡Õ·ÕŃÕ¡Õ¿Õ¡Õ¶ÖĦ": 916, "Õ¥Õ¤": 917, "ĠÕºÕ¡Õ·Õ¿Õ¸Õ¶": 918, "ĠÕ¯Õ¡ÖĢÕ£": 919, "ĠÕ¡Õ¶Õ£Õ¡Õ´": 920, "Õ±Õ¶": 921, "Õ¡Õ¿Õ¥Õ½": 922, "ĠÕ¸ÖĤÕ½": 923, "ĠÕ¥ÖĢÕ¯ÖĢ": 924, "ĠÕ¢Õ¡ÕµÖģ": 925, "Õ¸ÖģÕ«": 926, "Õ¸Öĥ": 927, "ĠÕ¢Õ¡ÖĢÕ±": 928, "Õ¸ÖĤÕ·": 929, "ĠÕ£Õ¶": 930, "ĠÖħÕ£Õ¿": 931, "ĠÕ¨Õ¶Õ¯Õ¥ÖĢ": 932, "Õ¡ÖģÕ¡Õ®": 933, "Õ¡Õ½Õ¿Õ¡Õ¶Õ«": 934, "ĠÕ¬Õ¡Õ¾": 935, "âĢ¦": 936, "Õ¡Õ¯Õ¡Õ¬": 937, "ĠÕ¡Õ¯": 938, "Õ¸ÖĤÕ®": 939, "Õ¡Õ¼Õ¶": 940, "ĠÕºÕ¡Õ¿Õ´": 941, "Ô¾": 942, "Õ¸ÖĤÕ°": 943, "ĠÕ¸ÖĤÕ¶Õ¥Õ¶": 944, "ĠÕ¿Õ¡ÖĢÕ¢Õ¥ÖĢ": 945, "Õ¡Õ¿Õ¾": 946, "Õ¡Õ¯Õ¡ÕµÕ¶": 947, "Õ¥ÖĢÕ¸Õ¾": 948, "ĠÕįÕ¡ÖĢÕ£": 949, "an": 950, "ĠÕ½Õ¿Õ¥Õ²Õ®": 951, "ĠÕ¸ÖĢÕ¸Õ¶ÖĦ": 952, "ĠÕ²": 953, "Õ¥ÖĢÕ¶": 954, "Õ¸ÖĤÕ´Õ¶Õ¥ÖĢ": 955, "ĠÕ¹Õ¥Õ¶": 956, "ÕµÕ¸ÖĤÕ²": 957, "Õ¸ÖĤÕ´Õ¶Õ¥ÖĢÕ«": 958, "Õ¡ÕµÕ¿": 959, "ĠÕ¡Õ²": 960, "ĠÕ¯Õ¡Õ¿Õ¡ÖĢ": 961, "Õ¸Õ°": 962, "Õ¡Õ¶Õ¶": 963, "Õ¡ÖĢÕ¨": 964, "Õ«Õ¶Õ¡Õ¯": 965, "ĠÕ¡Õ¦Õ¡Õ¿": 966, "ĠÕºÕ¡ÖĢÕ¿": 967, "ĠÕ´Õ·": 968, "ĠÕ¢Õ¶Õ¡Õ¯": 969, "ĠÔ¶": 970, "ĠÕ°Õ¡ÕµÕ¿Õ¡ÖĢÕ¡ÖĢ": 971, "ĠÕ¶Õº": 972, "Õ¥Õ½Õ¿": 973, "ĠÕ¡Õ·ÕŃÕ¡ÖĢÕ°": 974, "Õ¾ÖĢ": 975, "ĠÕįÕ¡ÖĢÕ£Õ½": 976, "ĠÕ°Õ¡Õ´Õ¡Õ¯Õ¡ÖĢÕ£": 977, "ĠÕ«ÖĢÕ¡Õ¯Õ¡Õ¶Õ¡Öģ": 978, "ĠÕ´Õ¡Õ½Õ¶Õ¡Õ¯Öģ": 979, "ĠÕ¨Õ¶Õ¤Õ¸ÖĤÕ¶": 980, "ĠÕ¨Õ¶Õ©Õ¡ÖģÖĦÕ¸ÖĤÕ´": 981, "ÕµÕ¸ÖĤÖĢ": 982, "ĠÕĸ": 983, "ĠÕ¤Õ«Õ´": 984, "Õ¾Õ¥Öģ": 985, "Õ¥Õ·Õ¿": 986, "ÖĢÕ¡Õ¶Öģ": 987, "ĠÕ³Õ¡Õ¶": 988, "ÕĮ": 989, "Õ¥Õ£": 990, "ÕĪÕĴÔ¹": 991, "ĠÕ¯Õ¥Õ¶Õ¿ÖĢÕ¸Õ¶": 992, "Õ«Õ¡Õ¶": 993, "ĠÕ®ÖĢÕ¡Õ£ÖĢ": 994, "ÖĢÕ¢Õ¥Õ»": 995, "ĠÕ¸ÖĤÕ²Õ²": 996, "Õ¡Õ½Õ¶": 997, "Õĩ": 998, "ĠÕºÕ¥Õ¿Õ¡Õ¯Õ¡Õ¶": 999, "Õ¬ÕŃÕ¡Õ¾Õ¸ÖĢ": 1000, "ĠÕ¶Õ¸ÖĤÕµÕ¶": 1001, "Õ¸Õ¢": 1002, "ĠÕ²Õ¥Õ¯": 1003, "ÖĩÕ¸ÖĢ": 1004, "ĠÕ¤Õ¡Õ¿": 1005, "ĠÕ°Õ«Õ´Õ¶": 1006, "ĠÕ«ÖĢÕ¡Õ¾Õ¸ÖĤÕ¶ÖĦ": 1007, "Â»:": 1008, "ĠÕ°Õ¡Õ¶Õ¤Õ«Õº": 1009, "Õ¡Õ°Õ¡Õ¿": 1010, "Õ¥ÖĢÕ´": 1011, "Ô¶": 1012, "Ô±Õħ": 1013, "Õ¡Õ£Õ¸ÖĤÕµÕ¶": 1014, "ÖĦÕ¡Õ¶": 1015, "ĠÖģÕ¡Õ¶Õ¯": 1016, "Õ¬Õ«Õ¶": 1017, "ĠÕ´Õ«Õ¶Õ¹": 1018, "Õ¡Õ¶Õ»": 1019, "Õ¸Õ¼": 1020, "Â»-": 1021, "ĠÕ¿Õ¡Õ¬": 1022, "ĠÕĢÕ¡Õ¶ÖĢÕ¡ÕºÕ¥Õ¿Õ¸ÖĤÕ©ÕµÕ¡Õ¶": 1023, "Õ¸Õ¤Õ¾Õ¡Õ®": 1024, "ĠÕ¯Õ¡Õ¼Õ¡Õ¾Õ¡ÖĢ": 1025, "Õ¡Õ±Õ¡ÕµÕ¶": 1026, "Õ¥Öĥ": 1027, "Õ¡Õ¬Õ«": 1028, "at": 1029, "ĠÕºÕ¡Õ¿Õ¡Õ½ÕŃÕ¡Õ¶": 1030, "ĠÕ¥Õ©Õ¥": 1031, "Õ¶Õ¸ÖĢÕ°": 1032, "ĠÕ¤Õ¥Õ´": 1033, "Ġ6": 1034, "19": 1035, "ĠÕºÕ¡Õ·Õ¿ÕºÕ¡Õ¶": 1036, "Õ¡Õ¤Õ¡ÖĢÕ±": 1037, "ĠÕ¢Õ¡Õª": 1038, "ÖĢÕµ": 1039, "Õ¡Õ¦Õ£Õ¡ÕµÕ«Õ¶": 1040, "ĠÕ¿Õ¥Õ²Õ«": 1041, "ĠÖģÕ¸ÖĤÖģ": 1042, "ÕµÕ¡": 1043, "ar": 1044, "Õ¡Õ¯Õ«Öģ": 1045, "Õ¯Õ¡Öģ": 1046, "ĠÕ¸ÖĤÕª": 1047, "Õ¡Õ¯ÖģÕ¸ÖĤÕ©ÕµÕ¡Õ¶": 1048, "Õ¡ÕºÕ¡ÖĢÕ¡Õ¯": 1049, "ĠÕ´Õ¥Õ¶ÖĦ": 1050, "ĠÕģ": 1051, "ÕµÕ¸ÖĤÕ½": 1052, "on": 1053, "ĠÕī": 1054, "Õ«Õ¸Õ¶": 1055, "ĠÕ¶ÖĢÕ¡Õ¶Öģ": 1056, "Õ¸ÖĤÖĢÕ¤": 1057, "ĠÕ´ÖĢÖģ": 1058, "ĠÕ¡Õ´Õ¢": 1059, "ĠÕ¦Õ¡ÖĢÕ£": 1060, "Ô±ÕµÕ½": 1061, "ĠÕ¤Õ¡": 1062, "ÕĢÕĢ": 1063, "or": 1064, "ĠÕ¾Õ¥ÖĢÕ¡Õ¢Õ¥ÖĢÕ": 1065, "ÕĪÕĴÔ¹Õħ": 1066, "ĠÕ¸Õ¾": 1067, "ĠÕ¿Õ¡ÖĢÕ«": 1068, "Õ¡Õ£ÖĢÕ¥Õ¬": 1069, "ĠÔ±Õ¶": 1070, "ĠÕºÕ¡Õ¿Õ³": 1071, "Õ¿Õ¥Õ´Õ¢Õ¥ÖĢÕ«": 1072, "Õ¸ÖĤÕ´Õ¶": 1073, "ĠÕ¤Õ¡Õ½": 1074, "Õ¥ÖĢÕ¿": 1075, "ĠÕ¢Õ¡ÖĢ": 1076, "Õ¸Õ½Õ¿": 1077, "ĠÕ¢Õ¡ÖĢÕ±ÖĢ": 1078, "Õ¥ÖĢÕ¥Õ¶": 1079, "ĠÕ¯Õ¡ÖĢÕ®": 1080, "ĠÕ§Õ»": 1081, "Õ«Õ·Õ¿": 1082, "ĠÖĥÕ¡Õ½Õ¿": 1083, "Õ¸Õ©": 1084, "ĠÕ½Õ¯Õ½": 1085, "ĠÕ¶Õ¥ÖĢ": 1086, "Ô»ÕĨ": 1087, "Õ¸ÖĤÖĢÕ»": 1088, "Õ¸ÖĤÕ½Õ¿": 1089, "Õ¡Õ¾Õ¸ÖĢÕ¾": 1090, "ĠÕ¡Õ¶Õ¤Õ¡Õ´": 1091, "ĠÕ¶Õ¯Õ¡Õ¿": 1092, "ĠÕ¤ÕºÖĢ": 1093, "Â»,-": 1094, "Õ¡ÖĢÕ¡Õ¶Õ«": 1095, "Õ¡Õ¤Õ«ÖĢ": 1096, "Õ¿Õ¡Õ¶Õ£": 1097, "ĠÕ¡ÖĢÕ¤Õ¥Õ¶": 1098, "ĠÕ¸ÖĤÕ¶Õ«": 1099, "ĠÕ¯ÕµÕ¡Õ¶": 1100, "Õ¸ÖĤÕ¶Õ¡Õ¯": 1101, "ÖĦÕ¥ÖĢ": 1102, "Õ¡Õ£Õ«Õ¿": 1103, "ĠÕĪÖĤ": 1104, "Õķ": 1105, "Õ¡ÕºÕ¡Õ°": 1106, "ĠÕ¥Õ²Õ¥Õ¬": 1107, "ĠÕ²Õ¥Õ¯Õ¡Õ¾Õ¡ÖĢ": 1108, "en": 1109, "Õ«ÖĢÕ¨": 1110, "ĠÕ°Õ¡Õ¶ÖĢ": 1111, "Õ¥Õ©": 1112, "Õ«Õ¯Õ¡Õ¶": 1113, "Õ¥ÖĢÕ£": 1114, "ĠÕŃÕ¶Õ¤Õ«ÖĢ": 1115, "ĠÕ¤Õ¡ÖĢÕ±": 1116, "),": 1117, "ÖĦÕ¸Õ¾": 1118, "Õ¡ÖĢÕ´Õ¡Õ¶": 1119, "Õ¸ÖĤÕ©ÕµÕ¸ÖĤÕ¶Õ«Öģ": 1120, "ĠÕºÕ¡Õ¿Õ³Õ¡Õ¼": 1121, "ĠÕ«Õ·": 1122, "ĠA": 1123, "ĠÕ°Õ¥Õ¿Öĩ": 1124, "ÕĦÕĨ": 1125, "ĠÕ°Õ¡Õ¯": 1126, "ĠÕ°Õ¸Õ£": 1127, "Õ¡ÕµÕ¬": 1128, "ĠÕ¤Õ¥ÕºÖĦÕ¸ÖĤÕ´": 1129, "ĠÕ¥Õ¶Õ©": 1130, "ĠÕ±Õ¥Õ¼": 1131, "ĠÕ¦Õ«Õ¶": 1132, "Ġ10": 1133, "Õ¡ÖģÕ«Õ¶": 1134, "ĠÕ¯Õ¡Õ¿": 1135, "Ġ2018": 1136, "Õ¡ÕªÕ¸Õ²Õ¸Õ¾": 1137, "Ġ7": 1138, "ĠÕµ": 1139, "Õ¸Õ²Õ¶Õ¥ÖĢÕ«": 1140, "ĠÕ¤ÖĢÕ¡Õ´": 1141, "ĠÕ¨Õ¶Õ¿": 1142, "ĠÕ°Õ¡Õ½Õ¿": 1143, "Õ¸Õ¾Õ°": 1144, "ĠÕ¥ÖĢÕ¥ÕŃ": 1145, "ĠÕ´Õ¡ÖĢÕ´": 1146, "ĠÕ¡ÖĢÕª": 1147, "Ô·": 1148, "ĠÕĵÕ¡Õ·Õ«Õ¶": 1149, "ĠÔ¿Õ¡ÖĢ": 1150, "ĠÕ¢Õ¶": 1151, "Õ¸ÖĤÖģÕ«Õ¹": 1152, "Õĳ": 1153, "ĠÕ©Õ¾Õ¡Õ¯Õ¡Õ¶Õ«": 1154, "Õ¥ÖĢÕ«Öģ": 1155, "Õ¯Õ¡": 1156, "ĠÕ«Õ¶ÖĦÕ¶": 1157, "Õ¸ÖĢÕ¥Õ¶": 1158, "ĠÕ°Õ¸Õ¤Õ¾Õ¡Õ®": 1159, "Õ¸ÖĥÕ¸ÕŃ": 1160, "ĠÕ¥ÖĢÕ¯Õ¸ÖĤ": 1161, "ĠÖħÖĢÕ¥Õ¶": 1162, "Õ¡Õ·ÖĢÕ»": 1163, "ĠÕ¶Õ·Õ¡Õ¶Õ¡Õ¯": 1164, "ĠÕ¬ÖĢ": 1165, "ĠÕ£Õ¿Õ¶": 1166, "Õ¸Õ¦": 1167, "Õ¥ÖĢÕª": 1168, "ÖĦÕ«Õ¶": 1169, "Õ¡Õ¶Õ¡Õ¯Õ¡Õ¶": 1170, "Õ«Õ¤": 1171, "ĠÕ¶Õ´Õ¡Õ¶": 1172, "ĠÕ´Õ¥Õ¦": 1173, "ĠÕĢÕ¡ÕµÕ¡Õ½Õ¿Õ¡Õ¶Õ¸ÖĤÕ´": 1174, "ĠÕ°Õ¡Õ·Õ¾": 1175, "ÖĢÕ¡Õ¶Õ½": 1176, "ĠÕ°Õ¡Õ´Õ¡Õ±Õ¡ÕµÕ¶": 1177, "ĠÕ¤ÖĢ": 1178, "Õ¤ÖĢÕ¢Õ¥Õ»": 1179, "Õ¡Õ°Õ¸Õ¾": 1180, "Õ¡Õ¶ÕµÕ¸ÖĤÕ©": 1181, "ĠÕ¡Õ´Õ¢Õ¸Õ²Õ»": 1182, "Õ¡Õ¥": 1183, "ĠÕºÕ¡Õ¿ÖĢÕ¡Õ½Õ¿": 1184, "Õ¡Õ¶Õ«Öģ": 1185, "Õ¡ÖĢÕ¯Õ¥Õ¬": 1186, "le": 1187, "ĠÕ¡ÖĢÕ¤ÕµÕ¸ÖĤÕ¶": 1188, "ĠÕºÕ¡ÖĢÕ¦": 1189, "ĠÕ½Õ¡Õ¯Õ¡ÕµÕ¶": 1190, "µÕ¡Õ¬": 1191, "ĠÕ´Õ·Õ¡Õ¯": 1192, "ĠÕ°Õ¡ÕµÕ¿Õ¶": 1193, "ĠÕ«Õ·ÕŃÕ¡Õ¶": 1194, "ÖĢÖĦ": 1195, "ĠÕ£ÕµÕ¸ÖĤÕ²": 1196, "ĠÕ¡ÖĢÕ±": 1197, "ĠÕ¶ÕºÕ¡Õ¿Õ¡Õ¯": 1198, "om": 1199, "ĠÕ¿Õ¶Õ¿Õ¥Õ½": 1200, "ÖĢÕ¡Õª": 1201, "Ġ8": 1202, "Ô±Õį": 1203, "ĠÕ£Õ¸ÖĢÕ®Õ¨Õ¶": 1204, "ĠÕ´Õ«Õ»Õ¡Õ¦Õ£Õ¡ÕµÕ«Õ¶": 1205, "Ô±ÕĦ": 1206, "ĠÖĥÕ¸ÖĥÕ¸ÕŃ": 1207, "ĠÕ¡ÕµÕ½ÖħÖĢ": 1208, "Õ¡ÖĥÕ¸ÕŃ": 1209, "âĢĵ": 1210, "ĠÕ½Õ«ÖĢ": 1211, "Õ¸ÖĤÖĦ": 1212, "ĠÕ£Õ¬ÕŃÕ¡Õ¾Õ¸ÖĢ": 1213, "ĠÕĮÕ¸ÖĤÕ½": 1214, "ĠÕ°ÖĢÕ¡ÕºÕ¡ÖĢÕ¡Õ¯": 1215, "ĠÕ¾Õ¥ÖĢÕ¡Õ¢Õ¥ÖĢÕµÕ¡Õ¬": 1216, "ÕµÕ¡Õ¶Õ¶": 1217, "Õ¡ÖģÕ¶Õ¥Õ¬": 1218, "ÖĢÕ¾Õ¥Õ¬": 1219, "Õ¡Õ¶Õ«Õ¶": 1220, "Õ¸ÖĤÖĢÖĦÕ«": 1221, "Õ¡ÕºÕ¡ÖĢÕ°": 1222, "Ġ9": 1223, "ĠÕ¾Õ¡ÖĢÕ¹Õ¡ÕºÕ¥Õ¿": 1224, "ĠÕ¡Õ¶Õ¯": 1225, "ĠÕ¾Õ¥ÖĢÕ»Õ«Õ¶": 1226, "ĠÖħÕ£Õ¿Õ¡Õ£Õ¸ÖĢÕ®": 1227, "ĠÕ¶Õ¾": 1228, "ÖĢÕ£": 1229, "Õ«Õ¿Õ¡Õ½": 1230, "Õ¸ÖĤÕª": 1231, "Õ¸ÖĤÕ´Õ¶Õ¥ÖĢÕ¨": 1232, "Õ¡Õ£Õ¥Õ¿": 1233, "ĠÕ´Õ¥Õ¯Õ¶": 1234, "Õ¡Õ·ÕŃ": 1235, "ÖĢÖģÕ¡ÕŃ": 1236, "Õ½Õ¿Õ«Õ¯Õ¡Õ¶": 1237, "ĠÕ´Õ¡ÖĢÕ¤Õ¯": 1238, "ĠÕ«Õ¶Õ±": 1239, "ĠÕ°Õ¡Õ½Õ¡ÖĢÕ¡Õ¯": 1240, "ĠÕ¡ÕµÖģ": 1241, "ĠÔ±ÕĦÕĨ": 1242, "ĠÕ¸ÖĢÕ«": 1243, "Õ«Õ¶Õ¨": 1244, "ĠÕºÕ¡Õ°Õ¡Õ¶Õ»": 1245, "Õ¡ÖģÕ¾Õ¡Õ®": 1246, "Õ¾ÖĢÕ¸Õº": 1247, "Õ¡Õ¢Õ¡ÖĢ": 1248, "ĠÕ°Õ¡Õ½Õ¿Õ¡Õ¿": 1249, "ĠÕ°Õ¥Õ²": 1250, "ÖĢÕ´Õ¥Õ¶": 1251, "Ô»Õ¶Õ¹": 1252, "it": 1253, "ĠÕ°Õ¡Õ¾Õ¡ÖĦ": 1254, "Õ¸ÖĤÕ¶Õ¥": 1255, "ĠÕ£Õ¡Õ¬": 1256, "Õ¡Õ½Õ¡Õ¶": 1257, "ĠÕ°Õ²": 1258, "Ô±Õı": 1259, "Õ¥Õ®": 1260, "ĠÔ¸": 1261, "Õ¡ÖĢÕ½": 1262, "Õĵ": 1263, "ĠC": 1264, "ĠÕ¡ÕºÕ¡Õ°Õ¸Õ¾": 1265, "ĠÕ°Õ¡Õ»": 1266, "Õ¥Õ²Õ¥Öģ": 1267, "ĠÕ·Õ¶Õ¸ÖĢÕ°": 1268, "ÕĪÕĴÕĨ": 1269, "ĠÕ£Õ¸ÖĢÕ®Õ¸Õ²": 1270, "Õ¡Õ°Õ¡ÕµÕ¿": 1271, "Ġ200": 1272, "Õ¥ÖĢÕ½": 1273, "Õ¡Õ¶Õ½": 1274, "ĠÔ±ÖĢ": 1275, "Ô±Õ¶": 1276, "Õ³Õ¡ÖĢ": 1277, "ĠÕ¦Õ¢": 1278, "Õ¡Õ¶Õ¯Õ¡ÖĢ": 1279, "ĠÕ®Õ¶": 1280, "Õ«Õ¯Õ¸Õ¬": 1281, "ĠÕĤ": 1282, "Õ¡Õ¾Õ¥Õ¬": 1283, "ĠÕ¿Õ¾": 1284, "ĠÕ°Õ¡Õ´Õ¡ÕµÕ¶": 1285, "ĠÕ°Õ¡ÖĢÕ¯": 1286, "Õ©Õ¥ÖĢ": 1287, "ĠÕ¯Õ¬Õ«Õ¶": 1288, "ÕµÕ¡Õ¯": 1289, "ĠÕ¡Õ½Õ¡Öģ": 1290, "Õ¯Õ¡Õ¶": 1291, "ĠÔ¾": 1292, "es": 1293, "ĠÕ¦Õ£": 1294, "ĠÕ°Õ¡Õ¶Õ±Õ¶": 1295, "ĠÕĦÕ«": 1296, "ĠÔ±Õ¬": 1297, "Õ¾Õ¥Õ¬Õ¸ÖĤ": 1298, "ÖĢÕ¥": 1299, "Õ¡Õ¾Õ¸ÖĢÕ´": 1300, "Ġ20": 1301, "ĠÕ¸ÖĤÖĢ": 1302, "ĠS": 1303, "ĠÕ¡Õ¼Õ¡Õ»Õ¶": 1304, "ÕµÕ¸ÖĤÕ": 1305, "ÖĢÕ¡ÕªÕ¥Õ·Õ¿": 1306, "ĠÕ¤ÕºÖĢÕ¸Öģ": 1307, "ÖĢÕ¿Õ¥Õ²": 1308, "ĠÕĭ": 1309, "Ô±Õ¦": 1310, "ĠÕ°Õ¡Õ²Õ¸ÖĢÕ¤": 1311, "ÕĪÖĤ": 1312, "ĠÕ´Õ¥Õ²": 1313, "Õ´Õ«": 1314, "Õ¯Õ«Õ¶": 1315, "Ġ0": 1316, "ĠÕ¤Õ¸ÖĤÖĢÕ½": 1317, "ĠÖĦÕ¡Õ¶": 1318, "Õ«Õ¡Õ¯Õ¡Õ¶": 1319, "ĠÕ¡Õ½Õ¥Õ¬": 1320, "Õ¡ÖģÕ¶Õ¸ÖĤÕ´": 1321, "ÕĪÕĲ": 1322, "Õ°Õ¡Õ¶": 1323, "ĠÕ¤Õ¥Õ¼": 1324, "Õ¡ÕŃÕ¡Õ£": 1325, "ĠÔ±Õ¤ÖĢÕ¢Õ¥Õ»": 1326, "Õ«Õ¿Õ¡Õ½Õ¡ÖĢÕ¤": 1327, "ĠÕªÕ¸Õ²Õ¸Õ¾ÖĢÕ¤": 1328, "ĠÕ¹Õ¡Öĥ": 1329, "Õ·Õ¿": 1330, "ĠÕ¡Õ¯Õ¿": 1331, "ÖĢÕ¥Õ¶": 1332, "ĠÕ¡ÖĢÕ¤Õµ": 1333, "Õ¡ÕŃÕ¿": 1334, "Õ¥ÕŃÕ¶": 1335, "ĠÔ±Õ¦": 1336, "ĠÕ¯ÖĢÕ©": 1337, "Õ¡ÖĦÖĢÖĦ": 1338, "ĠÕ¸ÖĢÕ¿Õ¥Õ²": 1339, "al": 1340, "ĠÕ±Õ¥ÖĢ": 1341, "Õī": 1342, "ĠÕ¸Õ¬": 1343, "Õ¸Õ¾Õ¸ÖĢ": 1344, "Õ¡ÖĢÕ¾Õ¡Õ®": 1345, "ÕĤ": 1346, "ĠÕ£Õ¸ÖĢÕ®Õ¸ÖĤÕ¶Õ¥": 1347, "Õ¥Õ«": 1348, "Â».": 1349, "ĠÕ´Õ«Õ¶Õ¹Öĩ": 1350, "ĠÕ¡ÕºÕ¡": 1351, "ĠÕ±Öĩ": 1352, "Õ¥Õ¯Õ¡Õ¶": 1353, "ĠÕ¡Õ»": 1354, "Õ¸Õ¶Õ«": 1355, "ed": 1356, "ĠÕħ": 1357, "ĠÕ¿Õ¡ÖĢÕ«Õ¶": 1358, "ĠÕ¯Õ¶": 1359, "Õ¡Õ¥ÖĤ": 1360, "Ġ18": 1361, "ĠÕ½ÕºÕ¡Õ½": 1362, "ĠÔ³ÖĢ": 1363, "ÕµÕ¡Õ¶Õ«Õ¶": 1364, "ĠÕ¾Õ«Õ³": 1365, "ĠÕ¡Õ¼Õ¡Õ¶Öģ": 1366, "Õ¸ÖĤÕ£": 1367, "Õ¡ÖĢÕ¯Õ¸ÖĤÕ´": 1368, "Ġ12": 1369, "ĠÕ¡Õ¶Õ°ÖĢÕ¡ÕªÕ¥Õ·Õ¿": 1370, "Õĸ": 1371, "ĠÕ¸Õ¬Õ¸ÖĢÕ¿": 1372, "Õ¸Õ²Õ¡Õ¯Õ¡Õ¶": 1373, "Õ´Õ¡Õ¶Õ¨": 1374, "Õ¸ÖĤÕµÕ¬": 1375, "ĠÕ¿ÖĢÕ¡Õ´": 1376, "ĠÕ¿Õ¾ÕµÕ¡Õ¬": 1377, "ĠÕ¹Õ¸ÖĤÕ¶": 1378, "ĠÕ®ÖĢÕ¡Õ£": 1379, "Õ¥Õ¯Õ¶": 1380, "ĠÕ°Õ¡ÖĢÕ¡Õ¢Õ¥ÖĢ": 1381, "Õ¡Õ¶Õ¹": 1382, "ĠÖĥÕ¸Õ²": 1383, "ĠÔ±Õ¼": 1384, "ĠT": 1385, "Õ¡Õ½Õ¿Õ¡Õ¶": 1386, "ĠÕ¶ÕµÕ¸ÖĤÕ©": 1387, "ĠÕĢÕ¡ÖĢ": 1388, "ĠÕ¡Õ¦Õ£Õ¡ÕµÕ«Õ¶": 1389, "ĠÕ¶Õ¡Õ¥ÖĤ": 1390, "ĠÕºÕ¡ÖĢ": 1391, "ĠÕ·Õ¡ÖĢÕ¸ÖĤÕ¶Õ¡Õ¯": 1392, "Ġ...": 1393, "ĠÕ¹Õ¥Õ´": 1394, "Õ¸ÖĢÕ¨": 1395, "ĠÕ°Õ¡Õ´Õ¡Õ¬": 1396, "Ġ15": 1397, "ĠÕ¾Õ¡ÖĢ": 1398, "Õ«Õ¶Õ£": 1399, "ĠÕ°Õ¡Õ²Õ©": 1400, "ĠÕ³Õ¡Õ¶Õ¡ÕºÕ¡ÖĢÕ°": 1401, "ĠÕ·Õ¡Õ°": 1402, "ĠÕ°Õ«Õ´Õ¶Õ¡Õ¯Õ¡Õ¶": 1403, "Ô±Ô¿Ô±ÕĨ": 1404, "ĠÔ±ÖĢÖģÕ¡ÕŃ": 1405, "ĠÕ°Õ¡Õ³": 1406, "Ġ/": 1407, "ĠÕ´Õ¡Õ°": 1408, "Õ¸Õ½Õ«": 1409, "Õ¦Õ«": 1410, "Õ¸ÖĤÕ©ÕµÕ¸ÖĤÕ¶Õ¸ÖĤÕ´": 1411, "Õ¡Õ£Õ«ÖĢ": 1412, "ĠÕ¯Õ¡ÖĢÖĩÕ¸ÖĢ": 1413, "Õ¥Õ¢": 1414, "ĠÕ´Õ¶": 1415, "Õ¡Õ¶ÖĦÕ«": 1416, "ĠÕ¢Õ¡Õ¦Õ´": 1417, "ĠÕ°Õ¡ÕµÕ¯Õ¡Õ¯Õ¡Õ¶": 1418, "Õ¡Õ¼Õ¶Õ¡Õ¬": 1419, "ĠÕ±Õ¥Õ¼ÖĦ": 1420, "ĠÕ°Õ¡Õ¦": 1421, "Õ¡Õ¯Õ¡Õµ": 1422, "ĠÕ¬Õ¸ÖĤÕ®": 1423, "Õ¡Õ¶Õ±": 1424, "Õ«Õ½Õ¯": 1425, "ĠÕ°Õ«Õ·": 1426, "ĠÕ¯Õ¸Õ´": 1427, "ĠM": 1428, "Õ¶Õ¥Õ¬Õ¸Õ¾": 1429, "ĠÕĢÕ¡ÕµÕ¡Õ½Õ¿Õ¡Õ¶": 1430, "Õ¸Õ»": 1431, "Ġ11": 1432, "Õ¡Õ¾Õ¸ÖĢÕ´Õ¡Õ¶": 1433, "ĠÕ¡Õ¶ÖģÕ¯Õ¡Öģ": 1434, "ĠÔ¹Õ¸ÖĤÖĢÖĦÕ«": 1435, "ÕºÕ¡Õ¶Õ¸ÖĤÕ©ÕµÕ¡Õ¶": 1436, "ĠÖħÖĢÕ¥Õ¶ÖĦ": 1437, "ĠÕ´Õ¡ÖĢÕ¤Õ¯Õ¡Õ¶Öģ": 1438, "ĠÕ¶Õ¯Õ¡Õ¿Õ´Õ¡Õ´Õ¢": 1439, "Õ¸ÖĤÕµÕ©Õ«": 1440, "ĠÕ¸ÖĤÕ¶Õ¥ÖģÕ¥Õ¬": 1441, "Õ¡Õ¶Õ¥ÖĢÕ«": 1442, "ĠÕ¯Õ¸Õ¹": 1443, "ÖĢÕ¸ÖĤÕµÖģ": 1444, "ĠÔ±Õ´": 1445, "Õ¸ÖĤÕµÕ½": 1446, "ĠÔµÖĢ": 1447, "ÕĨÔµÕĲ": 1448, "âĢĶ": 1449, "ĠÕ¥ÖĢÕ£": 1450, "ĠÕĨÕ«Õ¯Õ¸Õ¬": 1451, "Õ¦Õ¢": 1452, "Õ«Õ¬Õ«": 1453, "Õ¸ÖĦÖĢ": 1454, "ĠÕ¯Õ¡": 1455, "ÕĢÕ¡ÕµÕ¡Õ½Õ¿Õ¡Õ¶Õ«": 1456, "ĠP": 1457, "ĠâĢĵ": 1458, "ÖĢÕ¡Õ¾": 1459, "ĠÕ¸Õ½Õ¿Õ«Õ¯Õ¡Õ¶": 1460, "ĠÕ¬Õ¸ÖĤÕ½": 1461, "Õ¥Õ°": 1462, "Õ¡Õ°Õ¡Õ¶": 1463, "ĠÕ´Õ¡ÖĢÕ¿": 1464, "ĠÕ°Õ¡Õ´Õ¡ÕºÕ¡Õ¿": 1465, "ĠÕ¡Õ¾Õ¥Õ¬": 1466, "Õ¸ÖĤÕ¦": 1467, "ĠÕ¿Õ²": 1468, "Õ¡Õ´ÕµÕ¡": 1469, "ĠÔ±ÕµÕ¤": 1470, "ĠÕ¶Õ«Õ½Õ¿": 1471, "ĠÕ¢Õ¥ÖĢ": 1472, "ĠÕ¯Õ¸ÖĤÕ½": 1473, "ĠÕ¡ÕºÖĢ": 1474, "ĠÕĨÕ¡": 1475, "ĠÕ¿Õ¡Õ¬Õ«Õ½": 1476, "ĠÕ¢Õ¡Õ¶Õ¡Õ¯": 1477, "ĠÕ¶Õ¡ÕŃÕ¡Õ¿Õ¥Õ½": 1478, "ĠÕ¬Õ¥Õ¦": 1479, "ĠÕ©Õ¸Õ²": 1480, "ÕµÕ¸ÖĤ": 1481, "Õ¥ÖĢÕ¢": 1482, "ĠÕ©Õ¸ÖĤÕµÕ¬": 1483, "ĠÕ¤Õ¡Õ¿Õ¡ÖĢ": 1484, "ĠÕ¥ÖĢÕ«Õ¿Õ¡Õ½Õ¡ÖĢÕ¤": 1485, "Õ¸ÖĤÕ©ÕµÕ¸ÖĤÕ¶Õ¶Õ¥ÖĢÕ«Õ¶": 1486, "10": 1487, "ĠÕ£Õ¡Õ²": 1488, "Õ¡ÕŃÕ¡Õ£Õ¡Õ°": 1489, "ĠÕ·ÖĢÕ»Õ¡Õ¶Õ¡Õ¯": 1490, "Õ°Õ¡Õ¶Õ¸ÖĤÖĢ": 1491, "ĠÕ¡Õ½Õ¸ÖĤÕ´": 1492, "ĠÕ¦Õ¡ÖĢÕ£Õ¡ÖģÕ´Õ¡Õ¶": 1493, "ÕĪÕĴÕĦ": 1494, "ĠN": 1495, "ĠÕ·Õ¸ÖĤÖĢÕ»": 1496, "ĠÕ¯ÖĢ": 1497, "ĠÕ¿Õ¡ÖĢÕ¾": 1498, "Õ¥ÖĦÕ¥Õ¶": 1499, "ĠÕ¯Õ¡Õ¼Õ¸ÖĤÖģ": 1500, "ĠÕ¬Õ«Õ¶Õ¥Õ¬": 1501, "ĠÕ¸ÖĢÕ¸Õ¶Öģ": 1502, "ĠÕ¾Õ¡Õ²": 1503, "ĠÕĬÕ¥Õ¿": 1504, "ĠÕ¡Õ¾Õ¿": 1505, "ĠÕ¯Õ«ÖĢ": 1506, "Õ¾Õ¡ÖĢ": 1507, "ÕºÕ«Õ½Õ«": 1508, "ĠÕ¡Õ½Õ¿": 1509, "ĠÕ°Õ¥Õ¿Õ¡ÖĦÖĢÖĦ": 1510, "Õģ": 1511, "Ô±ÕĢ": 1512, "ĠÕ¦Õ¢Õ¡Õ²": 1513, "ĠÕ°Õ¡Õ´Õ¡Õ£Õ¸ÖĢÕ®": 1514, "18": 1515, "ĠÕ¼Õ¡Õ¦Õ´": 1516, "ÖĢÕ¡Õ°": 1517, "ĠÕ¶Õ¥ÖĢÕ¤": 1518, "Õ«Õ¶Õ¡Õ¶Õ½": 1519, "ĠÕ´Õ¡Õ¯": 1520, "ĠÕ½Õ¸Õ¾Õ¸ÖĢ": 1521, "ĠÕ¡Õ¾Õ¡ÖĢÕ¿": 1522, "Õ¥ÖĦÕ½": 1523, "Ġ2017": 1524, "ĠÕ´Õ¥Õ¯Õ¨": 1525, "ÕĪÕĴÔ¹ÕħÕĪÕĴÕĨ": 1526, "Õ¡ÖĦÕ«Õ¶": 1527, "Õ¦Õ¸ÖĤÕ´": 1528, "Õ¸ÖģÕ«Õ¡Õ¬": 1529, "ĠÕ£Õ¸ÖĤÕ´": 1530, "ĠÕ°Õ¡Õ½Öģ": 1531, "Õ¸ÖĢÕ«": 1532, "Õ£Õ¶": 1533, "ĠÕµÕ¸ÖĤÖĢ": 1534, "ĠÕ¿Õ¶ÖħÖĢ": 1535, "ĠÔº": 1536, "ĠÕ¶ÖĢÕ¡Õ¶ÖĦ": 1537, "ÖĢÕ¥Öģ": 1538, "Ô±Õ¼": 1539, "ĠÕ¤Õ¸ÖĤÖĦ": 1540, "ĠÔ±Õ½Õ¿": 1541, "de": 1542, "st": 1543, "ĠÕ°Õ¸ÖĤÕ¶": 1544, "Õ¡ÕŃÕ¸Õ½": 1545, "ĠÕ¨Õ½Õ¿": 1546, "ĠÕ¶Õ¡ÕŃÕ¯Õ«Õ¶": 1547, "Õ«Õ¯Õ¡Õ¯Õ¡Õ¶": 1548, "Õ¡Õ¼Õ¸ÖĤÕ´": 1549, "ĠÖĦÕ¡ÕµÕ¬": 1550, "Õ½Õ¿Õ¥Õ²": 1551, "):": 1552, "ĠÕ¬Õ«": 1553, "ĠÂ»": 1554, "Õ«Õ®": 1555, "Õ¡Õ½Õ«ÖĢ": 1556, "ĠÕ¸ÖĤÕ·": 1557, "ĠÕ¬Õ«Õ¶Õ«": 1558, "ĠÕ¯Õ¡Õ¼Õ¡Õ¾Õ¡ÖĢÕ¸ÖĤÕ©ÕµÕ¡Õ¶": 1559, "Ġ16": 1560, "ĠÕ¨Õ¶Õ¿Õ¡Õ¶Õ«": 1561, "ĠÕ¶Õ¥ÖĢÕ¯Õ¡ÕµÕ¡ÖģÕ¸ÖĤÖģÕ«Õ¹": 1562, "ĠÕ«ÖĢÕ¡Õ¾Õ«Õ³": 1563, "Õ¢Õ¸Õ¬": 1564, "ĠÕ¡Õ¶Õ¾Õ¿Õ¡Õ¶Õ£": 1565, "ĠÕ¿Õ¥ÕŃÕ¶": 1566, "Õ¥ÖĥÕ¡Õ¯Õ¡Õ¶": 1567, "Õ¡ÖĢÕ¾Õ¸ÖĤÕ´": 1568, "Õ¥ÖĢÕ«Õ¯": 1569, "ĠÕ¶Õ¯Õ¡ÖĢ": 1570, "Ġ13": 1571, "ĠÔ±ÕµÕ¶": 1572, "ĠÕ¤Õ«Õ¿": 1573, "ĠÔ»Õ¶Õ¹": 1574, "Ô±ÕĬ": 1575, "ĠÕ¸Õ²": 1576, "Õ¡Õ¶Õ¡": 1577, "ÖĢÕ´Õ¡Õ¶": 1578, "ÖĢÕ¥Õ¡Õ¯Õ¡Õ¶": 1579, "Ġ17": 1580, "Õ¯Õ¥Õ¿": 1581, "Ô±Õ¦Õ¡Õ¿": 1582, "ĠÕ£Õ¿": 1583, "Õ¡ÖĢÕ£Õ¥Õ¬": 1584, "ĠÔ±ÖĢÕ´Õ¥Õ¶": 1585, "ĠÔµÖĢÖĩÕ¡Õ¶Õ«": 1586, "ÕįÕ¿": 1587, "15": 1588, "20": 1589, "ĠÕ´Õ¡Õ¿": 1590, "ĠÕĨÕ¸ÖĢ": 1591, "Õ¡Õ¶Õ«Õ·": 1592, "Õ¡Õ°Õ¡ÖĢ": 1593, "Õ«Õ¾Õ¡Õ¶Õ¤": 1594, "ĠÖħÖĢÕ¥Õ¶Õ½": 1595, "Õ¡Õ¿Õ«": 1596, "ĠÕģÕ¥ÖĢ": 1597, "ĠÕ©Õ¾Õ¡Õ¯Õ¡Õ¶Õ«Õ¶": 1598, "Õ¡Õ¾Õ¸ÖĢÕ¾Õ¡Õ®": 1599, "ĠÕ©Õ¥Õ´": 1600, "ÔµÕı": 1601, "ĠÕ¡Õ¶Õ¸ÖĤÕ¶": 1602, "ĠÖĦÕ¶Õ¶Õ¡ÖĢÕ¯": 1603, "Õ¥Õ¿Öĩ": 1604, "ĠÕºÕ¡ÕµÖĦ": 1605, "Õ¡Õ¿Õ¾Õ¡Õ¯Õ¡Õ¶": 1606, "Õ£Õ¿": 1607, "ĠÕºÕ¡Õ¿Õ£Õ¡Õ´": 1608, "ĠÕ´Õ¡Õ½Õ¶Õ¡Õ¯": 1609, "Õ¸ÖĢÕ¸Õ·": 1610, "ĠÕ³Õ¡Õ¶Õ¡Õ¹": 1611, "ĠB": 1612, "ĠÕ°Õ¡Õ´Õ¡ÕºÕ¡Õ¿Õ¡Õ½ÕŃÕ¡Õ¶": 1613, "ĠÕ·ÖĢÕ»Õ¡Õ¶": 1614, "Õ¡ÖĢÖĦ": 1615, "ĠÔ±Õ¾": 1616, "ĠÕºÖĢ": 1617, "Õ¸Õ¬Õ¸Õ£": 1618, "Õ¸ÖĤÕ¬Õ«": 1619, "Ġ,": 1620, "ÖĩÕ§": 1621, "Õ¸ÖĤÖĢÖĦ": 1622, "ÖĢÕ¾Õ¸ÖĤÕ´": 1623, "Õ¥Õ¬Õ¨": 1624, "ĠÕ¡ÕµÖģÕ¥Õ¬": 1625, "Õ¡Õ´Õ¡ÖĢÕ¿": 1626, "ĠÔµÖĢÖĩÕ¡Õ¶": 1627, "ĠÔµÕ½": 1628, "ĠÕ¯Õ¸Õ¶": 1629, "ĠÕ½Õ¿Õ¸ÖĢ": 1630, "Õ¡Õ¶Õ±Õ¶": 1631, "Õ²Õ©": 1632, "Õ¸ÖĤÖĢÕ¥ÖĢ": 1633, "Ġ[": 1634, "ĠÔµÕ¾ÖĢÕ¸Õº": 1635, "ĠÕ¿Õ¡ÖĢÕ¾Õ¡": 1636, "ol": 1637, "ĠÕ¡Õ¼Õ¡Õ»Õ¡ÖĢÕ¯": 1638, "Õ¼Õ¶": 1639, "ĠÔ»ÖĢ": 1640, "ĠÕ¯Õ¡ÖĢÕ¥Õ¬Õ«": 1641, "ĠÕ·Õ¡ÖĢÖĦ": 1642, "ĠÕ©Õ«Õ¾": 1643, "ĠÕ°Õ¡ÕµÕ¿Õ¶Õ«": 1644, "ĠÕ½Õ¥ÖĥÕ¡Õ¯Õ¡Õ¶": 1645, "ĠÔµÕ¾": 1646, "Õ¡Õ¾Õ¡ÖĢÕ´Õ¡Õ¶": 1647, "Ġ14": 1648, "11": 1649, "Õ¡ÖĢÕµÕ¡Õ¶Õ¨": 1650, "Õ¡ÖĢÕ¡Õ¢": 1651, "Õ¡Õ£Õ«Õ¿Õ¡Õ¯Õ¡Õ¶": 1652, "Õ¥ÖĢÕ¡Õ¦Õ´": 1653, "ĠÖħÖĢÕ¨": 1654, "ĠÐ": 1655, "ĠÕ£Õ¶Õ¡Õ°Õ¡Õ¿": 1656, "ch": 1657, "ĠÕ¨Õ¶Õ¯": 1658, "ĠÕįÕ¥ÖĢÕª": 1659, "Õ¿Õ¥Õ²": 1660, "ĠÕ°Õ¡Õ¦Õ¡ÖĢ": 1661, "ĠÕ¿Õ¶ÖħÖĢÕ¥Õ¶": 1662, "ĠÕ¢Õ¡Õ¾": 1663, "ĠÔ±ÖĢÕ¿": 1664, "Õ¸Õ²Õ«": 1665, "Õ¡Õ¤Õ«": 1666, "Õ¥ÖĢÕ¯": 1667, "ĠÕ°Õ¡Õ»Õ¸Õ²": 1668, "ĠÖĥÕ¸ÖĦÖĢ": 1669, "ĠÕ°Õ«Õ¾Õ¡Õ¶Õ¤": 1670, "Õ¡Õ³Õ¡Õ¼": 1671, "Õ¸ÖĤÕ¢": 1672, "ĠÕ¡Õ¯Õ¿Õ«Õ¾": 1673, "ĠÕ±Õ¥Õ¦": 1674, "ĠÕ¶Õ¡ÕŃÕ¡Õ£Õ®": 1675, "Õ½Õ¿Õ¡Õ°": 1676, "Õ¡Õ¿ÖĢ": 1677, "ĠÕ¸ÖĤÕ¶Õ¥ÖģÕ¸Õ²": 1678, "ĠÕ£Õ¥ÖĢ": 1679, "ĠÕ¡Õ´Õ½": 1680, "Õ¨Õ¶Õ¤": 1681, "Õ£ÖĢ": 1682, "Õĭ": 1683, "ĠÕ°Õ¥Õ¶Öģ": 1684, "Õ¸ÖĢÕµ": 1685, "Õ¥Õ¯Õ¿": 1686, "ĠÕ¼Õ¸ÖĤÕ½": 1687, "ĠÕ´ÕµÕ¸ÖĤÕ½": 1688, "Õ¡ÖĢÕ¾Õ¥Õ½Õ¿": 1689, "ĠÕ´Õ«Õ»Õ¸ÖģÕ¸Õ¾": 1690, "ĠÕĢÕ¡Õ´": 1691, "Õ¡ÖĦÕ¡Õ¶Õ¹": 1692, "com": 1693, "000": 1694, "ĠÕ½Õ¯Õ¦Õ¢": 1695, "Õ¡ÖĢÕ¡Õ¢Õ¡Õ²": 1696, "ĠÕ¢Õ¡Õ¼": 1697, "ĠÕ«ÖĢÕ¥Õ¶": 1698, "ik": 1699, "ĠÔ±Õ·": 1700, "Õ¥ÖĢÕ¾": 1701, "12": 1702, "Õ¶Õ¸Õ²": 1703, "ĠÕ¤ÖĢÕ¡": 1704, "ĠÕ¡Õ¼Õ¡Õ¾Õ¥Õ¬": 1705, "Õ¡ÖĢÕ«Õ¶": 1706, "tt": 1707, "ĠÕ¸ÖĢÕºÕ¥Õ½Õ¦Õ«": 1708, "ĠÕ¯Õ¥ÖĢÕº": 1709, "ĠÕ¢Õª": 1710, "ĠÕĦÕ¡Õ¶": 1711, "ĠÕ¸ÖĤÕ¶Õ¥Õ¶Õ¡Õ¬": 1712, "Õ¡ÕµÕ¥Õ¬": 1713, "ÔµÔ¼": 1714, "2018": 1715, "ia": 1716, "ĠÕ¤Õ¥ÕºÖĦ": 1717, "ĠÕ¡ÖĢÕ¤ÕµÕ¸ÖĤÕ¶ÖĦ": 1718, "Õ¸ÖĢÕ´": 1719, "ĠÕ¥Õ¬": 1720, "ĠÕ¸ÖĢÕ¶": 1721, "ĠÕ¡Õ¶Õ¥Õ¬": 1722, "ĠÕ¯Õ´": 1723, "ĠÕ¬Õ«Õ¶Õ¥Õ¬Õ¸ÖĤ": 1724, "ĠÖĨÕ«Õ¶Õ¡Õ¶Õ½": 1725, "Õ¥Õ¯Õ¶Õ¡Õ®": 1726, "ÖĢÕ¾Õ¡": 1727, "ĠÕ°Õ¥ÖĢÕ©": 1728, "ĠÕºÕ¡Õ¿Õ¾": 1729, "ĠÕ¡Õ¶Õ¾Õ¡Õ¶": 1730, "ĠÕ¡Õ¼Õ¸Õ²Õ»": 1731, "Õ¥Õª": 1732, "Õ¡ÖĢÕ©": 1733, "ĠÕ´Õ¡ÖĢÕ¤Õ«Õ¯": 1734, "Õ¸Õ¾Õ°Õ¡Õ¶Õ¶": 1735, "ĠÔ³ÖĢÕ«Õ£": 1736, "ĠÕ¡Õ¦Õ¤": 1737, "ĠÕ°Õ¡Õ³Õ¡ÕŃ": 1738, "ĠÕ¸ÖĤÕ¦Õ¸ÖĤÕ´": 1739, "Õ¥ÖĢÕ±": 1740, "ÔµÕ½": 1741, "Õ¡Õ«": 1742, "ĠÕ¤Õª": 1743, "Õ¸ÖĤÕ¿Õ¢Õ¸Õ¬": 1744, "Õ¡Õ¿Õ¥Õ²": 1745, "Õ¡Õ¶Õ¡Õ¬Õ¸ÖĤ": 1746, "ÔµÕĨ": 1747, "ĠÕ¯Õ¸Õ¤": 1748, "Ô±Õİ": 1749, "Õ¸ÕµÕ«": 1750, "ĠÕ¡Õ»Õ¡Õ¯Öģ": 1751, "Õ¶Õ¥Õ½": 1752, "Õ¡Õ´Õ¥Õ¶": 1753, "ĠI": 1754, "Õ¡Õ¤ÖĢÕ¡Õ´": 1755, "ĠÕ¡Õ·ÕŃÕ¡ÖĢÕ°Õ«": 1756, "Õ¶Õ¡Õ½": 1757, "ĠÕªÕ¡Õ´Õ¨": 1758, "ew": 1759, "Õ¿Õ¥Õ½Õ¡Õ¶ÕµÕ¸ÖĤÕ©": 1760, "ĠÕįÕ¿": 1761, "ĠÔ»Õ½Õ¯": 1762, "Õ¾Õ¥Õ¶": 1763, "Õ«ÖĤ": 1764, "ĠÖĦÖĢÕ¥Õ¡Õ¯Õ¡Õ¶": 1765, "Õ¡Õ¶Õ¤Õ¡Õ¯": 1766, "ĠÕ¯Õ°": 1767, "Õ«Õ¶Õ«": 1768, "Õ¥ÖĢÕ»Õ«Õ¶": 1769, "ĠÕ´Õ¬": 1770, "ĠÕįÕ¡ÖĢÕ£Õ½ÕµÕ¡Õ¶Õ¨": 1771, "ĠÕ°Õ¡Õ´Õ¡Õ¬Õ½": 1772, "ĠÕ¦Õ¸Õ°": 1773, "ĠÕ®ÖĢÕ¡Õ£Õ«ÖĢ": 1774, "ĠÕ¿Õ¸Õ¯": 1775, "ĠÕºÕ¡Õ¿Õ£Õ¡Õ´Õ¡Õ¾Õ¸ÖĢ": 1776, "ou": 1777, "ĠÕ¸ÖĢÖĩÕ§": 1778, "ĠÕ¿Õ¶Õ¿Õ¥Õ½Õ¡Õ¯Õ¡Õ¶": 1779, "ĠÕ¡Õ°": 1780, "ÕĨÕ¸ÖĢ": 1781, "Õ¡ÖĢÕ±Õ¡Õ¯": 1782, "ĠÕºÕ¡Õ°ÕºÕ¡Õ¶": 1783, "Õ¡Õ¸": 1784, "ÖĦÕ¶Õ¥ÖĢÕ«": 1785, "Õ¡Õ´Õ¡Õ½": 1786, "ĠÕ¯Õ¡ÕºÕ¾Õ¡Õ®": 1787, "ÕĪÕĴÔ¹ÕħÔ±ÕĨ": 1788, "ĠÕ©Õ¥Õ¯Õ¶Õ¡Õ®": 1789, "ĠÕ¦Õ¸ÖĢ": 1790, "ĠÔ±Ôº": 1791, "ÖĢÕ¸ÖĢÕ¤": 1792, "ĠÕºÕ¡Õ¿Õ¥ÖĢÕ¡Õ¦Õ´": 1793, "ĠÕ°Õ¡Õ¶Õ±Õ¶Õ¡ÕªÕ¸Õ²Õ¸Õ¾": 1794, "ĠÕ¥ÖĢÕ¯ÖĢÕ¸ÖĢÕ¤": 1795, "ĠÕ½Õ¸ÖģÕ«Õ¡Õ¬": 1796, "ÕºÕ¥Õ¿": 1797, "Õ¾Õ¡": 1798, "ĠÖĦÕ¡ÖĢÕ¿": 1799, "Õ«ÖĢÖĦ": 1800, "Â»Öī": 1801, "ĠÕºÕ¡Õ¿Õ³Õ¡Õ¼Õ¸Õ¾": 1802, "ĠÖĨÕ«Õ¬": 1803, "ĠÕ¥ÖĢÕ¯ÖĢÕ«": 1804, "ĠÕºÕ¡Õ·Õ¿ÕºÕ¡Õ¶Õ¸ÖĤÕ©ÕµÕ¡Õ¶": 1805, "Õ¶Õ¯": 1806, "ĠÕ¯Õ¬Õ«Õ¶Õ«": 1807, "Õ¡Õ¾Õ¥Õ¿": 1808, "Õ¾Õ¥": 1809, "Õ¡Õ¾Õ¸ÖĢÕ¸ÖĤÕ´": 1810, "Õ¸ÖĤÕ´Õ¢": 1811, "ĠÕ°Õ¡Õ¶Õ£": 1812, "ĠÕ¸Õ¾ÖĦÕ¥ÖĢ": 1813, "Õ¡Õ¦Õ¤": 1814, "ĠÕ¨Õ¶Õ¤Õ°Õ¡Õ¶Õ¸ÖĤÖĢ": 1815, "Õ¡ÖĦÕ½": 1816, "ĠÕ¢Õ¡Õ¶Õ¯": 1817, "Õ¸ÖĤÖĢÕ¢": 1818, "ĠF": 1819, "ĠÕ¬ÖĢÕ¡Õ£ÖĢ": 1820, "ĠÕ¶Õ¡ÕŃÕ¡Õ£Õ¡Õ°Õ«": 1821, "Ġ25": 1822, "Õ¡ÖĦÕ¶Õ¶": 1823, "Õ¡ÖĢÕ¾Õ¥Õ¬": 1824, "Õ¯Õ¡Õµ": 1825, "Õ¡Õ¶Õ¸Õ©": 1826, "ÖĦÕ¡ÕµÕ«Õ¶": 1827, "ÔµÕį": 1828, "Õ¸ÖĨ": 1829, "Õ¡ÖĦÕ¡Õ¶Õ¹ÕµÕ¸ÖĤÖĢ": 1830, "Õ«Õ»Õ¸Öģ": 1831, "ĠÕ¯Õ¡Õ¿Õ¡ÖĢÕ¥Õ¬": 1832, "ĠÕ¥Õ¦": 1833, "ĠÖĦÕ¡Õ²Õ¡ÖĦÕ¡ÕºÕ¥Õ¿": 1834, "ĠÕ¡Õ³": 1835, "ĠÕ¥ÖĢÕ¯Õ¡ÖĢ": 1836, "ĠÕ´Õ«Õ·Õ¿": 1837, "Õ¡ÖĢÕµÕ¡Õ¶": 1838, "ĠÕ¤Õ¸Õ¬": 1839, "ĠÕ¯Õ«ÖĢÕ¡Õ¼": 1840, "Õ¡ÖģÕ¡Õ¾": 1841, "ĠÕ¨Õ¶Õ¤Õ£": 1842, "Õ¡Õ´Õ¡Õ¶Õ¡Õ¯": 1843, "Ġ21": 1844, "Õ¡ÖģÕ¸ÖĤÕ´": 1845, "Õ¥Õ¡Õ¶": 1846, "ĠÕ´Õ¡Õµ": 1847, "Õ¡Õ¢Õ¡Õ©": 1848, "Õ¥Õ²Õ¡Õ½": 1849, "ĠÕ©Õ¾Õ¸ÖĤÕ´": 1850, "Õ¶Õ¥Õ¶ÖĦ": 1851, "ĠÕ°ÖĢÕ¡Õª": 1852, "Õ«Õ¢": 1853, "ĠÕ¯ÖĢÕ¯": 1854, "ĠÕ¬Õ½": 1855, "ĠÕ¯Õ¸Õ¤Õ¨": 1856, "ĠÕ´Õ¡Õ´": 1857, "ĠÕ°Õ¥Õ²Õ«Õ¶Õ¡Õ¯": 1858, "ĠÕ¾Õ¶Õ¡Õ½": 1859, "ĠÖĩÕ½": 1860, "Õ¡ÖģÕ¸Õ²": 1861, "ĠÕ·Õ¡ÖĢÕª": 1862, "ĠÔµÕ©Õ¥": 1863, "Ð°": 1864, "ĠÕ¶Õ·Õ¥Õ¬": 1865, "Õ¡Õ¤ÖĢÕ¥Õ¬": 1866, "ĠÕĮÕ¸ÖĤÕ½Õ¡Õ½Õ¿Õ¡Õ¶Õ«": 1867, "Õ¡Õ©Õ«Õ¾": 1868, "ĠÕ½Õ¡Õ°Õ´Õ¡Õ¶Õ¾Õ¡Õ®": 1869, "ÔµÖĢ": 1870, "ĠÕ´Õ¡ÖĢÕ´Õ«Õ¶": 1871, "ĠÕ¿Õ¡Õ¯": 1872, "Õ¸Õ½Õ¯": 1873, "Õ¸ÕµÕ¥Õ´Õ¢": 1874, "ĠÕ°Õ¡Õ¿Õ¸ÖĤÕ¯": 1875, "ÔµÖĢÖĩ": 1876, "Õ¥Õ«Õ¶": 1877, "ĠÕ¤Õ¥Õ½": 1878, "ĠÕĢÕ¸Õ¾Õ°Õ¡Õ¶Õ¶": 1879, "ÖĦÕ«Öģ": 1880, ".-": 1881, "ĠÕ¯Õ«Õ¶": 1882, "ĠÖĦÕ¡Õ²Õ¡ÖĦÕ¡ÖģÕ«Õ¶": 1883, "ĠÕ¯Õ¡Õ¶Õ¸Õ¶": 1884, "ÖĩÕ½": 1885, "Õ¥ÖģÕ«": 1886, "ĠÕ´Õ¿Õ¡Õ®": 1887, "ĠÕ¯Õ¿": 1888, "ĠÕŃÕ´Õ¢Õ¡Õ£ÖĢÕ¥Õ¬": 1889, "ĠÖģÕ¸ÖĤÕµÖģ": 1890, "ĠÕ¹Õ§ÖĢ": 1891, "il": 1892, "Õ¶Õ¿Õ¥Õ½": 1893, "ĠÕ¡": 1894, "ĠÕ¿Õ¸Õ¯Õ¸Õ½": 1895, "Õ¡Õ´Õ¡ÖĢÕ¤": 1896, "Õ¾Õ¸ÖĢ": 1897, "ĠÕ£Õ¸ÖĢÕ®Õ¨Õ¶Õ©Õ¡Öģ": 1898, "ĠÕ¯Õ¡ÖĢÕ®Õ«ÖĦ": 1899, "ĠÖĦÕ¡Õ²Õ¡ÖĦÕ«": 1900, "Ġ22": 1901, "ĠÕ´Õ«Õ»Öĩ": 1902, "ĠÔ±Õ¦Õ£Õ¡ÕµÕ«Õ¶": 1903, "ĠÕ¤ÖĢÕ¡Õ¶Öģ": 1904, "Õ¸Õ¶Õ¨": 1905, "ÕĢÕ¡Õ´": 1906, "ĠÕ¤Õ¥ÕºÕ«": 1907, "Õ¡Õ¤ÖĢÕ¸ÖĤÕ©ÕµÕ¡Õ¶": 1908, "ĠÕ¤ÖĢÕ¡Õ¶ÖĦ": 1909, "ĠÕŃÕ¸ÖĢ": 1910, "17": 1911, "Õ¡ÖĢÕ¡Õ¶Õ¸ÖĤÕ´": 1912, "ĠÕ®Õ¡Õ¼Õ¡ÕµÕ¸ÖĤÕ©ÕµÕ¡Õ¶": 1913, "ĠÕ¸Õ²Õ»": 1914, "ĠÕ©Õ«Õ´": 1915, "Ġ199": 1916, "ĠÕ¶Õ¡ÕŃÕ¡Õ¿Õ¥Õ½Õ¾Õ¡Õ®": 1917, "Õ¿Õ¶Õ«": 1918, "ĠÕ¬Õ¡Õ¾Õ¡Õ£Õ¸ÖĤÕµÕ¶": 1919, "Õ¿Õ¡ÖĢ": 1920, "Õ¡Õ½Õ¯": 1921, "ĠÕ¡Õ¾Õ¡Õ£": 1922, "ĠÖĦÕ¡Õ²Õ¡ÖĦÕ¡ÖģÕ«": 1923, "ĠÕŃÕ¸ÖĢÕ°ÖĢÕ¤Õ«": 1924, "Õ¥Õ¶Õµ": 1925, "ĠâĢĶ": 1926, "Ô±Ô³": 1927, "ĠÕ¡Õ¶Õ±Õ¡Õ¶Öģ": 1928, "ĠÕĳ": 1929, "ĠÕ´Õ¡Õ¶": 1930, "ĠÕ¾Õ³Õ¡ÖĢ": 1931, "ÕŃÕ´Õ¢": 1932, "ĠÕ¶Õ¡ÕŃÕ¡Õ±": 1933, "ĠÕ¢Õ¼Õ¶": 1934, "ĠÕ¿Õ¥Õ½Õ¡Õ¯": 1935, "Õ¡Õ¯Õ¡Õ¶Õ«": 1936, "ĠÕ¥ÖĢÕ¥ÖĦ": 1937, "16": 1938, "ÖĢÕ«Õ½Õ¿": 1939, "Õ«Õ¿Õ«": 1940, "ic": 1941, "Ô±Ô¾": 1942, "ĠÕ¡Õ¶Õ¾Õ¿Õ¡Õ¶Õ£Õ¸ÖĤÕ©ÕµÕ¡Õ¶": 1943, "30": 1944, "ĠÕ¾Õ½Õ¿Õ¡Õ°": 1945, "ĠÔ²Õ¡ÕµÖģ": 1946, "Õ¡Õ°Õ¡Õµ": 1947, "ĠÕ¾Õ«ÖĢ": 1948, "ĠÕ°Õ«Õ´Õ¡": 1949, "ĠÕ´Õ«Õ»Õ¸ÖģÕ¡Õ¼": 1950, "Õ¯ÖĢ": 1951, "Õ¡ÖĢÕµÕ¡Õ¶Õ«": 1952, "ĠÕ¨Õ¶Õ¤Õ¸ÖĤÕ¶Õ¥Õ¬": 1953, "ĠÕ°Õ¡ÕµÕ¿Õ¶Õ¥Õ¬": 1954, "ĠÕ±Õ¥Õ¼Õ¶": 1955, "ĠÕ°Õ¶Õ¡ÖĢÕ¡Õ¾Õ¸ÖĢÕ¸ÖĤÕ©ÕµÕ¸ÖĤÕ¶": 1956, "ĠÕ§Õ«": 1957, "ÕĦÕ«": 1958, "Õ¡ÖģÖĢÕ¥Õ¬": 1959, "Õ¥Õ¿Õ«": 1960, "Õ¡Õ¶Õ·": 1961, "ĠÔ±Õ¢": 1962, "ĠÕ¡ÕµÕ½Õ¿Õ¥Õ²": 1963, "ac": 1964, "is": 1965, "Õ¡Õ¶Õ¿": 1966, "14": 1967, "ĠL": 1968, "ĠÖĨÕ¸ÖĤÕ¿Õ¢Õ¸Õ¬": 1969, "ĠÕ¡ÖĢÕ¿Õ¡ÖĦÕ«Õ¶": 1970, "ĠÕ´Õ¡Õ½Õ¶Õ¡Õ¯Õ«Öģ": 1971, "Õ«Õ¼": 1972, "Õ¡Õ°Õ¡Õ¶Õ£": 1973, "Õ¸ÖĢÕ½": 1974, "Õ¸ÖĤÕ©Õ¡ÕµÕ«Õ¶": 1975, "Õ¸Õ¶Õ¡Õ¯Õ¡Õ¶": 1976, "ÕªÕ´": 1977, "ĠÕİÕ¡ÖĢÕ¤": 1978, "ĠÕ°Õ¡Õ¶Õ¤Õ¥Õ½": 1979, "Õ«Õ¦Õ¶Õ¥Õ½": 1980, "Õ«Õ¯Õ«": 1981, "ĠÕ¡Õ¦Õ£": 1982, "Ô»Õ¶Õ¹ÕºÕ¥Õ½": 1983, "oo": 1984, "Õ¡ÖĢÕ¸ÖĤÕ´": 1985, "ĠÕ°Õ¡Õ¶Õ¤Õ«Õ½": 1986, "ĠÕ¡ÖĢÕ£Õ¥Õ¬": 1987, "Õ«Õ¯Õ¡": 1988, "Õ¸ÖĤÕº": 1989, "ÕŃÕ´Õ¢Õ¡Õ£ÖĢÕ¥Õ¬": 1990, "hy": 1991, "Õ¶Õ¡Õ´": 1992, "Â©": 1993, "Õ´Õ¿": 1994, "Ô±Õ´": 1995, "ĠÕ¥ÖĢÖĩ": 1996, "ĠÖĥÕ¸ÕŃÕ¡Õ¶Öģ": 1997, "Õ¡Õ¼Õ¶Õ¸ÖĤÕ´": 1998, "Ġ24": 1999, "ÕĦÕ¥ÖĢ": 2000, "ÖĢÕ¡Õ®": 2001, "Ġ30": 2002, "ĠÕŃÕ¸ÖĢÕ°Õ¸ÖĤÖĢÕ¤": 2003, "ĠÕ¤Õ¥ÖĢ": 2004, "Õ¡Õ¶Õ¸Öģ": 2005, "ĠÕ´Õ¡ÕµÖĢ": 2006, "ĠÕ¯Õ¸ÖĢ": 2007, "re": 2008, "ĠÔ´Õ¡Õ¾": 2009, "ĠÖĦÕ¶": 2010, "ĠÕ¿Õ¥Õ²Õ¡ÖĥÕ¸ÕŃ": 2011, "ĠÕºÕ¡ÖĢÕ¿Õ¡Õ¤Õ«ÖĢ": 2012, "ĠÕ£ÖĢÕ¡Õ¶Öģ": 2013, "ÕµÕ¸ÖĤÕ´": 2014, "ĠÕĦÕ¡ÖĢÕ¿": 2015, "ĠÖĥÕ¸Õ²Õ¸Öģ": 2016, "Õ¥ÕºÕ¿Õ¥Õ´Õ¢Õ¥ÖĢÕ«": 2017, "Õľ": 2018, "ĠÕ£Õ¡Õ¬Õ«Õ½": 2019, "ĠÕ°Õ¡Õ½Õ¯": 2020, "Ð¾": 2021, "ĠÕ¶Õ¥ÖĢÕ¯": 2022, "ĠÕ¿Õ¡ÖĢÕ¥Õ¯Õ¡Õ¶": 2023, "ĠÕ®ÖĢÕ¡Õ£ÖĢÕ«": 2024, "Ġ23": 2025, "Õ¸ÖĤÕ¿ÖĦ": 2026, "ews": 2027, "ĠÕªÕ¡Õ´Õ¯Õ¥Õ¿": 2028, "ĠÔ±Õ¤ÖĢÕ¢Õ¥Õ»Õ¡Õ¶Õ«": 2029, "Õ¸ÖĤÕ©ÕµÕ¸ÖĤÕ¶Õ¶Õ¥ÖĢÕ«Öģ": 2030, "Õ¡Õ¶ÖĦÕ¸Õ¾": 2031, "ĠÕ¥Õ¯Õ¥Õ¬": 2032, "ĠÕ¯Õ«Õ½": 2033, "ÕĨÕ¡ÕŃ": 2034, "Õ¥ÖĢÕ¬": 2035, "ĠÕ¾Õ¡ÖĢÕ¯": 2036, "ÕĬÕ¡Õ¿": 2037, "Õ¸ÖĤÕ¶Õ¤": 2038, "Õ¡Õ¼Õ¡Õ¯": 2039, "ĠÕ¹Õ¯Õ¡": 2040, "ĠÕ©Õ¾": 2041, "ĠÕĢÕ¡ÕµÕ¸Öģ": 2042, "ĠÕ´Õ¡ÖĢÕ¤Õ¸ÖĤ": 2043, "Ô±ÕĨÔ»": 2044, "ĠÕ¡Õ¶Õ¯Õ¡ÕŃ": 2045, "ĠÖĦÕ¥Õ¦": 2046, "Ġ2016": 2047, "Õ¡ÕµÖĦ": 2048, "Õ¥ÖĢÕ¤": 2049, "ĠÕ¡Õ¶Õ¸ÖĤÕ´": 2050, "ĠÕ¡ÕµÕ¶ÕºÕ¥Õ½": 2051, "ĠÕ¶ÕºÕ¡Õ¿Õ¡Õ¯Õ¸Õ¾": 2052, "ĠÔ±ÖĢÖģÕ¡ÕŃÕ«": 2053, "ĠÕĢÕ¡ÖĢÕ¸ÖĤÕ©ÕµÕ¸ÖĤÕ¶": 2054, "ĠÕ¶Õ¡ÕŃÕ¡ÖĢÕ¡ÖĢÕ¸ÖĤÕ©ÕµÕ¡Õ¶": 2055, "Õ¥Õ¶Õ¿": 2056, "ĠD": 2057, "ĠÕĢÕ¡ÕµÕ¡Õ½Õ¿Õ¡Õ¶Õ«Öģ": 2058, "Õ£Õ¬": 2059, "ÕĢÕ¥Õ¿": 2060, "ĠÔ½Õ¡Õ¹": 2061, "//": 2062, "ĠÕ¯Õ¡Õ¼Õ¡Õ¾Õ¡ÖĢÕ´Õ¡Õ¶": 2063, "ĠÕ¯Õ¡Õ¶ÕŃ": 2064, "ĠG": 2065, "ĠÕ°Õ¡ÕµÖĢÕ¥Õ¶": 2066, "Õ¡Õ£ÖĢÕ«": 2067, "ĠÕºÕ¡Õ¿Õ¯Õ¥ÖĢ": 2068, "ĠÕ°Õ¡ÕµÕ¿Õ¡ÖĢÕ¡ÖĢÕ¥Õ¬": 2069, "Õ¡Õ¯Õ¡": 2070, "ĠÕŃÕ¡ÕŃÕ¿": 2071, "ĠÕ·Õ¡Õ¢Õ¡Õ©": 2072, "ĠÕĢÕĢÔ¿": 2073, "Õ¸ÖĢÕ£": 2074, "ĠÕĦÕ¥Õ¶ÖĦ": 2075, "ĠÕ«ÖĢÕ¡Õ¾Õ¸ÖĤÕ¶ÖĦÕ¶Õ¥ÖĢÕ«": 2076, "ĠÖĥÕ¡Õ½Õ¿Õ¡Õ©": 2077, "Õ¯Õ¡ÖĢ": 2078, "ĠÕ¡ÖĢÕ¤ÕµÕ¸ÖĤÕ¶ÖĦÕ¸ÖĤÕ´": 2079, "Õ¡Õ¤Õ¡Õ¿": 2080, "ĠÕ¶Õ¡ÕŃÕ¡Õ±Õ¥Õ¼Õ¶": 2081, "ĠÔ±Õ½": 2082, "ĠÕ°Õ¥Õ¼Õ¸ÖĤÕ½Õ¿": 2083, "ĠÕºÕ¡Õ¿Õ¡Õ½ÕŃÕ¡Õ¶Õ¡Õ¿Õ¾": 2084, "ĠÕ½Õ¸ÖģÕ«Õ¡Õ¬Õ¡Õ¯Õ¡Õ¶": 2085, "ion": 2086, "Â°": 2087, "ĠÕĢÕ¡Õ¯": 2088, "ĠÕ¥ÖĢÕ¥Õ¯": 2089, "Õ«ÖĦÕ«Õº": 2090, "ÖĢÕ«Õ¶": 2091, "ĠÕ´Õ«Õ¡Õ½": 2092, "ĠÕ¸ÖĤÕ½Õ¸ÖĤÕ´Õ¶": 2093, "ĠÔ»Õ½": 2094, "Õ¥Õ¶Õ¿ÖĢÕ¸Õ¶": 2095, "ĠÕ¢Õ¡ÖģÕ¡Õ¼": 2096, "Õ¡Õ¾Õ¸ÖĢÕ¡ÕºÕ¥Õ½": 2097, "ro": 2098, "://": 2099, "Õ¡Õ¦Õ¸Õ¿": 2100, "ĠÕĤÕ¡ÖĢÕ¡Õ¢Õ¡Õ²": 2101, "Õ«ÖĦÕ«": 2102, "ĠÕ¸ÖĢÕ¸Õ¾Õ°": 2103, "ttp": 2104, "http": 2105, "ĠÖħÖĢÕ¥Õ¶ÖĦÕ«": 2106, "ĠÕ¡ÖĢÕ¿Õ¡Õ½Õ¡Õ¶": 2107, "id": 2108, "ĠÕ¡Õ¼Õ¡Õ¶Õ±Õ¶": 2109, "ĠÕºÕ¡Õ·Õ¿Õ¸Õ¶Õ¡Õ¯Õ¡Õ¶": 2110, "ĠÕ°Õ¸Õ¤Õ¾Õ¡Õ®Õ«": 2111, "Õ¥Õ¿ÖĢÕ¾": 2112, "Õ©Õ«": 2113, "ĠÕ´Õ¡ÖĢÕ¦Õ«": 2114, "ĠR": 2115, "Õ¸ÖĤÕ©ÕµÕ¸ÖĤÕ¶Õ¶Õ¥ÖĢÕ¸Õ¾": 2116, "ĠÕ¶Õ·Õ¥Öģ": 2117, "ĠÕ¡Õ´Õ«Õ½": 2118, "ĠÕ¯Õ¡Õ¦Õ´Õ¸ÖĤÕ´": 2119, "Õ¡Õ·ÕŃÕ¡ÖĢÕ°": 2120, "Õ¡ÖĨ": 2121, "ĠÕįÕ¡ÖĢÕ£Õ½ÕµÕ¡Õ¶Õ«": 2122, "Ô±Ô¼": 2123, "ĠÕ½Õ¡": 2124, "Õ¡Õ¢Õ¡Õ¶Õ¡Õ¯Õ¡Õ¶": 2125, "ĠÕĢÕ¡ÕµÕ¡Õ½Õ¿Õ¡Õ¶Õ¨": 2126, "ĠÕ¥ÖĢÕ¯ÖĢÕ¶Õ¥ÖĢÕ«": 2127, "ĠÕ´Õ¡Õ¯Õ¡ÖĢÕ¤": 2128, "Õ¸ÖĤÕ°Õ«": 2129, "ĠÕ£Õ¸ÖĢÕ®Õ¸ÖĤÕ¶Õ¥Õ¸ÖĤÕ©ÕµÕ¡Õ¶": 2130, "Õ¸ÖĤÕŃ": 2131, "Õ«Õ¯Õ¨": 2132, "ĠÕ¥ÖĢÕ¡Õª": 2133, "ÕºÕ¥ÖĢ": 2134, "ĠÖĥÕ¡Õ¯": 2135, "men": 2136, "ĠÔ»Õ¶": 2137, "Õ¸Õ¯Õ¿Õ¥Õ´Õ¢Õ¥ÖĢÕ«": 2138, "ĠÕĵÕ¡Õ·Õ«Õ¶ÕµÕ¡Õ¶Õ¨": 2139, "Õ¾Õ¥ÖĢ": 2140, "ĠO": 2141, "Õ¸ÖĤÕ´Õ¸Õ¾": 2142, "ĠÕ£Õ¸ÖĤÕµ": 2143, "ĠÕİÖĢÕ¡Õ½Õ¿": 2144, "Õ«ÖĦÕ«ÕºÕ¥Õ¤": 2145, "ĠÕ¶Õ¾Õ«": 2146, "ĠÕĥ": 2147, "ĠÕ´Õ¡Õ¶Õ¯": 2148, "Õ¡Õ¸ÖĤ": 2149, "ĠÕ¡Õ¶Õ´": 2150, "ÕĦÕ¥Õ¶ÖĦ": 2151, "ĠÕ§Õ¬Õ¥Õ¯": 2152, "Õ«Õ¯Õ¡ÕµÕ«": 2153, "ÖĢÕ¸Õº": 2154, "ÕºÕ«Õ½": 2155, "ĠÕ°Õ¡Õ¾Õ¡Õ¿": 2156, "ĠÔ³ÖĢÕ«Õ£Õ¸ÖĢÕµ": 2157, "ĠÕ³Õ«Õ·Õ¿": 2158, "ĠÕ¯ÕµÕ¡Õ¶ÖĦÕ«": 2159, "ĠH": 2160, "Õ¥Õ¶Õ«": 2161, "13": 2162, "ĠÔµÖĢÕ¯": 2163, "Ġp": 2164, "Õ¶Õ¥ÖĢÕ£": 2165, "ĠÕ°Õ¡Õ¾Õ¥Õ¬": 2166, "Õ¥Õ´Õ¡Õ¿": 2167, "Õ¸ÖĢÕ¤Õ¨": 2168, "ĠÕ¡Õ²Õ»": 2169, "ĠÕµÕ¸ÖĤÖĢÕ¡ÖĦÕ¡Õ¶Õ¹ÕµÕ¸ÖĤÖĢ": 2170, "el": 2171, "Õ¡Õ¾Õ«ÖĢ": 2172, "ĠÕ°Õ¥Õ¿Õ¥ÖĤ": 2173, "ĠÕ°Õ«Õ´Õ¶Õ¡Õ¤ÖĢÕ¡Õ´": 2174, "Ô±ÕįÕı": 2175, "ww": 2176, "Õ¥Õ¶Õ¤": 2177, "ĠÕ¯Õ¸Õ´Õ«Õ¿": 2178, "Õ¸Õ²Õ¶Õ¥ÖĢÕ¨": 2179, "ĠÕ½Õ¿Õ¡ÖģÕ¥Õ¬": 2180, "200": 2181, "Õ¡ÖĤ": 2182, "ĠÕ¡ÖĢÕ¿Õ¡Õ°Õ¡ÕµÕ¿": 2183, "ĠÕ¸ÖĢÕ¤": 2184, "ĠÕ¿Õ¥Õ²Õ¥Õ¯Õ¡Õ¿Õ¾": 2185, "Ð¸": 2186, "ĠÕ¿Õ¸ÖĤÕ¶": 2187, "ĠÔ¿Õ¡ÖĢÕ¡ÕºÕ¥Õ¿": 2188, "Õ¸ÖĤÕ½Õ¶": 2189, "ÖĢÕ¸Õ½": 2190, "ÖĦÕ¥ÖĢÕ¨": 2191, "ĠÕ¢Õ¸Õ²": 2192, "ĠÕ´Õ¡Õ½Õ¶Õ¡Õ¯ÖģÕ¥Õ¬": 2193, "ĠÕ£Õ¿Õ¶Õ¾Õ¸ÖĤÕ´": 2194, "Ġ100": 2195, "ĠÖħÖĢÕ«Õ¶Õ¡Õ¯": 2196, "Õ¸ÕµÕ¡Õ¶": 2197, "Õ¸ÖĤÕ¬Õ«Õ½Õ«": 2198, "ĠÕ¶Õ¾Õ¡Õ¦": 2199, "Õ¡ÖģÕ¾Õ¥Õ¬": 2200, "Õ¥Õ¬Õ«ÖĦ": 2201, "ĠÕ¡ÖĢÕ±Õ¡Õ¶": 2202, "Õ¡ÕµÕ¸Õ¾": 2203, "Õ¡ÕµÕ«Öģ": 2204, "Õ¶Õ¡ÕŃ": 2205, "Õ«Õ¬Õ«Õ¸Õ¶": 2206, "ĠÕ¾Õ¡Õ³Õ¡Õ¼": 2207, "Õ¥ÖĦÕ½Õ¿": 2208, "ĠÕ¸ÖĤÕ½Õ¡Õ¶": 2209, "Õ¡Õ£ÖĢÕ¡Õ¯Õ¡Õ¶": 2210, "Õ¸ÖĤÕ©ÕµÕ¸ÖĤÕ¶Õ¶Õ¥ÖĢÕ¶": 2211, "ĠÕŃÕ¡Õ²Õ¡Õ²": 2212, "Õ¡Õ¶ÕµÕ¡Õ¶": 2213, "Õ¸Õ¾Õ«": 2214, "Õ¡Õ¯Õ¸ÖĤÕ´Õ¢": 2215, "Õ¶Õ¹Õ¡Õ¯Õ¡Õ¶": 2216, "ĠÕ£Õ¿Õ¶Õ¾Õ¸Õ²": 2217, "ĠÕ£Õ¸ÖĢÕ®Õ¨Õ¶Õ¯Õ¥ÖĢ": 2218, "ĠÕ¯Õ¡Õ¶Õ£": 2219, "ĠÕ¶Õ½Õ¿": 2220, "et": 2221, "Ðµ": 2222, "ĠÕ«ÖĢÕ¡Õ¾Õ¸ÖĤÕ¶ÖĦÕ¶Õ¥ÖĢÕ¨": 2223, "ĠÕ£Õ¸ÖĢÕ®Õ¡Õ¯Õ¡Õ¬": 2224, "ĠÕ·ÖĢÕ»Õ¡Õ¶Õ¡Õ¯Õ¶Õ¥ÖĢÕ¸ÖĤÕ´": 2225, "Õ«ÖĢÕ¡Õ¯": 2226, "ĠÕ¸ÖĤÕ¶Õ¥ÖģÕ¡Õ®": 2227, "ĠÕ¾Õ¡ÖĢÕ¹Õ¡Õ¯Õ¡Õ¶": 2228, "ÖĢÕµÕ¡": 2229, "Õ¡Õ¿Õ¸ÖĤ": 2230, "ĠÕ¡ÖĢÕ¾Õ¥Õ½Õ¿": 2231, "ĠÕ°Õ¥ÖĢ": 2232, "Õ¸ÖĤÕ¶Õ¡Õ¯Õ¸ÖĤÕ´": 2233, "ĠÕ¡ÕµÕ¶ÖĦÕ¡Õ¶": 2234, "ĠÕ¿Õ²Õ¡Õ´Õ¡ÖĢÕ¤": 2235, "Õ¡Õ¿Õ¸ÖĤÕ¶": 2236, "ÖĢÕ¡Õ¯Õ¡Õ¶": 2237, "Õ¸ÖĤÕ¤": 2238, "ĠÖĨÕ«Õ¬Õ´": 2239, "ĠÖĦÕ«Õ¹": 2240, "ĠÕ¥Õ¯Õ¥Õ²Õ¥Öģ": 2241, "ĠÕ¡Õ²Õ¢": 2242, "ĠÕ¥ÖĢÕ¥ÕŃÕ¡Õ¶": 2243, "ĠÕ¡ÖĢÕ¤Õ¡ÖĢ": 2244, "Õ¬Õ¡ÕµÕ¶": 2245, "Õ¥Õ¯Õ¿Õ¥Õ´Õ¢Õ¥ÖĢÕ«": 2246, "ĠÕ¡Õ¶Õ¤ÖĢ": 2247, "ĠÕ¯Õ£": 2248, "Õ¸Õ²Õ¨": 2249, "Õ¡Õ£ÖĢÕ¸ÖĤÕ©ÕµÕ¡Õ¶": 2250, "ÕºÕ¸ÖĢÕ¿": 2251, "Õ«ÖĤÕ¶": 2252, "ĠÕ¡Õ¯Õ¸ÖĤÕ´Õ¢": 2253, "ÖĦÕ¥ÖĢÕ«": 2254, "ĠÕ¿Õ¾Õ¥Õ¬": 2255, "ĠÖģÕ¡Õ¶Õ¯Õ¡Õ¶Õ¸ÖĤÕ´": 2256, "ÖĢÕ³": 2257, "Õ¡Õ£Õ«ÖĢÕ¨": 2258, "ĠÖĦÕ¡ÖĢ": 2259, "ĠÕ¸ÖĢÕ¸Õ·Õ¸ÖĤÕ´": 2260, "ĠÕ£Õ¸ÖĢÕ®Õ¸ÖĤÕ´": 2261, "ĠÕ´Õ¬Õ¶": 2262, "ĠÕ°ÖĢÕ¡Õ´": 2263, "ĠÕ¡Õ·ÕŃÕ¡Õ¿Õ¡Õ¶ÖĦÕ¡ÕµÕ«Õ¶": 2264, "ĠÕ¢ÕªÕ·": 2265, ")Öī": 2266, "Õ¡ÖĢÕ¥Õ¶": 2267, "ĠÕ¡Õ·": 2268, "Õ¡Õ¯Õ¡Õ¦Õ´": 2269, "ĠÕ¯Õ¸ÖĤÕ½Õ¡Õ¯Öģ": 2270, "ĠÕ£Õ¸ÖĤÕ´Õ¡ÖĢ": 2271, "ĠÕ¤ÕªÕ¾Õ¡ÖĢ": 2272, "ĠÕįÕ¡Õ¯Õ¡ÕµÕ¶": 2273, "ĠÕ¨Õ¶Õ¯Õ¥ÖĢÕ¸ÖĤÕ©ÕµÕ¡Õ¶": 2274, "ĠÔ¹Õ¸ÖĤÖĢÖĦÕ«Õ¡ÕµÕ«": 2275, "ĠÕ¡ÖĢÕ¡Õ£": 2276, "Õ¡ÖĢÕ¡Õ¶Õ¨": 2277, "Õ¾Õ¡Õ¶": 2278, "ĠÕ¾Õ¿Õ¡Õ¶Õ£": 2279, "ĠÕ°Õ¡Õ¶Öģ": 2280, "ĠÕ®Õ¡Õ¶Õ¸Õ©": 2281, "ĠÕ¬Õ¸ÖĤÕ½Õ¡Õ¶Õ¯Õ¡ÖĢ": 2282, "ĠÖĦÕ¸": 2283, "Õ¡Õ¯Õ¡Õ¶Õ¨": 2284, "Õ¸ÖĤÕ©ÕµÕ¸ÖĤÕ¶Õ¶Õ¥ÖĢÕ¸ÖĤÕ´": 2285, "ĠÕ¾Õ³": 2286, "ĠÕ¶Õ¸ÖĤÕµÕ¶Õ«Õ½Õ¯": 2287, "ĠÕªÕ¸Õ²Õ¸Õ¾ÖĢÕ¤Õ«": 2288, "ĠÕ¸ÖĤÕ²Õ²Õ¸ÖĤÕ©ÕµÕ¡Õ´Õ¢": 2289, "Õ¡Õ£Õ¡ÕµÕ¸ÖĤÕ´": 2290, "ĠÔ±ÖĢÕ": 2291, "Õ¥Õ¬Õ¸ÖĤÖģ": 2292, "ĠÕ«Õ¶Õ¹Õ¨": 2293, "Õ¶Õ¯Õ¡Õ¬": 2294, "Õ¸ÖĤÕ¶Õ¥Õ¶": 2295, "ĠÕ°Õ¡Õ¿Õ¾Õ¡Õ®": 2296, "ĠÕ´Õ«Õ¬Õ«Õ¸Õ¶": 2297, "Õ¡Õ¾Õ¡Õ¬": 2298, "ĠÕŃÕ´Õ¢Õ«": 2299, "Õ¡Õ¯Õ¡ÖĢ": 2300, "ĠÖģÕ¥Õ²Õ¡Õ½": 2301, "Õ¹Õ¸ÖĤÕ©ÕµÕ¡Õ¶": 2302, "Õ¸Õ·Õ¸ÖĢ": 2303, "ĠÕ¦Õ«Õ¶Õ¾Õ¸ÖĢ": 2304, "ĠÕ¡ÖĢÕªÕ¥ÖĦ": 2305, "Õ¡ÖĢÕ³": 2306, "ĠÕ¶Õ¾Õ«ÖĢÕ¾Õ¡Õ®": 2307, "Õ©Õ«Õ¾": 2308, "Õ¶Õ¿ÖĢ": 2309, "ĠÔ²ÖĢ": 2310, "Õ¡Õ¤ÖĢÕ¸ÖĤÕ´": 2311, "ĠÕ¢Õ¡Õ¾Õ¡Õ¯Õ¡Õ¶": 2312, "ĠÕ¤Õ¥Õ½ÕºÕ¡Õ¶": 2313, "ĠÕ¡Õ·ÕŃÕ¡Õ¿Õ¡Õ¶ÖĦÕ«": 2314, "ĠÕ¶Õ¥ÖĢÕ¯Õ¡ÕµÕ¡ÖģÕ¶Õ¸ÖĤÕ´": 2315, "Õ°Õ¡Õ¿": 2316, "ĠÖħÕ£Õ¶": 2317, "ĠÕ¶Õ¥ÖĢÕ¤ÖĢÕ¸ÖĤÕ´": 2318, "Ô±Õ¦Õ¡Õ¿Õ¸ÖĤÕ©ÕµÕ¸ÖĤÕ¶": 2319, "ĠÕ¾Õ¥ÖĢÕ¡Õ°": 2320, "ĠÕ£ÖĢÕ¸ÖĤÕ´": 2321, "Õ©Õ¥ÖĢÖģ": 2322, "Õ¡ÖģÕ¶Õ¥Õ¬Õ¸ÖĤ": 2323, "Õ¥Õ´Õ¶": 2324, "ĠÕ°Õ¡ÖĢÖģÕ¨": 2325, "09": 2326, "ÔµÕİ": 2327, "ĠÕ°Õ¡Õ¿Õ¯": 2328, "ĠÖĦÕ¾Õ¥": 2329, "Õ¡Õ¦ÖĢÕ¸ÖĤÕµÖģ": 2330, "ĠÕ°Õ¡ÕµÕ¿Õ¶Õ¸ÖĤÕ´": 2331, "ĠÕįÕ«ÖĢ": 2332, "Õ¡Õ¾Õ¸Õ¿": 2333, "ĠÕ¦Õ¡Õ¶Õ£": 2334, "Ġ:": 2335, "Õ¸ÖĤÕ©Õ«ÖĤÕ¶": 2336, "ĠÕ±Õ¡ÕµÕ¶": 2337, "ĠÕ¡Õ¹": 2338, "ĠÕ¿Õ¡ÖĢÕ¢Õ¥ÖĢÕ¡Õ¯": 2339, "ĠÕ¦ÖĢÕ¸ÖĤÕµÖģ": 2340, "ÖĢÕ©Õ¸ÖĤÖĢ": 2341, "ĠÕ¡ÖĢÕ¤ÕµÕ¸ÖĤÕ¶Õ¡Õ¾Õ¥Õ¿": 2342, "ĠÕ¢Õ¡Õ¦Õ´Õ¡Õ©Õ«Õ¾": 2343, "ag": 2344, "Õ°Õ¡ÖĢÕ¯": 2345, "Õ¡Õ¿Õ¥ÖĢ": 2346, "Õ¸ÕµÕ¥Õ´Õ¢Õ¥ÖĢÕ«": 2347, "ĠE": 2348, "Õ¶Õ¥Õ¶": 2349, "Õ¸Õ²Õ¸ÖĤÕ©ÕµÕ¡Õ¶": 2350, "ĠÖĥÕ¸ÖĤÕ¬": 2351, "Õ¡Õ¶Õ¥Õ¬Õ«": 2352, "ĠÕ¢Õ¡ÖģÕ¡Õ°Õ¡ÕµÕ¿": 2353, "Õ¡Õ¶Õ¥Õ¬": 2354, "Õ¸Õ¾Õ¡Õ¶Õ¤Õ¡Õ¯": 2355, "ĠÕ¶Õ·Õ¾Õ¡Õ®": 2356, "ĠÕ¸ÖĤÖĢÕ«Õ·": 2357, "Õ¡ÖĢÕ¹Õ¡ÕºÕ¥Õ¿": 2358, "ï»": 2359, "ĠÕ¡Õ¤": 2360, "ï»¿": 2361, "ay": 2362, "Õ·Õ¡Õ¯": 2363, "ĠÕ«Õ¶Õ¿": 2364, "ĠÕ¤Õ¡ÖĢÕ±Õ¥Õ¬": 2365, "ĠÕ¥Õ¶Õ©Õ¡ÖĢÕ¯": 2366, "Õ¶Õ¡Õµ": 2367, "ĠÕ¯Õ¸ÖĤÕ¶Õ¥Õ¶": 2368, "Ô±ÕĮ": 2369, "ĠÕĬÕ¡Õ¿": 2370, "ÕµÕ¸ÖĤÕ½Õ«Õ½": 2371, "ĠÔµÖĢÕ¥ÖĤ": 2372, "ĠÔµÖĢÖĩÕ¡Õ¶Õ¸ÖĤÕ´": 2373, "ip": 2374, "Õ½Õ¿Õ«Õ¿": 2375, "ĠÕ¢Õ¶Õ¡Õ¯Õ«Õ¹": 2376, "Õ¡Õ¢Õ¥Õ¯": 2377, "Õ¡Õ¾Õ¡Õµ": 2378, "Õ«Õ¶ÖĦÕ¶": 2379, "Õ¡ÕºÕ¡ÖĢÕ¿": 2380, "ĠÕ°Õ¡Õ´Õ¡Õ¯Õ¡ÖĢÕ£Õ«": 2381, "ĠÕ°Õ¡Õ´Õ¡Õ£Õ¸ÖĢÕ®Õ¡Õ¯Öģ": 2382, "ĠÕ·ÖĢÕ»Õ¡Õ¶Õ¸ÖĤÕ´": 2383, "Õ¾Õ¡ÖĢÕ«": 2384, "ÕºÕ¥": 2385, "Õ¡Õ²Õ¡ÖĦÕ¡Õ¯Õ¡Õ¶": 2386, "org": 2387, "ĠÔ¿Õ¡ÖĢÕ¥Õ¶": 2388, "ĠÕ¤Õ¸Õ¬Õ¡ÖĢ": 2389, "ĠÔ±ÕĲ": 2390, "Õ¸ÖĤÕ¼": 2391, "ĠÕ´Õ¥ÖĦÕ¥Õ¶": 2392, "ĠÕ¶Õ¥ÖĢÕ¯Õ¡ÕµÕ¡ÖģÖĢÕ¥Õ¬": 2393, "ÕħÔ±ÕĨ": 2394, "ĠÕ¥ÖĢÕ¡ÕªÕ·Õ¿": 2395, "ĠÕĸÖĢÕ¡Õ¶Õ½": 2396, "ĠÕĢÕ¡Õ¯Õ¸Õ¢": 2397, "âĨ": 2398, "Õ«Õ²": 2399, "ĠÕ¡Õ¾Õ¿Õ¸Õ´": 2400, "Õ«Õ«": 2401, "ĠÕĶÕ¸Õ¹": 2402, "ĠÕ¿Õ¡ÖĢÕ¡Õ®Õ¡Õ·ÖĢÕ»": 2403, "Ô±Ô¶": 2404, "Õ¡ÖĦÕ¥Õ¬": 2405, "Õ¡Õ£ÖĢÕ¸ÖĤÕ©ÕµÕ¸ÖĤÕ¶": 2406, "Õ¨Õ¶Õ©Õ¡Öģ": 2407, "Õ¸ÖĤÖĢÕ£": 2408, "ĠÕ½ÕŃ": 2409, "ĠÕ°Õ¡Õ¶ÖĢÕ¡Õ£": 2410, "Õ¸ÖĤÖĢÕ½": 2411, "ĠÕĦÕ¥Õ®": 2412, "ĠÕ¸Õ½Õ¿Õ«Õ¯Õ¡Õ¶Õ¸ÖĤÕ©ÕµÕ¡Õ¶": 2413, "Õ¡Õ¯Õ¥ÖĢÕ¿": 2414, "Õ¡Õ¦Õ¡Õ¶Öģ": 2415, "Õ¡Õ·ÕŃÕ¡ÖĢÕ°Õ¡ÕµÕ«Õ¶": 2416, "Õ¡Õ»Õ«Õ¶": 2417, "ĠÕ¨Õ¶Õ¤Õ¤": 2418, "ĠÖħÕ¤": 2419, "Õ¡Õ¶ÖĦÕ¨": 2420, "Ġ#": 2421, "as": 2422, "Õ¡Õ¯Õ¶Õ¥ÖĢÕ«": 2423, "ĠÕ¯Õ¡ÕµÖĦÕ¸ÖĤÕ´": 2424, "ĠÕ´Õ·Õ¿": 2425, "Õ¡ÖģÕ¸ÖĤÕ´Õ¨": 2426, "Õ¡Õ¤ÖĢÕ¡Õ¯Õ¡Õ¶": 2427, "Õ¡Õ¯Õ¡Õ¿Õ¡ÖĢ": 2428, "Õ¸ÖĢÕ°ÖĢÕ¤": 2429, "Õ¡Õ¹Õ¡Öĥ": 2430, "ÕµÕ¸ÖĤÕ»": 2431, "ĠÔ±Õ´Õ¥Õ¶": 2432, "Õ¡Õ¦Õ¸ÖĢ": 2433, "ĠÕ¼Õ¡Õ¤Õ«": 2434, "ĠÕ¯Õ¡Õ¼Õ¸ÖĤÕµÖģ": 2435, "ĠÕ¯Õ¥Õ¶Õ½": 2436, "ĠÕ¯Õ¡ÖĢÕ®Õ¸ÖĤÕ´": 2437, "Õ¡Õ¶Õ¸ÖĤ": 2438, "Õ¸Õ¾Õ«Õ¶": 2439, "ĠÕ¬Õ¸ÖĤÖĢÕ»": 2440, "ÔµÖĢÕ¯": 2441, "Õ¡ÖĢÕ¯Õ´Õ¡Õ¶": 2442, "ĠÕ¸ÖĤÕ²Õ²Õ¾Õ¡Õ®": 2443, "ĠÕ°Õ¡Õ½Õ¡ÖĢÕ¡Õ¯Õ¡Õ¯Õ¡Õ¶": 2444, "Õ¡Õ¦Õ£": 2445, "ĠÕĨÕ¡ÕŃ": 2446, "ĠÕ¼Õ¥Õª": 2447, "Ô±ÕµÕ½ÖħÖĢ": 2448, "ĠÕ¡ÕµÕ¬Õ¶": 2449, "ĠÕĮÔ´": 2450, "ĠÕ¿Õ¥ÕŃÕ¶Õ¸Õ¬Õ¸Õ£": 2451, "Õĥ": 2452, "ĠÕ´Õ¥Õ²Õ¡Õ¤": 2453, "ĠÕ¡Õ¦Õ¤Õ¥Öģ": 2454, "ĠÕ£Õ¶Õ¸ÖĤÕ´": 2455, "ÔµÕ©Õ¥": 2456, "âĢĿ": 2457, "ĠÕ®Õ¡Õ¶ÖĢ": 2458, "Õ«Õ¡ÕµÕ¸ÖĤÕ´": 2459, "Õ¡Õ½Õ¿Õ¡Õ¶Õ¸ÖĤÕ´": 2460, "ÕµÕ¸ÖĤÕ¼": 2461, "Õ¡ÖĢÕ·": 2462, "ĠÕ£Õ®": 2463, "ĠÕ°Õ¡Õ´Õ¡ÕµÕ¶ÖĦÕ«": 2464, "Õ¡ÕµÖĦÕ«": 2465, "Õ¡Õ´Õ«Õ»Õ¸Öģ": 2466, "ĠÕ¢Õ¸Õ¾Õ¡Õ¶Õ¤Õ¡Õ¯": 2467, "ÕŃÕ«Õ©": 2468, "ĠÔ´Õ¸ÖĤÖĦ": 2469, "ĠÕ¡ÖĢÖĩ": 2470, "Õ«Õ¶Õ¥ÖĢÕ«": 2471, "Õ¥ÖģÕ¶Õ¥Õ¬": 2472, "ĠÕ°Õ¡Õ´Õ¡Õ£Õ¸ÖĢÕ®Õ¡Õ¯ÖģÕ¸ÖĤÕ©ÕµÕ¡Õ¶": 2473, "Õ¥ÖĤÕ¸ÖĢ": 2474, "ĠÕ¹Õ¸ÖĤÕ¶Õ«": 2475, "Õ¡Õ½ÕŃ": 2476, "Õ¡Õ¾Õ«": 2477, "ĠÕ¡Õ¼Õ¯Õ¡": 2478, "ĠÕ£ÖĢÕ¥Õ¬": 2479, "Õ«Õ¦Õ´": 2480, "ĠÕ°Õ¸ÖĤÕ·": 2481, "ĠÕºÕ«Õ¿Õ«": 2482, "Õ¸ÖĤÕ¶ÖĦÕ«": 2483, "ĠÕ¡ÖĢÕ¡ÖĢ": 2484, "Õ¡Õ¿ÖĢÕµ": 2485, "Õ¡ÕŃÕ½": 2486, "ĠÕ«ÖĢÕ¡Õ¤Õ¡ÖĢÕ±": 2487, "ĠÕ¡Õ¾Õ¡Õ¶Õ¤": 2488, "ĠÕ´Õ¡Õ´Õ¸ÖĤÕ¬Õ«": 2489, "ĠÕ£Õ¥Õ²Õ¥Öģ": 2490, "ĠÕ½Õ¶": 2491, "Õ¡Õ¶Õ¡Õ¬Õ«": 2492, "ĠÕ°Õ¡Õ¶ÖĢÕ¡Õ£Õ«Õ¿": 2493, "ĠÕ¡Õ¬": 2494, "ĠÕŃÕ¸Õ½ÖĦÕ¸Õ¾": 2495, "Õ¡Õ¼Õ¡Õ¿": 2496, "ĠÕ©Õ¸ÖĤÖĢÖĦ": 2497, "ÖĥÕµÕ¸ÖĤÕ¼": 2498, "Õ°Õ¡ÖĢÕ¯Õ¥": 2499, "ĠÕ¯Õ¥Õ¿": 2500, "Õ¸Õ¾Õ¡Õ¦Õ¤": 2501, "ĠÖħÖĢÕ¾Õ¡": 2502, "ĠÕ´Õ¡Õ½Õ¶Õ¡Õ£Õ¥Õ¿": 2503, "ĠÔ·Õ»": 2504, "ĠÖĦÕ¶Õ¶Õ¹Õ¡Õ¯Õ¡Õ¶": 2505, "Õ¡Õ¶ÕµÕ¡Õ¶Õ¨": 2506, "ĠÖĥÕ¸ÖĥÕ¸ÕŃÕ¸ÖĤÕ©ÕµÕ¸ÖĤÕ¶Õ¶Õ¥ÖĢ": 2507, "ÑĢ": 2508, "Õ¡Õ¯Õ¿": 2509, "ĠÕºÕ¬": 2510, "ĠÕ¡Õ·ÕŃÕ¡ÖĢÕ°Õ¸ÖĤÕ´": 2511, "ĠW": 2512, "ĠÕ°Õ¥Õ¿Õ¡Õ¦Õ¸Õ¿": 2513, "Õ¥ÖĢÕ¯Õ¡Õµ": 2514, "ĠÕ¾Õ¡Õµ": 2515, "Õ¸ÖĤÕ½Õ¡Õ¶Õ¯Õ¡ÖĢ": 2516, "ÕĪÕĤ": 2517, "ĠÕ¡Õ·ÕŃÕ¡Õ¿Õ¡Õ¯Õ«Öģ": 2518, "Õ¸Õ²Õ¶Õ¥ÖĢÕ«Õ¶": 2519, "Õ¼Õ¹": 2520, "ÕİÕ¥ÖĢÕ»Õ«Õ¶": 2521, "2017": 2522, "ĠÕ´Õ¥Õ¯Õ¶Õ¡Õ¢Õ¡Õ¶": 2523, "ĠÖģÕ¡Õ¶Õ¯Õ¡ÖģÕ¡Õ®": 2524, "ĠÕ¯Õ¡ÖĢÕ£Õ¸Õ¾": 2525, "ĠÕ¿Õ¡ÖĢÕ¡Õ®ÖĦÕ¸ÖĤÕ´": 2526, "ĠÕ¹Õ¥Õ¶ÖĦ": 2527, "ĠÕ´Õ¡Õ½Õ¨": 2528, "Õ¥ÖĢÕ¬Õ¸ÖĤÕ®": 2529, "ing": 2530, "wik": 2531, "ĠÕ¢Õ¡Õ¶Õ¡Õ¯Öģ": 2532, "ĠÕĢÕ¸Õ¾Õ°Õ¡Õ¶Õ¶Õ«Õ½": 2533, "ĠÔ±ÖĢÖĩ": 2534, "ĠÕ¸ÖĤÕ´": 2535, "Õ½Õ¿Õ¡Õ¯": 2536, "ĠÔ¼Õ¸ÖĤÖĢÕ¥ÖĢ": 2537, "Õ½Õ¿Õ«Õ¿Õ¸ÖĤÕ¿": 2538, "ĠÕ¤Õ«ÖĢÖĦ": 2539, "Õ¡Õ¶Õ«Õ¡ÕµÕ«": 2540, "ĠÕ°Õ¡Õ»Õ¸ÖĢÕ¤": 2541, "ĠÕ¹Õ°": 2542, "Õ¡Õ¤Õ¡Õ¼Õ¶Õ¡Õ¬": 2543, "ÖĢÕ¸ÖĤÖģ": 2544, "ĠÕ¢Õ¶Õ¡Õ¯Õ¡ÖĢÕ¡Õ¶": 2545, "ĠÕ°Õ¡Õ¶Õ¤Õ«ÕºÕ¸ÖĤÕ´": 2546, "Õ¡Õ¤ÖĢÕ¾Õ¡Õ®": 2547, "ĠÕģÕ¥Õ¦": 2548, "Õ«Õ¶ÖĦ": 2549, "ĠÕĢÔ±Õħ": 2550, "Õ¶Õ·": 2551, "ĠÕĦÕ¸Õ½Õ¯": 2552, "Õ«Õ£ÖĢÕ¡Õ¶": 2553, "Õ¥Õ¬ÕµÕ¡Õ¶": 2554, "Õ¥ÖģÕ«Õ¶ÖĦ": 2555, "ĠÕºÕ¡ÖĢÕ¿Õ¡Õ¾Õ¸ÖĢ": 2556, "ph": 2557, "ĠÕ¿Õ¸Õ¶": 2558, "ĠÕĢÕ¥Õ¿": 2559, "ĠÕºÕ¡Õ°Õ«Õ¶": 2560, "ĠÕ¶Õ·Õ¡Õ¶Õ¡Õ¯Õ¸ÖĤÕ´": 2561, "ĠÕ¾Õ¡Õ¿": 2562, "ĠÕ¶Õ¥ÖĢÖĦ": 2563, ",-": 2564, "Õ¡Õ¦Õ¡Õ¶": 2565, "https": 2566, "ÖĥÕ¡Õ¯": 2567, "ĠÕ´Õ¡ÖĢÕ¿Õ«": 2568, "21": 2569, "ĠÕ¢Õ¡ÕªÕ¡Õ¶": 2570, "ĠÕ¸Õ¬Õ¸ÖĢÕ¿Õ¸ÖĤÕ´": 2571, "ĠÕ¸ÖĢÕ¸Õ¾Õ°Õ¥Õ¿Öĩ": 2572, "Õ¡Õ°Õ¡Õ¯": 2573, "Õ¡Õ¶Õ¤Õ¥Õ½": 2574, "ĠÕ°Õ¡ÖĢÖģÕ¥ÖĢÕ«": 2575, "Õ¡Õ£Õ¶": 2576, "ĠÕ½Õ¸ÖĤÕµÕ¶": 2577, "Õ¡Õ¶Õ¡Õ¯Õ¨": 2578, "ĠÕįÕ¡": 2579, "ĠÕ¸ÖĤÕ½Õ¸ÖĤÕ´Õ¶Õ¡Õ½Õ«ÖĢ": 2580, "Ô±Õĳ": 2581, "ĠÕ£ÖĢÕ¡Õ½": 2582, "ĠÕ°Õ¡ÖĢÖģÕ¸ÖĤÕ´": 2583, "Õ¥ÕµÕ½": 2584, "ĠÕªÕ¸Õ²Õ¸Õ¾Õ¸ÖĤÖĢÕ¤": 2585, "ĠÕ½Õ¿Õ¥Õ²Õ®Õ¡Õ£Õ¸ÖĢÕ®": 2586, "Õ¸Õ¾Õ¨": 2587, "ĠÕ¤Õ¡Õ¼Õ¶Õ¡Õ¬": 2588, "Õ¾Õ¡Õ®ÖĦ": 2589, "ÕĦÔ±ÕĨ": 2590, "he": 2591, "ĠÕ¡Õ¼Õ¡Õ»Õ¶Õ¸ÖĢÕ¤": 2592, "Õ´Õ«Õ¡Õ®": 2593, "Õ¡Õ¤Õ¡ÖĢ": 2594, "Õ¡Õ¿Õ«Õ¾": 2595, "ĠÕ¾Õ¡ÕµÖĢ": 2596, "ĠÕ·Õ«Õ¶": 2597, "Ô±ÖĢÕ´Õ¥Õ¶": 2598, "Õ¡Õ·Õ¶": 2599, "ÕĴ": 2600, "ĠÕĦÕ¥ÖĢ": 2601, "ÔµÔ¿": 2602, "ĠÖħÕºÕ¥ÖĢ": 2603, "ĠÖĥÕ¸ÖĢÕ±Õ¸ÖĤÕ´": 2604, "Õ¸ÖĢÕ¾": 2605, "ĠÕ©Õ¥ÖĢÕ©": 2606, "ĠÕ¾Õ¥ÖĢÕ¡Õ¯Õ¡Õ¶": 2607, "Õ¸ÖĤÕµÕ©Õ¨": 2608, "ĠÕ°Õ¡Õ¶ÖĢÕ¡ÕºÕ¥Õ¿": 2609, "Õ¡Õ½Õ¡ÖĢÕ¡Õ¯": 2610, "Õ¡Õ¶Õ±Õ«Õ¶": 2611, "Ġ26": 2612, "ĠÕ¼Õ¡Õ¦Õ´Õ¡Õ¯Õ¡Õ¶": 2613, "ĠÕ¾Õ«Õ³Õ¡Õ¯": 2614, "Õ¡Õ°Õ¥ÖĢÕ©": 2615, "ĠÕ®Õ¡ÕŃÕ½": 2616, "ÕĬÕ¥Õ¿": 2617, "Õ¥Õ¼Õ¶Õ¡ÕµÕ«Õ¶": 2618, "Õ´Õ¸ÖĤÕ¶ÖĦ": 2619, "ĠÕ¿Õº": 2620, "ur": 2621, "ÑĤ": 2622, "Õ¡ÖĢÕ¡Õ¿": 2623, "Õ¡Õ¿Õ¡Õ¯Õ¡Õ¶": 2624, "Õ¸Õ¶Õ¤": 2625, "Õ¡Õ¾Õ¡ÖĢÕ¸ÖĤÕ©ÕµÕ¡Õ¶": 2626, "Õ¡ÖģÕ¸ÖĤÕµÖģ": 2627, "ĠÕ°ÖĢÕ¡Õ´Õ¡Õ¶": 2628, "Õ¥ÖģÕ¶Õ¸ÖĤÕ´": 2629, "Õ¥Õ©Õ¥": 2630, "ĠÔ±ÖĢÕ©Õ¸ÖĤÖĢ": 2631, "Õ¶Õ¯Õ¥ÖĢ": 2632, "ĠÕ¶Õ¡Õ´": 2633, "ĠÕ¡ÕºÖĢÕ«Õ¬Õ«": 2634, "ĠÔ±Õ·ÕŃ": 2635, "ĠÕ¿Õ¡Õ¶": 2636, "ĠÕ£Õ«Õ·": 2637, "ĠÕŃÕ¸ÖĤÕ´Õ¢": 2638, "ĠÕ¯Õ¡Õ¿Õ¡ÖĢÕ¥Õ¬Õ¸ÖĤ": 2639, "ĠÕ£Õ¡Õ²Õ¡Öĥ": 2640, "ĠÕ¢Õ«Õ¦Õ¶Õ¥Õ½": 2641, "ĠÕ·Õ¥Õ¶ÖĦ": 2642, "Õ¡ÖĢÕ¡Õ¶Õ¡Õ¯Õ¡Õ¶": 2643, "Õ¡ÕµÕ¡Õ¯Õ¡Õ¶": 2644, "ĠÕ½ÕºÕ¡Õ¶": 2645, "ĠÕ¿Õ¥Õ½Õ¶Õ¸ÖĤÕ´": 2646, "Õ¥Õ¿ÖĢÕ¾Õ¡ÖĢÕ«": 2647, "22": 2648, "Ð½": 2649, "ĠÕ¢Õ¸ÖĤÕª": 2650, "ĠÕ°Õ¡Õ¶Õ±Õ¶Õ¡ÕªÕ¸Õ²Õ¸Õ¾Õ«": 2651, "Ġ27": 2652, "Õ¡ÖĢÕ£Õ´Õ¡Õ¶": 2653, "ĠÖħÖĢÕ¥Õ¶Õ½Õ¤": 2654, "ĠÕ¡Õ¼Öĩ": 2655, "Õ®Õ¡Õ¼Õ¡Õµ": 2656, "Õ¡Õ£Õ¡": 2657, "Õ¡ÖĢÕªÕ¥ÖĦ": 2658, "ĠÕįÕ¸ÖĤÖĢÕ¢": 2659, "ĠÕ°Õ¡Õ¶Õ£Õ¡Õ´": 2660, "ĠÕ¢Õ¥ÖĢÕ¥Õ¬": 2661, "ĠÕĨÕ¡ÕŃÕ¡Õ£Õ¡Õ°": 2662, "ĠÕ¬Õ¥Õ¦Õ¸ÖĤÕ¶": 2663, "Õ¡Õ¤ÖĢÕ¾Õ¥Õ¬": 2664, "ĠÕŃÕ¸Õ½Õ¿": 2665, "ĠÕ¬ÖĢÕ¡Õ¿Õ¾Õ¡Õ¯Õ¡Õ¶": 2666, "ĠÕ°Õ¡Õ´Õ¡Õ¿Õ¥Õ²": 2667, "ĠÕ¡Õ¿": 2668, "Õ¡Õ¶Õ¡Õ¶": 2669, "Õ£Õ¸ÖĢÕ®": 2670, "Õ¡Õ¾Õ¸ÖĢÕ¥Õ¬": 2671, "Ô»Õ´": 2672, "ĠÕ£Õ¸ÖĢÕ®Õ¥Õ¬": 2673, "ÖĢÕ¡Õ´Öĥ": 2674, "ĠÔ´Õ¡": 2675, "Õ¡Õ¤ÖĢÕ¸ÖĤÕ©ÕµÕ¸ÖĤÕ¶": 2676, "ĠÕ¯Õ¸ÖĤÕ½Õ¡Õ¯ÖģÕ¸ÖĤÕ©ÕµÕ¡Õ¶": 2677, "ĠV": 2678, "ÕºÕ¡Õ¿": 2679, "ĠÕ·Öĥ": 2680, ".,": 2681, "Ô¿Õ¡Õº": 2682, "Õ«Õ³Õ¡Õ¶": 2683, "ĠÕ¤ÕºÖĢÕ¸ÖģÕ«": 2684, "Õ«Õ¶Õ¡Õ¯Õ¡Õ¶": 2685, "Õ¥ÖĢÕ´Õ¡Õ¶": 2686, "ĠÕ°Õ¡Õ¿Õ¯Õ¡ÕºÕ¥Õ½": 2687, "Õ¸ÖĤÕ¬Õ¿": 2688, "Õ¡Õ½Õ¯Õ¡Õ®": 2689, "Ô·Õ¬": 2690, "Ġ\"": 2691, "ĠÕ°Õ¡Õ¯Õ¡Õ´Õ¡ÖĢÕ¿": 2692, "ĠÕ¢Õ¶Õ¡Õ¯Õ¡Õ¶": 2693, "ĠÕŃÕ¸Õ·Õ¸ÖĢ": 2694, "ĠÕ«Õ¶ÖĦÕ¨": 2695, "Ô±ÕħÔ»ÕĨ": 2696, "ĠÕ¢Õ¡ÖĢÕ¥Õ¯": 2697, "Õ¸ÖĤÕ´Õ¶Õ¡Õ¯Õ¡Õ¶": 2698, "Õ½Õ«": 2699, "ĠÕ¤Õ¡Õ·Õ¿": 2700, "Õ¡Õ¬Õ¸ÖĤ": 2701, "Õ¡ÕºÕ¶Õ¤": 2702, "Õ¿ÖĢÕ¸Õ¶Õ¡ÕµÕ«Õ¶": 2703, "ĠÕ§Õ»Õ«Öģ": 2704, "ĠÔ±Õ½Õ¿Õ¾Õ¡Õ®": 2705, "ĠÕ±Õ¥Õ¼Õ¶Õ¡ÖĢÕ¯": 2706, "ĠÕ©Õ¡Öĥ": 2707, "Õ«Õ¹Õ¨": 2708, "Õ¡Õ¾Õ¡ÖĢÕ¡Õ¯Õ¡Õ¶": 2709, "ĠÕ¡ÖĢÕªÕ¡Õ¶": 2710, "ĠÕ°Õ¡ÖĢÕ¡Õ¢Õ¥ÖĢÕ¸ÖĤÕ©ÕµÕ¸ÖĤÕ¶Õ¶Õ¥ÖĢÕ«": 2711, "ĠÔ´Õ¡Õ¾Õ«Õ©": 2712, "50": 2713, "ÕĮÕ¸ÖĤÕ½": 2714, "ĠÕ¿ÖĢÕ¡Õ¶Õ½": 2715, "ĠÕ¡Õ´Õ¥ÖĢÕ«Õ¯": 2716, "Õ¡Õ¢Õ¥ÖĢÕ¾": 2717, "ĠÕ´Õ¡Õ¶ÖĢÕ¡Õ´": 2718, "ĠÕ¯Õ¥Õ½": 2719, "Õ¡ÕŃÕ¡Õ¦": 2720, "ĠÕ¤Õ«Õ´Õ¥Õ¬": 2721, "old": 2722, "ĠÕºÕ¡Õ¿Õ´Õ¸ÖĤÕ©ÕµÕ¡Õ¶": 2723, "ĠÕ·Õ¶Õ¸ÖĢÕ°Õ«Õ¾": 2724, "Ġt": 2725, "Õ¸ÖĤÕ¶ÖĦÕ¨": 2726, "ĠÕ£Õ¸Õµ": 2727, "Ô±Õ·ÕŃ": 2728, "ĠÕ°Õ¡Õ½Õ¡ÖĢÕ¡Õ¯Õ¸ÖĤÕ©ÕµÕ¡Õ¶": 2729, "Õ¡Õ½Õ¿Õ¡Õ¶Õ¨": 2730, "Ñģ": 2731, "ĠÔµÕĦ": 2732, "ĠÕ¾Õ¡ÖĢÕ¹Õ¡ÕºÕ¥Õ¿Õ«": 2733, "ĠÕ¸ÖĢÕ¡Õ¯": 2734, "ÕĢÕ¡ÖĢ": 2735, "Õ¡ÖĢÕº": 2736, "Õ¡Õ´Õ¥Õ¶Õ¨": 2737, "Õ¡Õ¢Õ¥ÖĢÕ¸ÖĤÕ´": 2738, "Õ¿ÖĢÕ¡Õ¯Õ¡Õ¶": 2739, "ĠÕ¾Õ¥ÖĢÕ¡Õ¤Õ¡ÖĢÕ±": 2740, "ĠÕ¯Õ¥Õ¶Õ¤": 2741, "ĠÕ¶Õ¥ÖĢÕ£": 2742, "âĢ¤âĢ¤": 2743, "ĠÕ¡ÕºÖĢÕ¡Õ¶ÖĦ": 2744, "Õ¶Õ¿": 2745, "Õ¾Õ¥ÖģÕ«Õ¶": 2746, "ĠÔ·Õ¤": 2747, "un": 2748, "ĠÕ½Õ¥ÕºÕ¿Õ¥Õ´Õ¢Õ¥ÖĢÕ«": 2749, "ĠÕ¾Õ¥ÖĢÕ¡Õ°Õ½Õ¯": 2750, "ĠÕ¾Õ¥ÖĢÖģ": 2751, "ĠÕ¡Õ·ÕŃÕ¡Õ¿Õ¸ÖĤÕ´": 2752, "ĠÕ¯ÖĢÕ©Õ¸ÖĤÕ©ÕµÕ¡Õ¶": 2753, "ĠÖĨÕ«Õ¶Õ¡Õ¶Õ½Õ¡Õ¯Õ¡Õ¶": 2754, "ĠÕ°Õ¸Õ²": 2755, "ĠÕ·Õ¿": 2756, "Õ¥Õ´Õ«": 2757, "ĠÕ´ÖĢÖģÕ¡Õ¶Õ¡Õ¯": 2758, "ĠÕĢÖĢ": 2759, "ĠÕ¸ÖĢÕ¸ÖĤÕ´": 2760, "ĠÕĨÖĢÕ¡": 2761, "ĠÕİÕ¡Õ¶": 2762, "ĠÕ½Õ¯Õ½Õ¥Õ¬": 2763, "ĠÔ±Õ¬Õ¥ÖĦÕ½": 2764, "ĠÖĦÕ¡Õ²Õ¡ÖĦÕ¡ÖģÕ«Õ¡Õ¯Õ¡Õ¶": 2765, "av": 2766, "Õ¡ÕµÕ©": 2767, "Ô±ÕµÕ¬": 2768, "ĠÕĵÕ¡Õ·Õ«Õ¶ÕµÕ¡Õ¶Õ«": 2769, "ĠÕ¤Õ«Õ¾": 2770, "ĠÕ£ÖĢÕ¡Õ¯Õ¡Õ¶": 2771, "ĠÕ¶ÕºÕ¡Õ½Õ¿": 2772, "ĠÕ®Õ¡Õ¾Õ¡Õ¬": 2773, "ÕĢÕ¡ÕµÕ¡Õ½Õ¿Õ¡Õ¶": 2774, "ĠÕ¯Õ¡Õ¦Õ´Õ¡Õ¯Õ¥ÖĢÕºÕ¸ÖĤÕ©ÕµÕ¡Õ¶": 2775, "Õ¡Õ¯Õ¡Õ¿": 2776, "ĠÕ¥Õ¼": 2777, "ĠÕ¥ÖĢÕ¯ÖĢÕ¸ÖĤÕ´": 2778, "Õ¸ÖĤÕ©Õ¥Õ¡Õ¶": 2779, "Ô±ÖĢ": 2780, "Õ¡Õ°Õ¡Õ´": 2781, "ĠÕ°Õ¡Õ´Õ¸Õ¦": 2782, "ĠÕ¡Õ¼Õ¡Õ¶Õ±Õ«Õ¶": 2783, "ĠÕ°Õ¡Õ´Õ¡ÖĢÕ¸ÖĤÕ´": 2784, "ĠÕ·Õ¡ÖĢÕ¸ÖĤÕ¶Õ¡Õ¯Õ¸ÖĤÕ´": 2785, "Õ¡ÖĢÕ´Õ¡ÖĢ": 2786, "Õ¸Õ¶Õ¥": 2787, "ĠÖĥÖĢÕ¯": 2788, "Ġ28": 2789, "Õ¡Õ½Õ«": 2790, "Õ¡Õ£Õ«Õ¯": 2791, "Õ¡Õ¯ÖģÕ¸ÖĤÕ©ÕµÕ¡Õ´Õ¢": 2792, "Õ¡ÖģÕ«Õ¡ÕµÕ«": 2793, "ĠÕ¯Õ¶Õ¸Õ»": 2794, "ĠÔ·Õ»Õ´Õ«Õ¡Õ®": 2795, "Õ¥Õ¶ÕµÕ¡Õ¯": 2796, "Õ¢Õ¥ÖĢÕ¸ÖĤÕ´": 2797, "ĠÖģÕ¡Õ¶Öģ": 2798, "ĠAr": 2799, "ĠÕ¬Õ«Õ¡Õ¦Õ¸ÖĢ": 2800, "ĠÖħÖĢÕ¥Õ¶Õ½Õ£ÖĢ": 2801, "Õ¡Õ¿Õ¶Õ¿Õ¥Õ½": 2802, "ĠÕ«Õ¶Õ½Õ¿Õ«Õ¿Õ¸ÖĤÕ¿": 2803, "ÕµÕ¸ÖĤÖĢÕ¨": 2804, "ĠÕ½ÕŃÕ¡Õ¬": 2805, "ad": 2806, "Õ¡ÖģÕµÕ¡Õ¬": 2807, "ÕıÕ¥Õ½": 2808, "ĠÕ¯Õ¡Õ¶Õ¡Õ¶Öģ": 2809, "Õ¸Õ¢Õ¥ÖĢÕ¿": 2810, "ĠÕ¶Õ¥ÖĢÖĦÕ«Õ¶": 2811, "ĠÖĥÕ¡Õ½Õ¿Õ¡Õ©Õ²Õ©": 2812, "Õ¹Õ¡Õ¯Õ¡Õ¶": 2813, "Õ¸ÖĤÖĢÕ«": 2814, "Õ¡ÕªÕ¡Õ´": 2815, "edia": 2816, "ĠÕ£Õ¸ÖĢÕ®Õ¸Õ¾": 2817, "ĠÕ¶Õ¥ÖĢÕ¯Õ¡": 2818, "Õ«Õ¯Õ¶Õ¥ÖĢÕ«": 2819, "ĠÕ¶Õ¡ÕŃÕ¡Õ£Õ¡Õ°Õ¨": 2820, "ĠÕ¥ÖĢÕ¥ÕŃÕ¡Õ¶Õ¥ÖĢÕ«": 2821, "ĠÕ¤Õ¡Õ¿Õ¡ÖĢÕ¡Õ¶Õ«": 2822, "ĠÕ©Õ¥Õ¯Õ¶Õ¡Õ®Õ¸ÖĤ": 2823, "ĠÕ¡Õ¤ÖĢÕ¢Õ¥Õ»": 2824, "ĠÕºÕ¡Õ·Õ¿ÕºÕ¡Õ¶Õ¾Õ¡Õ®": 2825, "ĠÕ´Õ·Õ¡Õ¯Õ¸ÖĤÕµÕ©Õ«": 2826, "dex": 2827, "ĠÕ¶Õ¡ÕŃÕ¸ÖĢÕ¤": 2828, "ĠÕ«ÖĢÕ¡Õ¾Õ¡Õ¯Õ¡Õ¶": 2829, "ĠÕ¡ÖĢÕ±Õ¡Õ£": 2830, "23": 2831, "ĠÕ¢ÕµÕ¸ÖĤÕ»": 2832, "ĠÔ±ÖĢÕ¡Õ´": 2833, "ĠÕ½Õ¿Õ¡Õ¶Õ¡Õ¬": 2834, "Õ¸ÖĤÕ°Õ«Õ¶": 2835, "ÕĪÕİ": 2836, "Õ¥ÖĢÕ¢Õ¡Õ¯Õ¡Õ¬": 2837, "ĠÔ²Õ¸Õ¬Õ¸ÖĢ": 2838, "ĠÔ³ÕµÕ¸ÖĤÕ´": 2839, "ĠÖħÖĢÕ¥Õ¶ÖĦÕ¸Õ¾": 2840, "Õ¶Õ¡ÕµÕ¡Õ®": 2841, "25": 2842, "ÕįÕ¿Õ¡ÖģÕ¾Õ¡Õ®": 2843, "ĠÕ¢Õ¸Õ¬": 2844, "ĠÕ¾ÖĢ": 2845, "Õ¡Õ¼Õ¸ÖĤÕ¯": 2846, "ĠÕ¡ÕºÖĢÕ¸ÖĤÕ´": 2847, "Õ¸ÕµÕ¡Õ¶Õ¨": 2848, "ĠÕ«ÖĢÕ¡Õ¯Õ¡Õ¶Õ¡ÖģÕ´Õ¡Õ¶": 2849, "ĠÕ¯Õ¥Õ¶Õ¿ÖĢÕ¸Õ¶Õ«": 2850, "ĠÕ¦ÖĢÕ¸ÖĤÕµÖģÕ¸ÖĤÕ´": 2851, "ts": 2852, "Õ¡Õ¿Õ¸ÖĢ": 2853, "Õ¡Õ½Õ¡ÖĢ": 2854, "Ô±ÖĢÕ¿": 2855, "Õ«Õ¿Õ¡Õ¯": 2856, "ĠÔ±ÖĢÕ¤": 2857, "ĠÕ¯Õ¡ÖĢÕ«ÖĦ": 2858, "ĠÕ¿Õ¥Õ²Õ¡Õ¯Õ¡Õ¬": 2859, "ĠÕ¾Õ¡ÖĢÕ¹Õ¸ÖĤÕ©ÕµÕ¡Õ¶": 2860, "ĠÕºÕ¡ÖĢÕ¢Õ¥ÖĢ": 2861, "ĠÖĦÕ¡Õ²Õ¡ÖĦÕ¸ÖĤÕ´": 2862, "Õ½Õº": 2863, "ĠÕ¤Õ¥Õ¯Õ¿Õ¥Õ´Õ¢Õ¥ÖĢÕ«": 2864, "Õ¡ÕŃÕ´Õ¢": 2865, "ĠÕºÕ¥Õ¿Õ¸ÖĤÕ©ÕµÕ¡Õ¶": 2866, "ĠÕ¡ÖĢÕ±Õ¡Õ¯": 2867, "Õ¡Õ²Õ©": 2868, "ĠÕ¹Õ£": 2869, "Õ¾Õ¡Õ¦": 2870, "ĠÕ¿Õ«ÖĢ": 2871, "ĠÕĢÕ¡ÕµÕ¯Õ¡Õ¯Õ¡Õ¶": 2872, "ĠÕ¶Õ¸ÖĤÕµÕ¶ÕºÕ¥Õ½": 2873, "Ô»ÕĲ": 2874, "ĠÕºÕ¡ÕµÕ´Õ¡Õ¶Õ¡Õ¾Õ¸ÖĢÕ¾Õ¡Õ®": 2875, "ĠÕ¡Õ¯Õ¶": 2876, "ĠÕ¢Õ¡ÕªÕ«Õ¶": 2877, "Õ¸Õ¯Õ¡Õµ": 2878, "ĠÕ«Õ¶Õ¹Õ«": 2879, "ĠÕ¶Õ¡ÕŃÕ¡Õ£Õ«Õ®": 2880, "Õ¿Õ¥Õ´Õ¢Õ¥ÖĢ": 2881, "ĠÕ¨Õ¶Õ¤Õ£Õ®": 2882, "Õ¡ÕµÕ´Õ¡Õ¶": 2883, "ĠÕ¯Õ¡ÖĢÕ¤": 2884, "ĠÕ¡Õ´Õ¸ÖĤÕ½Õ¶": 2885, "ĠÕ°Õ¡ÖĢÕ¸ÖĤÖģ": 2886, "ÖħÖĢÕµÕ¡": 2887, "ĠÕ¡Õ¾Õ¿Õ¸Õ´Õ¥ÖĦÕ¥Õ¶": 2888, "ĠÕ¯Õ¡Õ©": 2889, "Õ¡Õ¬Õ¸Õ¾": 2890, "Õ¡ÖĢÕ¯Õ«": 2891, "ĠÕ¡ÕµÕ¤ÕºÕ¥Õ½": 2892, "Õ¡Õ£Õ¸ÖĢÕ®Õ´Õ¡Õ¶": 2893, "ĠÔ±ÕµÕ½ÖħÖĢ": 2894, "ĠÕ¯ÖĢÕ¯Õ«Õ¶": 2895, "ĠÕ£Õ¡Õ¦": 2896, "ĠÕĢÕ¸ÖĤÕ¶": 2897, "Õ¸Õ½Õ¿Õ¸Õ½Õ«": 2898, "ĠÕ¿Õ¡Õ½Õ¶": 2899, "ĠÕ¢Õ¡Õ²": 2900, "Õ¡ÖĢÕ¡ÖĢÕ¨": 2901, "ĠÕ´Õ¥Õ¶": 2902, "ĠÕ¯Õ¡Õ¬": 2903, "ĠÕĢÕ«Õ´": 2904, "ĠÕ°Õ¥Õ¿Õ¡ÖĦÖĢÖĦÕ«ÖĢ": 2905, "ĠÕ¤ÖĢÕ¡Õ¶": 2906, "ĠÔµÕİ": 2907, "ĠÖĢÕ¸Õº": 2908, "Õ¡Õ¶Õ¶Õ¥ÖĢÕ«": 2909, "ĠÕ°Õ½Õ¿Õ¡Õ¯": 2910, "Õ¥Õ¶Õ½": 2911, "Õ¡Õ¼Õ¨": 2912, "ĠÕ¡Õ·ÕŃÕ¡Õ¿Õ¥Õ¬": 2913, "ĠÕ¤Õ¡Õ¿Õ¡Õ¯Õ¡Õ¶": 2914, "php": 2915, "ir": 2916, "Õ¹Õ«": 2917, "ÕĪÕĨ": 2918, "ĠÕ¸ÖĤÕ¶Õ¥Õ¶ÖĦ": 2919, "ĠÕ¡Õ´ÖĢ": 2920, "Ġ2015": 2921, "ĠÕ´Õ¸Õ¿Õ¥Öģ": 2922, "Õ«ÕŃ": 2923, "ĠÕ¡ÖĢÕ¥Õ¬": 2924, "ĠÕ¯Õ¸Õ´Õ«Õ¿Õ¥Õ«": 2925, "ĠÕ¾Õ¡ÕŃ": 2926, "ĠÕİÕ«ÖĦÕ«ÕºÕ¥Õ¤": 2927, "ĠÕ¸ÖĢÕ¸Õ·Õ¡Õ¯Õ«": 2928, "Ô±Ô½": 2929, "ĠÕ½Õ¿Õ¥Õ²Õ®Õ¥Õ¬": 2930, "ĠÕ¾Õ¡Õ²Õ¨": 2931, "ĠÕ°Õ¶Õ¹": 2932, "ĠÕ¥Õ²Õ¢": 2933, "itle": 2934, "Õ¥Õ¶ÖĦÕ«": 2935, "ĠÕ¤Õ¡Õ·Õ«Õ¶": 2936, "Õ¡ÖĦÕ¡Õ²Õ¡ÖĦ": 2937, "ĠÔ²Õ¡Õ¢": 2938, "eb": 2939, "Õ¯Õ«": 2940, "ÕĬÕĢ": 2941, "ĠÕ¬Õ«Õ¶Õ¸ÖĤÕ´": 2942, "ĠÕ¯Õ¤": 2943, "ĠÕĦÕ«Õ¶": 2944, "ĠÕ¿Õ¡ÖĢÕ¡Õ®ÖĦ": 2945, "ĠÕ¯Õ¥Õ¶Õ¿ÖĢÕ¸Õ¶Õ¸ÖĤÕ´": 2946, "ĠÕ°Õ¥Õ¿ÖĩÕµÕ¡Õ¬": 2947, "index": 2948, "ÕĨÔµÕĲÔ»": 2949, "title": 2950, "Õ¡Õ´Õ¸ÖĤÕ¿": 2951, "ĠÔ¿Õ¥Õ¶Õ¿ÖĢÕ¸Õ¶": 2952, "ĠÕ°Õ¡ÖĢÖģÕ¥ÖĢ": 2953, "ĠÕ¡Õ¶Õ±Õ«": 2954, "Õ¡Õ¶Õ¡ÕµÕ«Õ¶": 2955, "ĠÕ°Õ¥Õ¿ÖĩÕ¡Õ¶ÖĦÕ¸Õ¾": 2956, "24": 2957, "ĠÕ¡Õ´Õ¢Õ¸Õ²Õ»Õ¡Õ¯Õ¡Õ¶": 2958, "ĠÕ°Õ¸Õ¯Õ¿Õ¥Õ´Õ¢Õ¥ÖĢÕ«": 2959, "ÕĢÖĢ": 2960, "ĠÔ»ÖĢÕ¡Õ¶Õ«": 2961, "ÖĢÕ¡Õ¯": 2962, "Õ¡Õ¶Õ¥ÖĢ": 2963, "ĠÕ¸ÖĢÖĦÕ¡Õ¶": 2964, "ĠÕ½Õ¿Õ«Õº": 2965, "ĠÕ´Õ¡Õ¿Õ¸ÖĤÖģ": 2966, "ĠÕ£Õ¸Õ¿": 2967, "ĠÕ¡Õ·ÕŃÕ¡Õ¿Õ¡Õ¯Õ¡Õ¦Õ´": 2968, "ĠÕ¿Õ¥Õ½Õ¡Õ¶ÕµÕ¸ÖĤÕ©": 2969, "ĠÕ½Õ«ÖĢÕ¸ÖĤÕ´": 2970, "ĠÕ¤Õ¡Õ¼Õ¶Õ¸ÖĤÕ´": 2971, "ĠÕ¹Õ¥ÖĦ": 2972, "ĠÖģÕ¡Õ¾": 2973, "Õ¡Õ±Öĩ": 2974, "ĠÕ£Õ¸ÖĢÕ®Õ«": 2975, "ĠÕ¡ÕµÕ¶Õ¿Õ¥Õ²": 2976, "Õ¸Õ´Õ½": 2977, "ĠâĢľ": 2978, "ÖĢÕ¥Õ½": 2979, "Õ¶Õ¸ÖĢÕ¤": 2980, "ĠÕ©Õ¡Õ¿ÖĢ": 2981, "ĠÕįÕ¡Õ°Õ´Õ¡Õ¶": 2982, "Õ¡ÖĥÕ¡Õ¯": 2983, "Õ¡Õ©Õ¥ÖĢÕ©": 2984, "ter": 2985, "ĠÕ¸ÖĤÕ¶Õ¥ÖģÕ¡Õ¾": 2986, "ĠÕ»Õ¥ÖĢÕ´": 2987, "Õ¾ÖĢÕ¸ÕºÕ¡Õ¯Õ¡Õ¶": 2988, "ĠÕ°Õ¥ÖĢÕ©Õ¡Õ¯Õ¡Õ¶": 2989, "ĠÕ°Õ¡Õ¶ÖģÕ¡Õ£Õ¸ÖĢÕ®": 2990, "05": 2991, "Õ¡Õ½Õ¿Õ¥Õ²Õ®": 2992, "ĠÖĦÕ¡Õ²": 2993, "ĠÕªÕ¸Õ²Õ¸Õ¾Õ«": 2994, "Õ¡ÕºÕ¡Õ¿ÖĢÕ¡Õ½Õ¿": 2995, "ĠÕ´Õ¡ÕµÕ«Õ½Õ«": 2996, "Õ¡Õ¯Õ¡Õ¼": 2997, "ĠÕ¬Õ¡ÕµÕ¶": 2998, "ĠÕ§Õ¶Õ¥ÖĢÕ£": 2999, "Õ«Õ¡Õ¶Õ¥ÖĢÕ«": 3000, "ĠÕ¶Õ¡Õ¾": 3001, "ÕĨÕ¡": 3002, "oldid": 3003, "ÖģÕ«": 3004, "199": 3005, "ĠÕ¡Õ·Õ¡Õ¯Õ¥ÖĢÕ¿": 3006, "Ô±Õ¬": 3007, "ĠÕ¾Õ¥ÖĢÕ¬Õ¸ÖĤÕ®": 3008, "ĠÕ¥ÖĢÕ¢Õ¥ÖĦ": 3009, "Õ¥Õ£Õ¸ÖĢ": 3010, "ĠÖĦÕ¡ÖĢÕ¿Õ¸ÖĤÕ²": 3011, "Õ¡Õ¶Õ´Õ¡Õ¶": 3012, "ĠÕ°Õ¸ÖĢ": 3013, "Õ«Õ¶Õ¥": 3014, "ĠÕ½Õ¥ÖĢ": 3015, "ĠÕįÕ¡Õ´": 3016, "ĠÕ¥ÖĢÕ©": 3017, "ĠÕºÕ¡Õ¿Õ¾Õ«ÖĢÕ¡Õ¯": 3018, "ĠÕ´Õ«Õ¡Õ½Õ«Õ¶": 3019, "ĠÕ¤ÖĢÕ½": 3020, "ĠÕ¡ÕµÕªÕ´": 3021, "ĠÕ°Õ¡Õ´Õ¡Õ·ÕŃÕ¡ÖĢÕ°Õ¡ÕµÕ«Õ¶": 3022, "ĠÕİÕ¥ÖĢ": 3023, "Õ¥Õ¶Õ¥ÖĢ": 3024, "ĠÕ«Õ´Õ¡Õ½Õ¿": 3025, "ĠÕ¦Õ«Õ¶Õ®Õ¡Õ¼Õ¡Õµ": 3026, "ĠÕ´Õ·Õ¡Õ¯Õ¸ÖĤÕ©Õ¡ÕµÕ«Õ¶": 3027, "Õ¡Õ¤Õ¥Õ´": 3028, "ĠÕ¡Õ¾Õ¡Õ£Õ¡Õ¶Õ¸ÖĤ": 3029, "ĠÕ°Õ¥ÖĢÕ¸Õ½": 3030, "ĠÕ°Õ¡Õ¶ÖĢÕ¡Õ£Õ«Õ¿Õ¡ÖĢÕ¡Õ¶": 3031, "Õ¥ÕµÕ½Õ¢": 3032, "Õ¡ÖģÕ¸ÖĤ": 3033, "ÕĢÔ±Õħ": 3034, "us": 3035, "ĠÕ´Õ¥Õ¿": 3036, "Õ¡Õ¯Õ¡Õ¶Õ¶Õ¥ÖĢÕ«": 3037, "ĠÖħÕ¿Õ¡ÖĢ": 3038, "Õ¡Õ¾Õ¡ÕµÖĢ": 3039, "ĠÕ¡Õ¼Õ©Õ«Õ¾": 3040, "ÔµÕĦ": 3041, "ĠÕ´Õ«Õ¸ÖĤÕ©ÕµÕ¡Õ¶": 3042, "ĠÕ¯Õ¸ÖĢÖģ": 3043, "ĠÕ°Õ¡Õ·Õ¾Õ«": 3044, "lo": 3045, "ĠÕ¡ÕµÕ¶ÕºÕ«Õ½Õ«": 3046, "ÕĢÕ¡ÕµÕ¯Õ¡Õ¯Õ¡Õ¶": 3047, "ĠÕ¤Õ¡Õ¿Õ¡ÕŃÕ¡Õ¦": 3048, "ĠÔ½Õ¡Õ¹Õ¡Õ¿ÖĢÕµ": 3049, "ĠÕŃÕ¸Õ½Õ¥Õ¬": 3050, "ĠÕķÖĢ": 3051, "ĠÕ°Õ¥Õ¼Õ¡ÕŃÕ¸Õ½": 3052, "ĠÕ¢ÕªÕ·Õ¯Õ¡Õ¯Õ¡Õ¶": 3053, "ĠÕ¨Õ¶Õ¤Õ¤Õ«Õ´": 3054, "ĠÕ¯Õ¡ÕŃ": 3055, "Ô±ÕĤ": 3056, "ĠÕ´Õ«Õ¡Õ¾Õ¸ÖĢ": 3057, "ĠÕ«Õ¶Õ¹Õ¸ÖĤ": 3058, "ĠÕ§Õ«Õ¶ÖĦ": 3059, "ÖĥÕ¸Öĥ": 3060, "ĠÕ¾Õ¥ÖĢÕ¡Õ¶": 3061, "Õ¶Õ¡": 3062, "ĠÕ£Õ¬": 3063, "ĠÔµÖĢÕ¢": 3064, "ĠÖĨÕ«Õ¦": 3065, "ĠÕŃÕ¸Õ½Õ¸ÖĤÕ´": 3066, "ĠÕ¡Õ¶Õ¿": 3067, "ĠÕįÕ¡Õ°Õ¡Õ¯": 3068, "ab": 3069, "Õ¡Õ¤Õ¥Õº": 3070, "ĠÕ±Õ¥ÖĢÕ¢Õ¡Õ¯Õ¡Õ¬": 3071, "Ġ2014": 3072, "ĠÕ¨Õ¶Õ¿ÖĢÕ¸ÖĤÕ©ÕµÕ¸ÖĤÕ¶Õ¶Õ¥ÖĢÕ«": 3073, "Õ¡Õ£Õ¡Õ¾Õ¸ÖĢ": 3074, "ĠÕĦÕ¡ÖĢÕ£": 3075, "ĠÕıÕ«Õ£ÖĢÕ¡Õ¶": 3076, "Õ¡Õ°Õ¡Õ¿Õ¾Õ¡Õ®": 3077, "ĠÔ¸Õ¶Õ¤": 3078, "ĠÕ¸ÖĤÖĢÕ¡ÕŃ": 3079, "Õ¡Õ¶ÕµÕ¡Õ¶Õ«": 3080, "Õ¡Õ½Õ¿Õ«": 3081, "ĠÕ´Õ¥Õ¯Õ«": 3082, "ĠÕŃÕ¶Õ¤Õ«ÖĢÕ¶Õ¥ÖĢ": 3083, "Õ¯ÖĢÕ¡Õ«": 3084, "ĠÖĨÕ¸ÖĤÕ¿Õ¢Õ¸Õ¬Õ«Õ½Õ¿": 3085, "Õ¡ÖĢÕ¸Õ¶": 3086, "Õ¬Õ¸ÖĤÕ½Õ¡Õ¶Õ¯Õ¡ÖĢ": 3087, "ĠÕĨÖĢÕ¡Õ¶ÖĦ": 3088, "Õ¡Õ¿Õ¡ÖĢÕ¡Õ¯": 3089, "ĠÕ¨Õ¶Õ¤Õ¡Õ´Õ¥Õ¶Õ¨": 3090, "ĠÕ£ÖĢÕ¥Õ©Õ¥": 3091, "ĠÕ»ÖĢ": 3092, "ĠÖĦÕ¡ÖĢÕ¸Õ¦": 3093, "ĠÕ¼Õ¡Õ¤Õ«Õ¸Õ¯Õ¡Õµ": 3094, "Õ¸ÖĤÕ´Õ«Öģ": 3095, "ĠÕ®Õ¡Õ¼": 3096, "Ô³Õ¬ÕŃÕ¡Õ¾Õ¸ÖĢ": 3097, "ĠÕ°Õ¡Õ¶ÖĢÕ¡ÕµÕ«Õ¶": 3098, "ook": 3099, "04": 3100, "Õ¡Õ´Õ¿": 3101, "ĠÕ¸ÖĤÕ½Õ¸ÖĤÖģ": 3102, "ÕµÕ¥Õ¯Õ¿": 3103, "Õ¸Õ²Õ¸ÖĤÕ©ÕµÕ¸ÖĤÕ¶": 3104, "ĠÕ©Õ¡ÖĢÕ£Õ´Õ¡Õ¶": 3105, "Õ¡Õ¦Õ¡Õ¿": 3106, "ĠÕ¯Õ¡ÕºÕ¡Õ¯ÖģÕ¸ÖĤÕ©ÕµÕ¡Õ´Õ¢": 3107, "ĠÕ¡Õ¶Õ±Õ¶Õ¡Õ¯Õ¡Õ¶": 3108, "06": 3109, "Õ¿Õ¡Õ¬": 3110, "Õ¡Õ¾Õ¡ÖĦ": 3111, "ĠÕ¤Õ¡Õ¤Õ¡ÖĢ": 3112, "ĠÕ«ÖĢÕ¥Õ¶ÖĦ": 3113, "ak": 3114, "Õ¡Õ°Õ¡Õ¶Õ¤Õ¥Õ½": 3115, "ĠÕºÕ¡ÕµÕ´Õ¡Õ¶Õ¶Õ¥ÖĢ": 3116, "Õ¥Õ¡Õ¬": 3117, "Õ«ÖĦÕ¨": 3118, "ĠÕ½ÖĢÕ¿": 3119, "ĠÕ½Õ¿Õ¸ÖĤÕ£": 3120, "Õ¡Õ¶Õ¤Õ«Õº": 3121, "Õ¬Õ«Õ´": 3122, "ĠÔ±Õ¶Õ¤": 3123, "ĠÕĦÔ»": 3124, "Õ¸ÖĤÕ½Õ«": 3125, "ĠÔ»Õ¶Õ¹ÕºÕ¥Õ½": 3126, "ĠÕ¡Õ¶Õ´Õ«Õ»": 3127, "ĠÕİÕ«ÖĦÕ«ÕºÕ¥Õ¤Õ«Õ¡": 3128, "Õ¡ÖģÕ¾Õ¸ÖĤÕ´": 3129, "Õ¡Õ¤ÖĢÕ¸ÖĤÕ©ÕµÕ¸ÖĤÕ¶Õ¨": 3130, "ĠÕ´Õ«Õ¿": 3131, "ĠÔ±Õ²": 3132, "ĠÔ±Ô³": 3133, "ĠÖĦÕ¡Õ²Õ¡ÖĦÕ¡Õ¯Õ¡Õ¶Õ¸ÖĤÕ©ÕµÕ¸ÖĤÕ¶": 3134, "ĠÕ¢Õ¡ÕªÕ¶Õ«": 3135, "ĠÕ¶Õ¸ÕµÕ¥Õ´Õ¢Õ¥ÖĢÕ«": 3136, "ĠÕ¡Õ¼Õ¸ÖĤÕ´Õ¸Õ¾": 3137, "ĠÕ£Õ¸ÖĢÕ®Õ«Õ¹": 3138, "ĠÕ°Õ¡Õ´Õ¡Õ¬Õ½Õ¡ÖĢÕ¡Õ¶Õ«": 3139, "ĠÕ¨Õ¶Õ¤Õ£ÖĢÕ¯": 3140, "Õ¡Õ¶Õ¥ÖĢÕ¨": 3141, "ÕĢÕ¸Õ¤Õ¾Õ¡Õ®": 3142, "Õ¡ÖģÕ«Õ¸Õ¶": 3143, "ĠÕĶÖĢÕ«Õ½Õ¿": 3144, "ĠÕ¥ÖĢÖĢÕ¸ÖĢÕ¤": 3145, "ĠÕ°Õ¡Õ£": 3146, "ĠÕ°Õ¡Õ´Õ¡ÖĢÕ¾Õ¸ÖĤÕ´": 3147, "ĠÔ¿Õ¡Õ¶": 3148, "ĠÕ°Õ¡Õ¶Õ¤Õ«ÕºÕ¥Õ¬": 3149, "ĠÕ®ÖĢÕ¡Õ£Õ«ÖĢÕ¨": 3150, "ĠÕĬÕ¥Õ¿ÖĢÕ¸Õ½": 3151, "Õ¡Õ£ÖĢÕ¾Õ¥Õ¬": 3152, "ĠÕĢÕ¡ÕµÖĢ": 3153, "Õ¡Õ£ÖĢÕ¸Õ¾": 3154, "Ô¸Õ¶Õ¤": 3155, "Õ¡Õ¾Õ¡ÖĢÕª": 3156, "Õ¸Õ²Õ«Õ¯": 3157, "ĠÕ¤Õ¥Õ²": 3158, "ĠÕ¼Õ¸ÖĤÕ½Õ¡Õ¯Õ¡Õ¶": 3159, "ĠÕ¡Õ²Õ¢ÕµÕ¸ÖĤÖĢ": 3160, "02": 3161, "ĠÕ¶Õ·Õ¸ÖĤÕ´": 3162, "ail": 3163, "Õ¬Õ«": 3164, "ĠÕ£ÖĢÕ¡Õ¾": 3165, "ĠÕ°Õ¡Õ¯Õ¡Õ¼Õ¡Õ¯": 3166, "Ô±ÕĦÕĨ": 3167, "Õ¯ÖĢÕ¿": 3168, "ĠÕ¸ÖĢÕ«Õ¶": 3169, "Õ¡Õ¼Õ¡Õ¶Õ£": 3170, "Õ¡Õ¤Õ«Õ´": 3171, "ÖĥÕ¸Õ½Õ¿": 3172, "ĠÔ³Õ¥ÖĢÕ´": 3173, "ĠÔ¹ÖĢÕ¡Õ´Öĥ": 3174, "Õ¸Õ¼Õ¸ÖĤÕº": 3175, "Õ¡Õ½Õº": 3176, "ĠÕ£Õ¬ÕŃ": 3177, "ĠÕ¶Õ¥ÖĢÕ¯Õ¡ÕµÕ¡ÖģÕ¾Õ¡Õ®": 3178, "ĠÕ°Õ¸ÖĤÕ¶Õ¾Õ¡ÖĢÕ«": 3179, "ĠÕ¡ÕµÖģÕ¥Õ¬Õ¥Õ¬": 3180, "Ô±Ô´": 3181, "ÖĩÕ¡Õ¶": 3182, "Õ«Õ·Õ¯": 3183, "Õ½Õ¯Õ«": 3184, "ĠÔ¼Õ¥Õ¼Õ¶Õ¡ÕµÕ«Õ¶": 3185, "Õ¸ÖĤÕ¶Õ«": 3186, "Õ¥ÖģÕ¶Õ¥Õ¶ÖĦ": 3187, "ĠÕĦÔ±Õį": 3188, "ĠÔ²Õ¡Õ²": 3189, "ĠÕ½Õ¿Õ¡Õ¶Õ¡Õ¬Õ¸ÖĤ": 3190, "03": 3191, "ĠÕ¯Õ¡Õ½Õ¯Õ¡Õ®": 3192, "ĠÕ¡Õ¶Õ¾Õ³Õ¡ÖĢ": 3193, "ĠÕ«Õ·ÕŃÕ¡Õ¶Õ¸ÖĤÕ©ÕµÕ¡Õ¶": 3194, "ĠÕ¥Õ¬Õ¸ÖĤÕµÕ©": 3195, "ĠÕ°Õ«": 3196, "ĠÕ°Õ¸ÖĤÕ¬Õ«Õ½Õ«": 3197, "ĠÕĪÖĢ": 3198, "ĠÕ¸ÖĤÕ²Õ²Õ¡Õ¯Õ«": 3199, "ĠÕ´Õ«Õ¶Õ¹Õ¥ÖĤ": 3200, "ĠÕ¶Õ¥ÖĢÕ¡Õ¼": 3201, "07": 3202, "ĠÕºÕ¶Õ¤": 3203, "ĠÕĢÔ±ÕĦ": 3204, "ĠÕ¨Õ¶Õ©Õ¥ÖĢÖģ": 3205, "Õ½Õ¿Õ«": 3206, "ÖĢÕ¡ÖĥÕ¡Õ¯": 3207, "Õ¡Õ¯Õ¸Õ¾": 3208, "ĠÕ¾Õ¥ÖĢÕ¡Õ¢Õ¥ÖĢÕ¸ÖĤÕ´": 3209, "ĠÕ¤ÖĢÕ¡Õ¯Õ¡Õ¶": 3210, "08": 3211, "ĠÕ¾Õ¡ÖĢÕ±": 3212, "ĠÕ¥ÖĢÕ¡Õ¦": 3213, "ĠÕ´Õ¡Õ½Õ¶Õ¡Õ¾Õ¸ÖĢÕ¡ÕºÕ¥Õ½": 3214, "ĠÕ´Õ¡ÖĢÕ´Õ¶Õ«": 3215, "ĠÕ¤Õ¥ÕºÖĦÕ¥ÖĢÕ¸ÖĤÕ´": 3216, "ĠÕ°Õ½Õ¯": 3217, "ĠÕ´Õ¥Õ¤": 3218, "ĠÕ¢Õ¬": 3219, "ĠÕ«Õ¶ÖĦ": 3220, "ĠÕ¤Õ«Õ´Õ¸ÖĤÕ´": 3221, "ĠÕ¯Õ¸Õ²": 3222, "ĠÕ¶Õ¡ÕŃÕ¡ÖĢÕ¡ÖĢÕ«": 3223, "ĠÕ¤Õ¡Õ¿Õ¡ÕºÕ¡ÖĢÕ¿": 3224, "ĠÕ¡Õ¶Õ¸ÖĤÕ¶Õ¨": 3225, "ĠÕ¬Õ¸ÖĤÕµÕ½": 3226, "ĠÔ³Õ¡Õ£Õ«Õ¯": 3227, "ĠÕ¡Õ¾Õ¥Õ¬Õ«Õ¶": 3228, "Õ¡ÖģÕ¸ÖĤÖģ": 3229, "ĠÕĢÕ¸Õ¾": 3230, "ĠÕ¡Õ¼Õ¶Õ¹": 3231, "ĠÕ¯ÕµÕ¡Õ¶ÖĦÕ¨": 3232, "ĠÕ¬ÖĢÕ¡Õ¿Õ¾": 3233, "ĠÕ¿Õ¡ÖĢÕ«Õ¶Õ¥ÖĢÕ«Õ¶": 3234, "ĠÕ°Õ¸ÖĤÕµÕ½": 3235, "ĠÔµÕ²": 3236, "ĠÕ£Õ¸ÖĢÕ®Õ¥ÖĢÕ«": 3237, "Õ«Õ»Õ¡Õ¦Õ£Õ¡ÕµÕ«Õ¶": 3238, "ÔµÕĲÔ»": 3239, "ĠÕºÕ¡ÕµÖĦÕ¡ÖĢ": 3240, "ĠÕ£Õ¶Õ¤": 3241, "ĠÔ¸Õ½Õ¿": 3242, "ÖĤÕ´": 3243, "ĠÕ°Õ«Õ¶": 3244, "ĠÕ°Õ«Õ´Õ¡Õ¶": 3245, "ĠÕ°Õ¡Õ¶Õ¤Õ¥Õº": 3246, "ĠÖĦÕ¡Õ²Õ¡ÖĦÕ¡Õ¯Õ¡Õ¶Õ¸ÖĤÕ©ÕµÕ¡Õ¶": 3247, "Õ¸Õ¼Õ¸ÖĤÕºÖģ": 3248, "Õ¡ÖĢÕ¡Õ¯Õ¡Õ¶": 3249, "Õ¡Õ¾Õ¸Õ¿ÕµÕ¡Õ¶": 3250, "Õ¸ÖĢÕ¤Õ«": 3251, "chat": 3252, "ÕĨÕ¸ÖĢÕ¸ÖĤÕ©ÕµÕ¸ÖĤÕ¶Õ¶Õ¥ÖĢ": 3253, "ĠÕĢÔ±ÕĨ": 3254, "ĠÕ´Õ«Õ¡Õ¯": 3255, "Õ¸ÖĤÖģÕ¥": 3256, "ÕıÕ¥Õ²": 3257, "ĠÖħÖĢÕ¥ÖĢÕ«Õ¶": 3258, "ĠÕ°Õ¡ÖĢÕ±Õ¡Õ¯": 3259, "Õ¸Õ²Õ¶Õ¥ÖĢ": 3260, "ÕºÕ«Õ¸Õ¶": 3261, "ĠÕĮÕ¸Õ¢Õ¥ÖĢÕ¿": 3262, "ĠÕ°Õ¥Õ²Õ¡ÖĥÕ¸ÕŃ": 3263, "ĠÕ¢Õ¸Õ²Õ¸": 3264, "Õ°Õ¡Õ¶ÖĢ": 3265, "ĠÕ®Õ¶Õ¶Õ¤": 3266, "ĠÔ±Õ½Õ¿Õ®": 3267, "ĠÕ¡Õ¼Õ¡ÖĢÕ¯": 3268, "ÔµÕ¾": 3269, "Ô»Õ½Õ¯": 3270, "ÕĪÕĴÕĲ": 3271, "ĠÕĪÕĴ": 3272, "ĠÔ±Õ·Õ¸Õ¿": 3273, "Õ¡Õ°Õ¸Õ£": 3274, "Ô´Õ¸ÖĤÖĦ": 3275, "Ġ2013": 3276, "ĠÕ°Õ¡Õ·Õ¾Õ¥Õ¿": 3277, "ĠÕ°Õ¸ÖĤÕ¶Õ«Õ½Õ«": 3278, "im": 3279, "ot": 3280, "ÖĢÕ°": 3281, "Ô±Ôº": 3282, "Ô²Ô¸": 3283, "ĠÕ°Õ²Õ¸ÖĤÕ´Õ¨": 3284, "ĠÖĦÕ¾Õ¥Õ¡ÖĢÕ¯": 3285, "ĠÕ½Õ¥Õ²": 3286, "ĠÕĦÕŃÕ«Õ©": 3287, "Õ¸ÖĤÕ½Õ¡Öĥ": 3288, "ĠÕ¸Õ¹Õ«Õ¶Õ¹": 3289, "Õ¿Õ«": 3290, "Õ¡ÖģÕ¥ÖĦ": 3291, "ĠÕ¸ÖĤÕªÕ¥ÖĢÕ«": 3292, "ĠÕºÕ¡ÖĢÕ¦Õ¡ÕºÕ¥Õ½": 3293, "ĠÕ¡Õ¶Õ¤ÖĢÕ¡Õ¤Õ¡ÖĢÕ±": 3294, "Õ¡Õ¾Õ¥ÖĢ": 3295, "Ġ198": 3296, "ĠÕ§Õ¬Õ¥Õ¯Õ¿ÖĢÕ¸Õ¶Õ¡ÕµÕ«Õ¶": 3297, "ÖĩÕ¸ÖĢÕ£": 3298, "ĠÕ°Õ¡Õ²Õ¸ÖĢÕ¤Õ¸ÖĤÕ´": 3299, "ĠÔµÕ¾ÖĢÕ¸ÕºÕ¡ÕµÕ«": 3300, "Õ¡Õ£ÖĢÕ¾Õ¡Õ®": 3301, "ÕĪÖĢ": 3302, "ĠÕ¯Õ¡ÖĢÕ¸Õ²Õ¡Õ¶Õ¸ÖĤÕ´": 3303, "em": 3304, "ĠÕ±Õ¥ÖĤ": 3305, "Ô¸Õ½Õ¿": 3306, "Õ¡Õ¯Õ¡Õ¬Õ¸ÖĤÕ©ÕµÕ¸ÖĤÕ¶": 3307, "ĠÕįÕ¿Õ¥Öĥ": 3308, "Õ©Õ©": 3309, "Ġ50": 3310, "ĠÕ®ÖĢÕ¡Õ£ÖĢÕ¥ÖĢÕ«": 3311, "ĠÕ¢Õ¡Õ¾Õ¡ÖĢÕ¡ÖĢ": 3312, "ĠÖģÕ¥Õ²Õ¡Õ½ÕºÕ¡Õ¶Õ¸ÖĤÕ©ÕµÕ¡Õ¶": 3313, "ĠÕ¤Õ«Õ¾Õ¡Õ¶": 3314, "ĠÕ°Õ«Õ¶Õ£": 3315, "ĠÕ·Õ¸ÖĤÕ¿": 3316, "ĠÕºÕ¡Õ¿Õ¯": 3317, "ĠÕ¤Õ«Õ´Õ¡Öģ": 3318, "Õ¡Õ¾Õ¸ÖĢÕ¾Õ¥Õ¬": 3319, "ĠÕ¦Õ¢Õ¸Õ½": 3320, "ĠÕ©Õ«Õ¾Õ¨": 3321, "Ô¿Õ¡ÖĢ": 3322, "Õ°Õ¡ÕµÕ¿": 3323, "ĠÕ£Õ¸ÖĢÕ®Õ«ÖĦ": 3324, "Õ¡Õ¶ÖģÕ«": 3325, "ĠÕ¼Õ¥ÕªÕ«Õ´": 3326, "Õ¥ÖĨ": 3327, "ĠÕ°Õ¡ÖĢÕ½": 3328, "ĠÕ¦Õ¥Õ¯": 3329, "Õ¥Õ¼Õ¶Õ¥Õ¬": 3330, "Õ¥ÖĤÕ§": 3331, "Õ¡Õ¤ÖĢÕ¾": 3332, "Õ¾Õ¥Õ¬Õ«": 3333, "Ġ2012": 3334, "Õ«Õ¶Õ¥ÖĢÕ¨": 3335, "Õ¸ÖĢÕ¸ÖĤÕ´": 3336, "ĠÕ¡Õ¼Õ»": 3337, "Õ¥ÖĢÕ¶Õ¥Õ¿": 3338, "Õ¡Õ·Õ¾": 3339, "ĠÕ´Õ¡Õ½Õ¶Õ¡Õ£Õ«Õ¿Õ¡Õ¯Õ¡Õ¶": 3340, "ĠÕ°Õ¡ÖĢÕ£": 3341, "ĠÕ©Õ¥ÖĢ": 3342, "Ô²Õ¸Õ¬Õ¸ÖĢ": 3343, "ĠÕŃÕ¶Õ¤Õ«ÖĢÕ¨": 3344, "ide": 3345, "ĠÕ¤Õ¡ÖĢ": 3346, "Õ¡Õ¼Õ¶Õ¡": 3347, "ĠÕ°Õ¡Õ²Õ©Õ¡Õ¶Õ¡Õ¯": 3348, "Õ¡Õ¾Õ¡ÖĢÕ±": 3349, "ÖĢÕ¡Õ°Õ¡Õ´": 3350, "Ô±ÕįÕıÔ±ÕĨÔ»": 3351, "Õ¶Öģ": 3352, "Õ¡Õ´Õµ": 3353, "Õ¡Õ¾Õ«Õ³": 3354, "ÕĢÕ«Õ·": 3355, "ĠÕŃÕ¡Õ¹": 3356, "ÕĪÕĴÕħ": 3357, "ĠÕ©Õ¡Õ²": 3358, "Õ«Õ¯Õ¶": 3359, "ĠÕ¯Õ¡Õ¦Õ´Õ¡Õ¯Õ¥ÖĢÕºÕ¸ÖĤÕ©ÕµÕ¸ÖĤÕ¶Õ¶Õ¥ÖĢÕ«": 3360, "ĠÕ°Õ¸Õ½": 3361, "ĠÕ´Õ¡ÖĦ": 3362, "ĠÕ©Õ©": 3363, "Ġ29": 3364, "ĠÕªÕ¡Õ´Õ¡Õ¶Õ¡Õ¯Õ¡Õ°Õ¡Õ¿Õ¾Õ¡Õ®": 3365, "ÔºÕ¸Õ²Õ¸Õ¾": 3366, "ipedia": 3367, "Õ¡Õ¾Õ¡Õ¼": 3368, "Õ¸ÖĤÕ¬Õ«Õ½": 3369, "ĠÕ·ÖĢÕ»Õ¡Õ¶Õ«": 3370, "ĠÕŃÕ¸ÖĢÕ°ÖĢÕ¤Õ¡ÖĢÕ¡Õ¶Õ¡Õ¯Õ¡Õ¶": 3371, "ĠÕ¸ÖĤÕ¶Õ¥Õ¶Õ¸ÖĤÕ´": 3372, "ĠÕŃÕ¶Õ¤Õ«ÖĢÕ¶Õ¥ÖĢÕ«": 3373, "ĠÕ°Õ¥Õ·Õ¿": 3374, "ÕºÕ¡ÖĢÕ¿": 3375, "ĠÕ¡Õ¼Õ«Õ©": 3376, "Õ°Õ¡Õ´": 3377, "Õ¡ÕªÕ¡Õ¶": 3378, "ÖĢÕ¡Õ£Õ¸ÖĤÕµÕ¶": 3379, "ĠÕ¸ÖĤÕ½Õ¸ÖĤÕ´Õ¶Õ¡Õ¯Õ¡Õ¶": 3380, "ĠÕ¡Õ¼ÖĩÕ¿ÖĢ": 3381, "ÖĢÕ¡Õ¶Õ«Öģ": 3382, "ĠÕ¢Õ¥ÖĢÕ¾": 3383, "ĠÕĬÕ¸ÖĤÕ¿": 3384, "ĠÔ¿Õ¡Õ¼": 3385, "ĠÕºÕ¡Õ¿Õ´Õ¸ÖĤÕ©ÕµÕ¸ÖĤÕ¶Õ¨": 3386, "Õ¥ÖĥÕ¸ÕŃ": 3387, "ĠÕºÕ¡Õ¿Õ¥ÖĢÕ¡Õ¦Õ´Õ«": 3388, "ĠÕ¯Õ¡Õ¶Õ£Õ¶": 3389, "ÕµÕ¸ÖĤÕ½Õ«Õ½Õ¡ÕµÕ«Õ¶": 3390, "ĠÕ©Õ¡Õ¶Õ£": 3391, "ĠÕĦÕ¡ÖĢÕ¤": 3392, "Õ¸Õ½ÕµÕ¡Õ¶Õ¨": 3393, "ĠÕ¡Õ·ÕŃÕ¡Õ¿Õ¡Õ¶ÖĦÕ¶Õ¥ÖĢÕ«": 3394, "Ô±ÕĢÔ¿": 3395, "Õ¡Õ¶Õ¸ÖĤÕ¶": 3396, "Õ¡Õ¶Õ¥Õ¯Õ¡Õ¶": 3397, "Ô±ÖĢÕ¤": 3398, "Õ¡Õ·Õ¡ÖĢ": 3399, "Õ¡Õ£ÖĢÕ¸ÖĤÕ©ÕµÕ¸ÖĤÕ¶Õ¨": 3400, "Õ¡ÕªÕ¸Õ²Õ¸Õ¾Õ«": 3401, "ĠÕ´Õ¡ÕµÖĢÕ¡ÖĦÕ¡Õ²Õ¡ÖĦ": 3402, "wikipedia": 3403, "ĠÕ°Õ¡Õ¶Õ±": 3404, "ĠÕ¸ÖĤÕ²Õ¡ÖĢÕ¯": 3405, "Õ¡Õ¾Õ¸ÖĢÕ¨": 3406, "ÖĩÕ¸Õ¶": 3407, "ĠÕ¡ÕµÕ¬Öĩ": 3408, "ĠÕ³Õ·": 3409, "ĠÕŃÕ¡Õ²Õ¸ÖĤÕ´": 3410, ").": 3411, "ĠÕ´Õ¸Õ¤": 3412, "Õ¸Õ¾Õ¡Õ¶": 3413, "ĠÕ¢Õ¡ÕŃ": 3414, "Ð¾Ð": 3415, "ĠÕ¯ÖĢÕ¸ÖĤÕ´": 3416, "ĠÔ¼ÕĤ": 3417, "ĠÕ¯Õ¸ÖĤÕ¶Õ¥Õ¶Õ¡": 3418, "26": 3419, "ĠÕ°Õ¡ÕµÕ¥ÖĢÕ¥Õ¶": 3420, "iv": 3421, "ĠÕıÕ¥ÖĢ": 3422, "ĠÕ°Õ¡Õ´Õ¡ÕµÕ¶ÖĦ": 3423, "Ô±ÕĬÔµÕı": 3424, "ĠÕ¶Õ¥ÖĢÕ£ÖĢÕ¡Õ¾": 3425, "ĠÕ°Õ¡ÖĢÕ©": 3426, "ĠÕ¢Õ¡ÖģÕ«": 3427, "ĠÕ¶Õ¥ÖĢÕ¯Õ¡ÕµÕ¡ÖģÕ¶Õ¥Õ¬": 3428, "ĠÕ¿Õ¥Õ²Õ¥Õ¯Õ¡ÖģÕ¶Õ¸ÖĤÕ´": 3429, "ĠÕĦÕ¸Õ½Õ¯Õ¾": 3430, "Õ¤Õ¡Õ´": 3431, "ĠÕºÕ¡Õ¯": 3432, "ÖħÖĢÕ«Õ¶Õ¡Õ¯": 3433, "ĠÕ¸ÖĢÕ¸Õ·Õ¸ÖĤÕ´Õ¨": 3434, "ĠÕ°Õ¡Õ¶Õ¤Õ«ÕºÕ´Õ¡Õ¶": 3435, "ĠÕ¿ÖĢÕ¡Õ¶Õ½ÕºÕ¸ÖĢÕ¿": 3436, "ĠÕ¯Õ¯": 3437, "Õ¡Õ¬Õ¤": 3438, "ĠÕ¡Õ¶Õ¨Õ¶Õ¤": 3439, "ĠÕ¥ÖĢÕ¯Õ«ÖĢ": 3440, "ĠÕ°ÕµÕ¸ÖĤÖĢ": 3441, "Õ¡Õ´ÕµÕ¡Õ¯": 3442, "ÔµÕĤ": 3443, "ĠÕ´Õ«Õ»Õ«Õ¶": 3444, "ĠÕ¸ÖĢÕ¸Õ·Õ´Õ¡Õ¶": 3445, "Ô±ÕµÕ¶": 3446, "ĠÖĥÕ¥Õ¿ÖĢÕ¾Õ¡ÖĢÕ«": 3447, "Õ¸ÖĤÕ¶Õ¥ÖĢÕ«": 3448, "ĠÔ±ÖĢÕ´": 3449, "ÖĩÕ«": 3450, "Õ¡Õ±Õ£": 3451, "ĠÕ°Õ¡ÕµÕ¿Õ¶Õ¾Õ¥Õ¬": 3452, "Õ´Õ¿ÕµÕ¡Õ¶": 3453, "Õ¡Õ¤Õ¡Õ¿Õ¸ÖĤÕ©ÕµÕ¡Õ¶": 3454, "ĠÕ¿Õ¥ÖĦÕ½Õ¿": 3455, "Õ¡Õ¢Õ©Õ«": 3456, "Õ¦Õ¸ÖĢ": 3457, "ĠÕ¶Õ·Õ¡Õ¶": 3458, "ĠÕŃÕ¶Õ¤Õ«ÖĢÕ¶Õ¥ÖĢÕ¨": 3459, "ĠÕ¶Õ¸ÖĢÕ´": 3460, "Õ¸ÖĢÕ¸Õ£": 3461, "ĠÕ¥Õ¾ÖĢÕ¸ÕºÕ¡Õ¯Õ¡Õ¶": 3462, "Õ¥Õ²Õ¥ÖģÕ«Õ¶": 3463, "ĠÕ¢Õ¡ÖĢÕ¥Õ¯Õ¡Õ´": 3464, "ĠÕ¢Õ¡ÖĢÕ¤": 3465, "ĠÕ·Õ¸ÖĤÕ¯": 3466, "ÕĨÕ·": 3467, "ĠÕĢÕ¡ÕµÕ¯": 3468, "ĠÕ½Õ¯Õ¦Õ¢Õ¸ÖĤÕ¶ÖĦ": 3469, "ĠÕ°ÖĢÕ¡Õ¾Õ«ÖĢ": 3470, "ĠÕ¤Õ¡ÖĢÕ±Õ¡Õ¾": 3471, "Õ¡Õ¶Õ¡ÕºÕ¡ÖĢÕ°": 3472, "ÖģÕ¡Õ¶Öģ": 3473, "ĠÕ¿Õ¸ÖĤÕª": 3474, "ÕĢÔ¿": 3475, "ĠÕ°Õ¡ÕµÕ¿Õ¶Õ¡Õ¢Õ¥ÖĢÕ¾": 3476, "ĠÂ©": 3477, "ĠÕ¸ÖĢÕ«Öģ": 3478, "ĠÕ°Õ¡Õ´Õ¥Õ´Õ¡Õ¿": 3479, "ĠÕ¯Õ¡ÕµÖĦÕ¨": 3480, "ĠÕ´Õ¡ÖĢÕ´Õ«Õ¶Õ¶Õ¥ÖĢÕ«": 3481, "Õ¡ÖĢÕ¡ÖĢÕ¡Õ¯Õ¡Õ¶": 3482, "ĠÕ¯Õ¡Õ¼Õ¡Õ¾Õ¡ÖĢÕ¸ÖĤÕ©ÕµÕ¸ÖĤÕ¶Õ¨": 3483, ".ÕĿ": 3484, "Õ¶Õ¸ÖĤÕµÕ¶": 3485, "ĠÕ´Õ¡ÖĢÕ¦ÕºÕ¥Õ¿": 3486, "ĠÕ©Õ¥Õ´Õ¡ÕµÕ¸Õ¾": 3487, "ĠÕ¯Õ¡ÖĢÕ³": 3488, "ĠÕ¡ÕºÖĢÕ¥Õ¬": 3489, "ĠÕ´Õ«Õ»Õ¸ÖģÕ¶Õ¥ÖĢÕ«": 3490, "ĠÕºÖĢÕ¸ÖĨ": 3491, "ĠÔ±Õ¾Õ¥Õ¿": 3492, "ĠÕ°Õ«Õ´Õ¶Õ¡Õ¤ÖĢÕ¡Õ´Õ«": 3493, "Õ¥ÖĢÕ¥Õ¯": 3494, "Õ¡ÖĢÕŃ": 3495, "ĠÕ¡Õ¶ÖģÕ¥Õ¬": 3496, "Õ«Õ¯Õ«Õ¶": 3497, "Õ¡ÕªÕ¡Õ´Õ¡Õ¶Õ¡Õ¯": 3498, "ĠÖĥÕ¸ÕŃÕ¡ÖĢÕ¥Õ¶": 3499, "ĠÕ£Õ¥Õ²Õ¥ÖģÕ«Õ¯": 3500, "ĠÕĦÔ±Ô¿": 3501, "ĠÕºÕ¡Õ¿Õª": 3502, "ĠÔ³ÖĩÕ¸ÖĢÕ£": 3503, "Õ¡ÕºÕ¥Õ¿Õ¡Õ¯Õ¡Õ¶": 3504, "ĠÕĬÕ¡Õ·Õ¿": 3505, "ĠÕ¨Õ¶Õ¿Õ¡Õ¶Õ«ÖĦÕ«": 3506, "ĠÕ¿Õ¥Õ½Õ¡Õ¯Õ¥Õ¿": 3507, "hat": 3508, "ÕĢÕ¡Õ¶ÖĢ": 3509, "ĠÕºÕ¡Õ¿Õ¡Õ°": 3510, "ĠÕ´Õ¡Õ½Õ¶Õ¡Õ£Õ«Õ¿": 3511, "ĠÕ¢Õ¡ÖĢÕ¥ÖĥÕ¸ÕŃ": 3512, ".)": 3513, "ĠÕ´Õ¡Õ½Õ«": 3514, "ĠÕ¯Õ¡ÕµÖĦ": 3515, "2016": 3516, "ĠÕ°ÖĢÕ¡ÕºÕ¡ÖĢÕ¡Õ¯Õ¥Õ¬": 3517, "ĠÕ¡Õ½Õ¿Õ²": 3518, "ĠÕ¡Õ°Õ¡Õ¢Õ¥Õ¯": 3519, "ĠÕĤÕ¡ÖĢÕ¡Õ¢Õ¡Õ²Õ«": 3520, "ut": 3521, "Õ¥Õ¶Õ¸ÖĤÕ´": 3522, "ĠÕ°Õ¸Õ£Õ¥Õ¢": 3523, "ĠÕ°Õ¡ÖĢÖģÕ¡Õ¦ÖĢÕ¸ÖĤÕµÖģ": 3524, "ĠÕ»Õ¡Õ¶ÖĦ": 3525, "ĠÕ¸ÖĤÕªÕ¥Õ²": 3526, "ĠÕ¡ÖĢÕ¤ÕµÕ¸ÖĦ": 3527, "ĠÔ±Õ¢ÖĢÕ¡Õ°Õ¡Õ´": 3528, "Õ¶Õ¡ÕŃÕ¡ÖĢÕ¡ÖĢ": 3529, "ĠÔ±Õ©": 3530, "ÕºÕ¡Õ¶Õ«": 3531, "Õ¡Õ¤ÖĢÕ´Õ¡Õ¶": 3532, "ĠÕ£Õ¸ÖĢÕ®Õ¡ÖĢÕ¡ÖĢ": 3533, "ÖĢÕ½Õ¥Õ¶": 3534, "ĠÕ¡ÕµÕ½ÕºÕ¥Õ½": 3535, "Õ¡Õ¶Õ¤ÖĢ": 3536, "ĠÕ¡ÖĢÕ¿Õ¡Õ°Õ¥ÖĢÕ©": 3537, "Õ¨Õ¶Õ¯": 3538, "ĠÕŃÕ¸Õ½ÖĦ": 3539, "ĠÕ¯Õ¡ÖĢÕ£Õ¡Õ¾Õ¸ÖĢÕ´Õ¡Õ¶": 3540, "ĠÕİÖĢÕ¡Õ½Õ¿Õ¡Õ¶Õ«": 3541, "ĠÖĢÕ¸ÕºÕ¥": 3542, "ct": 3543, "Õ¸ÖĤÖĢÕ¨": 3544, "ĠÕ¯Õ¢": 3545, "ĠÕ½Õ¥Õ¶Õµ": 3546, "ÕĦÕ¸ÖĤÕ¿ÖĦ": 3547, "ĠÔ½Õ¡Õ²": 3548, "ĠÕ°Õ¡Õ·Õ¾Õ¡ÖĢÕ¯": 3549, "ĠÕ°Õ«Õ´Õ¶Õ¡Õ¯Õ¡Õ¶Õ¸ÖĤÕ´": 3550, "ĠÖħÖĢÕ¥Õ¶Õ½Õ£ÖĢÖĦÕ«": 3551, "Õ¸Õ³": 3552, "ĠÕ¥Õ²Õ¡Õ¶Õ¡Õ¯": 3553, "ĠÕ¦Õ«Õ¶Õ¾Õ¡Õ®": 3554, "ĠÕ¯ÖĢÕ©Õ¡Õ¯Õ¡Õ¶": 3555, "www": 3556, "ĠÕ©Õ¡Õ¶Õ¯": 3557, "ĠÕ¡Õ¼Õ¶": 3558, "ĠÕ´Õ¥Õ©": 3559, "ĠÕĦÕ¡Õ¶Õ¸ÖĤÕ¯": 3560, "ĠÖĦÕ¡Õ²Õ¡ÖĦÕ¡ÖģÕ«Õ¶Õ¥ÖĢÕ«": 3561, "ig": 3562, "of": 3563, "Ô±ÕµÕ¤": 3564, "ĠÕ¯Õ¶ÖĦ": 3565, "Õ¡ÖģÖĢÕ¥Öģ": 3566, "Õ¡ÕºÕ¡Õ·Õ¿": 3567, "Õ¡ÖĢÕ¿Õ¡ÖĢ": 3568, "ĠÕ¡Õ´ÖĥÕ¸Öĥ": 3569, "ĠÕ°Õ¡ÖĢÖģÕ«Õ¶": 3570, "ĠÕĤÕ¡Õ¦": 3571, "ĠÕ£Õ¿Õ¶Õ¥Õ¬": 3572, "Õ©Õ¶": 3573, "ĠÕ´Õ¡Õ½Õ¸Õ¾": 3574, "ĠÕ³Õ¡Õ¯Õ¡Õ¿": 3575, "ĠÕ¸ÖĤÕªÕ«": 3576, "Õ¡Õ¶Õ¡Õ¾": 3577, "ĠÕ«Õ´Õ¡Õ¶": 3578, "ĠÔ±ÕĨ": 3579, "Õ¥ÖģÖĢÕ¥Õ¬": 3580, "ÔµÖĢÕ¢": 3581, "ĠÕ¶Õ¡ÕŃÕ¨Õ¶": 3582, "Õ¡ÕºÕ¡Õ°Õ¸ÖĤÕ©ÕµÕ¡Õ¶": 3583, "ĠÕ´Õ¡ÖĦÕ½": 3584, "Õ¡ÖģÕ¡Õ¯Õ¡Õ¶": 3585, "ĠÕįÕĬ": 3586, "ĠÕ´Õ¡Õ½Õ¶Õ¡Õ¯ÖģÕ¥Õ¬Õ¸ÖĤ": 3587, "%-": 3588, "Õ¡Õ½Öģ": 3589, "ÂŃÂŃ": 3590, "ĠÕ¬ÖĢÕ¡Öģ": 3591, "ĠÕ°Õ¡Õ½ÖģÕ¥": 3592, "ĠÕ½Õ¡ÖĢÖĦ": 3593, "ĠÔ³Õ«Õ¿": 3594, "ÕįÕĢ": 3595, "ĠÕ½ÕºÕ¸ÖĢÕ¿": 3596, "ĠÕ§Õ»Õ¸ÖĤÕ´": 3597, "ĠÕ£ÕµÕ¸ÖĤÕ²Õ¡Õ¿Õ¶Õ¿Õ¥Õ½": 3598, "ĠÕ´Õ¥Õ¯Õ¶Õ¡ÖĢÕ¯": 3599, "ĠÕ¯ÖĢÕ¡Õ¯": 3600, "ĠÕ¬ÖĢÕ¡Õ£ÖĢÕ¸Õ²Õ¶Õ¥ÖĢÕ«": 3601, "ĠÕ£ÖĢÕ¡Õ½Õ¥Õ¶Õµ": 3602, "ĠÕ´Õ¥Õ©Õ¸Õ¤": 3603, "ĠÕ¶Õ¡Õ°Õ¡Õ¶Õ£": 3604, "ĠÖĥÕ¸Õ½Õ¿": 3605, "ĠÕ¿Õ¥Õ²Õ¡Õ¯Õ¡Õ¶": 3606, "Ġ2011": 3607, "ĠÖĦÕ¶Õ¶Õ¡ÖĢÕ¯Õ¥Õ¬": 3608, "ation": 3609, "ĠÕİÕ¡ÖĢÕ¤Õ¡Õ¶": 3610, "ĠÕ°Õ¶": 3611, "ĠÕ¯Õ½Õ¿": 3612, "Ô±Õ¾": 3613, "ĠÖĦÕ¡Õ·": 3614, "ĠÕ°ÖĢÕ¡Õ¿Õ¡ÖĢÕ¡Õ¯": 3615, "ĠÕŃÕ´Õ¢Õ¡Õ¯ÖģÕ¸ÖĤÕ©ÕµÕ¡Õ¶": 3616, "ĠÕ¦Õ«Õ¶Õ¾Õ¸ÖĢÕ¡Õ¯Õ¡Õ¶": 3617, "ÕŃÕ¸Õ½": 3618, "Ô´Õ«Õ¿": 3619, "ĠÕºÕ¡Õ¿Õ´Õ¡Õ¯Õ¡Õ¶": 3620, "ĠÕ°Õ¡Õ¶Õ¤Õ«ÕºÕ¸ÖĤÕ´Õ¨": 3621, "ĠÕ¿Õ¡ÖĢÕ«Õ¶Õ¥ÖĢÕ«": 3622, "ideo": 3623, "ĠÕ¸Õ£": 3624, "ÕĦÕ¡ÖĢÕ¤": 3625, "ĠÕ°Õ¡Õ½Õ¡Õ¶Õ¥Õ¬Õ«": 3626, "ĠÕ´Õ¡Õ½Õ¶Õ¡Õ¯ÖģÕ¸ÖĤÕ´": 3627, "Õ¸Õ¶Õ¸ÖĤÕ´": 3628, "ĠÕ¬Õ¸ÖĤÖĢÕ¥ÖĢ": 3629, "ĠÕ´Õ¡ÖĢÕ¦Õ¸ÖĤÕ´": 3630, "ĠÖģÕ¸ÖĤÖģÕ¡Õ¶Õ«Õ·": 3631, "ĠÕ°Õ¡ÖĢÕ¡Õ¢Õ¥ÖĢÕ¸ÖĤÕ©ÕµÕ¸ÖĤÕ¶Õ¶Õ¥ÖĢÕ¨": 3632, "Õ«Õ¿Õ¡Õ¬": 3633, "ĠÕ½Õ¿Õ¡Õ¶Õ¸ÖĤÕ´": 3634, "ĠÔ³ÕµÕ¸ÖĤÕ´ÖĢÕ«": 3635, "ĠÕºÕ¡Õ¯Õ¡Õ½": 3636, "Ġm": 3637, "Õ¥Õ¬Õ«Õ½": 3638, "ĠÕ¡Õ¶Õ£Õ¬": 3639, "ĠÕ¯Õ¡ÖĢÕ¥ÖĤÕ¸ÖĢ": 3640, "ĠÕ°Õ¡Õ·Õ«Õ¾": 3641, "Ġs": 3642, "ĠÕ¸Õ½Õ¯": 3643, "Õ¸Õ²Õ¸ÖĤÕ©ÕµÕ¸ÖĤÕ¶Õ¨": 3644, "ĠÕ®ÖĢÕ¡Õ£ÖĢÕ¥ÖĢ": 3645, "ĠÕ£Õ¡Õ²Õ¿Õ¶Õ«": 3646, "ĠÕ¡ÖĢÕ¿Õ¡Õ½Õ¡Õ¶Õ¸ÖĤÕ©ÕµÕ¸ÖĤÕ¶": 3647, "ĠÕ¸Õ¿": 3648, "ĠÕ«ÖĢÕ¡ÖĢ": 3649, "ĠÕıÕ¥Õ²": 3650, "ĠÔ¾Õ¡Õ¼Õ¸ÖĤÕ¯": 3651, "ĠÕ´Õ¿Õ¡Õ°Õ¸Õ£": 3652, "ĠÕ®Õ¡Õ¼Õ¡ÕµÕ¸ÖĤÕ©ÕµÕ¸ÖĤÕ¶Õ¶Õ¥ÖĢÕ«": 3653, "ebook": 3654, "Õ¯ÖĢÕ¡Õ«Õ¶": 3655, "Ġ.": 3656, "ĠÕ´Õ¶Õ¸ÖĤÕ´": 3657, "ĠÕĦÕ¯ÖĢÕ¿": 3658, "ĠÖĥÕ¡Õ¼Õ¡Õ¿": 3659, "ÕĪÕį": 3660, "ĠÕ¡Õ½Õ¡Õ®": 3661, "ĠÕ¨Õ¶Õ¯Õ¥ÖĢÕ¸ÖĤÕ©ÕµÕ¸ÖĤÕ¶Õ¨": 3662, "ÖĢÕ®": 3663, "ĠÖĥÕ¡ÕŃ": 3664, "ĠÕ¡Õ·ÕŃÕ¡Õ¿Õ¡Õ¾Õ¡ÖĢÕ±": 3665, "ĠÕĦÕ¡ÖĢ": 3666, "ĠÕ£Õ«Õ¿Õ¡Õ¯Õ¡Õ¶": 3667, "ĠÕ°Õ¡Õ½Õ¯Õ¡Õ¶Õ¸ÖĤÕ´": 3668, "Õ¶Õ»": 3669, "Õ¡Õ¯Õ¶": 3670, "Ô±ÖĢÖģÕ¡ÕŃ": 3671, "Õ¡Õ¬Õ«Öģ": 3672, "ĠÔ²Õ¡ÖĦ": 3673, "ĠÔ²ÖĢÕ«Õ¿": 3674, "ĠÕ¯Õ¡Õ¦Õ´Õ¥Õ¬": 3675, "ĠÖħÕ£Õ¿Õ¡Õ£Õ¸ÖĢÕ®Õ´Õ¡Õ¶": 3676, "ĠÕ£Õ¸ÖĢÕ®Õ¸Õ²Õ¸ÖĤÕ©ÕµÕ¸ÖĤÕ¶Õ¶Õ¥ÖĢÕ«": 3677, "ĠÕ°Õ¡ÖĢÕ¾Õ¡Õ®": 3678, "Õ¥Õ¯Öģ": 3679, "Ô»Ô¿": 3680, "ĠÕ½ÕºÕ¡Õ¼": 3681, "ĠÕ¤Õ¥ÖĢÕ¡Õ½Õ¡Õ¶": 3682, "ĠÕĦÔ±ÕįÔ»ÕĨ": 3683, "ĠÕ¯Õ¿ÖĢ": 3684, "Õ¡Õ¾Õ¡ÕµÕ«Õ¶": 3685, "ĠÕĦÔµ": 3686, "Ô»ÖĢ": 3687, "ĠÕºÕ¡ÕµÖĦÕ¡ÖĢÕ«": 3688, "Õ¸ÖĤÕ«": 3689, "ĠÕºÕ¡ÖĢÕ£": 3690, "Ô±ÕĶ": 3691, "ĠÕ¾Õ¥ÖĢÕ¡Õ®": 3692, "acebook": 3693, "ĠÕ¡Õ¯Öģ": 3694, "Ġin": 3695, "ÖģÕ¶Õ¥Õ¬": 3696, "Ô±Õĩ": 3697, "ĠÕºÕ¡Õ¿Õ¡Õ½ÕŃ": 3698, "ĠÕ¯Õ¡ÕµÕ¸ÖĤÕ¶": 3699, "ĠÕ¯Õ¡ÖĢÕ£Õ¡Õ¾Õ«Õ³": 3700, "ÕµÕ¸ÖĤÖĢÕ¡Õ¶": 3701, "ĠÕ°Õ¡ÕµÕ¸Öģ": 3702, "Ô¹Õ¸ÖĤÖĢÖĦÕ«": 3703, "ĠÕ¡Õ·ÕŃÕ¡Õ¿Õ¡Õ¶ÖĦÕ¨": 3704, "ĠÕ¹Õ¸ÖĤÕ¶Õ¥Õ¶": 3705, "ĠÕ·ÖĢÕ»Õ¡Õ¶Õ¡Õ¯Õ¸ÖĤÕ´": 3706, "Õ¬Õ¸ÖĤÕ½Õ¡Õ¶Õ¯Õ¡ÖĢÕ¶Õ¥ÖĢ": 3707, "Õ¡Õ£Õ®": 3708, "ĠÕ®Õ¡Õ²": 3709, "ĠÕĩÕ¡Õ¿": 3710, "ĠÕ¶Õ¾Õ«ÖĢ": 3711, "ÔµÖĢÖĩÕ¡Õ¶Õ«": 3712, "ĠÕ¶Õ¥ÖĢÖĦÕ¸": 3713, "ĠÕ¢ÖĢ": 3714, "Â°,": 3715, "ÕĢÕ¡ÖĢÖģ": 3716, "27": 3717, "28": 3718, "29": 3719, "ĠÕ¯Õ«Õ¶Õ¨": 3720, "ĠÕ«Õ°Õ¡ÖĢÕ¯Õ¥": 3721, "ĠÕıÕ¥Õ½": 3722, "ĠÕŃÕ¡Õ²Õ«": 3723, "ĠÕ£Õ¶Õ¡Õ¬": 3724, "ĠÕ¢ÕªÕ«Õ·Õ¯": 3725, "Õ¸ÖĤÕµÖĢ": 3726, "ĠÕ¦ÖĢÕ¸ÖĤÖģ": 3727, "ĠÕ¨Õ¶Õ¤Õ¬Õ¡ÕµÕ¶": 3728, "ĠÔ¹Õ¥ÖĢÕ©": 3729, "ĠÔ·Õ¬": 3730, "Õ¥ÖĦÕ«": 3731, "Õ¡Õ·Õ¡ÖĢÕª": 3732, "ĠÕŃÕ¡Õ²Õ¨": 3733, "ĠÖĦÕ¶Õ¶Õ¡ÖĢÕ¯Õ¸ÖĤÕ´": 3734, "ĠÕ°Õ¡ÖĢÕ¯Õ¡ÕµÕ«Õ¶": 3735, "Õ¢Õ¥ÖĢ": 3736, "ĠÕŃÕ´": 3737, "ĠÕ¡Õ¼Õ¡ÖĦÕ¥Õ¬": 3738, "ĠÕªÕ¡Õ´Õ¡Õ¶Õ¡Õ¯Õ¡Õ¯Õ«Öģ": 3739, "ĠÕ¯Õ¡Õ¿Õ¡ÖĢÕ¾Õ¡Õ®": 3740, "ÕĢÕ¥Õ¿Õ¡Õ¤Õ¡ÖĢÕ±": 3741, "ĠÕ¢Õ¡Õ¾Õ¡Õ¯Õ¡Õ¶Õ«Õ¶": 3742, "ĠÕ´Õ¥ÖĢÕª": 3743, "Õ¸Õ½Õ¨": 3744, "Õ¡Õ£ÖĢÕ¸ÖĤÕ´": 3745, "ĠÕºÕ¡Õ¿ÖĢÕ¡Õ½Õ¿Õ¾Õ¸ÖĤÕ´": 3746, "ess": 3747, "ĠÕ¡ÖĢÕ±Õ¡Õ£Õ¡Õ¶ÖĦ": 3748, "Õ¡ÖĢÕ¡Õ®": 3749, "Õ¡Õ°Õ¡Õ½": 3750, "Õ«ÖĢÕ¡Õ¯Õ«": 3751, "ĠÕįÕº": 3752, "ĠÕ¿Õ¥Õ½Õ¡Õ¯Õ«": 3753, "ĠÖħÕ£Õ¿Õ¡Õ£Õ¸ÖĢÕ®Õ¥Õ¬": 3754, "ĠÕ°Õ²Õ¸ÖĤÕ´": 3755, "Õ¼Õ¹Õ¡Õ¯": 3756, "45": 3757, "ĠÕ¡ÕµÕ£": 3758, "Õ¥Õ²Õ«Õ¶Õ¡Õ¯": 3759, "Õ¾Õ¥Õ¬Õ¸Õ¾": 3760, "ĠÕ¯Õ¡ÕµÖĦÕ«": 3761, "ine": 3762, "ÕºÕ«Õ½Õ«Õ¶": 3763, "ĠÕ¾Õ¥ÖĢÕ¡Õ¯Õ¡Õ¶Õ£Õ¶": 3764, "ĠÕ£Õ¡Õ²Õ¡ÖĥÕ¡ÖĢ": 3765, "ĠÕ¯Õ¡ÕŃÕ¾Õ¡Õ®": 3766, "ian": 3767, "Õ¡Õ¯Õ¶Õ¥ÖĢ": 3768, "Õ¡ÖĢÕ´Õ«ÖĢ": 3769, "ĠâĢ¦": 3770, "ĠÕ¶Õ¡ÕŃÕ¡Õ£Õ®Õ«": 3771, "ĠÕ°Õ¥Õ¿Õ¥ÖĤÕµÕ¡Õ¬": 3772, "ĠÕĢÔ±ÕĨÕĲ": 3773, "ĠÕ°Õ¡ÖĢÕ´Õ¡ÖĢ": 3774, "ÕıÕº": 3775, "ĠÔ»ÖĢÕ¡Õ¶": 3776, "ĠÕ¿Õ¥Õ²Õ¥Õ¯Õ¡Õ¿Õ¾Õ¡Õ¯Õ¡Õ¶": 3777, "ĠÕ¯Õ¡ÖĢÕ®Õ«ÖĦÕ¸Õ¾": 3778, "Õ¥Õ½Õ«": 3779, "ĠÕ¡Õ¶Õ±Õ«Õ¶ÖĦ": 3780, "ĠÕ¿Õ¡Õ¬Õ¸ÖĤ": 3781, "ĠÕ¤Õ¥Õ¼ÖĩÕ½": 3782, "Õ¡ÖĢÕ¥Õ¯": 3783, "ĠÕ°Õ¡Õ´Õ¥ÖĢÕ£": 3784, "ĠÕ´Õ«Õ»Õ¶Õ¸ÖĢÕ¤": 3785, "ĠÔ´Õ¡Õ·Õ¶": 3786, "ĠÕ¯Õ¡ÕºÕ¥ÖĢÕ«": 3787, "ĠÕ¤ÖĢÕ¡Õ¶Õ«Öģ": 3788, "ĠÕ´Õ¡Õ°Õ¡ÖģÕ¥Õ¬": 3789, "Ġâ": 3790, "Õ¶Õ±": 3791, "ĠÕ¸ÖĢÕ¸Õ·Õ¥Õ¬": 3792, "ĠÕ¡Õ¯Õ¡Õ¤Õ¥Õ´": 3793, "ĠÔ±Õ¼Õ¡Õ»Õ«Õ¶": 3794, "Õ¥ÖĢÕ¢Õ¸ÖĤÖĢÕ£": 3795, "]:": 3796, "ĠÕ¸ÖĢÕ¥ÖĤÕ§": 3797, "ĠÕŃÕ«Õ½Õ¿": 3798, "ĠÕ¡Õ·ÕŃÕ¡Õ¿Õ¡Õ¶ÖĦÕ¶Õ¥ÖĢÕ¨": 3799, "ĠÖħÖĢÕ¥Õ¶Õ½Õ¤ÖĢ": 3800, "Õ¯Õ¡Õ´": 3801, "ÖĢÕ¤Õ¸Õ²": 3802, "ĠÕİÕ¡Õ°": 3803, "ĠÕ°Õ¥ÖĢÕ©Õ«Õ¶": 3804, "ÔºÕ¸Õ²Õ¸Õ¾Õ¸ÖĤÖĢÕ¤": 3805, "ĠÕ°Õ¡Õ¾Õ¡Õ½Õ¡ÖĢ": 3806, "ĠÕ¸Õ¬Õ¸ÖĢÕ¿Õ«": 3807, "]Öī": 3808, "Ġf": 3809, "Õ¬Õ¡Õ¤Õ«Õ´": 3810, "Õ«Õ¯Õ¶Õ¥ÖĢÕ¨": 3811, "ĠÕ¦Õ¡ÖĢÕ´": 3812, "Õ»Õ»": 3813, "Õ§Õ»": 3814, "Õ¡ÖĢÕµÕ¸ÖĤÖĢ": 3815, "ĠÕ¥Õ¯Õ¡Õ´Õ¸ÖĤÕ¿": 3816, "ĠÕ§Õ»Õ¨": 3817, "Õ¥Õ¾": 3818, "ĠÕ¡Õ¶Õ·": 3819, "ĠÔ¼ÖĩÕ¸Õ¶": 3820, "Õ¡Õ¢Õ¥ÖĢÕ¥Õ¬": 3821, "ĠÖģÕ¸ÖĤÖģÕ¡Õ°Õ¡Õ¶Õ¤Õ¥Õ½": 3822, "ĠÕ½ÕºÕ¡Õ½Õ¸ÖĤÕ´": 3823, "Ġon": 3824, "Õ¡Õ¯Õ«Õ¶": 3825, "Õ¡Õ¯Õ¡ÕµÕ«Õ¶": 3826, "ĠÕ¯Õ¡Õ½": 3827, "ĠÕ¸ÖĢÕ¸Õ¾": 3828, "ĠÔ³Õ¡ÖĢ": 3829, "Õ¨Õ¶Õ¿": 3830, "ÔµÖĢÖĩÕ¡Õ¶": 3831, "ĠÕ°Õ¡Õ¶Õ£Õ¡Õ´Õ¡Õ¶ÖĦ": 3832, "Õ¥ÖĢÕ¡ÕµÕ«Õ¶": 3833, "ĠÕ¸ÖĤÕ¶Õ¥Õ¶Õ¡Õ¬Õ¸ÖĤ": 3834, "ĠÕ´Õ¥Õ²Õ¡Õ¤ÖĢÕ¡Õ¶ÖĦ": 3835, "ĠÕ¢Õ¸Õ¬Õ¸ÖĢÕ¨": 3836, "Õ¬Õ¡Õ¤Õ«Õ´Õ«ÖĢ": 3837, "ÕĢÕ«Õ´": 3838, "Õ¡Õ²Õ¸ÖĢÕ¤": 3839, "Ô»Õı": 3840, "ĠÕ¡ÕµÕ¬ÖĩÕ½": 3841, "ÕĶÕ¡Õ²Õ¡ÖĦ": 3842, "ÔºÕ¡Õ´Õ¡Õ¶Õ¡Õ¯": 3843, "ĠÕ´ÖĢÖģÕ¸ÖĤÕµÕ©": 3844, "ĠÔ±Õ´Õ¥ÖĢÕ«Õ¯": 3845, "ĠÔ±Ô±Ô¾": 3846, "ard": 3847, "ĠÕ£ÕµÕ¸ÖĤÕ²Õ«": 3848, "ĠÕ¢Õ¡Õ¶Õ¯Õ«": 3849, "37": 3850, "ĠÕ¥ÖĢÕ¥ÕŃÕ¡ÕµÕ«": 3851, "ĠÕįÕ¡Õ´Õ¾Õ¥Õ¬": 3852, "Õ½ÖĢ": 3853, "ĠÖĨÕ¥ÕµÕ½Õ¢": 3854, "ĠÕ¾Õ«ÖĢÕ¡Õ¾Õ¸ÖĢ": 3855, "ĠÕ¿Õ¥Õ²Õ¥Õ¯Õ¡Õ¿Õ¾Õ¸ÖĤÕ©ÕµÕ¡Õ¶": 3856, "ĠÕ¾Õ¯Õ¡Õµ": 3857, "Õ©Õ¡ÖģÕ«": 3858, "ĠÕ¿Õ¥Õ²Õ¸ÖĤÕ´": 3859, "ĠÕ¢Õ¶Õ¡Õ¯Õ¹Õ¸ÖĤÕ©ÕµÕ¡Õ¶": 3860, "ÕįÕ¿Õ¥Õ²Õ®": 3861, "ĠIn": 3862, "Õ¡ÖģÕ¶Õ«": 3863, "ĠÔ¿Õ¡Õº": 3864, "ĠÕ«ÖĢÕ¡Õ¯Õ¡Õ¶Õ¡ÖģÕ¶Õ¥Õ¬": 3865, "ĠÕ¹Õ¡ÖĥÕ¸Õ¾": 3866, "ĠÕ¥ÖĢÕ¥Õ¯Õ¸ÕµÕ¡Õ¶": 3867, "ĠÕ¤Õ«ÖĢÖĦÕ¸ÖĢÕ¸Õ·": 3868, "Õ¬Õ«Õ´Õº": 3869, "Õ¡Õ¯Õ¸ÖĤÕ¬Õ¿": 3870, "Õ·Õ¶Õ¡Õ´": 3871, "Õ¡ÖĢÕ±Õ¡Õ¯Õ¸ÖĤÕ´": 3872, "ĠÕ«ÖĢÕ¡Õ¾Õ«Õ³Õ¡Õ¯Õ¨": 3873, "ĠÕ£Õ¥Õ²": 3874, "ĠÕ«ÖĢÕ¡Õ¾Õ¸ÖĤÕ¶ÖĦÕ«": 3875, "ĠÕ¯Õ¡Õ¿Õ¡ÖĢÕ¾Õ¸ÖĤÕ´": 3876, "ĠÕ¯Õ¡Õ¼Õ¸ÖĤÖģÕ¾Õ¡Õ®": 3877, "ĠÕ¥Õ¦ÖĢÕ¡ÖĥÕ¡Õ¯": 3878, "ĠÕ´Õ«Õ»Õ¸ÖģÕ¡Õ¼Õ¸ÖĤÕ´Õ¶Õ¥ÖĢÕ«": 3879, "ĠÕ£Õ¸ÖĤÕµÖĦÕ«": 3880, "ĠÕ¿Õ¸ÖĤÖĢ": 3881, "Ô»Õį": 3882, "Õ¡Õ¶Õ¸ÖĤÕ´Õ¨": 3883, "ĠÖħÕ£Õ¸Õ½Õ¿Õ¸Õ½Õ«": 3884, "ĠÕ¢Õ¡Õ¶Õ¡Õ½Õ¿Õ¥Õ²Õ®": 3885, "ĠÕ´Õ·Õ¿Õ¡Õ¯Õ¡Õ¶": 3886, "ĠJ": 3887, "Ô±Õ¤ÖĢÕ¢Õ¥Õ»": 3888, "ĠÕ¡Õ¼Õ¶Õ¥Õ¬Õ¸Õ¾": 3889, "ĠÕºÕ¡Õ°Õ¡Õ¶Õ»Õ¸ÖĤÕ´": 3890, "Ô±ÕıÕĦ": 3891, "ĠÕĦÕ«Õ¡ÖģÕµÕ¡Õ¬": 3892, "ĠÕ¡ÖĢÕ¤ÕµÕ¸ÖĤÕ¶ÖĦÕ¶Õ¥ÖĢÕ¨": 3893, "Õ°Õ¡Õ¶ÖĢÕ¡ÕºÕ¥Õ½": 3894, "ĠÕºÕ¡Õ¬": 3895, "ĠÕ½Õ¥Õ¼": 3896, "ĠÕ¹Õ¡ÖĢ": 3897, "ĠÕ£Õ¸ÖĢÕ®Õ¨": 3898, "ĠÕ¥Õ¶Õ©Õ¡Õ¯Õ¡": 3899, "ĠÕ¹Õ£Õ«Õ¿": 3900, "fo": 3901, "Õ«ÖĢÖĦÕ¨": 3902, "ĠÕ¦Õ¸ÖĤÕ£": 3903, "ĠÖħÖĢÕ¡Õ¯Õ¡ÖĢÕ£": 3904, "ĠÕ¥ÖĢÕ¡Õ·ÕŃ": 3905, "ĠÕ³Õ¶Õ·": 3906, "Õ¡Õ£Õ«Õ¿Õ¸ÖĤÕ©ÕµÕ¡Õ¶": 3907, "ĠÕ°Õ¡Õ¾Õ¡ÖĦÕ¡Õ¯Õ¡Õ¶Õ«": 3908, "ĠÕºÕ¡Õ¿Õ¡Õ½ÕŃÕ¡Õ¶Õ¡Õ¿Õ¾Õ¸ÖĤÕ©ÕµÕ¸ÖĤÕ¶": 3909, "ÖģÕ¾Õ¡Õ®": 3910, "ĠÕ¥Õ¾ÖĢ": 3911, "Õ¡Õ¢Õ¡Õª": 3912, "ĠÕ¡Õ¼Õ¡Õ»Õ¡ÖĢÕ¯Õ¸ÖĤÕ´": 3913, "ĠÕ¿Õ¥Õ½Õ¶Õ¥Õ¬": 3914, "ĠÕ¶Õ¸ÖĢÕ«Öģ": 3915, "ĠÕºÕ¡ÕµÕ´Õ¡Õ¶Õ¶Õ¥ÖĢÕ¸ÖĤÕ´": 3916, "ĠÕ¯Õ¬Õ«Õ¶Õ¥Õ¶": 3917, "ĠÕĦÕ¡ÖĢÕ¿Õ«ÖĢ": 3918, "ÕĢÕ«Õ·Õ¥ÖģÕ¶Õ¥Õ¶ÖĦ": 3919, "Õ¡Õ¶Õ«Õ¦Õ´": 3920, "Õ«Õ¶Õ¥ÖĢ": 3921, "ĠÕ¿ÖĢÕ¾Õ¸ÖĤÕ´": 3922, "Ô±Õ²": 3923, "Ġ31": 3924, "Õ¸Õ¹Õ¨Õ¶Õ¤": 3925, "all": 3926, "ĠÕ¡Õ½Õ¿Õ«Õ³Õ¡Õ¶": 3927, "ĠÕ¦Õ¡Õ¶Õ£Õ¾Õ¡Õ®": 3928, "ĠÕ¡ÕŃ": 3929, "ÕįÕ«ÖĢ": 3930, "ĠÕ£Õ«Õ¿Õ¸ÖĤÕ©ÕµÕ¡Õ¶": 3931, "ĠÕ¤Õ¡Õ½Õ¨Õ¶Õ©Õ¡Öģ": 3932, "ĠÕ°Õ¸Õ£ÖĩÕ¸ÖĢ": 3933, "ĠÕ¿Õ¶Õ¿Õ¥Õ½Õ¸ÖĤÕ©ÕµÕ¡Õ¶": 3934, "ĠÕ¼Õ¡Õ¤Õ«Õ¸Õ¯Õ¡ÕµÕ¡Õ¶Õ«": 3935, "Õ¸Õ¹Õ¨Õ¶Õ¤Õ¸Õ¿": 3936, "40": 3937, "ĠÕ£Õ¸Õ¬": 3938, "Õ¶Õ¤Õ«": 3939, "ĠÕİÕ¥ÖĢÕ»Õ«Õ¶": 3940, "ĠÕ¢Õ¡ÖĢÕ¥Õ¬": 3941, "ĠÕ¡Õ¯Õ¡Õ¶": 3942, "ĠÕ´Õ¸Õ¼": 3943, "ĠÕ£Õ¸Õ¾Õ¡Õ¦Õ¤": 3944, "Õ¥Õ½Õ¸ÖĤÖĢÕ½": 3945, "Õ¸ÖĤÕµÖĦ": 3946, "ĠÔ³Õ¸ÖĢÕ®": 3947, "ÕĬÕĲ": 3948, "ĠÕ¿Õ¾ÕµÕ¡Õ¬Õ¶Õ¥ÖĢÕ«": 3949, "Õ»Õ»Õ¡ÕµÕ«Õ¶": 3950, "Ġ197": 3951, "ĠÕ°Õ«Õ¾Õ¡Õ¶Õ¤Õ¡Õ¶Õ¸Öģ": 3952, "Õ¥ÖĢÕµ": 3953, "ĠÕ´Õ«Õ»Õ¡Õ¾Õ¡Õµ": 3954, "ĠÕ«ÖĢÕ¡Õ¯Õ¡Õ¶Õ¡ÖģÕ¶Õ¸ÖĤÕ´": 3955, "Õ¿Õ¸ÖĢ": 3956, "ĠÕ¬ÖĢÕ¡Õ¿Õ¾Õ¡Õ´Õ«Õ»Õ¸Öģ": 3957, "AM": 3958, "ĠÔ²Õ¥Õ¬": 3959, "ĠÔ¼Õ¸ÖĤÕ½": 3960, "ĠÕ¸ÖĤÕ²Õ«Õ²": 3961, "Ġ40": 3962, "ĠÕ¶ÕµÕ¸ÖĤÕ©Õ¥ÖĢ": 3963, "Õ¡Õ¯Õ¶Õ¥ÖĢÕ¨": 3964, "ĠÕ¿Õ¾Õ¥Öģ": 3965, "Õ«Õ¹Õ¶Õ¥ÖĢÕ«": 3966, "ÕİÕ¡ÖĢÕ¹Õ¡ÕºÕ¥Õ¿": 3967, "ĠÕ½ÕºÕ¡Õ½Õ¾Õ¸ÖĤÕ´": 3968, "ĠÕ¬Õ½Õ¥Õ¬": 3969, "ĠÕ°Õ¡Õ·Õ¾Õ¥Õ¿Õ¾": 3970, "ĠÕĢÔ±ÕĨÕĲÔ±ÕĬÔµÕı": 3971, "ÖĢÕ¸ÖĤ": 3972, "ĠÕŃÕ¸ÖĤÕ½Õ¡Öĥ": 3973, "Õ¡Õ¦Õ¡Õ¶Õ£": 3974, "ÕµÕ¡Õ¶Öģ": 3975, "ĠÕĬÕĨ": 3976, "ĠÕ°Õ¡Õ½Õ¯Õ¡Öģ": 3977, "ĠÕ¿ÖĢÕ¡Õ´Õ¡Õ¤ÖĢ": 3978, "ĠÕ°Õ¦Õ¸ÖĢ": 3979, "Ô³ÖĢ": 3980, "ĠÕ°ÖĢÕ¡Õ·": 3981, "Õ¸ÖĤÖĦÕµÕ¡Õ¶": 3982, "ĠÕ¡ÕºÖĢÕ«Õ¬": 3983, "ĠÕºÖĢÕ¸ÖĨÕ¥Õ½": 3984, "Õ¡Õ£Õ¡Õ©": 3985, "ÕĢÕ¸ÖĤÕ¶": 3986, "ov": 3987, "Õ«Õ¯Õ¶Õ¥ÖĢ": 3988, "ĠÕ¶Õ¥ÖĢÕ½": 3989, "ĠÕ¡ÖĢÕ¿Õ¡Õ¯Õ¡ÖĢÕ£": 3990, "ĠÕºÕ¡Õ¿Õ´Õ¸ÖĤÕ©ÕµÕ¸ÖĤÕ¶": 3991, "Õ¯Õ¡ÖĢÕ¸Õ²": 3992, "ĠÕ¥Õ¯Õ¥Õ²Õ¥ÖģÕ¸ÖĤ": 3993, "Ô¿Õ¡Õ¿": 3994, "ÕĪÕĳ": 3995, "ĠÕ´Õ¡ÖĢÕ¤Õ¨": 3996, "ĠÕºÕ¡ÕµÕ´Õ¡Õ¶Õ¡Õ£ÖĢ": 3997, "ĠÕ£Õ¥ÖĢÕ¡Õ¦Õ¡Õ¶Öģ": 3998, "ÕĢÖĢÕ¡ÕºÕ¡ÖĢÕ¡Õ¯": 3999, "Õ¶Õ¬Õ¡ÕµÕ¶": 4000, "ĠÕ§Õ½": 4001, "Õ¬Õ¡Õ´": 4002, "Õ¢ÕµÕ¥Õ¯Õ¿": 4003, "Õ¡Õ¼Õ´Õ¡Õ¶": 4004, "Õ¡Õ¦ÖĢÕ¯": 4005, "ĠÕ¦Õ¥Õ¶ÖĦ": 4006, "Õ¡Õ¯ÖģÕ¸ÖĤÕ©ÕµÕ¸ÖĤÕ¶Õ¨": 4007, "Õ¡Õ¶Õ¯Õ¿": 4008, "ĠÕ°Õ¡Õ½Õ¥Õ¬": 4009, "Õ«Õ½Õ¿Õ¡Õ¯Õ¡Õ¶": 4010, "ĠÕ¯Õ¡ÕµÕ¡ÖģÕ¡Õ®": 4011, "ĠÕ¨Õ¶Õ¿ÖĢÕ¡Õ¯Õ¡Õ¶": 4012, "ĠÕ¥Õ¯Õ¥Õ²Õ¥ÖģÕ«Õ¶": 4013, "ĠÕ¿Õ¥ÕŃÕ¶Õ«Õ¯Õ¡Õ¯Õ¡Õ¶": 4014, "ĠÕ¡ÕµÕ½Õ«Õ¶ÖĦÕ¶": 4015, "Ô¼ÕĦ": 4016, "ĠÔ±Õ¬Õ«": 4017, "Ð°Ð": 4018, "ĠÕ¡ÖĢÕ¾Õ¥Õ½Õ¿Õ«": 4019, "ĠÕİÕ¡Õ¶Õ¡Õ±": 4020, "Õ¸ÖĤÕ°Õ¥Õ¿": 4021, "Õ¡Õ¿Õ«Õº": 4022, "ĠÕ¥ÖĢÕ»": 4023, "ĠÕ¢Õ¡ÕªÕ¶": 4024, "ĠÕ´Õ¡Õ¶ÖĢÕ¡Õ´Õ¡Õ½": 4025, "Õ¥Õ¬ÖĦ": 4026, "ĠÕ¢Õ¡Õ¦": 4027, "Õ¡Õ¬Õ¨": 4028, "Õ¡ÖĢÕ½Õ¥Õ¬": 4029, "Ô±Õ´Õ¥Õ¶": 4030, "ĠÕ¢Õ¸Õ²Õ¸ÖĦ": 4031, "ĠÕ¡Õ·ÕŃÕ¡Õ¿Õ¡Õ¯Õ¡Õ¦Õ´Õ«": 4032, "ĠÕ¡ÖĢÕ°": 4033, "Õ¥Õ¿Õ«Õ¯": 4034, "ĠÕ«Õ¢": 4035, "Õ¡Õ·Õ¥Õ¶": 4036, "ĠÔ¿Õ¸Õ¶": 4037, "ru": 4038, "Õ¥ÖģÕ¶Õ¥Õ¬Õ¸ÖĤ": 4039, "ĠÕĨÕ·": 4040, "ĠÕ¸ÖĤÕ²Õ¡ÖĢÕ¯Õ¥Õ¬": 4041, "ÕºÕ¥Õ¿ÖĦ": 4042, "ĠÕ¯Õ¥Õ²Õ®": 4043, "Õ¡Õ½Õ¡Õ¯Õ¡Õ¶": 4044, "ĠÕ·Õ¥Õ¶ÖĦÕ«": 4045, "ĠÕ¶Õ¡ÕŃÕ¡ÖĢÕ¡ÖĢÕ¨": 4046, "ĠÕ°Õ¡Õ¾Õ¡Õ¶Õ¡Õ¯Õ¡Õ¶": 4047, "ĠÕįÕ¡ÖĢÕ£Õ½ÕµÕ¡Õ¶": 4048, "ĠÕ¸ÖĦ": 4049, "Õ¡Õ¾Õ¡Õ¶Õ¤": 4050, "ĠÕĢÔ¿": 4051, "Õ¡Õ¯ÖģÕ¸ÖĤÕ©ÕµÕ¸ÖĤÕ¶": 4052, "ĠÔ³Õ¥Õ²": 4053, "Ô³Õ«Õ¿": 4054, "ÕİÔ±Ô¾": 4055, "ÕºÖĢÕ¥Õ½": 4056, "Õ¸ÖĤÕ·Õ«": 4057, "Õ«ÖĢÕ¿": 4058, "Õ©Õ¡ÖĢ": 4059, "ĠÔµÔ±ÕĢÔ¿": 4060, "ĠÕ¡Õ´Õ¥Õ¶Õ¨": 4061, "ĠÕ¨Õ¶Õ¿ÖĢÕ¸ÖĤÕ©ÕµÕ¸ÖĤÕ¶Õ¶Õ¥ÖĢÕ«Õ¶": 4062, "ĠÕ´Õ¸ÖĤÕ¿ÖĦ": 4063, "Õ¸Õ¾Õ¯": 4064, "ÕĨÕ«Õ¯Õ¸Õ¬": 4065, "Õ¡Õ½Õ¿Õ¡Õ¶ÕµÕ¡Õ¶": 4066, "ĠÕ¶ÕµÕ¸ÖĤÕ©Õ¥ÖĢÕ«": 4067, "ĠÕ°Õ¡Õ´Õ¡Õ¬Õ½Õ¡ÖĢÕ¡Õ¶": 4068, "ĠÕ°Õ¡Õ¯Õ¡Õ´Õ¡ÖĢÕ¿Õ¸ÖĤÕ©ÕµÕ¡Õ¶": 4069, "Õ¡Õ¨": 4070, "ĠÕ¯Õ·": 4071, "ÔµÕ¬": 4072, "Õ¡Õ©Õ¸Õ·": 4073, "ĠÕĬÕ¸Õ²": 4074, "ĠÕ¡Õ¼Õ»Öĩ": 4075, "Ġb": 4076, "Õ¡Õ¿Õ¡Õ¶ÖĦ": 4077, "ĠÕ®Õ¡Õ£": 4078, "Õ¡Õ¯ÖģÕ«": 4079, "ĠÖĨÖĢÕ¡Õ¶Õ½": 4080, "ĠÕ¯ÕµÕ¡Õ¶ÖĦÕ¸ÖĤÕ´": 4081, "Õ¡Õ´Õ½": 4082, "Õ¸Õ¶Õ¡Õ¬Õ¤": 4083, "ÕĦÔµÕĨ": 4084, "ĠÕ«ÖĢÕ¡Õ¯Õ¡Õ¶Õ¡ÖģÕ¾Õ¸ÖĤÕ´": 4085, "ĠÕ£Õ¸ÖĢÕ®Õ¸ÖĤÕ¶Õ¥Õ¸ÖĤÕ©ÕµÕ¸ÖĤÕ¶Õ¨": 4086, "ĠÕĬÕ¥Õ¿Õ¥ÖĢÕ¢Õ¸ÖĤÖĢÕ£": 4087, "Ô±ÕĬÔ¿": 4088, "ĠÕ¦Õ¢Õ¸Õ½Õ¡Õ·ÖĢÕ»": 4089, "Õ¸ÖĢÕ¤Õ¶Õ¥ÖĢÕ«": 4090, "ĠÕ¬Õ«Õ¶Õ¥Õ¶": 4091, "ĠÕĢÕ¸Õ¾Õ°Õ¡Õ¶Õ¶Õ¥Õ½": 4092, "ĠÕ¸Õ³": 4093, "ĠÕŃÕ¸Õ¹Õ¨Õ¶Õ¤Õ¸Õ¿": 4094, "ÖĢÕ¡ÖĨ": 4095, "ÕħÔ´": 4096, "ĠÕ²Õ¥Õ¯Õ¡Õ¾Õ¡ÖĢÕ«": 4097, "Õ¸Õ²Õ«Õ¶": 4098, "Õ¶Õ¡Õ¯Õ«Öģ": 4099, "ĠÕ¤Õ¥ÕºÖĦÕ«": 4100, "ĠÕ´Õ¡Õ½Õ¶Õ¡Õ¯Õ«": 4101, "ĠÕ¿Õ¥Õ²Õ¡ÖĥÕ¸ÕŃÕ¾Õ¥Õ¬": 4102, "ra": 4103, "ĠY": 4104, "ĠÕ¯Õ¡Õ¶Öģ": 4105, "ĠÕ¤Õ¡ÖĢÕ«": 4106, "ĠÖĦÕ¡Õ¶Õ¡Õ¯": 4107, "Õ¸Õ½ÕµÕ¡Õ¶": 4108, "âĢĻ": 4109, "Ô¿Õ¡Õµ": 4110, "ĠÔµÕ¯": 4111, "ĠÕªÕ¡Õ¼Õ¡Õ¶Õ£": 4112, "ĠÕ¼Õ¥Õ½Õ¸ÖĤÖĢÕ½": 4113, "Ô±Õ¶Õ±": 4114, "ĠÕ¿Õ¥ÕŃÕ¶Õ¸Õ¬Õ¸Õ£Õ«Õ¡Õ¶Õ¥ÖĢÕ«": 4115, "Õ«Õª": 4116, "ĠÕ°Õ¥Õ¿Õ¡Õ£Õ¡": 4117, "ĠÕ¡Õ´Õ¥ÖĢÕ«Õ¯ÕµÕ¡Õ¶": 4118, "ĠÕ¯Õ¸Õ¼Õ¸ÖĤÕºÖģ": 4119, "ĠÕ©Õ·Õ¶Õ¡Õ´": 4120, "ĠÕįÕ«Õ´": 4121, "ĠÔ¿Õ¡Õµ": 4122, "ĠÕ¢Õ¶Õ¡Õ£": 4123, "ĠÕ°Õ¥Õ¿Õ¡ÖĦÖĢÖĦÖĢ": 4124, "ÕĪÕĴÔ¹ÕħÕĪÕĴÕĨÕĨÔµÕĲ": 4125, "Õ¥ÖģÕ¾Õ¡Õ®": 4126, "ĠÕ¹Õ¸ÖĢ": 4127, "ĠÕ¹Õ¸ÖĢÕ½": 4128, "ÕĦÕ¡ÖĢÕ¿": 4129, "ÖĢÕ¾Õ¸Õ²": 4130, "ĠÕ¯Õ¡Õ¿Õ¡ÖĢÕ¸ÖĤÕ´": 4131, "ĠÕįÕ¡ÖĢÕ£Õ½ÕµÕ¡Õ¶Õ¶": 4132, "ĠÔ±ÖĢÕ¿Õ¡Õ½Õ¡Õ¶": 4133, "ĠÕ¢Õ¬Õ¸Õ£": 4134, "Õ¡Õ¶Õ¸ÖĤÕ©": 4135, "Õ¡Õ¿Õ¡Õ¯Õ¨": 4136, "ĠÔ½Õ¸ÖĢÕ°ÖĢÕ¤": 4137, "ĠÕ¯Õ¡ÖĢÕ£Õ«": 4138, "ĠÕ´Õ¶Õ¡Õ¬": 4139, "ub": 4140, "ĠÕ´Õ²": 4141, "ĠÕºÕ¸Õ²": 4142, "ĠÕ¡ÕµÕ¤ÕºÕ«Õ½Õ«": 4143, "ĠÕ¯ÕµÕ¡Õ¶ÖĦ": 4144, "ĠÕ«Õ·ÕŃÕ¡Õ¶Õ¸ÖĤÕ©ÕµÕ¸ÖĤÕ¶Õ¶Õ¥ÖĢÕ«": 4145, "ĠÕ°Õ¡Õ´Õ¡Õ¬Õ«ÖĢ": 4146, "ĠÕ¡Õ¼Õ¡Õ¶Õ±Õ¶Õ¡Õ°Õ¡Õ¿": 4147, "35": 4148, "38": 4149, "Õ¥Õ³": 4150, "Õ¸ÖĤÕ¯Õ¡Õµ": 4151, "Õ¸Õ¶ÕµÕ¡Õ¶": 4152, "ĠÖħÕ¢ÕµÕ¥Õ¯Õ¿": 4153, "ĠÕ¡Õ¼Õ¡Õ»Õ¡Õ¿Õ¡ÖĢ": 4154, "ĠÕ³Õ¡ÖĢÕ¿Õ¡ÖĢ": 4155, "ĠU": 4156, "Õ¢Õ¥ÖĢÕ£": 4157, "ĠÕ©Õ²Õ©": 4158, "ĠÕ©Õ¡Õ£Õ¡Õ¾Õ¸ÖĢ": 4159, "ĠÕįÖĩ": 4160, "Õ¡Õ©Õ¥Õ©": 4161, "ĠÖĨÕ¡Õ¯Õ¸ÖĤÕ¬Õ¿": 4162, "ÕĶÔ»": 4163, "ĠÕ¿Õ¡ÖĢÕ¡Õ®ÖĦÕ¡ÕµÕ«Õ¶": 4164, "Õ¸ÖĤÕ°Õ¥Õ¿Öĩ": 4165, "Õ¡ÖĦÕ¶Õ¶Õ¸ÖĤÕ©ÕµÕ¡Õ¶": 4166, "ĠÕĢÔ±ÕĨÕĲÔ±ÕĬÔµÕıÕĪÕĴÔ¹ÕħÔ±ÕĨ": 4167, ">>": 4168, "ĠÕ¹Õ¯": 4169, "ĠÕ«ÖĢÕ¡Õ¾Õ¡Õ½": 4170, "ĠÔ±Õ¦Õ¡Õ¿": 4171, "ĠÕ¡Õ¤ÖĢÕ¢Õ¥Õ»Õ¡Õ¶Õ¡Õ¯Õ¡Õ¶": 4172, "Õ¥Õ£Õ¸ÖĢÕ«Õ¡": 4173, "Õ¡Õ¼Õ¡Õ»": 4174, "ĠÕŃÕ¶Õ¡Õ´": 4175, "ÖĢÕ¡Õ£ÖĢÕ«": 4176, "ĠÕ¡Õ¶Õ±Õ¶": 4177, "ĠÕ½Õ¡Õ°Õ´Õ¡Õ¶Õ¶Õ¥ÖĢÕ¸ÖĤÕ´": 4178, "Õ¡Õ¾Õ¸ÖĢÕ¸ÖĤÕ´Õ¨": 4179, "ĠÕ¥ÖĢÕ¯Õ«ÖĢÕ¨": 4180, "ĠÖĥÕ¸ÖĢÕ±Õ¡Õ£Õ¥Õ¿": 4181, "ĠÕ½Õ¿Õ¥Õ²Õ®Õ¾Õ¡Õ®": 4182, "ĠÕħÕ¸ÖĤÕ¶": 4183, "Õ¸ÖĤÕ¢Õ¥Õ¶": 4184, "ĠÕĢÕ¡ÖĢÕ¸ÖĤÕ©ÕµÕ¸ÖĤÕ¶ÕµÕ¡Õ¶Õ¨": 4185, "ĠÕ¡Õ´ÖĢÕ¡ÕºÕ¶Õ¤": 4186, "ĠÕ´Õ«Õ´": 4187, "ĠÕİÕ¬Õ¡Õ¤Õ«Õ´Õ«ÖĢ": 4188, "ĠÕ¥Õ¯Õ¡Õ¾": 4189, "ĠÖĥÕ¸ÖĢÕ±Õ¥Õ¬": 4190, "ĠÕ¯Õ¡Õ¿Õ¡ÖĢÕ¾Õ¥Õ¬": 4191, "ĠÔ»Õ½ÖĢ": 4192, "Õ¡ÖģÕ¡Õ¶": 4193, "Õ¡Õ°Õ¡Õ¾Õ¡ÖĦ": 4194, "ĠÕ°Õ¡ÕµÕ¥ÖĢÕ«": 4195, "ĠÖħÖĢÕ«Õ¶": 4196, "ĠÕ¸ÖĤÕ½Õ¸ÖĤÖģÕ«Õ¹": 4197, "ĠÕ°Õ¡Õ¶Õ£Õ«Õ½Õ¿": 4198, "ĠÖĦÕ¡ÖĢÕ¿Õ¸ÖĤÕ²Õ¡ÖĢ": 4199, "Õ¡Õ¯Õ¥Õ¿": 4200, "ĠÕĦÕ¡ÖĢÕ«": 4201, "ÖĢÕ¡Õ¶ÖĦÕ«": 4202, "ĠX": 4203, "Õ¡Õ¿Õ¨": 4204, "Õ¡Õ¾Õ¡ÖĢÕ¨": 4205, "ĠÕ£Õ¡Õ£Õ¡Õ©": 4206, "ĠÔµÕ¾ÖĢ": 4207, "ĠÕĨÕ¡Õ°Õ¡Õ¶Õ£": 4208, "ĠÖĥÕ¸ÕŃÕ¡ÖĢÕ«Õ¶": 4209, "ĠÕ¶Õ¡ÕŃÕ¡Õ£Õ«Õ®Õ¨": 4210, "Õ¡Õ¿Õ«ÖĢ": 4211, "Õ¡ÕºÕ¡ÖĢ": 4212, "ĠÖĥÕ¶Õ¿ÖĢ": 4213, "ĠÕ´Õ¥Õ¯Õ«Õ¶": 4214, "ĠÕºÕ¡ÖĢÕ¿Õ¡Õ¯Õ¡Õ¶": 4215, "Õ«Õ¸Õ¶Õ¡Õ¬": 4216, "ĠÕ¡Õ¶Õ¤Õ¡Õ´Õ¶Õ¥ÖĢÕ«": 4217, "Ô±Õ¦Õ£Õ¡ÕµÕ«Õ¶": 4218, "ĠÕ¯Õ¥ÖĢÕºÕ¸Õ¾": 4219, "ĠÕ¢Õ¸Õ²Õ¸ÖĦÕ«": 4220, "ĠÕ¢Õ¥ÖĢÕ¸ÖĤÕ´": 4221, "ĠÕ½ÖĥÕµÕ¸ÖĤÕ¼": 4222, "ĠÕ¾Õ¡Õ½Õ¿": 4223, "ĠÕĦÕ«ÖĦ": 4224, "ÖĢÕ¤Õ¥Õ°": 4225, "ĠÕ¸ÖĤÕ¶Õ¥Õ´": 4226, "ĠÔ»Õ´": 4227, "Õ¡Õ¶Õ£Õ¬": 4228, "ĠÕ¡Õ¼Õ¡Õ»Õ¶Õ¸ÖĤÕ©ÕµÕ¡Õ¶": 4229, "ĠÕ´Õ¶Õ¡ÖģÕ¥Õ¬": 4230, "ĠÕ´Õ«Õ¡Õ½Õ¶Õ¡Õ¯Õ¡Õ¶": 4231, "ĠÕĦÕ¡ÕµÖĢ": 4232, "ĠÕ´Õ«Õ»Õ¥ÖĤ": 4233, "Õ¡Õ©Õ«Õ¼": 4234, "ĠÕ¤Õ¡Õ¿Õ¡Õ¾Õ¸ÖĢ": 4235, "36": 4236, "ĠÕ°ÕµÕ¸ÖĤÖĢÕ¡Õ¶": 4237, "ĠÔ±Õ¯": 4238, "ĠÖĦÖĢÕ«Õ½Õ¿": 4239, "ĠÕ¬Õ«Õ£": 4240, "ĠÕĦÕ«Õ¶Õ¹": 4241, "ĠÕ´Õ¥ÕŃ": 4242, "ÕįÕ¡": 4243, "Ô½Õ¡Õ²": 4244, "ĠÕ¡Õ¯Õ¶Õ¯Õ¡Õ¬": 4245, "ÕģÕ¥ÖĢ": 4246, "Õ¾Õ¡Õ¦Õ¶": 4247, "ĠÕ¿Õ¥Õ½Õ¥Õ¬": 4248, "ĠÕ½Õ¯Õ½Õ¸ÖĤÕ´": 4249, "ĠÕ°Õ²Õ¸ÖĤÕ´Õ¶Õ¥ÖĢ": 4250, "ÕĪÖĤÕ²": 4251, "ĠÕ®Õ¶Õ¶Õ¤ÕµÕ¡Õ¶": 4252, "ev": 4253, "Õ¡Õ¾Õ¡ÖĢÕ¿": 4254, "ĠÕ¡Õ¼Õ¡Õ¾Õ¸Õ¿ÕµÕ¡Õ¶": 4255, "ĠÕ£Õ¸ÕµÕ¸ÖĤÕ©ÕµÕ¸ÖĤÕ¶": 4256, "Õ¡ÕµÕ½": 4257, "ĠÕĦÔ±ÕĲ": 4258, "ĠÕºÕ¡Õ¿Õ¯Õ¡Õ¶": 4259, "âĢķ": 4260, "ĠÕ°Õ¡ÖĢÕ¡Õ¦Õ¡Õ¿": 4261, "ĠÕ¡ÕºÕ¡Õ£": 4262, "Ô²Õ¡ÕµÖģ": 4263, "ĠÕ°Õ¡Õ¾Õ¡Õ¶": 4264, "Ġ196": 4265, "ĠÕ¾Õ¥ÖĢÕ¡Õ¢Õ¥ÖĢÕ´": 4266, "Ġ2008": 4267, "ĠÔµÕ¾ÖĢÕ¸ÕºÕ¡Õ¯Õ¡Õ¶": 4268, "ĠÔ¿Õ¡ÖĢÕ¡ÕºÕ¥Õ¿ÕµÕ¡Õ¶Õ¨": 4269, "ĠÕ£Õ¬Õ¸ÖĤÕŃ": 4270, "Ar": 4271, "ĠÕ°Õ¡ÖĢÕµÕ¸ÖĤÖĢ": 4272, "ĠÕ¹Õ¬Õ«Õ¶": 4273, "ĠÖħÖĢÕ£": 4274, "Õ¡ÖĢÕ±ÖĢ": 4275, "Õ¡Õ¶Õ¯ÕµÕ¸ÖĤÕ¶": 4276, "ĠÕ£ÖĢÕ¡Õ¤": 4277, "ĠÕ°Õ«Õ´ÖĦ": 4278, "ĠÕ´Õ¿Õ¥Õ¬": 4279, "ĠÕºÕ¡Õ·Õ¿Õ¸Õ¶ÕµÕ¡Õ¶": 4280, "ĠÕ«ÖĢÕ¡Õ¯Õ¡Õ¶Õ¡ÖģÕ¶Õ¥Õ¬Õ¸ÖĤ": 4281, "ĠÔ±ÖĢÕ¡ÖĢÕ¡Õ¿": 4282, "ĠÕ°Õ«Õ·Õ¡Õ¿Õ¡Õ¯": 4283, "ÔµÔ¼ÕĪÕĴ": 4284, "ĠÕ©Õ¸ÖĤÖĢÖĦÕ¡Õ¯Õ¡Õ¶": 4285, "Õ¡Õ¯ÖĢÕ©": 4286, "Õ¡Õ½Õ¨": 4287, "ÖĩÕ¶Õ¸ÖĤÕµÕ¶": 4288, "ĠÕ¶Õ¡ÕŃÕ¡ÕºÕ¡Õ¿ÖĢÕ¡Õ½Õ¿": 4289, "ĠÕ«Õ¶Õ¹Õ¸": 4290, "ĠÔ²Õ¡ÖģÕ«": 4291, "ĠÕ¯Õ¡ÕºÕ«": 4292, "ĠÕ¡ÖĢÖĦ": 4293, "ĠÕ¥ÖĢÕ¯ÖĢÕ¶Õ¥ÖĢÕ¸ÖĤÕ´": 4294, "ĠÕ´Õ¡ÖĢÕ¤Õ¯Õ¡ÕµÕ«Õ¶": 4295, "ĠÕ¤ÕºÖĢÕ¸ÖģÕ¸ÖĤÕ´": 4296, "Õ£Õ¿Õ¡Õ£Õ¸ÖĢÕ®Õ´Õ¡Õ¶": 4297, "31": 4298, "Õ¡Õ°Õ¬": 4299, "Õ¡Õ¾Õ¸ÖĢÕ¡Õ¯Õ¡Õ¶": 4300, "ĠÕ«Õ¶Õ¹ÕºÕ¥": 4301, "ĠÕ£Õ«Õ¿Õ¶Õ¡Õ¯Õ¡Õ¶": 4302, "Ô±Õ·ÕŃÕ¡ÖĢÕ°": 4303, "55": 4304, "Õ¡Õ½Õ¸ÖĤÕ¶": 4305, "Õ¸Õ¾Õ½": 4306, "Õ¸Õ¶Õ«Õ¡ÕµÕ«": 4307, "ĠÕ¡ÕºÖħÖĢ": 4308, "Õ«Õ¦Õ´Õ«": 4309, "ĠÕ½Õ¡Õ°Õ´Õ¡Õ¶Õ¡ÖĥÕ¡Õ¯": 4310, "ĠÕ°Õ¥Õ¿ÖĩÕ¡Õ¶ÖĦ": 4311, "ĠÕ¥ÖĢÕ£Õ¹": 4312, "ĠÕ£Õ¸ÖĢÕ®Õ¨Õ¶Õ©Õ¡ÖģÕ¨": 4313, "ĠÕĸÖĢÕ¡Õ¶Õ½Õ«Õ¡ÕµÕ«": 4314, "II": 4315, "Õ¥Õ¶Õ¦": 4316, "ÖħÖĢÕ¾Õ¡": 4317, "Õ¡ÖĢÕ¾Õ¸Õ²": 4318, "ĠÔ±ÕµÕ¬": 4319, "Ġ2010": 4320, "ent": 4321, "Õ¡Õ¶Õ¹Õ¥Õ½": 4322, "Õ¡Õ¤Õ¡Õ¼Õ¶Õ¡Õ¬Õ¸Õ¾": 4323, "ĠÕ¡ÖĢÕ´": 4324, "ĠÕ¸ÖĤÕ²Õ¥ÖĢÕ±": 4325, "ĠÕ¨Õ¶Õ¿Õ¡Õ¶Õ«ÖĦ": 4326, "ĠÖĥÕ¸Õ²Õ¸ÖģÕ¸ÖĤÕ´": 4327, "Ġchat": 4328, "ĠÕ£Õ«ÖĢÖĦ": 4329, "ÕĦÕ¥Õ®": 4330, "Õ¶Õ¤Õ«ÖĢ": 4331, "Õ¥ÖĤÕ½": 4332, "ĠÔ·ÖĢÕ¤Õ¸Õ²": 4333, "ĠÕ¡Õ¶ÖģÕ¶Õ¸ÖĤÕ´": 4334, "Õ¡ÖĢÕ®Õ¸ÖĤÕ´": 4335, "ĠÕĪÖĤÕ¯ÖĢÕ¡Õ«Õ¶": 4336, "ĠÕ¯Õ¡Õ¬Õ¡Õ¶": 4337, "ĠÕ½Õ¿Õ«ÕºÕ¾Õ¡Õ®": 4338, "op": 4339, "Ñı": 4340, "Õ¸Õ¾ÕµÕ¡Õ¶": 4341, "ĠÕºÕ¥Õ½": 4342, "Õ¬Õ¡Õ¶Õ¤": 4343, "ĠÕ¹Õ¶Õ¡ÕµÕ¡Õ®": 4344, "ÕĨÕ¡ÕŃÕ¡Õ£Õ¡Õ°": 4345, "ĠÔ³Õ¡Õ¬": 4346, "ĠÖĨÕ«Õ¦Õ«Õ¯Õ¡Õ¯Õ¡Õ¶": 4347, "os": 4348, "Ðº": 4349, "Õ¡Õ¶Õ¡ÖĦ": 4350, "Õ¡Õ¶Õ«Õ¯": 4351, "ĠÕ¬Õ¸ÖĤÖĢ": 4352, "ĠÕĦÕ¡Õµ": 4353, "ĠÕ¥ÖĤÕ½": 4354, "ĠÕ¸Õ¹Õ¶Õ¹": 4355, "Õ¡Õ¢Õ¡Õ¶Õ¸ÖĤÕ©ÕµÕ¡Õ¶": 4356, "Õ«Õ¡Õ¶Õ¥ÖĢ": 4357, "ÕĪÕĲÔ¾": 4358, "ĠÕ¿Õ¡ÖĢÕ«Õ¶Õ¥ÖĢ": 4359, "âĨĳ": 4360, "Õ¡ÖģÕ¡Õ¶Öģ": 4361, "Ô±Ô²": 4362, "ĠÕ¢Õ¥Õ´": 4363, "Ô¿Õ¡ÕµÖĦÕ«": 4364, "ĠÕŃÕ¸Õ½ÖĦÕ¨": 4365, "ĠÕ¢Õ¶Õ¡ÕºÕ¡Õ°": 4366, "ĠÕ´Õ¡Õ°Õ¾Õ¡Õ¶": 4367, "ÕºÕ«Õ½Õ¸Õ¾": 4368, "ĠÖģÕ¥Õ²Õ¡Õ½ÕºÕ¡Õ¶": 4369, "Õ¡Õ¬Õ¢": 4370, "Õ¸Õ»Õ¨": 4371, "Õ¯Õ¡Õ¶Öģ": 4372, "ĠÕ¿Õ¡Õ¶Õ¨": 4373, "Õ¸Õ¶Õ½": 4374, "ĠÕ·Õ¥Õ·Õ¿": 4375, "ĠÔ¿Õ¸Õ´": 4376, "ÕĢÕ¡ÕµÕ¡Õ½Õ¿Õ¡Õ¶Õ¸ÖĤÕ´": 4377, "ĠÕ¯Õ¡Õ¿Õ¡ÖĢÕ¡Õ®": 4378, "ĠÕĢÕ¸Õ¾Õ°Õ¡Õ¶Õ¶Õ«Õ½ÕµÕ¡Õ¶Õ¨": 4379, "ĠÕ«Õ¶ÖĦÕ¶Õ¡Õ¯": 4380, "Õ¡Õ°Õ¬Õ«Õ³": 4381, "ÖĦÕ½": 4382, "Õ¡Õ½ÖĢÕ¡Õ°": 4383, "Õ¡Õ¾Õ¡Õ¶": 4384, "ĠÕ©Õ¡ÖĢÕ´": 4385, "Õ·Õ¡Õ¢Õ©Õ«": 4386, "Õ½Õ¿ÖĢ": 4387, "Õ¡Õ¶Õ£Õ¡Õ´": 4388, "Õ¡Õ¶Õ£Õ½Õ¿": 4389, "ĠÕ°Õ¡Õ¿Õ¯Õ¡Öģ": 4390, "ĠÕ°Õ¡Õ´Õ¡Õ¯Õ¡ÖĢÕ£Õ¨": 4391, "198": 4392, "ĠÕ®Õ¶Õ¾Õ¥Õ¬": 4393, "ĠÕ¯Õº": 4394, "ĠÕ¡ÕµÕ¤ÖĦÕ¡Õ¶": 4395, "ĠÕ¡ÖĢÕ¿Õ¸Õ¶": 4396, "ĠÕ°Õ¡ÖĢÖģÕ«": 4397, "ĠÕ¤ÖĢÕ¡Õ´Õ«": 4398, "ĠÕ°Õ¡ÕµÕ¿Õ¶Õ¡Õ¢Õ¥ÖĢÕ¾Õ¥Õ¬": 4399, "Õ¡Õ½ÖģÕ¥": 4400, "Ġv": 4401, "Õ¸ÖĤÕ¡Õ¬": 4402, "Õ¡Õ½Õ¸ÖĤÕ´": 4403, "Õ¥Õ¶Õ¨": 4404, "ĠÕ¹ÕºÕ¥Õ¿ÖĦ": 4405, "ĠÕ¾Õ¿Õ¡Õ¶Õ£Õ¡Õ¾Õ¸ÖĢ": 4406, "Õ¡ÖĢÕ½Õ¥Õ¬Õ¸Õ¶": 4407, "ĠK": 4408, "Õ¡Õ¿Õ¡Õ¶": 4409, "ĠÕ©Õ¡ÖĦ": 4410, "ÖĢÕ¡Õ´Õ«": 4411, "ĠâĢº": 4412, "ĠÕ®Õ¡Õ¼Õ¡ÕµÕ¸ÖĤÕ©ÕµÕ¸ÖĤÕ¶": 4413, "ĠÖĦÕ¶Õ¶Õ¡Õ¤Õ¡Õ¿": 4414, "ĠÕ¯Õ¡ÖĢÕ£Õ¨": 4415, "Õ¥Õ£Õ¸ÖĢÕ®": 4416, "ĠÕ¾Õ¡ÖĢÕ¹Õ¡ÕºÕ¥Õ¿Õ¨": 4417, "ĠÕ¤Õ¡Õ¿Õ¡ÖĢÕ¡Õ¶": 4418, "ĠÔµÕ¾ÖĢÕ¸ÕºÕ¡": 4419, "ĠÖĥÕ¸ÖĦÖĢÕ«Õ¯": 4420, "ĠÕ¥Õ¦ÖĢÕ¡Õ¯": 4421, "ĠÕ°Õ¡Õ¶Õ¤Õ«Õ½Õ¡Õ¶Õ¸ÖĤÕ´": 4422, "ÔµÕİÔ±ÕĨ": 4423, "Õ¡ÖĢÕ·Õ¡Õ¾": 4424, "ÖĢÕ¥ÖĦ": 4425, "ĠÕ¯Õ¬": 4426, "Õ¡Õ®Õ¯": 4427, "Õ¡Õ¬Õ«ÖĢ": 4428, "ÔµÕĶ": 4429, "Ô¿Õ¡Õ¼": 4430, "ĠÔ¿Õ¡Õ©": 4431, "ĠÕ¡Õ´Õ¢Õ¸Õ²Õ»Õ¸ÖĤÕ©ÕµÕ¡Õ´Õ¢": 4432, "oc": 4433, "Õ¡ÖĢÖĩ": 4434, "Õ§Õ½": 4435, "ĠÕ©Õ¾Õ¡Õ¯Õ¡Õ¶Õ«Öģ": 4436, "ĠÕ¶Õ¡ÕŃÕ¡ÖĢÕ¡ÖĢÕ¸ÖĤÕ©ÕµÕ¸ÖĤÕ¶Õ¨": 4437, "ĠÕ¡ÕºÕ¡Õ°Õ¸Õ¾Õ´Õ¡Õ¶": 4438, "ÖĢÕ«Õ¯": 4439, "ĠÕ§Õ¤": 4440, "ĠÕĦÕ¡Õ¯": 4441, "ĠÕ£Õ¸ÖĢÕ®Õ¡Õ¼": 4442, "ĠÔ±Õ¶Õ£Õ¬": 4443, "ĠÕ¯Õ¡ÖĢÕ®Õ¥Õ½": 4444, "Ô±ÕİÕĪÕĲ": 4445, "ĠÕ³Õ·Õ´": 4446, "ĠÕĦÕ¯ÖĢÕ¿Õ¹": 4447, "ĠÕ¾Õ¡Õ¼": 4448, "ĠÕ¡Õ¶ÖģÕ¡Õ®": 4449, "ĠÕ¡Õ¶Õ±Õ¨": 4450, "ĠÕ¤Õ¡Õ½Õ¡ÖĢÕ¡Õ¶": 4451, "ĠÕ´Õ¶Õ¡ÖģÕ¡Õ®": 4452, "ĠÕ¶Õ«Õ½Õ¿Õ¨": 4453, "ĠÕĨÕ¸ÖĢÕ¸ÖĤÕ©ÕµÕ¸ÖĤÕ¶Õ¶Õ¥ÖĢ": 4454, "um": 4455, "Ġh": 4456, "Õ¡ÕµÕ¡Õ¶": 4457, "Õ¡Õ¾Õ¡Õ©": 4458, "ĠÕĢÕ¡Õ»": 4459, "Õ¡ÕŃÕ´": 4460, "ĠÕ°Õ¡Õ½Õ¶Õ¥Õ¬": 4461, "ĠÕ«ÖĢÕ¡Õ¾Õ¸ÖĤÕ¶ÖĦÕ¨": 4462, "ĠÕ°Õ¡ÖĢÖģÕ¥ÖĢÕ¸Õ¾": 4463, "Õ¡ÖģÕ´Õ¡Õ¶Õ¨": 4464, "and": 4465, "Õ¡Õ¾Õ¸ÖĢÕ¾Õ¸ÖĤÕ´": 4466, "Õ¡ÖģÕ¶Õ¥Õ¬Õ¸Õ¾": 4467, "Õ·Õ¡Õ¯Õ¸ÖĤÕ©Õ¡ÕµÕ«Õ¶": 4468, "ĠÕªÕ¸Õ²Õ¸Õ¾Õ¸ÖĤÖĢÕ¤Õ¨": 4469, "--": 4470, "Õ¥Õ¬Õ¶": 4471, "Õ¾Õ¡ÖĢÕ¤": 4472, "Õ¸Õ¬Õ¸ÖĢÕ¿": 4473, "Õ¼Õ¸Õ´": 4474, "ĠÕ«ÖĢÕ¡Õ¯Õ¡Õ¶Õ¸ÖĤÕ´": 4475, "ĠÕ°Õ¡ÕµÕ¿Õ¡ÖĢÕ¡ÖĢÕ¥Öģ": 4476, "ĠÕºÕ¡Õ¿Õ¡Õ½ÕŃÕ¡Õ¶Õ¡Õ¿Õ¸ÖĤ": 4477, "Ġ09": 4478, "ĠÕ´Õ¬ÖĢÕ¤": 4479, "Õ¡Õ¶Õ·Õ¡Õ¶Õ¡Õ¯": 4480, "ist": 4481, "Ġc": 4482, "ÖĢÕ¡Õ¢": 4483, "Õ¡ÖģÕ¾Õ«": 4484, "ĠÕ¤Õ¡Õ¿Õ¡ÖĢÕ¡Õ¶Õ¨": 4485, "Ô±Õ¼Õ¡Õ»Õ«Õ¶": 4486, "Ġ<": 4487, "ÖĢÕ¶": 4488, "Õ¸Õ¬Õ¸Õ¾": 4489, "ÕİÕ«ÖĦÕ«ÕºÕ¥Õ¤": 4490, "ÕįÕ¿Õ¥Õ²Õ®Õ¥Õ¬": 4491, "Õ¡ÖĢÕ¶": 4492, "Õ¯Õ¸Õ¶": 4493, "ĠÕŃÕ¥Õ¬": 4494, "ĠÖĥÕ¡Õ©Õ¥Õ©": 4495, "Õ¡Õ¦Õ´Õ¡Õ¯Õ¥ÖĢÕº": 4496, "Õ¡ÖģÕ«Õ¡Õ¶": 4497, "ĠÕīÕ«Õ¶": 4498, "ĠÕ¡Õ´Õ¢Õ«Õ¸Õ¶": 4499, "ĠÕ¡Õ¶Õ¤Õ¡Õ´Õ¶Õ¥ÖĢÕ¨": 4500, "ĠÕ¶ÕºÕ¡Õ¿Õ¡Õ¯Õ¶": 4501, "ÕĵÕ¡Õ½Õ¿": 4502, "Õ¯ÖĢÕ¥Õ¿": 4503, "Õ¢Õ¥ÖĢÕ¸ÖĤÕ´Õ¶Õ¥ÖĢ": 4504, "ĠÔ±Õº": 4505, "ĠÖģÕ¡Õ®": 4506, "Õ¸Õ¼Õ¸ÖĤ": 4507, "ĠÕºÕ¡Õ¿Õ³Õ¡Õ¼Õ¨": 4508, "ĠÕ¯Õ¡Õ¿Õ¡ÖĢÕ´Õ¡Õ¶": 4509, "ĠÖĨÕ¥ÕµÕ½Õ¢Õ¸ÖĤÖĦÕµÕ¡Õ¶": 4510, "eg": 4511, "ĠÕ¤Õ«": 4512, "ĠÕ¡ÖĢÕ¿Õ¡Õ¤": 4513, "ĠÕ´Õ«Õ»Õ¸ÖģÕ¶Õ¥ÖĢ": 4514, "ĠÕ¹Õ¥Õ´ÕºÕ«Õ¸Õ¶": 4515, "ĠÕ¶Õ¥ÖĢÕ¯Õ¡ÕµÕ¡ÖģÕ¸ÖĤÖģÕ«Õ¹Õ¶Õ¥ÖĢÕ«": 4516, ",âĢĶ": 4517, "Õ¥ÖģÕ´Õ¡Õ¶": 4518, "ĠÕºÕ¡ÕµÕ©": 4519, "ĠÕ¢Õ¡ÖģÕ¡Õ¯Õ¡Õµ": 4520, "ĠÕĵÕ¡ÖĢ": 4521, "ĠÕ»Õ¸ÖĤÖĢ": 4522, "ĠÖħÕ£Õ¿Õ¡Õ¯Õ¡ÖĢ": 4523, "ĠÕºÕ¡Õ¿Õ¡Õ½ÕŃÕ¡Õ¶Õ¥Õ¬": 4524, "ĠÕ¬Õ¥Õ¦Õ¾": 4525, "ĠÕ¥Õ¶Õ©Õ¡ÖĢÕ¯Õ¾Õ¥Õ¬": 4526, "ul": 4527, "Õ¡Õ°Õ¥Õ²": 4528, "ĠÕ¸ÖĤÕ¿": 4529, "ĠÕ°Õ¡ÕµÕ¡Öģ": 4530, "ĠÔ²Õ¡Õ¶Õ¯": 4531, "ĠÖħÖĢÕ«Õ¶Õ¡Õ¯Õ¡Õ¶": 4532, "Õ¡ÖģÕ«Õ¡Õ¯Õ¡Õ¶": 4533, "ĠÕ¸ÖĢÕ¸Õ·Õ´Õ¡Õ´Õ¢": 4534, "ĠÕºÕ¡Õ°ÕºÕ¡Õ¶Õ´Õ¡Õ¶": 4535, "ĠÕ°ÖĢÕ¡Õ´Õ¡Õ¶Õ¡Õ¿Õ¡ÖĢ": 4536, "ĠÕ¡Õ¼Õ¶Õ¾Õ¡Õ¦Õ¶": 4537, "ĠÕºÕ¡ÖĢÕ£Öĩ": 4538, "Ġ+": 4539, "Õ¡Õ¯Õ¡Õ¶Õ¸Öģ": 4540, "Ô±Õ½": 4541, "ĠÕ¡Õ¶Õ¥Õ¬Õ¸ÖĤ": 4542, "Õ¡Õ·Õ¶Õ¸ÖĢÕ°": 4543, "ĠÕ¨Õ¶Õ©": 4544, "ĠÕ®Õ¥Õ®": 4545, "Õ«Õ·Õ«": 4546, "ĠÕ°Õ¡ÕµÕ¿Õ¡ÖĢÕ¡ÖĢÕ¸ÖĤÕ©ÕµÕ¸ÖĤÕ¶Õ¨": 4547, "ĠÕ©Õ¸ÖĤÕµÕ¬Õ¡Õ¿": 4548, "ĠÕ£Õ¡Õ²Õ¿Õ¶": 4549, "ĠÕ¤Õ«Õ¿Õ¡ÖĢÕ¯": 4550, "ĠÕ¡Õ¶Õ´Õ«Õ»Õ¡ÕºÕ¥Õ½": 4551, "ĠÕ°Õ¡Õ´Õ¡Õ¶": 4552, "ĠÕ¬Õ¡ÖĢÕ¾Õ¡Õ®": 4553, "Ô¿Õ¡Õ¶": 4554, "ĠÔµÕĲ": 4555, "Õ¸ÖĤÖģÕ´Õ¡Õ¶": 4556, "ĠÕ¿Õ¥Õ²Õ¨": 4557, "ĠÕºÕ¡Õ¿Õ¡Õ½ÕŃÕ¡Õ¶Õ¥Öģ": 4558, "ĠÕ¡Öĥ": 4559, "ĠÕ¢Õ»Õ»Õ¡ÕµÕ«Õ¶": 4560, "ĠÕ¸ÖĤÕ¶Õ¥ÖĢ": 4561, "ĠÕ¨Õ¶Õ¤Õ°Õ¡Õ¶ÖĢÕ¡ÕºÕ¥Õ½": 4562, "ÕĢÕ¡ÕµÕ¸Öģ": 4563, "Õ«Õ¦Õ¢": 4564, "Ġ60": 4565, "ÕĻ": 4566, "Õ¡Õ¿Õ¸ÖĤÖĢ": 4567, "ĠÔ±ÖĢÕ¡": 4568, "Õ¡Õ¼Õ¸ÖĤÕ©ÕµÕ¡Õ¶": 4569, "ĠÕ·Õ¸ÖĤÕ¯Õ¡Õµ": 4570, "ĠÕ°Õ¥Õ¿Õ¡Õ£Õ¡ÕµÕ¸ÖĤÕ´": 4571, "ĠÕ±Õ¡ÕŃ": 4572, "Õ¶Õ¡Õ¯Õ«": 4573, "ĠÕ¡Õ¶Õ°Õ¡Õ¿Õ¡Õ¯Õ¡Õ¶": 4574, "ĠÕ¯Õ¥Õ¶Õ¿ÖĢÕ¸Õ¶Õ¡Õ¯Õ¡Õ¶": 4575, "ĠÔµÖĢÕ¥ÖĤÕ¡Õ¶Õ«": 4576, "ĠÕ´Õ·Õ¿Õ¡ÕºÕ¥Õ½": 4577, "ĠÕ°Õ¡ÖĢÕ¸ÖĤÖģÕ¾Õ¥Õ¬": 4578, "ĠÕªÕ¡Õ´Õ¡Õ¶Õ¡Õ¯Õ¡Õ°Õ¡Õ¿Õ¾Õ¡Õ®Õ¸ÖĤÕ´": 4579, "48": 4580, "ĠÖĦÕ¡Õ¼": 4581, "âĢĭ": 4582, "ĠÕ¤ÖĢÕ¸ÖĤÕ©ÕµÕ¡Õ´Õ¢": 4583, "ĠÕªÕ¸Õ²Õ¸Õ¾ÖĢÕ¤Õ«Õ¶": 4584, "ĠÕ¢Õ¡Õ¶Õ¡Õ¯Õ«": 4585, "ĠÕ¨Õ¶Õ¯Õ¡Õ®": 4586, "âĢ¤âĢ¤âĢ¤": 4587, "Õļ": 4588, "ÖĢÕ¡ÕŃ": 4589, "ĠÕ«Õ»": 4590, "ĠÕ¢Õ¡ÖĢÕ«": 4591, "ĠÕ¬Õ«Öģ": 4592, "Õ¸ÖĤÕ½Õ¨": 4593, "ĠÕ½Õ¿Õ¡ÖģÕ¾Õ¥Õ¬": 4594, "ĠÕ°Õ¥Õ²Õ«Õ¶": 4595, "ĠÔ±Õ©Õ¸Õ¼": 4596, "Ġof": 4597, "ĠÔ±ÕĮ": 4598, "Õ¡Õ¼Õ¡ÕµÕ«Õ¶": 4599, "Õ°Õ¡Õµ": 4600, "ĠÕĵÔ²Ô¸": 4601, "ĠÕ¾Õ³Õ¼": 4602, "ĠÕĨÕ¸ÖĤÕµÕ¶": 4603, "ĠÕĪÕ½Õ¿Õ«Õ¯Õ¡Õ¶": 4604, "ĠÕ¯Õ¡Õ¶Õ¡ÕµÖĦ": 4605, "ĠÕŃÕ¶Õ¤ÖĢÕ¸ÖĤÕ´": 4606, "ĠÕĩÕ¡Õ°": 4607, "ĠÕ¢Õ¡ÖĢÕ±ÖĢÕ¡Õ£Õ¸ÖĤÕµÕ¶": 4608, "ĠÖħÕºÕ¥ÖĢÕ¡Õ¿Õ«Õ¾": 4609, "Õ¡ÖĢÕ¡Õ¿Õ«": 4610, "Õ¡Õ¾Õ¡Õ¿": 4611, "ĠÕ±Õ£Õ¿": 4612, "ĠÖħÖĢÕ¡Õ©Õ¥ÖĢÕ©": 4613, "ÕºÖĢÕ¸Öģ": 4614, "ĠÕ¾Õ«Õ³Õ¡Õ¯Õ¸ÖĤÕ´": 4615, "ĠNews": 4616, "Õ¡Õ´Õ¥Õ¶Õ¡ÕµÕ¶": 4617, "ĠÕįÕĬÔ¸": 4618, "ost": 4619, "Õ¸ÖĤÕ¹": 4620, "Õ¡ÖģÕ«Õ¡": 4621, "ĠÕ¡Õ·ÕŃÕ¡Õ¿Õ¡Õ¶ÖĦÕ¶Õ¥ÖĢ": 4622, "ĠÕ¨Õ¶Õ¤Õ¸ÖĤÕ¶Õ¸ÖĤÕ´": 4623, "ĠÕ½Õ¯Õ½Õ¡Õ®": 4624, "ĠÔ±ÖĢÕ¡Õ¢": 4625, "ĠÖĥÕ¸ÖĤÕ¬Õ¸ÖĤÕ´": 4626, "ĠÕ¡Õ¯Õ¶Õ°Õ¡ÕµÕ¿": 4627, "ĠÕ½Õ¡ÖĢ": 4628, "ĠÕ¡ÕºÕ¡ÖģÕ¸ÖĤÖģ": 4629, "2015": 4630, "ĠÕ´Õ¿Õ¡Õ®Õ¸ÖĤÕ´": 4631, "ĠÕ£Õ¸ÖĢÕ®Õ¡Õ¯Õ¡Õ¬Õ¸ÖĤÕ©ÕµÕ¸ÖĤÕ¶": 4632, "ĠÕ¿Õ¥ÖĢ": 4633, "ĠÕ¸ÖĤÕ²Õ¥Õ¯Öģ": 4634, "Õ¡Õ³Õ¡ÕŃ": 4635, "ÖĢÕµÕ¡Õ¬": 4636, "ĠÕ¶Õ¾Õ¡Õ³": 4637, "ĠÕ¾Õ«Õ³Õ¡Õ¯Õ¨": 4638, "ĠÔ³ÖĢÕ«Õ£Õ¸ÖĢ": 4639, "ĠÕ©Õ¥Õ¯Õ¶Õ¡Õ®Õ¸ÖĤÕ¶": 4640, "ÔµÖĢÕ¥Õ¯": 4641, "ĠÔ¼ÕĤÕĢ": 4642, "ĠÕ¡ÕºÖħÖĢÕ«Õ¶Õ«": 4643, "ĠÕ´Õ¸ÖĤÕ¿": 4644, "ĠÕ¶Õ¡Õµ": 4645, "Õ¸ÖĤÕ²Õ©": 4646, "Õ¥ÕµÕ¶": 4647, "ĠÕ°Õ¡ÕµÕ¿Õ¶Õ¥Öģ": 4648, "Õ¡Õ½Õ«ÖĢÕ¡Õ¯Õ¡Õ¶": 4649, "ĠÕĦÕ«ÖĦÕ¡ÕµÕ¥Õ¬": 4650, "news": 4651, "Õ«Õ°": 4652, "ĠÕ¯Õ¸ÖĤÕ¿": 4653, "ÕİÕ¥ÖĢ": 4654, "ĠÕ¡Õ¶ÖģÕµÕ¡Õ¬": 4655, "ĠÕ«Õ½Õ¯Õ¡ÕºÕ¥Õ½": 4656, "ĠÕ½Õ¡Õ°Õ´Õ¡Õ¶Õ¡Õ¤ÖĢÕ¡Õ¯Õ¡Õ¶": 4657, "ĠÕ¾Õ¥ÖĢÕ»Õ¶Õ¡Õ¯Õ¡Õ¶": 4658, "ĠÕ°Õ¥Õ¼Õ¸ÖĤ": 4659, "ĠÕ°Õ¸ÖĤÕ·Õ¡ÖĢÕ±": 4660, "Õ¡Õ´Õ«": 4661, "Õ¡Õ´Öĥ": 4662, "ĠÕ¯Õ¼": 4663, "Õ¡Õ½Õ¡Öģ": 4664, "ĠÕ¿Õ¡Õ¼": 4665, "ĠÕ½Öĩ": 4666, "ĠÕĦÕ¡Õ½": 4667, "ĠÕĦÕ¡Õ½Õ¶": 4668, "ĠÔ¹Õ¸ÖĤÕ´": 4669, "ÖĨÕ¸ÖĢÕ´": 4670, "Õ¸ÖĤÕµÕ©Õ¶Õ¥ÖĢÕ«": 4671, "ĠÕ¹Õ§Õ«Õ¶": 4672, "ĠÕ¸ÖĤÕªÕ¥ÖĢÕ¨": 4673, "ĠÕ¦Õ¡ÖĢÕ£Õ¡Öģ": 4674, "ĠÕ¦Õ£Õ¡Õ¬Õ«": 4675, "ĠÖĦÕ¡ÖĢÕ¿Õ¥Õ¦": 4676, "ĠÕºÕ¡Õº": 4677, "Ô±Õ½Õ¿": 4678, "ĠÕĪÕ¹": 4679, "Õ¡Õ·ÖĢÕ»Õ¡Õ¶": 4680, "ĠÕ¡ÕºÕ¡Õ°Õ¸Õ¾Õ¥Õ¬": 4681, "ĠÕ¯Õ¸Õ¶ÖĨ": 4682, "ĠÕ¯Õ¸Õ¶Õ¯ÖĢÕ¥Õ¿": 4683, "54": 4684, "ĠÕ¯Õ¥ÖĢ": 4685, "Õ½Õ¡Õ¶": 4686, "ĠÕ¹Õ¥Õ½": 4687, "ĠÖħÕª": 4688, "Ô»ÖĢÕ¡Õ¾": 4689, "Ġ(Â«": 4690, "Õ«Õ¬Õ«Õ½": 4691, "ĠÕĶÕ¡Õ²Õ¡ÖĦ": 4692, "ĠÖĥÕ¸ÕŃÕ¥Õ¬": 4693, "Õ¥Õ£Õ«Õ¶": 4694, "ĠÔ³ÖĢÕ«Õ£Õ¸ÖĢÕµÕ¡Õ¶Õ¨": 4695, "ĠÕ¥ÖĢÕ¡ÕªÕ·Õ¿Õ¡Õ¯Õ¡Õ¶": 4696, "ĠÕĶÕ¸Õ¹Õ¡ÖĢÕµÕ¡Õ¶Õ«": 4697, "Õ¥ÖĢÕ¥Õ¯Õ¡ÕµÕ«Õ¶": 4698, "Õ¡Õ³ÕµÕ¸ÖĤÕ²": 4699, "Õ¡Õ¢Õ¥ÖĢÕ¸Õ²": 4700, "Ô±ÕıÕķ": 4701, "ĠÕ¦Õ£Õ¸ÖĤÕ´": 4702, "ĠÔ±Õ¤ÖĢÕ¢Õ¥Õ»Õ¡Õ¶Õ¨": 4703, "ĠÔ±Õ¼Õ¡ÖĦÕ¥Õ¬": 4704, "ĠÕ¡Õ´Õ½Õ¾Õ¡": 4705, "ĠÕ¦Õ¥Õ¯Õ¸ÖĤÕµÖģ": 4706, "ĠÕ½Õ¥Õ¶ÕµÕ¡Õ¯Õ¡Õ¶Õ¸Öģ": 4707, "Õ¡Õ´Õ¡Õ½Õ¶": 4708, "ĠÕ«Õ½": 4709, "Õ¡Õ¾Õ¸ÖĢÕ¸ÖĤÕ©ÕµÕ¡Õ¶": 4710, "ĠÕºÕ¡Õ¿Õ·": 4711, "âĢİ": 4712, "ĠÕ´Õ¥Õ¯Õ¶Õ¥Õ¬": 4713, "ĠÕ´Õ¿Õ¶Õ¸ÖĤÕ´": 4714, "ĠÕ¯Õ¡Õ¦Õ´Õ¡Õ¯Õ¥ÖĢÕºÕ¥Õ¬": 4715, "ĠÕ«ÖĢÕ¡Õ¯Õ¡Õ¶Õ¡ÖģÕ¶Õ¸Õ²": 4716, "ĠÕĵÕ¡Õ·Õ«Õ¶ÕµÕ¡Õ¶": 4717, "Õ¡Õ¨Õ¶Õ¯Õ¥ÖĢ": 4718, "ĠÕ¯Õ¸Õ¿": 4719, "ĠÕ¬Õ¼": 4720, "Õ¸ÖĤÕµÕ£": 4721, "ĠÕ¡Õ¼Õ¡Õ»Õ«Õ¯Õ¡": 4722, "ĠÕŃÕ¸ÖĢÕ°ÖĢÕ¤Õ¡ÖĢÕ¡Õ¶Õ«": 4723, "ĠÕ£ÕµÕ¸ÖĤÕ²Õ¸ÖĤÕ´": 4724, "ĠÕĢÕ«Õ´Õ¡": 4725, "Õ¶Õ¥Õ´": 4726, "Õ¸ÖĤÕ¶Õ¹": 4727, "ĠÕ£Õ¥Õ¿": 4728, "ĠÕĢÔ±ÕĬÔ¿": 4729, "ĠÕ¾Õ¡Õ¾Õ¥ÖĢ": 4730, "ĠÕ°Õ¡ÖĢÖģÕ¥ÖĢÕ¨": 4731, "ĠÕ°ÖĢÕ¡ÕºÕ¡ÖĢÕ¡Õ¯Õ¸ÖĤÕ´": 4732, "ĠCom": 4733, "Õ«Õ¶Õ£Õ«": 4734, "ĠÕ¡Õ°Õ¡": 4735, "ĠÔ±Õ·ÕŃÕ¡ÖĢÕ°": 4736, "ĠÔ¿Õ¥Õ¶Õ¿ÖĢÕ¸Õ¶Õ¡Õ¯Õ¡Õ¶": 4737, "Ô¿Õ¡Õ¿Õ¥Õ£Õ¸ÖĢÕ«Õ¡": 4738, "Õ¸ÖĤÕ¡Õ´Õ¥Õ¶Õ¡ÕµÕ¶": 4739, "ĠÕ¯Õ¸Õ²Õ´Õ¨": 4740, "Ô±ÕĲÔ³": 4741, "ĠÔ¹Õ¸ÖĤÖĢÖĦÕ«Õ¡Õ¶": 4742, "ĠÕ¶Õ¯Õ¡ÖĢÕ¡Õ°Õ¡Õ¶": 4743, "ĠÕ¡ÖĢÕ¤Õ¡ÖĢÕ¡Õ¤Õ¡Õ¿Õ¸ÖĤÕ©ÕµÕ¡Õ¶": 4744, "ĠÕ¢Õ¸Õ¾Õ¡Õ¶Õ¤Õ¡Õ¯Õ¸ÖĤÕ©ÕµÕ¡Õ¶": 4745, "ĠÕ¢Õ¡ÖĢÕ¥Õ¬Õ¡Õ¾": 4746, "ĠÕ¿Õ¡ÖĢÕ¥Õ¬": 4747, "ĠÕ¶Õ¥ÖĢÕ´": 4748, "ĠÕĩÕ¾": 4749, "ĠÖĦÕ¡Õ²Õ¡ÖĦÕ¡ÕºÕ¥Õ¿Õ«": 4750, "ĠÕ¥Õ²Õ¢Õ¡ÕµÖĢ": 4751, "ĠÕ°Õ¸ÖĤÕ½": 4752, "Õ¸Õ¶Õ«Õ¶": 4753, "ÖĢÕ¾Õ¥Öģ": 4754, "Õ¶Õ¶Õ¡": 4755, "ĠÕķÕ½": 4756, "ĠÕ»ÖĢÕ«": 4757, "ĠÕ°Õ¡Õ¶ÖĢÕ¸ÖĤÕ©ÕµÕ¡Õ¶": 4758, "Õ£Õ¶Õ¡ÕªÕ¡Õ´": 4759, "Õ¸ÖĤÖĢÖĦÕ¡Õ¯Õ¡Õ¶": 4760, "ĠÕºÕ¬Õ¡Õ¶": 4761, "Õ¨Õ¶Õ¿ÖĢÕ¡Õ¶ÖĦ": 4762, "Õ¸ÖĤÕ¡Õ´Õ¥Õ¶Õ¡ÕµÕ¶Õ«Õ¾": 4763, "Õ«ÕºÕ¿": 4764, "ĠÕ¥ÖĢÕ¢Õ¥Õ´Õ¶": 4765, "ĠÕ¡Õ°Õ¡Õ¦Õ¡Õ¶Õ£": 4766, "ĠÕ¾Õ¶Õ¡Õ½Õ¾Õ¡Õ®ÖĦ": 4767, "Õ¡Õ°Õ¡Õ´Õ¡Õ¬Õ«ÖĢ": 4768, "ĠÕĢÕ¡ÕµÖĢÕ¡ÕºÕ¥Õ¿": 4769, "Õ©Õ¶Õ¸Õ¬Õ¸ÖĢÕ¿": 4770, "39": 4771, "Õ¡Õ¯Õ«ÖĢ": 4772, "Õ¸ÖĤÕ¶Õ¨": 4773, "Õ¡Õ½ÕµÕ¡Õ¶Õ¨": 4774, "Õ¸ÖĢÕ¸Õ¶": 4775, "ĠÕ¤Õ«ÖĢ": 4776, "ĠÕ¤Õ¡Õ°Õ¬Õ«Õ³": 4777, "ĠÔ±Õ°": 4778, "ĠÕįÕµÕ¸ÖĤÕ¶": 4779, "Õ¡ÖĢÕ¯Õ¡ÕµÕ«Õ¶": 4780, "ĠÕ´Õ«Õ¡Õ¶Õ£Õ¡Õ´": 4781, "Õ¡Õ·ÖĢÕ»Õ¡Õ¶Õ«": 4782, "ĠÕ¬Õ¥Õ¦Õ¾Õ«": 4783, "Õ¡Õ°Õ¡ÕµÕ¯Õ¡Õ¯Õ¡Õ¶": 4784, "ĠÔ±Õ¬Õ¥ÖĦÕ½Õ¡Õ¶Õ¤ÖĢ": 4785, "ĠÔ·Õ»Õ´Õ«Õ¡Õ®Õ¶Õ«": 4786, "ÕıÕ¥Õ²Õ¥Õ¯": 4787, "46": 4788, "ow": 4789, "Õ¸ÖĤÖĢÕ": 4790, "ĠÕ¡Õ¶Õº": 4791, "ĠÕºÕ¡ÕµÕ´Õ¡Õ¶Õ¡Õ£Õ«ÖĢ": 4792, "Õ¡ÖģÕ«Õ¶Õ¥ÖĢÕ«": 4793, "ĠÕ«Õ·ÕŃÕ¡Õ¶Õ¸ÖĤÕ©ÕµÕ¸ÖĤÕ¶Õ¨": 4794, "ĠÕ¡Õ»Õ¡Õ¯ÖģÕ¸ÖĤÕ©ÕµÕ¡Õ¶": 4795, "Õ¥ÖĢÕ±Õ¡Õ¾Õ¸ÖĢ": 4796, "Ô±ÖĢÕ´Õ¥Õ¶ÕºÖĢÕ¥Õ½": 4797, "ĠÕ¶Õ¡Õ´Õ¡Õ¯": 4798, "Õ«Õ¶Õ½": 4799, "Õ¡Õ½Õ¥ÖĢ": 4800, "Õ¡Õ®Õ«Õ¶": 4801, "Õ¡ÕŃÕ¸ÖĤÕ¦": 4802, "ĠÕ¦Õ¡Õ¾": 4803, "ÕįÕ¥ÖĢÕª": 4804, "ĠÕºÕ¥Õ¿Õ¸ÖĤÕ©ÕµÕ¸ÖĤÕ¶Õ¶Õ¥ÖĢÕ«": 4805, "ÕºÕ¡Õ¶Õ¡Õ¯Õ¡Õ¶": 4806, "ĠÕºÕ¡Õ°Õ¥Õ¬": 4807, "Ô¸Õ¶": 4808, "ĠÕ½Õ¿Õ¥Õ²Õ®Õ¾Õ¥Õ¬": 4809, "ĠÕ´Õ¡ÖĢÕ¿Õ¡Õ¯Õ¡Õ¶": 4810, "ĠÔ±Ô³ÕĨ": 4811, "ĠÕºÕ¶Õ¤Õ¸ÖĤÕ´": 4812, "57": 4813, "ĠÕ´Õ¡Õ¿Õ¡Õ¯": 4814, "Õ¡Õ´Õ©Õ¥ÖĢ": 4815, "ĠÕ¢Õ¼": 4816, "ĠÕ¡Õ¼Õ¯Õ¡Õµ": 4817, "Õ²Õ»": 4818, "Õ¡Õ»Õ¸Õ²": 4819, "ĠÕĪÕĲ": 4820, "ĠÕ¡Õ¶Õ°Õ¡Õ¿": 4821, "ĠÕ¶Õ·Õ¡Õ¶Õ¡Õ¯Õ¾Õ¥Õ¬": 4822, "56": 4823, "ĠÕ¡Õ£": 4824, "Õ´Õ¡Õ¶Õ¤Õ¡Õ´": 4825, "ĠÕ°Õ¡ÕµÕ¡Õ½Õ¿Õ¡Õ¶ÕµÕ¡Õ¶": 4826, "ĠÕĢÕ¡ÕµÕ¡Õ½Õ¿Õ¡Õ¶Õ«Õ¶": 4827, "ĠÖħÖĢÕ¶": 4828, "ĠâĢ¢": 4829, "ĠÕ£Õ«Õ¿Õ¡Õ¯Öģ": 4830, "ĠÕįÕ¡ÖĢÕ£Õ½ÕµÕ¡Õ¶Õ«Õ¶": 4831, "Õ¥ÖĢÕ£Õ¥Õµ": 4832, "ĠÕ·Õ¡ÖĢÕ¸ÖĤÕ¶Õ¡Õ¯Õ¾Õ¸ÖĤÕ´": 4833, "Õ¡Õ¶Õ¹Õ¥Õ½Õ©Õ¥ÖĢ": 4834, "Õ¥Õ¿Õ¥ÖĤ": 4835, "ÕĪÕ¹": 4836, "Õ¡Õ¶Õ¡Õ¬Õ¸Õ¾": 4837, "Ġ2009": 4838, "ĠÕ¡Õ¶Õ¥Õ¬Õ«Õ½": 4839, "ĠÕ¡ÖĢÕ£Õ¥Õ¬Õ¾Õ¸ÖĤÕ´": 4840, "ĠÖħÕ¤Õ¡Õ¶Õ¡Õ¾": 4841, "ĠÕ¾Õ¥ÖĢÕ¡Õ¯Õ¡Õ¶Õ£": 4842, "ĠÖĦÕ¡Õ²Öģ": 4843, "ĠÕ´Õ«Õ´ÕµÕ¡Õ¶Öģ": 4844, "49": 4845, "Ġ000": 4846, "Õ¶Õ¡ÕŃÕ¡Õ£Õ¡Õ°": 4847, "Õ¡Õ¯Õ¸Õ¹": 4848, "Õ«Õ¶Õ¡": 4849, "ĠÕ¯Öģ": 4850, "Õ¯Õ½": 4851, "Õ¡Õ·Õ¡Õ¼": 4852, "ĠÕ¦ÖĢÕ¯": 4853, "ĠÔµÕĨ": 4854, "ĠÔ±ÕµÕ½Õ¿Õ¥Õ²": 4855, "Õ¡ÕŃÕ¡Õ£Õ®": 4856, "ĠÕ¤ÖĢÕ½ÖĩÕ¸ÖĢ": 4857, "Õ¶Õ¡Õ¾": 4858, "ĠÕºÕ¿": 4859, "Õ¡Õ¢Õ¡Õ·ÕŃ": 4860, "ÖĢÕ¡Õ´Õ¡Õ½Õ¶": 4861, "Õ¸ÖĤÕµÕ©Õ¶Õ¥ÖĢÕ¨": 4862, "ĠÕķÕĲ": 4863, "ÕĩÕ¡Õ¿": 4864, "ĠÕ²Õ¥Õ¯Õ¡Õ¾Õ¡ÖĢÕ¨": 4865, "ĠÕ¹Õ¡ÖĥÕ¡Õ¦Õ¡Õ¶Öģ": 4866, "Õ¸ÖĢÕ©": 4867, "ĠÕ¢Õ¡Õ²Õ¡Õ¤ÖĢ": 4868, "ĠÕ¾Õ¥ÖĢÕ¡Õ¶Õ¸ÖĢÕ¸Õ£": 4869, "47": 4870, "âĸ": 4871, "ĠÕĢÔ±ÕĲ": 4872, "Ô»Õİ": 4873, "ĠÕ£ÖĢÕ¡Õ¼": 4874, "Ô±ÕĲÔ±ÕĲ": 4875, "ĠÕ¦Õ¸Õ°Õ¥ÖĢÕ«": 4876, "ÕįÕĢÕĦ": 4877, "ĠÔ¿Õ¡Õ©Õ¸Õ²Õ«Õ¯": 4878, "ĠÕ¿Öĩ": 4879, "Õ¡ÖĢÕ¤ÕµÕ¸ÖĤÕ¶": 4880, "ÕĦÔ»": 4881, "Õ«Õ¬Õ«Õ¡ÖĢÕ¤": 4882, "ĠÕ©Õ«Õ´Õ«": 4883, "ĠÕ´Õ¡Õ¶ÖĢÕ¡Õ´Õ¡Õ½Õ¶": 4884, "ĠÕ¡Õ¶Õ¨Õ¶Õ¤Õ°Õ¡Õ¿": 4885, "Ô±Õ¶Õ±Õ¶Õ¡Õ¯Õ¡Õ¶": 4886, "Õ¡Õ¿Õ¸ÖĤÕ´": 4887, "Õ¤Õ¡Õ½": 4888, "ĠÕŃÕ¡Õ¶Õ¸ÖĤÕ©": 4889, "ĠÕ¼Õ«Õ½Õ¯": 4890, "ĠÕ®Õ¡Õ¼Õ¡ÕµÕ¸ÖĤÕ©ÕµÕ¸ÖĤÕ¶Õ¨": 4891, "Õ¥Õ¤Õ¥ÖĢ": 4892, "ĠÕ¯Õ¡ÖĢÕ®Õ«ÖĦÕ¨": 4893, "ĠÕ¿Õ¾ÕµÕ¡Õ¬Õ¶Õ¥ÖĢÕ¨": 4894, "ĠÕ¸ÖĢÕ¤Õ«Õ¶": 4895, "ĠÕ¯Õ¡Õ¶Õ£Õ¶Õ¡Õ®": 4896, "ĠÔ±ÖĢÕ´Õ¡Õ¾Õ«ÖĢ": 4897, "ĠÔ±Õ¾Õ¥Õ¿Õ«Õ½": 4898, "ĠÕ£Õ¸Õ¶Õ¥": 4899, "Õ¡Õ²Õ¿Õ¶Õ«": 4900, "ÖĢÕ¡Õ¶ÖĦÕ¨": 4901, "ĠÕ·ÖĢÕ»Õ¡ÕºÕ¡Õ¿": 4902, "ĠÕ¨Õ¶Õ¿ÖĢÕ¥Õ¬": 4903, "ĠÔ±ÕµÕ½Õ«Õ¶ÖĦÕ¶": 4904, "ĠÕ°Õ¡ÕµÕ¿Õ¡ÖĢÕ¡ÖĢÕ¸ÖĤÕ©ÕµÕ¸ÖĤÕ¶": 4905, "art": 4906, "ĠÕ¿Õ¾ÕµÕ¡Õ¬Õ¶Õ¥ÖĢÕ¸Õ¾": 4907, "ĠÔ±Õ¼Õ¡Õ»": 4908, "ff": 4909, "Õ¥ÖĢÕ¡Õ¶": 4910, "ĠÕ°ÖĢÕ¤Õ¥Õ°": 4911, "Õ¥Õ¶Õ£": 4912, "Õ¡Õ£Õ¸ÖĤÕ´": 4913, "ĠÕ¡Õ¶Õ¢": 4914, "Õ§Õ¶": 4915, "ĠÕ«ÖĢÕ¡Õ¾Õ¡Õ¢Õ¡Õ¶Õ¡Õ¯Õ¡Õ¶": 4916, "ĠÕ¡ÖĢÕ¿Õ¡Õ½": 4917, "ĠÕ¡ÖĢÕ¿Õ¡Õ¤ÖĢ": 4918, "Õ¡ÕºÕ¡Õ°Õ¡Õ¯Õ¡Õ¶": 4919, "ĠÕ¶Õ«Õ½Õ¿Õ«": 4920, "ĠÕ¶Õ¡ÕŃÕ¯Õ«Õ¶Õ¸ÖĤÕ´": 4921, "ĠÕ¯Õ¿Õ¡": 4922, "ĠÕ¡ÖĢÕ±Õ¡Õ¶Õ¡Õ£ÖĢ": 4923, "ÐµÐ": 4924, "ĠÕ¿ÕºÕ¡Õ¾Õ¸ÖĢ": 4925, "Õ¶Õ¥ÖĢÕ½": 4926, "ĠÕ´Õ©Õ¶Õ¸Õ¬Õ¸ÖĢÕ¿": 4927, "ĠÕ¢Õ¡Õ¬": 4928, "ĠÕ°Õ¡Õ´Õ¡ÕªÕ¸Õ²Õ¸Õ¾": 4929, "ĠÖĥÕ¸ÕŃÕ¡Õ¶Õ¡Õ¯": 4930, "ĠÕ¸ÖĤÕ¶Õ¥Õ¶Õ¡": 4931, "ĠÕ°Õ¡Õ·Õ¾Õ¸Õ¾": 4932, "ĠÖĦÕ¡ÕµÕ¬Õ¨": 4933, "ĠÕºÕ¸Õ²Õ¸Õ¿": 4934, "ÖĢÕ«ÕŃ": 4935, "ĠÕ´Õ¡Õ¶ÖĢ": 4936, "ĠÕ¯Öĥ": 4937, "Õ¤Õ«": 4938, "ĠÕŃÕ©": 4939, "ĠÕºÕ¡Õ·Õ¿Õ¸Õ¶Õ¸ÖĤÕ´": 4940, "ĠÕ´Õ¡Õ½Õ¶Õ¡Õ¯ÖģÕ¸ÖĤÕ©ÕµÕ¡Õ´Õ¢": 4941, "ĠÖĥÕ¡Õ½Õ¿Õ¡Õ¢Õ¡Õ¶": 4942, "ĠÔºÕ¸Õ²Õ¸Õ¾": 4943, "Õ¡Õ¬Õ¢Õ¡Õ¶Õ¤": 4944, "ĠÕ¶Õ¥ÖĢÕ´Õ¸ÖĤÕ®": 4945, "ÖĢÕ¸": 4946, "Õ¡Õ½ÕµÕ¡Õ¶": 4947, "Õ¡Õ¾Õ¡Õ³": 4948, "Õ¥Õ½Õ¨": 4949, "ĠÕ¹Õ¯Õ¡Õ¶": 4950, "ĠÕĦÕ«Õ»": 4951, "Õ¸ÖĤÕ½Õ¡Õ¯Õ¡Õ¶": 4952, "ĠÔ¸ÕĨ": 4953, "ĠÕ¥ÖĢÕ«Õ¿Õ¡Õ½Õ¡ÖĢÕ¤Õ¡Õ¯Õ¡Õ¶": 4954, "ĠÕ£Õ¸ÖĤÕ´Õ¡ÖĢÕ¨": 4955, "ĠÕ§Õ¬Õ¥Õ¯Õ¿ÖĢ": 4956, "ĠÕŃÕ¸ÖĤÕ´Õ¢Õ¨": 4957, "ĠÕ¥Õ¦ÖĢÕ¡Õ¯Õ¡Öģ": 4958, "Õ«Õ½Õ¿ÖĢ": 4959, "ĠÕ£Õ¸ÖĢÕ®Õ¶Õ¡Õ¯Õ¡Õ¶": 4960, "Õ¡ÕºÕ¥Õ¿Õ¸ÖĤÕ©ÕµÕ¡Õ¶": 4961, "ÖħÕ£Õ¶": 4962, "Õ¡Õ¿Õ¡ÖĢÕ¡Õ®": 4963, "ĠÖħÕ£Õ¶Õ¥Õ¬": 4964, "ĠÕ°Õ¡Õ¿Õ¯Õ¡Õ¶": 4965, "ĠÕ³Õ¡Õ¶Õ¡ÕºÕ¡ÖĢÕ°Õ¨": 4966, "ĠÕ¬Õ¸ÖĤÕ®Õ¸ÖĤÕ´": 4967, "ĠFacebook": 4968, "ĠÕ¡ÖĢÕ¿Õ¡Õ½Õ¡Õ¶Õ¥Õ¬": 4969, "ĠÕ°Õ¡Öģ": 4970, "ĠÕ½Õ¡Õ¯": 4971, "Õ¡Õ¤ÖĢÕ¾Õ¸ÖĤÕ´": 4972, "Õ¡Õ¢Õ¶Õ¡Õ¯": 4973, "Õ«Õ¬Õ´": 4974, "ĠÕ´Õ¡Õ½Õ¶Õ¡Õ³ÕµÕ¸ÖĤÕ²": 4975, "ĠÕ°Õ¡Õ´Õ¡Õ¯Õ¡ÖĢÕ£Õ¸ÖĤÕ´": 4976, "ĠÕ°Õ¡ÖĢÕ¯Õ¡Õ¾Õ¸ÖĢ": 4977, "ĠÕºÕ¡ÖĢÕ¡Õ£Õ¡ÕµÕ¸ÖĤÕ´": 4978, "Õ¡Õ°Õ¡ÖĢÕ¥Õ¬": 4979, "ĠÕ´Õ¿Õ¡Õ®Õ¥Õ¬": 4980, "ĠÕ¡Õ¶Õ¤ÖĢÕ¡Õ¤Õ¡ÖĢÕ±Õ¥Õ¬": 4981, "Õ¬Õ«Õ´ÕºÕ«Õ¡Õ¯Õ¡Õ¶": 4982, "ĠÕ¾Õ¡Õ½Õ¿Õ¡Õ¯": 4983, "Õ¥Õ¡Õ¯Õ¡Õ¶": 4984, "ĠÕ£Õ¥Õ¶Õ¥ÖĢ": 4985, "Õ¬Õ¡Õ¾": 4986, "ÕŃÕ¿": 4987, "ÕĦÕ¡Õ¶Õ¹Õ¥Õ½Õ©Õ¥ÖĢ": 4988, "ĠÕ¥Õ²Õ¡Õ®": 4989, "ĠÔ¶Ô¼ÕĦ": 4990, "ĠÕ¥ÖĢÕ¥ÕŃÕ¡": 4991, "Õ¡ÖĦÖĢÖĦÕ«ÖĢ": 4992, "ĠÕ¡Õ¼Õ¡Õ¾Õ¥Õ¬Õ¡Õ£Õ¸ÖĤÕµÕ¶": 4993, "Õ¸ÖĤÕ¾": 4994, "ĠÕ¿Õ¡Õ²": 4995, "ĠÕ´Õ«Õ¡ÕªÕ¡Õ´Õ¡Õ¶Õ¡Õ¯": 4996, "Õ¡ÖĢÕ¡ÖĢÕ¸ÖĤÕ©ÕµÕ¡Õ¶": 4997, "Õ¸ÕµÕ¡Õ¶Õ«": 4998, "ĠÕ¶Õ¥ÖĢÕ¯Õ¡ÕµÕ¡ÖģÕ¶Õ¥Õ¬Õ¸ÖĤ": 4999, "ĠÕ¡Õ´Õ¥Õ¶Õ¡Õ´": 5000, "ĠÕŃÕ¸Õ½Õ¶Õ¡Õ¯": 5001, "ĠÕ¨Õ¶Õ¿ÖĢÕ¸ÖĤÕ©ÕµÕ¡Õ¶": 5002, "ĠÕ¤Õ¡Õ½Õ¡ÕŃÕ¸Õ½": 5003, "ĠÖĥÕ¸ÖĥÕ¸ÕŃÕ¸ÖĤÕ©ÕµÕ¸ÖĤÕ¶Õ¶Õ¥ÖĢÕ«": 5004, "ÕĨÕ·Õ¥Õ¶ÖĦ": 5005, "per": 5006, "Õ¤Õ¥Õ¼": 5007, "Õ¹Õ¸ÖĤÕ©ÕµÕ¸ÖĤÕ¶Õ¨": 5008, "ĠÖħÕ¶Õ¬Õ¡ÕµÕ¶": 5009, "ĠÕ°Õ¡ÕµÖģ": 5010, "ĠÕĨÖĢÕ¡Õ¶Öģ": 5011, "Õ«Õ¹Õ«": 5012, "ĠÕ´Õ¥Õ¯Õ¸ÖĤÕ´": 5013, "Ô¼Õ¡Õ¾": 5014, "Ġ35": 5015, "ĠÕ«ÖĢÕ¡Õ¯Õ¡Õ¶Õ¡ÖģÕ¾Õ¸Õ²": 5016, "ÕĩÕ¶Õ¸ÖĢÕ°": 5017, "Õ¡ÖĢÕ¡Õ¶Õ«Öģ": 5018, "ĠÕ½Õ«ÖĢÕ¥Õ¬Õ«": 5019, "ĠÕ£Õ¿Õ¶Õ¸ÖĤÕ´": 5020, "Õ¡ÖĤÕ¸ÖĢ": 5021, "ĠÕ¡ÖĢÕ°Õ¥Õ½Õ¿": 5022, "Õ«Õ½Õ¨": 5023, "ĠÕ®Õ¸Õ¾": 5024, "ĠÕ£Õ¸ÖĢÕ®Õ¡Õ¤Õ«ÖĢ": 5025, "Õ¡Õ¯ÖģÕ¡Õ¯Õ¡Õ¶": 5026, "ĠÕ¾Õ¥ÖĢÕ¡Õ¢Õ¥ÖĢÕ¸Õ²": 5027, "ĠÕ¿Õ¥Õ²Õ¥Õ¯Õ¸ÖĤÕ©ÕµÕ¸ÖĤÕ¶Õ¶Õ¥ÖĢ": 5028, "Õ¿Õ¥Õ´Õ¢Õ¥ÖĢÕ«Õ¶": 5029, "ĠÕªÕ¸Õ²Õ¸Õ¾ÖĢÕ¤Õ¡Õ¯Õ¡Õ¶": 5030, "ĠÕ£Õ®Õ¸Õ¾": 5031, "44": 5032, "ĠÕ¶ÖĢÕ¡Õ¶Õ«Öģ": 5033, "Õ¥Õ²Õ«": 5034, "ÕĢÕ¡Õ¶Õ¤Õ«Õº": 5035, "ÕĢÕ¡Õ½ÖģÕ¥": 5036, "ĠÕŃÕ¸Õ°": 5037, "ÕįÕı": 5038, "ÕºÖĢÕ«Õ¬Õ«": 5039, "Õ«Õ©Õ«": 5040, "ĠÕ°Õ¡ÕµÕ¿Õ¡ÖĢÕ¡ÖĢÕ¸ÖĤÕ´": 5041, "ĠÕ¬Õ¸ÖĤÕ®Õ´Õ¡Õ¶": 5042, "ĠÕ·Õ¿Õ¡Õº": 5043, "ĠÕ´Õ¡ÖĦÕ½Õ¡ÕµÕ«Õ¶": 5044, "Õ¶Õ«Õ¶": 5045, "Õ¡Õ¶Õ«Õ¡": 5046, "Õ«Õ½Õ¸ÖĢ": 5047, "ÕĪÕĴÔ¼": 5048, "ĠÕŃÕ´Õ¢Õ¡Õ£ÖĢÕ¸ÖĤÕ©ÕµÕ¡Õ¶": 5049, "ĠÕ¤Õ¡ÖĢÕ±Õ¶Õ¥Õ¬": 5050, "ĠÕ¶Õ«Õ½Õ¿Õ¸ÖĤÕ´": 5051, "ĠÖĨÕ«Õ¬Õ´Õ«": 5052, "Õ«Õ¡ÕµÕ«Öģ": 5053, "Õ£Õ¸Õ°": 5054, "Õ¡Õ·Õ¯": 5055, "ĠÕĦÕ¡Õ´": 5056, "ĠÕ¡Õ¼Õ¡Õ»Õ¡Õ¤ÖĢÕ¾Õ¥Õ¬": 5057, "Ô±ÕĲÔ´": 5058, "Õ¡ÖĢÕµÕ¡Õ¶Õ«Õ¶": 5059, "Ġ70": 5060, "ĠÕ«Õ·ÕŃÕ¡Õ¶Õ¸ÖĤÕ©ÕµÕ¸ÖĤÕ¶Õ¶Õ¥ÖĢÕ¨": 5061, "ĠÕ£Õ¡Õ¬Õ¸ÖĤ": 5062, "ĠÕ·Õ¶Õ¸ÖĢÕ°Õ¡Õ¯Õ¡Õ¬Õ¸ÖĤÕ©ÕµÕ¸ÖĤÕ¶": 5063, "ĠÕ·Õ¡ÖĢÕ¸ÖĤÕ¶Õ¡Õ¯Õ¥Õ¬": 5064, "Õ¸Õ³Õ¡Õ¶Õ¡ÕºÕ¡ÖĢÕ°": 5065, "ĠÕ°ÕµÕ¸ÖĤÖĢÕ¡Õ¶Õ¸Öģ": 5066, "ĠÕĦÕ¸Õ¾Õ½": 5067, "ĠÕ°Õ¥Õ¿Õ¡ÕºÕ¶Õ¤": 5068, "....": 5069, "Õ¡Õ©Õ¥Õ´Õ¡Õ¿": 5070, "ĠÕ¢Õ¡ÖģÕ¡Õ¿": 5071, "ĠÕ°Õ¥Õ¼Õ¡Õ¶Õ¯Õ¡ÖĢ": 5072, "ĠÕ®Õ¡Õ¼Õ¡ÕµÕ¸ÖĤÕ©ÕµÕ¸ÖĤÕ¶Õ¶Õ¥ÖĢ": 5073, "ĠAn": 5074, "ĠÕ¸ÖĢÕ¸Õ¶ÖģÕ«Öģ": 5075, "ĠÔ»Õ¶Õ¿": 5076, "Ô±Ô¶Ô³": 5077, "ĠÕ¡Õ¶Õ£Õ¬Õ¥ÖĢÕ¥Õ¶": 5078, "Õ¸ÖĤÕ¡ÖĢÕ¤": 5079, "Õ¸ÖĤÕ´Õ½": 5080, "ĠÔ±ÖĨ": 5081, "ĠÕ¹Õ§Õ«": 5082, "ĠÕ´Õ¡ÖĢÕ¦Õ«Õ¹": 5083, "ĠÕ½Õ¿Õ¥Õ²Õ®Õ¸ÖĤÕ´": 5084, "ĠÕ®Õ¶Õ¾Õ¡Õ®": 5085, "Õ¥Õ¯Õ¶Õ¡Õ¢Õ¡Õ¶": 5086, "ĠÕ¶ÕµÕ¸ÖĤÕ©Õ¥ÖĢÕ¨": 5087, "ĠÕ¡Õ¾Õ¿Õ¸Õ³Õ¡Õ¶Õ¡ÕºÕ¡ÖĢÕ°": 5088, "ĠÕ¨Õ¶Õ¯Õ¡Õ¬": 5089, "ĠÕ°Õ¡Õ¶ÖĢÕ¡ÕºÕ¥Õ¿Õ¸ÖĤÕ©ÕµÕ¡Õ¶": 5090, "ÖĥÕ¸Õ½Õ¿Õ¸Õ¾": 5091, "ĠÕ¤Õ«Õ¾Õ¡Õ¶Õ¡Õ£Õ«Õ¿Õ¡Õ¯Õ¡Õ¶": 5092, "Õ¡ÕºÕ¡Õ·Õ¿ÕºÕ¡Õ¶": 5093, "32": 5094, "ĠÕĿ": 5095, "ĠÕ°Õ¸ÖĤÕ¦": 5096, "ĠÕ¯Õ¨": 5097, "Õ¥ÖĢÕ®": 5098, "Ô±Õ¶Õ¤": 5099, "ÕĢÕ¡Õ»": 5100, "ÕĬÕ¡Õ·Õ¿": 5101, "ĠÕªÕ¡Õ´Õ¡Õ¶Õ¡Õ¯Õ¨": 5102, "ĠÕ¶Õ·Õ¡Õ¶Õ¡Õ¯Õ¸ÖĤÕ©ÕµÕ¸ÖĤÕ¶": 5103, "ĠÕ£Õ¸ÖĢÕ®Õ¸ÖĤÕ¶Õ¥Õ¸ÖĤÕ©ÕµÕ¸ÖĤÕ¶": 5104, "ĠÕºÕ¡Õ¿Õ¡Õ½ÕŃÕ¡Õ¶Õ¡Õ¿Õ¾Õ¸ÖĤÕ©ÕµÕ¡Õ¶": 5105, "ĠÕ´Õ¡Õ¶Õ¯Õ¡Õ¾Õ¡ÖĢÕª": 5106, "ĠÔ±ÕĲÕĦÔµÕĨ": 5107, "ĠÕ©Õ¥ÖĢÕ©Õ¨": 5108, "ĠÕĦÔµÔ¶": 5109, "Ġi": 5110, "Õ¿Õ¾": 5111, "Õ¾Õ¡ÖĢÕ³": 5112, "ĠÕ£Õ«Õ¶": 5113, "ÕºÕ¿": 5114, "ÕĢÔµÕı": 5115, "Õ¡Õ¤Õ¡Õ·Õ¿": 5116, "Õ¡Õ¶Õ¡Õ¯Õ¥ÖĢÕ¿": 5117, "ĠÕ¶Õ·Õ¥Õ¬Õ¸Õ¾": 5118, "ĠÕĵÕ¡Õ·Õ«Õ¶ÕµÕ¡Õ¶Õ«Õ¶": 5119, "Ġ80": 5120, "ĠÕ½Õ¿Õ¸ÖĢÕ¡Õ£ÖĢ": 5121, "Ġ*": 5122, "ĠÕ¾Õ¡ÖĢÕª": 5123, "ÕĢÕ¡ÕµÕ¥ÖĢÕ¥Õ¶": 5124, "ĠÕ¶Õ¾Õ¡Õ¦Õ¡Õ£Õ¸ÖĤÕµÕ¶": 5125, "Õ´Õ¸ÖĤÕ¿": 5126, "Õ¡ÖĢÕ¤Õ¡ÖĢ": 5127, "ÔµÕ²": 5128, "ÖĢÕ¾Õ«": 5129, "Õ¡Õ¾Õ¡ÖĢÕ¸ÖĤÕ©ÕµÕ¸ÖĤÕ¶Õ¨": 5130, "ĠÔ¼Õ¡Õ¾": 5131, "ĠÕ¶Õ¥ÖĢÕ¯Õ¡ÕµÕ¡ÖģÕ¸ÖĤÖģ": 5132, "ĠÔ½Õ¸Õ½": 5133, "ĠÕ´Õ¥Õ®Õ¡Õ´Õ¡Õ½Õ¶": 5134, "ary": 5135, "ĠÕĮÕ¸ÖĤÕ½Õ¡Õ½Õ¿Õ¡Õ¶Õ¨": 5136, "ĠÖĦÕ¡Õ²Õ¡ÖĦÕ¡ÕºÕ¥Õ¿Õ¡ÖĢÕ¡Õ¶Õ«": 5137, "ĠÕ´Õ«Õ»Õ¸ÖģÕ¡Õ¼Õ¸ÖĤÕ´Õ¶Õ¥ÖĢ": 5138, "ĠÕ¢Õ¡ÖģÕ¡Õ¼Õ«Õ¯": 5139, "ĠÕ¡Õ¯Õ¸ÖĤÕ´Õ¢Õ«": 5140, "ĠÕ¨Õ¶Õ¤Õ¤Õ«Õ´Õ¡Õ¤Õ«ÖĢ": 5141, "__": 5142, "ĠÕ°ÕµÕ¸ÖĤÖĢÕ¨": 5143, "Õ¸ÖĢÕº": 5144, "ÖĩÕ¥Õ¯": 5145, "Õ¸Õ¿Õ¸": 5146, "ĠÕ¶Õ·Õ¾Õ¸ÖĤÕ´": 5147, "ĠÕªÕ¡Õ´Õ¡Õ¶Õ¡Õ¯Õ«Õ¶": 5148, "ĠÕºÕ¡Õ·Õ¿Õ¸Õ¶Õ¨": 5149, "ĠÕ¡Õ¦Õ¡Õ¿Õ¸ÖĤÕ©ÕµÕ¡Õ¶": 5150, "ĠÔ¶Õ¸Õ°": 5151, "ĠÕ¶ÕºÕ¡Õ¿Õ¡Õ¯Õ¨": 5152, "ĠÕ´Õ¡ÖĢÕ´Õ«Õ¶Õ¨": 5153, "ĠÕ¯Õ¶Õ¥ÖĢÕ¯Õ¡Õµ": 5154, "Ô±Ô³ÕĲ": 5155, "ĠÔ³ÖĢÕ«Õ£Õ¸ÖĢÕµÕ¡Õ¶Õ«": 5156, "ĠÖģÕ¡Õ®ÖĢ": 5157, "âĸº": 5158, "ĠÕĢÕ¡Õ½Õ¡ÖĢÕ¡Õ¯": 5159, "ĠÕĢÕħÔ´": 5160, "Õ¸Õ½ÕµÕ¡Õ¶Õ«": 5161, "ÕĪÕı": 5162, "ĠÕ¶Õ¥ÖĢÕ¯Õ¡ÕµÕ¡ÖģÕ¾Õ¥Õ¬": 5163, "ĠÕ´Õ¡Õ½Õ¶Õ¡Õ¾Õ¸ÖĢ": 5164, "Õ¸Õ¯ÖĢ": 5165, "ĠÕ¾Õ¥ÖĢÕ»Õ¸": 5166, "ĠÖĥÕ¸ÖĥÕ¸ÕŃÕ¸ÖĤÕ©ÕµÕ¸ÖĤÕ¶": 5167, "ĠÖĥÕ¸Õ²Õ¸ÖģÕ«": 5168, "ĠÕ´Õ¡Õ¯Õ¡ÖĢÕ¤Õ¡Õ¯Õ«": 5169, "Ô±Õº": 5170, "ĠÕĢÕ«Õ½": 5171, "ĠÕ½ÖĢÕ¡Õ°": 5172, "ĠÕ¾Õ¡ÕµÕ¥Õ¬": 5173, "ĠÕįÕ¸ÖĤÕµÕ¶": 5174, "ĠÕ¶Õ¡ÕŃÕ¶Õ¡Õ¯Õ¡Õ¶": 5175, "ĠÔ³Ô±": 5176, "ĠÔ»ÖĢÕ¡Õ¾": 5177, "ĠÕ°Õ¡Õ¶Õ£Õ½Õ¿": 5178, "ĠÕ¤Õ¸Õ¬Õ¡ÖĢÕ«": 5179, "Õ¡ÕµÕ©Õ¥Õ¤": 5180, "ĠÕ°Õ¡Õ´Õ¡Õ¶Õ¡ÕŃÕ¡Õ£Õ¡Õ°": 5181, "ÖĢÕ¸Õ¶": 5182, "ĠÕ°Õ¸ÖĤÕ´": 5183, "ĠÕĢÕµÕ¸ÖĤÕ½Õ«Õ½Õ¡ÕµÕ«Õ¶": 5184, "ÕŃÕ¸Õ²": 5185, "Ô»ÕĦ": 5186, "ĠÕ«Õ¶Õ¹Õ¶": 5187, "ĠÕ¥ÖĢÕ¯ÕŃÕ¸Õ½": 5188, "ĠÕªÕ¡Õ´Õ¡Õ¶Õ¡Õ¯Õ«": 5189, "ĠÖĦÕ¶Õ¶Õ¸ÖĤÕ©ÕµÕ¡Õ¶": 5190, "ĠÕ¶Õ¾Õ¡Õ£": 5191, "ĠÕ°Õ¡Õ¶Õ±Õ¶Õ¡ÖĢÕ¡ÖĢ": 5192, "ĠÕ¯Õ¡Õ¶ÕŃÕ¡ÖĢÕ£Õ¥Õ¬": 5193, "ĠÕ°Õ¡Õ¾Õ¥Õ¬ÕµÕ¡Õ¬": 5194, "ĠÕ¯Õ¸Õ²ÖĦÕ«Õ¶": 5195, "ĠÕºÕ¡Õ¿Õ¯Õ¡Õ¶Õ¸ÖĤÕ´": 5196, "Õ´Õ¥Õ¼": 5197, "Õ¯Õ¡ÕŃ": 5198, "ÕĦÕ¡Õµ": 5199, "ÖĢÕ¡Õ¶Õ¯": 5200, "ĠÕĢÕ¡Õ¶ÖĢÕ¡ÕµÕ«Õ¶": 5201, "ĠÖĦÕ¡Õ²Õ¡ÖĦÕ¡Õ¯Õ¡Õ¶Õ¸ÖĤÕ©ÕµÕ¸ÖĤÕ¶Õ¨": 5202, "ĠÕ¨Õ¶Õ¯Õ¥ÖĢÕ¸ÖĤÕ©ÕµÕ¸ÖĤÕ¶Õ¶Õ¥ÖĢÕ«": 5203, "ĠÕ£Õ¸ÖĢÕ®Õ¨Õ¶Õ©Õ¡ÖģÕ«": 5204, "ĠÕ¿Õ¾ÕµÕ¡Õ¬Õ¶Õ¥ÖĢ": 5205, "ĠÕ³Õ¡Õ¶Õ¡ÕºÕ¡ÖĢÕ°Õ¸Õ¾": 5206, "ĠÕ³Õ¡Õ¶Õ¡Õ¹Õ¸ÖĤÕ´": 5207, "ĠÕ¡Õ¶Õ¯Õ¡ÕŃÕ¸ÖĤÕ©ÕµÕ¡Õ¶": 5208, "ÕĢÔ±ÕħÔ±ÕįÕıÔ±ÕĨÔ»": 5209, "Õ¡Õ´ÕµÕ¡Õ¯Õ«": 5210, "ĠÕ´Õ«Õ¬Õ«Õ¡ÖĢÕ¤": 5211, "ĠÕ£Õ¸ÖĤÖģÕ¥": 5212, "ĠÕŃÕ¡Õ¶Õ£": 5213, "Õ¡Õ¢Õ¡Õ¶Õ¸ÖĤÕ´": 5214, "ÕıÕĲ": 5215, "Õ¥Õ¦Õ¥ÖĢ": 5216, "ĠÕ°Õ¡Õ¾Õ¡ÖĦÕ¡Õ¯Õ¡Õ¶": 5217, "ĠÕĦÕ¡Õ¶Õ¾Õ¥Õ¬": 5218, "ĠÕ¡Õ¼Õ¸Õ²Õ»Õ¡ÕºÕ¡Õ°Õ¸ÖĤÕ©ÕµÕ¡Õ¶": 5219, "ĠÕ°Õ¡Õ¾Õ¥Õ¬Õ¾Õ¡Õ®": 5220, "Õ¡ÕªÕ¡Õ´Õ¯Õ¥Õ¿": 5221, "Ô±ÕĤÔ±ÕĶ": 5222, "ĠÔ³Õ¥ÖĢÕ´Õ¡Õ¶Õ«Õ¡ÕµÕ«": 5223, "33": 5224, "58": 5225, "Õ¶ÖĦ": 5226, "ĠÕ°Õ¼Õ¹Õ¡Õ¯": 5227, "ĠÕ¯Õ¸Õ·": 5228, "Õ¡Õ°Õ¡Õ¶Õ»": 5229, "ĠÕ©Õ¼Õ¹": 5230, "ĠÖħÖĢÕ¾": 5231, "ÕĦÕ¡Õ½Õ¶": 5232, "ĠÕºÕ¥Õ¿Õ¸ÖĤÕ©ÕµÕ¸ÖĤÕ¶": 5233, "ĠÕ°Õ¡ÖĢÖĩÕ¡Õ¶": 5234, "ĠÕ¡ÕµÕ½ÖħÖĢÕ¾Õ¡": 5235, "Ô²Õ¡ÖĢÕ½Õ¥Õ¬Õ¸Õ¶": 5236, "Õ¸ÕµÕ¡Õ¯Õ¡Õ¶": 5237, "ĠÕĩÕ«ÖĢÕ¡Õ¯Õ«": 5238, "ĠÕ¾Õ«Õ³Õ¡Õ¯Õ«": 5239, "ments": 5240, "Ġpp": 5241, "igh": 5242, "ĠÕ§Õ¸ÖĤÕ©ÕµÕ¡Õ¶": 5243, "ÖĩÕ¨": 5244, "Õ«Õ¿Õ¸ÖĢ": 5245, "ĠÕ°Õ¡Õ½Õ¶Õ¥Õ¬Õ¸ÖĤ": 5246, "ĠÕŃÕ¶Õ¤ÖĢÕ«": 5247, "ĠÕ¯Õ¥Õ¶Õ¿ÖĢÕ¸Õ¶Õ¨": 5248, "ĠÕ¯ÖĢÕ©Õ¸ÖĤÕ©ÕµÕ¸ÖĤÕ¶": 5249, "ĠÕĢÕ¡ÖĢÖģ": 5250, "ĠÕ°ÖĢÕ¡ÕªÕ¡ÖĢÕ¾Õ¥Õ¬": 5251, "ĠÕ·ÖĥÕ´Õ¡Õ¶": 5252, "Õ¡Õ½Õ¿Õ«Õ¡ÖĢÕ¡Õ¯": 5253, "ĠÕ¢Õ¥ÖĢÕ¾Õ¡Õ®": 5254, "News": 5255, "Õ¶Õ¥": 5256, "Õ«ÖĨ": 5257, "Õ¸Õ¶ÕµÕ¡Õ¶Õ¨": 5258, "ĠÕĦÕ¶": 5259, "ÕĦÕ«Õ»Õ¡Õ¦Õ£Õ¡ÕµÕ«Õ¶": 5260, "ĠÔµÕĬÕĢ": 5261, "ĠÕĨÕ¡Õ¬Õ¢Õ¡Õ¶Õ¤": 5262, "ĠÕ¡Õ´Õ¸ÖĤÕ½": 5263, "ĠÕ¿Õ¥Õ½Õ¡Õ¶Õ¯ÕµÕ¸ÖĤÕ¶": 5264, "ĠÕ½ÕºÕ«Õ¿Õ¡Õ¯": 5265, "ĠÕ¿Õ¡ÖĢÕ¢Õ¥ÖĢÕ¡Õ¯Õ¨": 5266, "ĠÕ¡ÕºÕ¡Õ°Õ¸Õ¾Õ¸ÖĤÕ´": 5267, "ĠÕ¸ÖĤÖĢÕ¥Õ´Õ¶": 5268, "ÕĸÖĢÕ¡Õ¶Õ½": 5269, "ĠÕ¡Õ¾Õ¡ÖĢÕ¿Õ¥Õ¬": 5270, "ĠÕ¡Õ»Õ¡Õ¯ÖģÕ¸ÖĤÕ©ÕµÕ¸ÖĤÕ¶": 5271, "ĠÕ¯Õ¡Õ¶ÕŃÕ¡Õ¿Õ¥Õ½": 5272, "Õ¡ÕŃÕ´Õ¢Õ«": 5273, "ĠÕ¤Õ¡Õ·Õ«Õ¶ÖĦÕ«": 5274, "ĠÕ£ÖĢÕ¡Õ½Õ¥Õ¶ÕµÕ¡Õ¯Õ«": 5275, "59": 5276, "Õ¡Õ¶Õ¡Õ¶ÖĦ": 5277, "ĠÕ§Õ¯": 5278, "Õ¡Õ´Õ«Õ¶": 5279, "Õ¡Õ¬Õ½": 5280, "ĠÔ¿Õ¡Õ´": 5281, "ĠÕĨÕ¡Õ¦": 5282, "Õ¡ÖĥÕ¡Õ¯Õ¸ÖĤÕ´": 5283, "ĠÔ»Õ¿Õ¡Õ¬": 5284, "Ô³Õ¸ÖĢÕ®": 5285, "Õ¡Õ¯Õ¡ÖĢÕ£Õ«": 5286, "ĠÕºÕ¡ÕµÕ´Õ¡Õ¶Õ¡Õ£ÖĢÕ«": 5287, "Ô·Õ»": 5288, "ĠÕ±ÖĩÕ¸Õ¾": 5289, "ĠÕ¶Õ¥ÖĢÕ¯Õ¡ÕµÕ¡ÖģÕ¸ÖĤÖģÕ«Õ¹Õ¶Õ¥ÖĢÕ¨": 5290, "ĠÕ£Õ¿Õ¥Õ¬": 5291, "ĠÕ©Õ¥Õ´Õ¡Õ¶": 5292, "ĠÖĦÕ¶Õ¶Õ¡ÖĢÕ¯Õ´Õ¡Õ¶": 5293, "ĠÕ¿Õ¸Õ¯Õ¸Õ½Õ¨": 5294, "ĠÕ°Õ¡Õ½Õ¯Õ¡Õ¶Õ¡Õ¬": 5295, "ÖĢÕ¦": 5296, "ĠÕ½ÕºÕ¡Õ¶Õ¸ÖĤÕ©ÕµÕ¡Õ¶": 5297, "Õ¹Õ¡Öĥ": 5298, "Õ«Õ¯Õ¡ÕµÕ¸ÖĤÕ´": 5299, "Õ½Õ¿Õ¡Õ¶Õ«": 5300, "ĠÕ¡Õ¾Õ«": 5301, "ĠÕ¡ÖĢÕ¿Õ¡Õ°Õ¡Õ¶": 5302, "ĠÕ¢Õ¸Õ¬Õ¸ÖĢÕ«Õ¶": 5303, "ĠÕºÕ¡Õ¿Õ´Õ¥Õ¬": 5304, "ĠÕ½Õ¯Õ½Õ¥Öģ": 5305, "ĠÕ£Õ¿Õ¶Õ¾Õ¥Õ¬": 5306, "ĠÕ½Õ¿Õ¸ÖĢÕ¡Õ¢Õ¡Õª": 5307, "ĠÕ¿Õ¥Õ²Õ¥Õ¯Õ¡Õ¿Õ¾Õ¸ÖĤÕ©ÕµÕ¸ÖĤÕ¶": 5308, "ĠÕ£Õ¥Õ²Õ¥ÖģÕ¯": 5309, "ĠÕ¬Õ¥Õ¦Õ¸ÖĤÕ¶Õ¥ÖĢÕ¸Õ¾": 5310, "ĠÕ¡ÕºÖĢÕ¡Õ¶ÖĦÕ¶Õ¥ÖĢÕ«": 5311, "ĠÕ¬ÖĢÕ¡ÖģÕ¸ÖĤÖģÕ«Õ¹": 5312, "ĠÕ¡Õ¼ÖģÕ¡Õ¶Öģ": 5313, "ĠÔ²ÕĢÔ¿": 5314, "ÕįÕº": 5315, "ĠÕ¡ÕºÕ¡ÖģÕ¸ÖĤÕµÖģ": 5316, "ĠÕ³Õ£Õ¶Õ¡ÕªÕ¡Õ´": 5317, "ĠÕ¡ÕµÕ¬Õ¨Õ¶Õ¿ÖĢÕ¡Õ¶ÖĦ": 5318, "ĠÖĥÕ¸ÕŃÕ¶Õ¡ÕŃÕ¡Õ£Õ¡Õ°": 5319, "ÔµÕĲÔµÕİÔ±ÕĨ": 5320, "ĠÕŃÕ¡Õ²Õ¡Õ¬": 5321, "ĠÕ¡Õ¶Õ°Õ¶Õ¡ÖĢ": 5322, "ĠÕºÕ¡Õ¿Õ´Õ¸ÖĤÕ´": 5323, "ĠÔ¶ÖĢÕ¸ÖĤÖģ": 5324, "ĠÕĵÕ¡Õ·Õ«Õ¶ÕµÕ¡Õ¶Õ¶": 5325, "ĠÕºÕ¡ÖĢÕ¸Õ¶": 5326, "ĠÕ´Õ¡Õ¯Õ¶": 5327, "ĠÔ±ÖĢÕ·": 5328, "ĠÕ«Õ¶Õ¿Õ¥ÖĢÕ¶Õ¥Õ¿": 5329, "ĠÕ£ÖĢÕ¡Õ½Õ¥Õ¶ÕµÕ¡Õ¯": 5330, "ĠÕ¶Õ¡ÕŃÕ¨Õ¶Õ¿ÖĢÕ¡Õ¯Õ¡Õ¶": 5331, "ĠÕ°Õ¸ÖĢÕ¤": 5332, "Õ¡Õ¾Õ¡Õ¼Õ¸ÖĤÕ´": 5333, "ĠÔ±Õ¾Õ¥Õ¬": 5334, "Õ¡Õ¢Õ¸ÖĢ": 5335, "ĠÕįÕ¸ÖĤÖĢ": 5336, "ĠÕ®Õ¡Õ¶": 5337, "ĠÕ¿Õ¡ÖĢÕ¸ÖĤÕ´": 5338, "ĠÕ¡ÕºÕ¡Õ£Õ¡": 5339, "ĠÕĮÕ¸ÖĤÕ¢Õ¥Õ¶": 5340, "2014": 5341, "ÖĦÕ¥ÖĢÕ«Öģ": 5342, "ĠÕ°Õ¡Õ£Õ¸ÖĤÕ½Õ¿": 5343, "Õ¹Õ¥Õ¬Õ«": 5344, "Õ¥Õ´Õ«Õ¶": 5345, "ĠÕıÕ¶Õ¿Õ¥Õ½": 5346, "ĠÕ£Õ«Õ¿Õ¸ÖĤÕ©ÕµÕ¸ÖĤÕ¶Õ¶Õ¥ÖĢÕ«": 5347, "ĠÕºÕ¡Õ·Õ¿Õ¸Õ¶Õ¡Õ¯Õ¡Õ¿Õ¡ÖĢ": 5348, "Õ¡Õ½Õ¶Õ¡": 5349, "ĠÕ¢Õ¡ÕªÕ¶Õ¸ÖĤÕ´": 5350, "ĠÖħÕ£Õ¿Õ¡Õ£Õ¸ÖĢÕ®Õ¸ÖĤÕ´": 5351, "ĠÕ«ÖĢÕ¡Õ¾Õ«Õ³Õ¡Õ¯": 5352, "ĠÕ½Õ¿Õ¸ÖĢÕ¡Õ£ÖĢÕ¥Õ¬": 5353, "ĠÕ£Õ¶Õ¡Õ°Õ¡Õ¿Õ¸ÖĤÕ´": 5354, "ĠÕ¨Õ¶Õ¤Õ£Õ®Õ¥Õ¬": 5355, "Õ¡Õ¯Õ¡Õ¼Õ¸ÖĤÖģ": 5356, "ĠÔ±Õ½Õ¿Õ®Õ¸": 5357, "ĠÕ¡ÕŃÕ¿": 5358, "41": 5359, "Ġ`": 5360, "ĠÕ½ÖĢÕ¢": 5361, "Õ©Õ¡ÖĢÕ«": 5362, "ĠÕįÕ¥ÖĢÕ£Õ¥Õµ": 5363, "ĠÕ¡Õ¶Õ°Õ¡ÕµÕ¿": 5364, "ĠÕ½ÕºÕ¡Õ¼Õ¶Õ¡Õ¬": 5365, "197": 5366, "ĠÕ°Õ¡Õ½Õ¿Õ¡Õ¿Õ¥Õ¬": 5367, "ĠÕ¤ÕªÕ£Õ¸Õ°": 5368, "ĠÕ¯ÖĢÕ¯Õ¶": 5369, "ĠÕ°Õ¡Õ¿Õ¯Õ¡Õ¶Õ«Õ·": 5370, "43": 5371, "Õ¸ÖĤÕ¡Õ®": 5372, "Õ¡Õ¿Õ¸Õ´Õ½": 5373, "ÕĦÕ¡Õ¶": 5374, "ÕĦÕ¡Õ´": 5375, "ÖĢÕ¡Õ¶Õ¸ÖĤÕ´": 5376, "âĢ¢": 5377, "Õ¶Õ¡Õ¯Õ¡ÖĢÕ£": 5378, "2013": 5379, "ĠÕ»Õ¡Õ¶": 5380, "Õ¡ÖĢÕ½Õ¡Öĥ": 5381, "menia": 5382, "ĠÕ¡ÖĢÕ¡ÖĢÕ¸Õ²": 5383, "Ô´Õ«Õ¿Õ¥Õ¬": 5384, "ĠÕ¯Õ¡Õ¤ÖĢ": 5385, "ĠÕ¯ÖĢÕ³": 5386, "ĠÕ¿Õ¡ÖĦ": 5387, "ĠÕ½Õ¥Õ¶ÕµÕ¡Õ¯": 5388, "ÕĨÖĢÕ¡": 5389, "ĠÔ¿ÖĢ": 5390, "ĠÕ°Õ¡ÖĢÕ¡Õ¯Õ«Öģ": 5391, "Õ¡ÖĢÕ¾Õ«": 5392, "Õ¸ÖĤÕµÕ©Õ¶Õ¥ÖĢ": 5393, "ĠÕ¢Õ¡ÖģÕ¡Õ½Õ¡Õ¯Õ¡Õ¶": 5394, "ĠÕ¢Õ¸Õ¬Õ¸ÖĢÕ«": 5395, "ĠÕ¡ÖĢÕ¤ÕµÕ¸ÖĤÕ¶Õ¡Õ¢Õ¥ÖĢ": 5396, "ĠSh": 5397, "ĠÖħÖĢÕ¥Õ¶ÖĦÕ¨": 5398, "ĠÕ¡Õ¼Õ¡Õ¶Õ±Õ¶Õ¡Õ°Õ¡Õ¿Õ¯": 5399, "ĠÕ´Õ¸Õ¬Õ¸ÖĢ": 5400, "ĠÕ¡Õ¼Õ¡Õ»Õ¡ÖĢÕ¯Õ¥Õ¬": 5401, "ĠÕ½Õ¿Õ¡ÖģÕ¡Õ®": 5402, "ĠÕ£ÖĢÕ¡Õ¾Õ¸ÖĢ": 5403, "Ġ500": 5404, "ĠÕ¡ÕºÕ¡Õ°Õ¸Õ¾Õ¥Õ¬Õ¸ÖĤ": 5405, "ĠÕ¸Õ¬Õ¸ÖĢÕ¿Õ¶Õ¥ÖĢÕ¸ÖĤÕ´": 5406, "ĠÕ¡Õ¼Õ¸Õ²Õ»Õ¸ÖĤÕ©ÕµÕ¡Õ¶": 5407, "ĠÕ¯Õ¥Õ¶Õ¤Õ¡Õ¶Õ«Õ¶": 5408, "ĠÔ³Õ¡ÖĢÕ¥Õ£Õ«Õ¶": 5409, "ĠÕ°Õ´Õ¿": 5410, "Õ´Õ¡Õµ": 5411, "ĠÕ¿Õ¾Õ¡Õ®": 5412, "ĠÕ¿Õ¸ÖĤÕ£": 5413, "ĠÕ¡Õ¶Õ½": 5414, "ĠÖħÖĢÕ°": 5415, "ĠÕ´Õ«ÖĩÕ¶Õ¸ÖĤÕµÕ¶": 5416, "ĠÕ®Õ¡Õ®Õ¯": 5417, "ĠÔ³Õ¬ÕŃÕ¡Õ¾Õ¸ÖĢ": 5418, "ĠÕ¥ÖĢÕ¯Õ¡Õ©": 5419, "ĠÕİÕ¡Õ¬": 5420, "ĠÕ¡ÖĢÕ¿Õ¡Õ¤ÖĢÕ¸ÖĤÕ©ÕµÕ¡Õ¶": 5421, "Õ¥ÕµÖģ": 5422, "ĠÕĮÕ¸ÖĤÕ½Õ¡Õ½Õ¿Õ¡Õ¶": 5423, "ĠThe": 5424, "Ô±ÕİÔ±ÕĲ": 5425, "ĠÕĬÕ¡Õ¿Õ´": 5426, "ĠÕ½Õ¥Õ¼Õ¡Õ¯Õ¡Õ¶": 5427, "ÕĬÕĲÔµÕį": 5428, "te": 5429, "Â´": 5430, "ÖĬ": 5431, "Õ£Õ«ÕºÕ¿": 5432, "Â»âĢ¤": 5433, "ĠÕ©Õ¥Õ©": 5434, "Õ¡ÖĦÕ¡ÖĢ": 5435, "ÕĦÕ«Õ¶Õ¹": 5436, "ĠÕ´Õ«Õ»Õ¸ÖģÕ¡Õ¼Õ¸ÖĤÕ´": 5437, "Õ¥Õ¢Õ¡Õ½Õ¿": 5438, "ĠÕ¢Õ¥ÖĢÕ¥Õ¬Õ¸ÖĤ": 5439, "ĠÕ·ÖĢÕ»Õ¡Õ¶Õ¶Õ¥ÖĢÕ«": 5440, "Õ¥ÖĢÕ¯ÖĢÕµÕ¡": 5441, "ĠÕ¡Õ²Õ»Õ«Õ¯": 5442, "ĠÕ¥ÖĢÕ©ÖĩÕ¥Õ¯": 5443, "ĠÕ´Õ«Õ»Õ¡Õ¾Õ¡ÕµÖĢÕ«": 5444, "ĠÕĵÕ¡ÖĢÕ«Õ¦": 5445, "Õ¶Õ«Öģ": 5446, "ĠÕ¥Õ¿": 5447, "Õ¡Õ¿Õ«Õ¯": 5448, "Ô±Ô¹": 5449, "ĠÕįÖĥÕµÕ¸ÖĤÕ¼": 5450, "ĠÕĶÔ¿": 5451, "ĠÕ¯Õ¡Õ¦Õ´Õ¡Õ¯Õ¥ÖĢÕºÕ´Õ¡Õ¶": 5452, "ĠÕ°Õ«Õ´Õ¶Õ¡ÕŃ": 5453, "ĠÕ´ÖĢÖģÕ¸ÖĤÕµÕ©Õ«": 5454, "ÕĢÕĢÔ¿": 5455, "ÕĵÕ¸ÕŃ": 5456, "ĠSp": 5457, "ĠÕ½Õ¸Õ¾Õ¸ÖĢÕ¥Õ¬": 5458, "Ð¸Ð": 5459, "ĠÕ¯Õ¥Õ¶Õ½Õ¡Õ©Õ¸Õ·": 5460, "ĠÕ£Õ«Õ·Õ¥ÖĢ": 5461, "Ġ<<": 5462, "ĠÕ¯Õ¸": 5463, "ĠÕ¶Õ¥Õ¿": 5464, "ĠÕ¤Õ¡Õ·": 5465, "ĠÕ¹Õ´": 5466, "ĠÕ®Õ¡ÕµÖĢ": 5467, "Õ¡Õ¶ÖģÕ«Õ¯": 5468, "ÖĢÕºÕ¡Õ£": 5469, "ĠÕ¯Õ¡Õ¶Õ¹": 5470, "Õ¥Õ¤Õ«Õ¡": 5471, "ĠÕ¡Õ¶Õ¯Õ¥Õ²Õ®": 5472, "Ô»Õ¶Õ¹ÕºÕ¥": 5473, "ĠÕ£Õ¸ÖĢÕ®Õ«ÖĦÕ¶Õ¥ÖĢ": 5474, "ĠÕ¿Õ¸ÖĤÕªÕ¡Õ®": 5475, "Õ¬Õ¡Õ´Õ¡Õ¯Õ¡Õ¶": 5476, "ĠÕħÕ¸ÖĤÕ¶Õ¡ÕµÕ©Õ¥Õ¤": 5477, "ĠÕ´Õ¡Õ¯Õ¶Õ«Õ·Õ«": 5478, "Ñĥ": 5479, "ĠÕ°ÕºÕ¡ÖĢÕ¿": 5480, "ĠÕ´Õ¸ÖĢ": 5481, "Õ¯Õ¸Õ²Õ´": 5482, "ĠÕ¿Õ¡ÖĢÕ¢": 5483, "ĠÕ¸ÖĤÕ½Õ¿Õ«": 5484, "ĠÕĦÕ¥Õ¬Õ«ÖĦ": 5485, "Õ°Õ¡ÖĢ": 5486, "Ô½Õ´Õ¢": 5487, "Õ¡Õ¿Õ¾Õ¸ÖĤÕ©ÕµÕ¸ÖĤÕ¶": 5488, "ĠÕ¨Õ¶Õ¤Õ¸ÖĤÕ¶Õ¾Õ¥Õ¬": 5489, "ĠÕ®ÖĢÕ¡Õ£ÖĢÕ¥ÖĢÕ¨": 5490, "ĠÕ¤ÖĢÕ¸Õ·": 5491, "ĠÕ¦Õ¸Õ°Õ¾Õ¥Õ¬": 5492, "ĠÕ¦Õ¸ÖĢÕ¡Õ´Õ¡Õ½": 5493, "ÕĬÕ¥Õ¿ÖĢÕ¸Õ½": 5494, "ÔµÕ¬ÖĦ": 5495, "ĠÕ´Õ¥ÕŃÕ¡Õ¶Õ«Õ¦Õ´": 5496, "ĠÕ¤Õ«Õ¦": 5497, "ĠÔ½ÕįÕĢÕĦ": 5498, "ĠÕĢÕ¡ÖĢÕ¡Õ¾Õ¡ÕµÕ«Õ¶": 5499, "ĠÕ¬Õ¸ÖĤÕ®Õ¥Õ¬": 5500, "ĠÕ¡Õ½Õ¿Õ¾Õ¡Õ®": 5501, "ĠÕ¿Õ¶ÖħÖĢÕ¥Õ¶Õ«": 5502, "ĠÕ·Õ¡ÖĢÕªÕ´Õ¡Õ¶": 5503, "ĠÕ¢Õ¡ÖĢÕ¥ÖĥÕ¸ÕŃÕ¸ÖĤÕ´Õ¶Õ¥ÖĢÕ«": 5504, "ĠÕ¡Õ¶Õ·Õ¡ÖĢÕª": 5505, "az": 5506, "Õ¸Õ®": 5507, "ÕµÕ¡Öģ": 5508, "Õ¡Õ¯Õ¸Õ²Õ´": 5509, "Õ¡Õ£Õ«Õ®": 5510, "ÖĢÕ¡Õ¶Õ¿": 5511, "ÖħÕ£": 5512, "ĠÕ½Õ¯Õ«Õ¦Õ¢": 5513, "ĠÕ¿Õ¥Õ²Õ¥Õ¯Õ¡Öģ": 5514, "ĠÕ¨Õ¶Õ¤Õ¸ÖĤÕ¶Õ¾Õ¡Õ®": 5515, "Ô±ÕħÕĨ": 5516, "ĠÕ«Õ¶ÖĦÕ¶Õ¡Õ©Õ«Õ¼": 5517, "ĠÕ°Õ¡Õ·Õ¾Õ«Õ¶": 5518, "ĠÕ°Õ¡Õ´Õ¡ÕµÕ¶ÖĦÕ¶Õ¥ÖĢÕ«": 5519, "ĠÕ¯Õ¸Õ´Õº": 5520, "ĠÕ¦Õ¢Õ¡Õ²Õ¾Õ¥Õ¬": 5521, "ĠÕ¸ÖĤÕ·Õ¡Õ¤ÖĢÕ¸ÖĤÕ©ÕµÕ¸ÖĤÕ¶": 5522, "ĠÕ¿Õ¡ÖĢÕ¡Õ®Õ¡Õ·ÖĢÕ»Õ¡Õ¶Õ¸ÖĤÕ´": 5523, "ĠÔ·Õ»Õ´Õ«Õ¡Õ®Õ«Õ¶": 5524, "ĠÕ¢Õ¡ÕªÕ¶Õ¥Õ¿": 5525, "ĠÕ¿Õ¥Õ½Õ¡Õ¶Õ¯ÕµÕ¸ÖĤÕ¶Õ«Öģ": 5526, "if": 5527, "ÖģÕ¥Õ¶": 5528, "Õ¸ÖĤÕ¶Õ¯": 5529, "ĠÕ¿Õ¡": 5530, "ĠÕ°Õ¡Õ´Õ¡ÖģÕ¡Õ¶Öģ": 5531, "ÔµÕĳ": 5532, "ĠÕ¿Õ¥Õ²Õ¡Õ¯Õ¡Õµ": 5533, "ĠÕ±Õ¡Õµ": 5534, "Õ¡Õ¤ÖĢÕ«Õ¤": 5535, "ĠÕ¡Õ·ÕŃÕ¡ÖĢÕ°Õ¨": 5536, "ĠÕºÕ¡ÖĢÕ¦Õ¥Õ¬": 5537, "Ô±Õ¼Õ¡Õ»": 5538, "ĠÖĨÕ¸ÖĤÕ¿Õ¢Õ¸Õ¬Õ«": 5539, "ĠÖħÕ£Õ¶Õ¸ÖĤÕ©ÕµÕ¡Õ¶": 5540, "ĠÕ¡Õ¹ÖĦ": 5541, "ĠÔ±ÖĢÕ¿Õ¡Õ½Õ¡Õ¶Õ¥Õ¬": 5542, "ĠÕ¶Õ¥Õ²": 5543, "Õ¡ÖģÕ¶Õ¸Õ²": 5544, "Õ¸ÖĤÖĢÕ¡ÖĦÕ¡Õ¶Õ¹ÕµÕ¸ÖĤÖĢ": 5545, "ĠÔ´Õ¡Õ¶Õ«": 5546, "ĠâĢĭ": 5547, "ĠÕĩÕ¶Õ¸ÖĢÕ°": 5548, "ĠÕ¨Õ¶Õ¿ÖĢÕ¸ÖĤÕ©ÕµÕ¸ÖĤÕ¶Õ¶Õ¥ÖĢÕ¨": 5549, "ĠÕ´Õ¡ÖĢÕ¦Õ¡ÕµÕ«Õ¶": 5550, "âĢ¦]": 5551, "ĠÕ°Õ«Õ´Õ¶Õ¡Õ¤Õ«ÖĢ": 5552, "ÕķÖĢ": 5553, "Õ¡Õ´Õ¡ÖĢÕ¿Õ«": 5554, "ĠÕ°ÖĢÕ¡ÕªÕ¡ÖĢ": 5555, "ĠÕ¡Õ¦Õ¤Õ¥ÖģÕ¸ÖĤÕ©ÕµÕ¸ÖĤÕ¶": 5556, "Õ«Õ¬Õ«Õ½Õ¸Öĥ": 5557, "ĠÕ¡Õ´Õ¥Õ¶Õ¡Õ´Õ¥Õ®": 5558, "Õ·ÕŃÕ¡Õ¶": 5559, "Õ¡Õ¶Õ¯Õ¡ÖĢÕ¨": 5560, "ĠÕ°Õ¡ÖĢÕ¸ÖĤÕ½Õ¿": 5561, "Õ«Õ¹Õ¶Õ¥ÖĢÕ¨": 5562, "ĠÕ¡Õ¶Õ°Õ¡Õ¶Õ£Õ½Õ¿": 5563, "Õ¸ÖģÕ«Õ¡Õ¬Õ¡Õ¯Õ¡Õ¶": 5564, "ĠÕ¸ÖĤÕ·Õ¡Õ¤ÖĢÕ¸ÖĤÕ©ÕµÕ¡Õ¶": 5565, "ĠÕ¡Õ¹ÖĦÕ«": 5566, "âĨĴ": 5567, "ĠÕķÖĢÕ«Õ¶Õ¡Õ¯": 5568, "ĠÖĨÕ¡Õ¯Õ¸ÖĤÕ¬Õ¿Õ¥Õ¿": 5569, "yan": 5570, "ĠÕ¡ÖĢÕµ": 5571, "Õ«Õ¡ÖģÕ«": 5572, "Õ«Õ¥Õ¦Õ¥ÖĢ": 5573, "Õ¡Õ¶Õ¸ÖĤÕ©ÕµÕ¡Õ¶": 5574, "ĠÕ´Õ¡Õ¦": 5575, "ĠÕĨÔ±ÕıÕķ": 5576, "ĠÕ£Õ¸ÖĢÕ®Õ¸Õ²Õ¸ÖĤÕ©ÕµÕ¸ÖĤÕ¶Õ¶Õ¥ÖĢ": 5577, "ĠÕ¦Õ¢Õ¡Õ²Õ¾Õ¸ÖĤÕ´": 5578, "ĠÕ¸Õ²Õ»Õ¸ÖĤÕ¶": 5579, "ĠÕ©Õ¾Õ¸Õ¾": 5580, "Õ¸ÖĤÕ¼Õ¶": 5581, "ĠÕ£Õ«Õ·Õ¥ÖĢÕ¨": 5582, "Õ¡Õ¶Õ¶Õ¥ÖĢ": 5583, "ĠÕ¿ÖĢÕ¾Õ¡Õ®": 5584, "Ô±ÖĢÕ´": 5585, "ĠÕ¾Õ¯": 5586, "ÕºÕ¡Õ½Õ¿": 5587, "ĠÕ´Õ«Õ»Õ¡Õ´Õ¿": 5588, "ĠÕ©Õ¾Õ¡Õ¯Õ¡Õ¶Õ¶Õ¥ÖĢÕ«Õ¶": 5589, "ĠÕ¡Õ»Õ¡Õ¯ÖģÕ¸ÖĤÕ©ÕµÕ¡Õ´Õ¢": 5590, "ĠÕ´Õ¡Õ´Õ¸ÖĤÕ¬": 5591, "Õ¡ÖĢÕºÕ¥Õ¿": 5592, "Õ¡ÖĢÕ«Õ¿": 5593, "ĠÕĦÕ«Õ»Õ¡Õ¦Õ£Õ¡ÕµÕ«Õ¶": 5594, "ĠÕ¦Õ¾Õ¡ÖĢÕ³": 5595, "ĠÕ´Õ«Õ»Õ¡Õ¤Õ¥Õº": 5596, "ĠÕ¾Õ¥ÖĢÕ¡Õ¤Õ¡Õ¼Õ¶Õ¡Õ¬": 5597, "ĠÕĬÕ¡Õº": 5598, "ĠÕ°Õ¡ÖĢÖģÕ¥ÖĢÕ«Õ¶": 5599, "Õ¶Õ¶Õ¡ÖĢÕ¯": 5600, "ĠÕ½Õ¿Õ¥Õ²Õ®Õ´Õ¡Õ¶": 5601, "ĠÕ«ÖĢÕ¡Õ¾Õ«Õ³Õ¡Õ¯Õ«": 5602, "ĠÔ±Õ´Õ¥Õ¶Õ¡ÕµÕ¶": 5603, "ĠÔ¶ÖĢÕ¸ÖĤÖģÕ¡ÖĢÕ¡Õ¶": 5604, "ress": 5605, "ĠÕ´Õ¸Õ¶": 5606, "Õ½Õ«Õ¶": 5607, "ĠÕ£Õ¡Õ¾Õ¡Õ©": 5608, "ĠÕĦÕ¥Õ½": 5609, "ÕĦÕ¥Õ»": 5610, "ĠÕ°Õ¡Õ´Õ¡ÖĢÕ¥Õ¬": 5611, "ĠÕ¾Õ¥ÖĢÕ¡Õ¤": 5612, "Õ¡ÖĢÕ´Õ¡Õ¦Õ¡Õ¶": 5613, "ÕħÕĪÕĴÔ¹": 5614, "ĠÕ´Õ«Õ»Õ¸ÖģÕ¶Õ¥ÖĢÕ¨": 5615, "ang": 5616, "ĠÕ¶Õ¥ÖĢÕ¡Õ¼Õ¸ÖĤÕ´": 5617, "ĠÕ°Õ¡Õ³Õ¥Õ¬Õ«": 5618, "ĠÔ¹Õ¸ÖĤÖĢÖĦÕ«Õ¡ÕµÕ¸ÖĤÕ´": 5619, "ĠÕ¶Õ¡ÕŃÕ¡Õ±Õ¥Õ¼Õ¶Õ¸ÖĤÕ©ÕµÕ¡Õ´Õ¢": 5620, "ĠÔ¿Õ¡ÖĢÕ¡ÕºÕ¥Õ¿ÕµÕ¡Õ¶Õ«": 5621, "ĠÕºÕ¡Õ¿Õ·Õ¡Õ³": 5622, "53": 5623, "AN": 5624, "Ġg": 5625, "Õ¡Õ´Õ¨": 5626, "ĠÕ¶Õ¡ÕµÕ¸ÖĤÕ´": 5627, "Ô±Õ¾Õ¥Õ¬Õ«": 5628, "ĠÕ½Õ´": 5629, "ĠÕ½Õ¸ÖĤÕ¢": 5630, "Õ¹Õ¡ÕµÕ«Õ¶": 5631, "ĠÕ·Õ¡ÕŃÕ´": 5632, "Õ¸Õ¬Õ¤": 5633, "ĠÔ¿Õ¸Õ¿": 5634, "ĠÕĨÕ¡ÖĢÕ¥Õ¯": 5635, "ÕĪÕĴÕĦÕĨ": 5636, "ĠÕ³Õ¡Õ·": 5637, "ĠÕºÕ¡ÕµÕ´Õ¡Õ¶Õ¶Õ¥ÖĢÕ¨": 5638, "ĠÖĥÕ¸ÖĢÕ±Õ¨": 5639, "ĠÕ«ÖĢÕ¡Õ¯Õ¡Õ¶Õ¡ÖģÕ¾Õ¥Õ¬": 5640, "Õ¡Õ·ÖĢÕ»Õ¡Õ¶Õ¸ÖĤÕ´": 5641, "Õ·Õ¿Õ¡Õ¯Õ¡Õ¶": 5642, "Õ¡ÖĢÕ©Õ¶": 5643, "ĠÕ©Õ«Õ´Õ¨": 5644, "ÕĬÕ¡Õ¿Õ´": 5645, "ĠÕ¥ÖĢÕ¥ÕŃÕ¡Õ¶Õ¥ÖĢÕ«Õ¶": 5646, "gle": 5647, "ÖĦÕ¶Õ¥ÖĢ": 5648, "ĠÕ¿Õ¡Õº": 5649, "ĠÕ°Õ¡Õ´Õ¨Õ¶Õ¯": 5650, "Õ¡ÕµÕ¶Õ¸ÖĤÕ©ÕµÕ¡Õ¶": 5651, "ĠÔ³Õ¡Õ½Õº": 5652, "ĠÕ¥Õ²Õ¡Õ¾": 5653, "ĠÕ¡Õ¶Õ¾Õ¡Õ¶Õ¸ÖĤÕ´": 5654, "ÖĢÕ¡Õ£Õ¡Õ®": 5655, "ĠÕ°Õ¡Õ·Õ´Õ¡Õ¶Õ¤Õ¡Õ´": 5656, "Õ¡ÖģÕ«Õ¶Õ¥ÖĢÕ¨": 5657, "ĠÕ°Õ¡ÖĢÕ¡Õ¢Õ¥ÖĢÕ¸ÖĤÕ©ÕµÕ¸ÖĤÕ¶Õ¶Õ¥ÖĢ": 5658, "Ô±ÖĢÖģÕ¡ÕŃÕ«": 5659, "ÖĢÕ¸Õ¾": 5660, "Õ¡Õ¯Õ¸": 5661, "Õ¡ÕµÕ¡Õ¶Õ¨": 5662, "Õ¡ÖĢÕ¸ÖĤÕ¶Õ¡Õ¯": 5663, "ĠÕ´Õ§Õ»": 5664, "Õ¡Õ½Õ«Õ¡Õ¯Õ¡Õ¶": 5665, "ĠÕ¤Õ¥ÖĢÕ¨": 5666, "Õ¡Õ°Õ¡Õ¯Õ¡Õ¶": 5667, "ĠÕĢÕ¥Õ¶": 5668, "ÖĩÕ¸ÖĢÕ¾": 5669, "ĠÕ©Õ¼": 5670, "Ô»Ô±": 5671, "ĠÕ°Õ¡Õ½Õ¶Õ¸ÖĤÕ´": 5672, "Ô±ÕĲÔ¿": 5673, "ĠÕĢÕ¡Õ¶ÖĢÕ¡ÕºÕ¥Õ¿Õ¸ÖĤÕ©ÕµÕ¸ÖĤÕ¶": 5674, "ert": 5675, "ĠÕ¦Õ¡ÖĢÕ£Õ¡ÖģÕ¸ÖĤÕ´": 5676, "ĠÕ¥Õ¶Õ©Õ¡ÖĢÕ¯Õ¥Õ¬": 5677, "ĠÔ±ÖĢÖģÕ¡ÕŃÕ¸ÖĤÕ´": 5678, "ĠÕ´Õ¶Õ¡Öģ": 5679, "Õ¸ÖĤÕ©Õ«ÖĤÕ¶Õ¨": 5680, "ĠÕ°ÕµÕ¸ÖĤÖĢÕ¨Õ¶Õ¯Õ¡Õ¬": 5681, "Õ¸Õ¸ÖĤ": 5682, "Õ¡Õ¯Õ¡Õ´": 5683, "Õ¸ÖĤÕ´Õ¶Õ¥ÖĢÕ¸Õ¾": 5684, "Õ¥Õ¬Õ«Õ¶": 5685, "ĠÕ¥Õ©": 5686, "ĠÕ¤Õ¥": 5687, "ĠÕĢÕ¡Õ¿": 5688, "Ô»ÕĶ": 5689, "Õ¡Õ¶Õ¡Õ¯Õ«": 5690, "ĠÕ¬Õ«Õ¶Õ¥Õ¬Õ¸Õ¾": 5691, "ĠÕĢÕ¡Õ¶ÖĢÕ¡ÕºÕ¥Õ¿Õ¸ÖĤÕ©ÕµÕ¸ÖĤÕ¶Õ¸ÖĤÕ´": 5692, "Õ¸ÖĤÕ°Õ¸ÖĤ": 5693, "ĠÔ±Õ¶Õ¾": 5694, "Õ¥ÕŃÕ¶Õ«Õ¯Õ¡Õ¯Õ¡Õ¶": 5695, "Ô±Õ¦Õ¡Õ¿Õ¸ÖĤÕ©ÕµÕ¡Õ¶": 5696, "ĠÕ¤Õ¥ÕºÖĦÕ¥ÖĢÕ«": 5697, "ĠÕ½Õ¶Õ¶Õ¤": 5698, "ĠÕ´Õ¥Õ¤Õ¡Õ¬": 5699, "ĠÕ£ÕµÕ¸ÖĤÕ²Õ¡Õ¿Õ¶Õ¿Õ¥Õ½Õ¸ÖĤÕ©ÕµÕ¡Õ¶": 5700, "ĠâĨĴ": 5701, "Õ«Õ¥Õ¶": 5702, "ĠÕ£Õ¸Õ²": 5703, "Õ¡ÕŃÕ¸ÖĤÕ´Õ¢": 5704, "ĠÕ¹Õ¥Õ²": 5705, "Õ¸Õ¬Õ«": 5706, "ĠÕ°Õ¡Õ¶Õ¸ÖĤÕ¶": 5707, "ÕįÕ¡Õ¯Õ¡ÕµÕ¶": 5708, "ĠÔ´Õ«Õ¿": 5709, "Ô±ÕĲÔ±ÕĨ": 5710, "ort": 5711, "ĠÔ¸Õ¶Õ¯Õ¥ÖĢ": 5712, "ĠÕ½Õ¸Õ¾Õ¸ÖĢÕ¡Õ¯Õ¡Õ¶": 5713, "ish": 5714, "ĠÕ¸ÖĢÕ¸Õ¾Õ°Õ¥Õ¿Õ¥ÖĤ": 5715, "ĠÕ¡ÖĢÕªÕ¥ÖĦÕ¨": 5716, "ĠÕĢÕ¡Õ¯Õ¸Õ¢ÕµÕ¡Õ¶Õ¨": 5717, "ĠÕ©Õ¡Õ²Õ¡Õ´Õ¡Õ½": 5718, "ĠÕĦÕ¸Õ½Õ¯Õ¾Õ¡ÕµÕ«": 5719, "42": 5720, "ÖĦÕ¡Õ¿": 5721, "Õ¡Õ¾Õ¸ÖĤÕ·Õ«": 5722, "ĠÕ¿Õ¡Õ¶Õ¸ÖĤÕ´": 5723, "Ô±ÖĢÕ½Õ¥Õ¶": 5724, "Ô¿Õ¡Õ´": 5725, "ĠÔ´ÖĢÕ¡": 5726, "ĠÕ¾Õ¥ÖĢÕ¡Õ¢Õ¥ÖĢÕ¾": 5727, "ĠÕ¡ÖĢÕ¤ÕµÕ¸ÖĤÕ¶ÖĦÕ¶Õ¥ÖĢÕ«": 5728, "ĠÕ¡Õ·ÕŃÕ¡Õ¿Õ¡Õ¯Õ«ÖģÕ¶Õ¥ÖĢÕ«": 5729, "ĠÕ«Õ¶Õ½Õ¿Õ«Õ¿Õ¸ÖĤÕ¿Õ«": 5730, "ĠÕ½Õ¥Õ²Õ´": 5731, "ĠÕ°Õ¡ÖĢÕ½Õ¿": 5732, "ÕµÕ¡Õ¯Õ«": 5733, "ĠÕ¯Õ²": 5734, "ĠÔ±ÖĢÕ´Õ¡Õ¶": 5735, "ĠÕ¸ÖĢÕ¡Õ¯Õ«": 5736, "Õ¡ÕŃÖģ": 5737, "ĠÔ¿Õ¸ÖĢ": 5738, "ĠÔ³ÖĢÕ¡Õ¶Öģ": 5739, "ĠÕ¯Õ¡ÕµÕ½ÖĢ": 5740, "ĠâĢİ": 5741, "ĠÕ¦Õ£Õ¡Öģ": 5742, "ĠÕ¿Õ¸Õ¯Õ¸Õ½Õ¸Õ¾": 5743, "ĠÕ¢ÕµÕ¸ÖĤÕ»Õ¥Õ«": 5744, "ĠÕºÕ¡Õ¿ÕªÕ¡Õ´Õ«Õ»Õ¸Öģ": 5745, "iam": 5746, "Ġd": 5747, "ĠÕ¯Õ¸ÖĢÕ®": 5748, "Ô±Õ¯": 5749, "ĠÔ±ÖĢÕ½Õ¥Õ¶": 5750, "Õ¡Õ¤ÖĢÕ¡Õ¶ÖĦ": 5751, "ĠÔ²Õ¡Õ¬": 5752, "ĠÔ³ÕĲ": 5753, "Ô²Õ¡Öģ": 5754, "ĠÕ¶Õ¥ÖĢÕ¯Õ¡ÕµÕ¡ÖģÖĢÕ¥Öģ": 5755, "2012": 5756, "Ô±Õ¶ÖģÕ¶Õ¥Õ¬": 5757, "ĠÕ¾Õ¡ÖĢÕ¸ÖĢÕ¤": 5758, "ĠÕ³Õ¡Õ¶Õ¡ÕºÕ¡ÖĢÕ°Õ«Õ¶": 5759, "ĠÕ©Õ¸ÖĤÕµÕ¬Õ¿Õ¾": 5760, "Õ«Õ®Õ¡Õ²": 5761, "oogle": 5762, "ĠÕ¡Õ¶Õ´Õ«Õ»Õ¡Õ¯Õ¡Õ¶": 5763, "52": 5764, "ap": 5765, "Õ¡Õ·Õ¡ÖĢÕ«": 5766, "ĠÕ¨Õ´Õ¢": 5767, "ĠÕ¥ÖĢÕ¯Õ¶": 5768, "ĠÔ¼Õ¸Õ¼Õ¸ÖĤ": 5769, "ĠÕ¯Õ¸Õ²Õ´Õ«": 5770, "ĠÔ·Õ´": 5771, "Õ«Õ£Õ¥Õ¶": 5772, "ĠÕ¡Õ²Õ¸Õ©": 5773, "ĠÔ±ÖĢÕ¥ÖĤ": 5774, "ĠTV": 5775, "Õ¡ÖĢÕ¾Õ¥Õ½Õ¿Õ¡Õ¯Õ¡Õ¶": 5776, "ĠÕ¸ÖĤÕ¶Õ¥Õ¶Õ¡Õ¬Õ¸Õ¾": 5777, "ÔµÖĢÕ¥ÖĤ": 5778, "ĠÕ«ÖĢÕ¡Õ¤Õ¡ÖĢÕ±Õ¸ÖĤÕ©ÕµÕ¸ÖĤÕ¶Õ¶Õ¥ÖĢ": 5779, "ĠÕįÕ¡Õ°Õ¡Õ¯ÕµÕ¡Õ¶Õ¨": 5780, "ĠÕ©Õ¡Õ¶Õ£Õ¡ÖĢÕ¡Õ¶": 5781, "ĠÔ¶Õ¸Õ°ÖĢÕ¡Õ¢": 5782, "Õ¸Õ«Õ¤": 5783, "ĠÕ°Õ¡": 5784, "ĠÕ§Õ¡Õ¯Õ¡Õ¶": 5785, "Õ¡Õ£ÖĢÕ´Õ¡Õ¶": 5786, "ĠÕ£Õ¸ÖĢÕ®Õ¸Õ¶": 5787, "ĠÕ°Õ¡Õ¶Õ¥Õ¬": 5788, "ĠÕ«Õ¶Õ¹ÖĦÕ¡Õ¶": 5789, "ĠÕ¥ÖĢÕ¯ÖĢÕºÕ¡Õ£": 5790, "ĠÕ·Õ¡Õ¿Õ¥ÖĢÕ¨": 5791, "ĠÕ¨Õ¶Õ¿ÖĢÕ¸ÖĤÕ©ÕµÕ¸ÖĤÕ¶Õ¶Õ¥ÖĢÕ¸ÖĤÕ´": 5792, "ĠÕ¶Õ¡ÕŃÕ¡ÖĢÕ¡ÖĢÕ¸ÖĤÕ©ÕµÕ¸ÖĤÕ¶": 5793, "ĠÕ£Õ¶Õ¡Öģ": 5794, "ĠÕ¡ÖĢÕªÕ¡Õ¶Õ«": 5795, "ĠÕ°Õ¡Õ´Õ¡ÕºÕ¡Õ¿Õ¡Õ½ÕŃ": 5796, "ĠÕ¬Õ«Õ¡ÖĢÕªÕ¥ÖĦ": 5797, "ĠÕºÕ¡ÕµÖĦÕ¡ÖĢÕ¸ÖĤÕ´": 5798, "ĠÕ°ÖĢÕ¡ÕªÕ¡ÖĢÕ¡Õ¯Õ¡Õ¶": 5799, "Ô±Õ´Õ¥ÖĢÕ«Õ¯": 5800, "ĠÕ¢ÕµÕ¸ÖĤÕ»Õ¥": 5801, "ĠÕĦÕ«Õ¶Õ½Õ¯Õ«": 5802, "ĠÕįÕ¿Õ¥ÖĥÕ¡Õ¶Õ¡Õ¯Õ¥ÖĢÕ¿": 5803, "ĠÕ¿ÖĢÕ¡Õ¶Õ½ÕºÕ¸ÖĢÕ¿Õ¡ÕµÕ«Õ¶": 5804, "ÕĦÕ¡ÖĢÕ¿Õ«": 5805, "ĠÕ³Õ·Õ´Õ¡ÖĢÕ¿": 5806, "ĠÔ±ÕĲÕĦÔµÕĨÕĬÕĲÔµÕį": 5807, "ĠÕ¿Õ¡ÖĢÕ¢Õ¥ÖĢÕ¾": 5808, "Õ¶Õ¥ÖĦ": 5809, "ĠÕ°Õ¶Õ¡ÖĢ": 5810, "ĠÕ¤ÖĢÕ¾Õ¡Õ®": 5811, "ĠÕ¢Õ¥Õ¼Õ¶": 5812, "Õ¡Õ°Õ´": 5813, "Õ¹Õ¸ÖĤÕ©ÕµÕ¸ÖĤÕ¶": 5814, "ĠÕ°Õ¡ÕµÖĢ": 5815, "ĠÕ¡ÖĢÕ¿Õ£Õ¸ÖĢÕ®": 5816, "ĠÕ¯Õ¸Õ²Õ´Õ¶": 5817, "Õ¡ÖĢÕµÕ¡Õ¶Õ¶": 5818, "ĠÖħÕ£Õ¿Õ¡Õ¿Õ¥ÖĢ": 5819, "ĠÕ¨Õ¶Õ¿Õ¡Õ¶Õ¥Õ¯Õ¡Õ¶": 5820, "ĠÕĬÕ¥Õ¿ÖĦ": 5821, "ĠÕįÕ«ÖĢÕ«Õ¡ÕµÕ«": 5822, "ĠÕ¡ÖĢÕªÕ¡Õ¶Õ¡ÖģÕ¥Õ¬": 5823, "Õ½ÕºÕ¡Õ½": 5824, "ĠÕ½Õ¥ÖĢÕ¸ÖĤÕ¶Õ¤": 5825, "ĠÕ¡Õ¶Õ¿Õ¡Õ¼": 5826, "Õ¸ÖĤÕ¥Õ¶": 5827, "ĠÕ§Õ¶": 5828, "Õ´Õ¥ÖĢ": 5829, "Õ¥Õ¶Õ¡Õ¯Õ¡Õ¶": 5830, "ĠÕ¤Õ¼": 5831, "Õ¡Õ¦Õ¥Õ¯": 5832, "Ô»Õ¶": 5833, "ĠÕ´Õ«Õ»Õ¶Õ¡Õ¯Õ¡ÖĢÕ£": 5834, "ĠÕĬÖĢ": 5835, "ĠÕĬÕ¡ÖĢÕ¦": 5836, "ĠÕıÕ¸Õ¶": 5837, "ĠÕ°Õ¶Õ¡ÖĢÕ¡Õ¾Õ¸ÖĢÕ¸ÖĤÕ©ÕµÕ¸ÖĤÕ¶Õ¶Õ¥ÖĢÕ¨": 5838, "ĠÕ°Õ¥Õ¿ÖĩÕ¸ÖĤÕ´": 5839, "ĠÕ¾Õ¡Õ²Õ¸ÖĤÖģ": 5840, "ĠÕ¡Õ½Õ¿Õ«Õ³": 5841, "Õ«Õ¢Õ¡Õ¶": 5842, "ĠÕ¡Õ¾Õ¡Õ¶Õ¤Õ¡Õ¯Õ¡Õ¶": 5843, "ĠÕ©Õ¡Õ¿ÖĢÕ¸Õ¶Õ«": 5844, "Ħĸ": 5845, "ĠÕ°ÕµÕ¸ÖĤÕ½Õ«Õ½": 5846, "Õ¡Õ´Õ«Õ¿": 5847, "ĠÕ¢Õ¡Õ¶Õ«": 5848, "Õ¡Õ°Õ¸Õ¬Õ¸Õ¾": 5849, "Õ¡ÖĢÕ£Õ¥Õ¬Õ«": 5850, "ĠÕĨÕ´Õ¡Õ¶": 5851, "Õ¡Õ¶ÖĦÕ¶Õ¥ÖĢ": 5852, "ĠÕŃÕ¡Õ²Õ¥ÖĢ": 5853, "ĠÕ¿Õ¡ÖĢÕ¡Õ®Õ¥Õ¬": 5854, "ĠÕ¡ÖĢÖģ": 5855, "ĠÕ£Õ¬ÕŃÕ¡Õ¾Õ¸ÖĢÕ¸ÖĤÕ©ÕµÕ¡Õ´Õ¢": 5856, "Ġ90": 5857, "ĠÕ¡Õ¶Õ¯ÕµÕ¸ÖĤÕ¶": 5858, "ĠSt": 5859, "ĠÕĬÕ¥Õ¿Õ¡Õ¯Õ¡Õ¶": 5860, "ĠÔµÕ¾ÖĢÕ¡Õ´Õ«": 5861, "ĠÕŃÕ¸ÖĢÕ°Õ¸ÖĤÖĢÕ¤Õ¨": 5862, "ĠÕĨÕ¡ÕŃÕ¡Õ£Õ¡Õ°Õ«": 5863, "imes": 5864, "Õ«Õ·ÕŃ": 5865, "ĠÕ£ÖĢÕ¾Õ¡Õ®": 5866, "ĠÕ£Õ¸Õ°": 5867, "ĠÕ¾Õ¥Öģ": 5868, "ĠÕ©Õ´": 5869, "Õ¡Õ¢Õ«": 5870, "Õ¡Õ£ÖĢÕ¡Õ¾": 5871, "Ô³ÕµÕ¸ÖĤÕ´": 5872, "ĠÕıÕ¡ÖĢÕ¸Õ¶": 5873, "ÕħÕĪÕĴ": 5874, "Ġ36": 5875, "ĠÕ¢Õ¡ÖģÕ´Õ¡Õ¶": 5876, "ĠÔ·ÖĢ": 5877, "ÕĮÕ¥Õ¡Õ¬": 5878, "ĠÕ¢Õ¶Õ¸ÖĤÕµÕ©": 5879, "ĠÕ½Õ«ÖĢÕ¸": 5880, "ĠChat": 5881, "ĠÕ¶Õ¥ÖĢÕ¤ÖĢÕ¸ÖĤÕ´Õ¶Õ¥ÖĢÕ«": 5882, "log": 5883, "ĠÕ·Õ¸ÖĤÕ¿Õ¸Õ¾": 5884, "Õ¡Õ¾Õ«Õ©": 5885, "ĠÕĢÕ¸Õ£": 5886, "ĠÕ½Õ¥ÖĦÕ½": 5887, "ÕºÕ¡Õ¶Õ¸ÖĤÕ´": 5888, "ÕºÕ¡Õ¶Õ¨": 5889, "Õ©Õ¡ÖģÕ«Õ¯": 5890, "ĠÕĶÔ±ÕĤÔ±ÕĶ": 5891, "ĠÕ¡Õ¶Õ±Õ¡Õ´Õ¢": 5892, "ĠÕ½Õ¡Õ°Õ´Õ¡Õ¶Õ¡ÖĥÕ¡Õ¯Õ¸ÖĤÕ´": 5893, "ĠÕ¡Õ³Õ¥Õ¬": 5894, "ĠÕ¸ÖĤÕ½Õ¡Õ¶Õ¸Õ²Õ¶Õ¥ÖĢÕ«": 5895, "ĠÕ°Õ¡Õ´Õ¡Õ£Õ¸ÖĢÕ®Õ¡Õ¯ÖģÕ¸ÖĤÕ©ÕµÕ¸ÖĤÕ¶Õ¨": 5896, "ĠÕ¡ÖĢÕ´Õ¡Õ¿": 5897, "ÑĮ": 5898, "Õ¯Õ¡ÖĢÕ®": 5899, "ĠÕ£Õ¶Õ¥Õ¬": 5900, "ĠÕ¤Õ¸ÖĤÖĢ": 5901, "Õ¡Õ°ÖĢÕ¡Õ¾": 5902, "ĠÔ³Õ¸Õ¾Õ¡Õ¦Õ¤": 5903, "ÕįÕ¥ÕºÕ¿Õ¥Õ´Õ¢Õ¥ÖĢÕ«": 5904, "Õ¡ÖĥÕ¶": 5905, "Õ¡ÖĢÕ¾Õ¥Öģ": 5906, "ĠÖĨÕ¸Õ¶Õ¤": 5907, "ĠÕ«ÖĢÕ¡Õ¾Õ¡ÕºÕ¡Õ°": 5908, "ĠÕ¯Õ¡ÕµÕ¡Õ¶Õ¡Õ¬": 5909, "ĠÕ¿Õ¥Õ²Õ¥Õ¯Õ¸ÖĤÕ©ÕµÕ¸ÖĤÕ¶Õ¶Õ¥ÖĢÕ¸Õ¾": 5910, "ĠÕ¡Õ¶ÖģÕ¯Õ¡ÖģÕ¶Õ¥Õ¬": 5911, "ĠÕ¦Õ¡ÖĢÕ£Õ¡ÖģÕ´Õ¡Õ¶Õ¨": 5912, "ĠÕºÕ¡Õ°ÕºÕ¡Õ¶Õ¥Õ¬": 5913, "ĠÕ¬ÖĢÕ¡Õ£ÖĢÕ¸Õ²": 5914, "ĠÕ¿Õ²Õ¡Õ´Õ¡ÖĢÕ¤Õ¯Õ¡Õ¶Öģ": 5915, "ĠÕ¿Õ¡ÖĢÕ¡Õ®Õ¡Õ·ÖĢÕ»Õ¡Õ¶Õ¡ÕµÕ«Õ¶": 5916, "ĠÕ£Õ¡Õ¦Õ«": 5917, "ĠÕ´Õ¸Õ¤Õ¥Õ¬": 5918, "ĠÕºÕ¡Õ¿Õ¡Õ½ÕŃÕ¡Õ¶Õ¨": 5919, "Õ¡Õ¿Õ¡Õ¶ÖĦÕ¡ÕµÕ«Õ¶": 5920, "Õ¥Õ¸": 5921, "ĠÕ£Õ«Õ¶Õ¨": 5922, "ĠÕ¤ÖĢÕ¥Õ¬": 5923, "Õ¡Õ°Õ¥Õ¼": 5924, "Õ¬Õ¸": 5925, "ĠÕ¬Õ¥Õ¼": 5926, "Õ¸ÖĤÖģÕ¸ÖĤÕ´": 5927, "Õ¡Õ¤ÖĢÕ¥Õ¬Õ¸ÖĤ": 5928, "ĠÕªÕ¡Õ´Õ¡Õ¶Õ¡Õ¯Õ¡Õ¾Õ¸ÖĢ": 5929, "Õ¥Õ¶ÖģÕ«": 5930, "ĠÕ¢Õ¡ÖģÕ¡Õ¿ÖĢ": 5931, "ĠÕŃÕ¶Õ¤ÖĢÕ¥Õ¬": 5932, "Õ¸Õ¯Õ¿Õ¥Õ´Õ¢Õ¥ÖĢ": 5933, "ĠÕīÕ¥Õ´": 5934, "ĠÕ¢Õ¶Õ¸ÖĤÕ©": 5935, "ĠÕ½ÕºÕ¡Õ½Õ¡ÖĢÕ¯Õ´Õ¡Õ¶": 5936, "ĠÕºÕ¡ÖĢÕ¸ÖĤÕ¶Õ¡Õ¯Õ¸ÖĤÕ´": 5937, "ĠÕ°Õ«Õ·Õ¸ÖĤÕ´": 5938, "ĠÕ´Õ¡Õ½Õ¶Õ¡Õ¯Õ«ÖģÕ¶Õ¥ÖĢÕ«": 5939, "Ô±ÖĢÕ¿Õ¡ÖĦÕ«Õ¶": 5940, "Õ¡ÕªÕ¡Õ¶Õ¸ÖĢÕ¤": 5941, "ĠÕ¢Õ¡ÕŃÕ¾Õ¥Õ¬": 5942, "ĠÕıÕ¥Õ²Õ¥Õ¯": 5943, "ĠÕ¯ÖĢÕ®": 5944, "ĠÕ¤Õ¶Õ¸ÖĤÕ´": 5945, "ĠÕ¤Õ¡Õ½Õ¿Õ«Õ¡ÖĢÕ¡Õ¯": 5946, "ĠÕĢÕ«Õ·": 5947, "ĠÕ¡Õ¼Õ´Õ¡Õ´Õ¢": 5948, "ĠÕ¡Õ·ÕŃÕ¡Õ¿Õ¥Õ¬Õ¸ÖĤ": 5949, "Õ«ÖĦÕ¶Õ¥ÖĢ": 5950, "ĠÕĶÕ¡Õ²Õ¡ÖĦÕ¡Õ¯Õ¡Õ¶": 5951, "ĠÕ¶Õ¡ÕŃÕ¡Õ£Õ¡Õ°Õ«Õ¶": 5952, "ĠÕ¡Õ¶ÖģÕ¯": 5953, "ÕĽ,": 5954, "ĠÕĩÕ¡ÖĢÕ´Õ¡Õ¦Õ¡Õ¶": 5955, "ĠÕ¯Õ¡Õ¦Õ´Õ¡Õ¯Õ¥ÖĢÕºÕ¾Õ¡Õ®": 5956, "ĠÕ¡Õ¦Õ¡Õ¿Õ¡Õ¦ÖĢÕ¯": 5957, "ÖĢÕµÕ¡Õ¶": 5958, "ĠÕ¨Õ¶Õ¿ÖĢÕ¾Õ¥Õ¬": 5959, "ĠÕ°Õ¡Õ½ÖģÕ¥Õ¶": 5960, "ĠÕ¶Õ¥ÖĢÕ¯Õ¡ÕµÕ¡ÖģÕ¸ÖĤÖģÕ«Õ¹Õ¶Õ¥ÖĢ": 5961, "ĠÕ°Õ¡Õ¾Õ¡Õ¿Õ¸ÖĤÕ´": 5962, "ĠÕ¶Õ¥ÖĢÕ¤ÖĢÕ¸ÖĤÕ´Õ¡ÕµÕ«Õ¶": 5963, "ĠÕ¶Õ¥ÖĢÕ£ÖĢÕ¡Õ¾Õ¾Õ¡Õ®": 5964, "Õ¡Õ´ÕµÕ¡Õ¯Õ«Õ¶": 5965, "Õ¥ÖĦÕ«Õ¡Õ©": 5966, "ÖĢÕ§": 5967, "Õ¸ÖĤÕ´Õ«": 5968, "ĠÕĦÕ¥Õ¯": 5969, "ÕĦÕ¥Õ¯": 5970, "ÕĪÕ½Õ¿Õ«Õ¯Õ¡Õ¶": 5971, "ĠÕĨÔ±Ô½": 5972, "ĠÕ¨Õ¶Õ©Õ¡ÖģÕ«Õ¯": 5973, "ĠÕ¾Õ¥ÖĢÕ»Õ¥ÖĢÕ½": 5974, "ĠÔ¸Õ¶Õ¿ÖĢ": 5975, "ĠÕ£Õ¸ÖĢÕ®Õ¸Õ²Õ¸ÖĤÕ©ÕµÕ¸ÖĤÕ¶Õ¶Õ¥ÖĢÕ¨": 5976, "ĠÔ±ÖĢÕ¡ÖĢÕ¡Õ¿Õ«": 5977, "ĠÕ·Õ¡Õ°Õ¥ÖĢÕ«": 5978, "ĠMed": 5979, "ĠÕĳÕ¥Õ²Õ¡Õ½": 5980, "ĠÕ¥Õ¯Õ¥Õ²Õ¥ÖģÕ«": 5981, "ĠÕ¿Õ«ÖĢÕ¡ÕºÕ¥Õ¿": 5982, "ÕĪÕĴÕħÔ¹": 5983, "ĠÖħÕ¤Õ¡Õ¶Õ¡Õ¾Õ¡Õ¯Õ¡Õµ": 5984, "Õ¡Õ²Õ¿Õ¶Õ«Õ¸ÖĤÕ©ÕµÕ¡Õ¶": 5985, "ast": 5986, "Õ¢ÕµÕ¸ÖĤÖĢ": 5987, "ĠÕ¹Õ¾": 5988, "ĠÖĥÕ¡Õ¼": 5989, "ÔµÕĮ": 5990, "ĠÕ¦Õ¸ÖĤÕµÕ£": 5991, "ÕİÖĢÕ¡Õ½Õ¿": 5992, "ĠÔ¹Õ¥": 5993, "ĠÕºÕ¡Õ°Õ¡Õ¶Õ»Õ¶Õ¥ÖĢÕ¨": 5994, "tte": 5995, "ĠÔ´Õ¡Õ¾Õ©": 5996, "ĠÕ°Õ¡Õ¶ÖĢÕ¡ÕºÕ¥Õ¿Õ¡Õ¯Õ¡Õ¶": 5997, "ĠÕ¯Õ¡ÖĢÕ¤Õ¡Õ¬": 5998, "Õ¡Õ¿Õ¥Õ¬": 5999, "Õ¡Õ·Õ¡Õ¿": 6000, "Ô¿ÖĢÕ©": 6001, "ĠÕºÕ¥Õ¿Õ«": 6002, "ĠÕ¡Õ½Õ¸ÖĤÕ¬Õ«Õ½": 6003, "ĠÕ¸ÖĤÕ²ÖĩÕ¸ÖĢ": 6004, "ĠÕ¡Õ´Õ¥Õ¶Õ¡": 6005, "ĠÕķÕ£": 6006, "ĠÕ¯Õ¡ÖĢÕ£Õ¡Õ¾Õ¸ÖĢ": 6007, "ĠÕ¢Õ¡ÖĢÕ¥Õ£Õ¸ÖĢÕ®": 6008, "ĠÕ°Õ¸Õ¤Õ¾Õ¡Õ®Õ¶Õ¥ÖĢÕ«": 6009, "est": 6010, "ĠÕ¹Õ¡ÖĥÕ¡Õ¶Õ«Õ·": 6011, "ĠÕ¿ÖĢÕ¡Õ´Õ¡Õ¤ÖĢÕ¥Õ¬": 6012, "ĠÕ¿Õ²Õ¡Õ¶": 6013, "ĠÕ¶Õ¥ÖĢÕ¤ÖĢ": 6014, "ĠÕªÕ¡Õ´Õ¯Õ¥Õ¿Õ¸ÖĤÕ´": 6015, "ĠÕ¬Õ¸ÖĤÕ½Õ¡Õ¶Õ¯Õ¡ÖĢÕ¶Õ¥ÖĢ": 6016, "ĠÔ²Õ¡Õ²Õ¤Õ¡Õ½": 6017, "Õ¡Õ¢Õ¸ÖĢÕ¡Õ¿Õ¸ÖĢ": 6018, "ĠÕ°Õ¸Õ¾": 6019, "ÕĢÕ¥Õ²Õ«Õ¶Õ¡Õ¯": 6020, "ĠÕĦÕ¡Õ¬": 6021, "ĠÕºÕ¡Õ¿Õ¸ÖĤÕ°": 6022, "Õ¡Õ£ÖĢÕ¸ÖĤÕ©ÕµÕ¸ÖĤÕ¶Õ¶Õ¥ÖĢ": 6023, "ĠÕĨÕ¥ÖĢÕ¯Õ¡Õµ": 6024, "Õ¶Õ¤ÖĢÕ¸ÖĤÕ´": 6025, "ĠÕ¥ÖĢÕ¥ÖĤ": 6026, "ĠÕ£ÖĢÕ¡Õ¼Õ¸ÖĤÕ´": 6027, "ĠÖĥÕ¸ÖĢÕ±Õ«": 6028, "ĠÕ´Õ¥Õ²Õ¡Õ¾Õ¸ÖĢ": 6029, "ĠÕ¶Õ¡ÕŃÕ¡Õ¿Õ¥Õ½Õ¾Õ¸ÖĤÕ´": 6030, "ĠÕ¥ÖĢÕ«Õ¿Õ¡Õ½Õ¡ÖĢÕ¤Õ¸ÖĤÕ©ÕµÕ¡Õ¶": 6031, "ĠÕ³Õ¡Õ¶Õ¡Õ¹Õ¥Õ¬": 6032, "ĠÔ»Õ¶Õ±": 6033, "ĠÕ¯Õ¤Õ¡Õ¼Õ¶Õ¡": 6034, "ĠÔ¹ÖĢÕ¡Õ´ÖĥÕ«": 6035, "rou": 6036, "Ġwww": 6037, "Õ¥ÖĢÕ¸ÖĢÕ¤": 6038, "Õ¾Õ¡ÖĢÕ¹Õ¡ÕºÕ¥Õ¿": 6039, "Õ©Õ¸Õ²": 6040, "ĠÖĦÕ«Õ´": 6041, "Õ¡Õ¦Õ«Õ¶": 6042, "Õ·Õ¼": 6043, "ĠÔ³ÕĪÕĲÔ¾": 6044, "ÕįÕ¡Õ¶Õ¯Õ¿": 6045, "ĠÕ½Õ¿Õ¡ÖģÕ¾Õ¡Õ®": 6046, "ÖĢÕ¡Õ´ÕµÕ¡Õ¶": 6047, "ĠÔ»ÕĲ": 6048, "Õ«Õ¬Õ«Õ©": 6049, "ĠÕ¢Õ¡Õ¶Õ¿": 6050, "ĠÕ¿Õ¡ÖĢÕ¢Õ¥ÖĢÕ¸ÖĤÕ©ÕµÕ¸ÖĤÕ¶": 6051, "ĠÕ«ÖĢÕ¡Õ¯Õ¡Õ¶Õ¡ÖģÕ¾Õ¡Õ®": 6052, "Ġ[âĢ¦]": 6053, "our": 6054, "ĠOff": 6055, "ĠÕ¿Õ¡Õ½Õ¶ÕµÕ¡Õ¯": 6056, "ĠÕ£Õ¥Õ¶Õ¥ÖĢÕ¡Õ¬": 6057, "ÕµÕ¸ÖĤÕ¬": 6058, "Õ½Õ¨": 6059, "Õ¬Õ«Õ¯": 6060, "Õ¸ÖĤÕµÕª": 6061, "ĠÕĦÕ¸ÖĤÖĢ": 6062, "Õ¡ÖĢÕ¤Õ¡Õ¬": 6063, "ÖĢÕ¤Õ¡Õ¯Õ¡Õ¶": 6064, "ĠÕ¿Õ¥Õ²Õ¡Õ¤ÖĢÕ¾Õ¡Õ®": 6065, "ĠÔ»Õ°Õ¡ÖĢÕ¯Õ¥": 6066, "ĠÕ¡Õ½Õº": 6067, "ĠÕ«Õ½Õ¯Õ¡Õ¯Õ¡Õ¶": 6068, "ĠÕĦÕ¡ÖĢÕ¿Õ«": 6069, "ĠÕ»Õ¥ÖĢÕ´Õ¡Õ½Õ¿": 6070, "ĠÕ´Õ¥Õ¿ÖĢ": 6071, "Ô±Ô´ÕĲ": 6072, "ĠÕ¥Õ¾ÖĢÕ¸": 6073, "ĠÕ·Õ¸ÖĤÕ¯Õ¡ÕµÕ¸ÖĤÕ´": 6074, "ĠComments": 6075, "51": 6076, "Ph": 6077, "Õ¡Õ¿Õ¥ÖĦÕ½Õ¿": 6078, "ĠÕ¤Õ¥Õ¯": 6079, "ĠÕ½Õ«ÖĢÕ¿": 6080, "Õ¡Õ¼Õ¬": 6081, "ĠÕ¬Öģ": 6082, "Õ«Õ´Õ¶": 6083, "ĠÕ¯Õ¡ÖĢÕ«": 6084, "Õ¡ÕºÕ¥Õ¿Õ«": 6085, "ĠÕ£ÖĢÕ¸Õ²": 6086, "ĠÕ´Õ¡ÖĢÕ¤Õ¸ÖĤÕ¶": 6087, "ĠÖħÕ£Õ¶Õ¸ÖĤÕ´": 6088, "Õ¥ÕµÕ´": 6089, "ÕĩÔ±Ô¿": 6090, "ĠÕ¢Õ¶Õ¸ÖĢÕ¸Õ·": 6091, "ĠÕ°Õ¡ÕµÕ¿Õ¶Õ¡Õ¢Õ¥ÖĢÕ¥Õ¬": 6092, "ĠÕ¦Õ¢Õ¡Õ²Õ¥Öģ": 6093, "ĠÕ´Õ¡Õ¯Õ¥ÖĢ": 6094, "Õ£Õ¿Õ¡Õ£Õ¸ÖĢÕ®": 6095, "ĠÕ¯Õ¸ÖĤÕ½Õ¡Õ¯ÖģÕ¸ÖĤÕ©ÕµÕ¸ÖĤÕ¶Õ¨": 6096, "âĨĲ": 6097, "Õ¡Õ¦Õ£Õ¥Õ¶": 6098, "ĠÔ±ÖĢÕ´Õ¡Õ¾Õ«ÖĢÕ«": 6099, "Ô±ÖĢÖĩ": 6100, "Â»ÕĿ": 6101, "ÕĪÔ±Ô¿": 6102, "ĠÕ£Õ¸ÖĢÕ®Õ¡ÖĢÖĦ": 6103, "ĠÕ°Õ¡Õ¶Õ¯Õ¡ÖĢÕ®": 6104, "ĠÕ¿Õ¡ÖĢÕ«ÖĦ": 6105, "Õ¸ÖĤÕ¯Õ¡ÕµÕ«Õ¶": 6106, "ÕĢÕ¡ÕµÕ¿Õ¶Õ«": 6107, "ĠÕ¯Õ¡Õ¦Õ´Õ¡Õ¯Õ¥ÖĢÕºÕ¸ÖĤÕ´": 6108, "Õ¸ÖĤÕ·Õ¿": 6109, "ĠÕ°Õ¸Õ¤Õ¾Õ¡Õ®Õ¨": 6110, "ĠÕ¢Õ¼Õ¶Õ¸ÖĤÕ©ÕµÕ¡Õ¶": 6111, "ĠÖĨÕ«Õ¬Õ´Õ¨": 6112, "ĠÕ°Õ¡Õ´Õ¡ÕºÕ¡Õ¿Õ¡Õ½ÕŃÕ¡Õ¶Õ¸ÖĤÕ´": 6113, "ber": 6114, "Õ¶Õ©Õ¥ÖĢÖģ": 6115, "Õ¡ÕµÕ«Õ¯": 6116, "Õ¸Õ¾Õ¡ÕµÕ«": 6117, "ĠÕ¡Õ¶Õ¹Õ¡Öĥ": 6118, "ĠÕŃÖĥ": 6119, "ĠÕŃÕ¡Öĥ": 6120, "ĠÕ¹Õ¿": 6121, "ĠÕĦÕ«Õ¬": 6122, "ĠÕ£ÖĢÖĦÕ«": 6123, "Õ¸ÕµÕ¸ÖĤÕ´": 6124, "ĠÕ¶Õ¡ÕŃÕ¡Õ£Õ¡Õ°Õ¡Õ¯Õ¡Õ¶": 6125, "Ô±ÕıÔ±ÕĲ": 6126, "ĠÕ¯Õ¸Õ¹Õ¾Õ¡Õ®": 6127, "ĠÕ¡Õ¾Õ¡ÖĢÕ¿Õ«Õ¶": 6128, "ĠÕ¸Õ²Õ¢Õ¥ÖĢÕ£": 6129, "Õ¡ÖĢÖĦÕ¸ÖĤÕ¶": 6130, "Ô¿Õ¡ÖĢÕ¸Õ²": 6131, "ĠÕ«Õ¶ÖĦÕ¶Õ¡Õ¯Õ¡Õ¼": 6132, "od": 6133, "Õ¡Õ§": 6134, "ĠÕ§ÖĦ": 6135, "ĠÕ¯Õ¥Õ¿Õ«": 6136, "Õ¡Õ¯Õ¡Õ¶Õ¸ÖĤÕ©ÕµÕ¡Õ¶": 6137, "Õ¥Õ¶Õ©": 6138, "ĠÕ½Õ¡ÖĢÕ½Õ¡Öĥ": 6139, "Õ«Õ½Õ«Õ¶": 6140, "ĠÔµÔ±ÕıÕĦ": 6141, "Õ¡Õ¤ÖĢÕ¸ÖĤÕ©ÕµÕ¡Õ´Õ¢": 6142, "ÖĢÕ¡Õ½Õ¿Õ«Õ³Õ¡Õ¶": 6143, "ĠÕ¢Õ¡Õ¶Õ¥ÖĢ": 6144, "ÕĪÖĤÕ½": 6145, "ÕĨÔµÕĲÔ¸": 6146, "ĠÖĥÕ¸ÕŃÕ¡Õ¶ÖģÕ´Õ¡Õ´Õ¢": 6147, "ĠÕ¢Õ¡ÖģÕ¡Õ¼Õ¡ÕºÕ¥Õ½": 6148, "ĠÕ¥ÖĢÕ¥ÕŃÕ¡Õ¶Õ¥ÖĢÕ¨": 6149, "ĠÕĢÔ±ÕħÔ±ÕįÕıÔ±ÕĨÔ»": 6150, "ĠÕ¯ÖĢÕ¡Õ¯Õ¸Öģ": 6151, "ĠÕİÕ¡Õ¶Õ¡Õ±Õ¸ÖĢÕ«": 6152, "ĠÕºÕ¡Õ¿Õ¯Õ¡Õ¶Õ¸Õ²": 6153, "][": 6154, "Õ¡Õ¾Õ¡ÕŃ": 6155, "ĠÕ´Õ¡Õ½Õ¸ÖĤÕ´": 6156, "ÕıÕı": 6157, "ĠÕ¯Õ¡ÖĢÕ¸Õ²Õ¡ÖģÕ¥Õ¬": 6158, "ĠÖĥÕ¸ÕŃÕ¾Õ¥Õ¬": 6159, "ĠÕ¨Õ¶Õ¿ÖĢÕ¸ÖĤÕ©ÕµÕ¸ÖĤÕ¶Õ¶Õ¥ÖĢ": 6160, "ĠÕ¢Õ¡Õ¶Õ¡Õ±Öĩ": 6161, "ĠÕ£Õ«Õ¿Õ¥Õ¬Õ«ÖĦ": 6162, "ĠÕ¾Õ¥ÖĢÕ»Õ«Õ¶Õ«Õ½": 6163, "ĠÕ±ÖĩÕ¡Õ¯Õ¥ÖĢÕº": 6164, "ĠÕħÕ¸ÖĢ": 6165, "ĠÕ´Õ¡ÖĢÕ¿Õ¡Õ°ÖĢÕ¡Õ¾": 6166, "ĠÕ°Õ¥Õ²Õ«Õ¶Õ¡Õ¯Õ¡ÕµÕ«Õ¶": 6167, "ĠÕ¨Õ¶Õ¤Õ¤Õ¥Õ´": 6168, "ĠÕ¯Õ¡Õ¼Õ¸ÖĤÕµÖģÕ¶Õ¥ÖĢÕ«": 6169, "ÑģÑĤ": 6170, "Ô±ÖĢÕ¡ÖĢÕ¡Õ¿": 6171, "ĠÕ¨Õ¶Õ¤Õ£ÖĢÕ¯Õ¾Õ¡Õ®": 6172, "ĠÔ±Õ´Õ¥ÖĢÕ«Õ¯Õ¡ÕµÕ«": 6173, "ĠÕ«Õ¢ÖĢ": 6174, "ĠÕ¡Õ¶ÕºÕ¡ÕµÕ´Õ¡Õ¶": 6175, "Õ¥Õ¶Õ¡": 6176, "ĠÕ½Õ¥ÖĢÕ¿": 6177, "ĠÔ²Õ¶Õ¡Õ¯": 6178, "ĠÔ³Õ¥ÖĢ": 6179, "ĠÕ¿Õ¥Õ²ÕµÕ¡Õ¯": 6180, "Õ¡ÖĢÕ¡ÖĢÕ¶Õ¥ÖĢÕ«": 6181, "Ô±ÕĨÕĳ": 6182, "Ô´Õ¥Õº": 6183, "ĠÕ¿Õ¥Õ½ÖĦÕ¸Õ¾": 6184, "ĠÕ¿Õ¡ÖĢÕ¡Õ®Õ´Õ¡Õ¶": 6185, "ĠÕ°Õ¸Õ¤Õ¾Õ¡Õ®Õ¶Õ¥ÖĢ": 6186, "ĠÕ°Õ¥Õ¼Õ¸ÖĤÕ½Õ¿Õ¡Õ¨Õ¶Õ¯Õ¥ÖĢ": 6187, "ĠÕ¡ÖĢÕ¿Õ¡Õ°Õ¡ÕµÕ¿Õ¾Õ¡Õ®": 6188, "ĠÕ°Õ¡Õ¿Õ¾Õ¡Õ®Õ¸ÖĤÕ´": 6189, "ĠÖħÕ£Õ¶Õ¸ÖĤÕ©ÕµÕ¸ÖĤÕ¶": 6190, "ĠÕĶÕ¸Õ¹Õ¡ÖĢÕµÕ¡Õ¶Õ¨": 6191, "ĠÕ¯Õ¡Õ¶ÖģÕ¯Õ¡Öģ": 6192, "ĠÕ½Õ¿Õ¸ÖĢÕ¡Õ¢Õ¡ÕªÕ¡Õ¶Õ¸ÖĤÕ´": 6193, "ÖĦÕ¶Õ¥ÖĢÕ¨": 6194, "ĠÕ¢Õ¸ÖĤÕ°": 6195, "Õ¡Õ¢ÖĢÕ«": 6196, "Õ¸Õ½Õ«Õ¶": 6197, "Õ¸ÖĤÖĢÕ¸ÖĤÕµÕ¶": 6198, "ĠÕĨÕµÕ¸ÖĤ": 6199, "ĠÕ½Õ¿Õ¡Öģ": 6200, "ĠÕ§Õ¬Õ«": 6201, "Ô¸Õ¶Õ¿ÖĢ": 6202, "Õ¡ÖĢÕ¡Õ¢Õ¡Õ²ÕµÕ¡Õ¶": 6203, "ĠÕŃÕ¡Õ²Õ¡Õ²Õ¸ÖĤÕ©ÕµÕ¡Õ¶": 6204, "ÕĮÕ¸ÖĤÕ½Õ¡Õ½Õ¿Õ¡Õ¶Õ«": 6205, "ĠÕ£ÖĢÕ¡Õ¯Õ¡Õ¶Õ¸ÖĤÕ©ÕµÕ¡Õ¶": 6206, "ĠÕºÕ¡ÖĢÕ¢Õ¥ÖĢÕ¡Õ¢Õ¡ÖĢ": 6207, "ĠÕ±Õ¥ÖĢÕ¢Õ¡Õ¯Õ¡Õ¬Õ¾Õ¥Õ¬": 6208, "ĠÕ¬Õ«Õ£Õ¡ÕµÕ«": 6209, "Ô¸Õ¶Õ©Õ¡ÖģÕ«Õ¯": 6210, "ĠÕ¯Õ¡ÕµÕ¡Õ¶Õ¡Õ¬Õ«ÖĦ": 6211, "DF": 6212, "tion": 6213, "ĠÕĢÕ¥Õ¶Öģ": 6214, "Õ¶Õ¥Õ¬Õ¸ÖĤÖģ": 6215, "ĠÕ¥ÖĢÕ¯ÖĢÕ¡Õ·Õ¡ÖĢÕª": 6216, "ĠÕ¤Õ«Õ´Õ¸ÖĤÕ´Õ¨": 6217, "ĠÔ±ÖĢÕ¿Õ¡Õ¯": 6218, "menian": 6219, "ĠÔ¹ÖĢÕ¡Õ´ÖĥÕ¨": 6220, "ĠÕĪÖĢÕ¸Õ·": 6221, "ĠÕĦÕ¡ÖĢÕ¤Õ¸ÖĤ": 6222, "ĠÕĪÖĤÕ¯ÖĢÕ¡Õ«Õ¶Õ¡ÕµÕ«": 6223, "EW": 6224, "line": 6225, "Ġ01": 6226, "Õ¡Õ¶Õ¶Õ¥ÖĢÕ¨": 6227, "Õ©Õ¡Öĥ": 6228, "Õ¡Õ¤ÖĢÕ¢Õ¥Õ»": 6229, "ĠÕ¡Õ¼Õ¡ÖĦ": 6230, "ĠÕ°Õ¥Õ¿Õ¡ÕŃÕ¸ÖĤÕ¦": 6231, "ĠÕ¦Õ«Õ»": 6232, "Õ¸Õ¬Õ«Õ¯": 6233, "ĠÕİÕ¡ÖĢÕ¹Õ¡ÕºÕ¥Õ¿": 6234, "ĠÕªÕ¡Õ´Õ¡Õ¶Õ¥Õ¬": 6235, "Õ¡Õ¶ÖĦÕ¶Õ¥ÖĢÕ«": 6236, "ĠÖĦÕ¡Õ²Õ¡ÖĦÕ¨": 6237, "ĠÖĨÕ¥Õ¤Õ¥ÖĢ": 6238, "Ġ300": 6239, "ÕĪÕĴÔ¹ÕħÕĪÕĴÕĨÔ¸": 6240, "Ô¿Õ¡ÕºÕ¨": 6241, "Õ¡Õ¶Õ¡Õ¹": 6242, "Õ¡ÖĢÕ¥Õ¬": 6243, "Õ¥Õ¬ÕµÕ¡Õ¶Õ¨": 6244, "Õ¡Õ´Õ¥Õ¿": 6245, "Õ½Õ¥ÖĢ": 6246, "ĠÕ£Õ¸ÖĤÕµÕ¶": 6247, "ĠÕĢÕ²": 6248, "ÕįÕ¡Õ½Õ¶Õ¡": 6249, "ĠÕ°ÖĢÕ¡Õ¾Õ«": 6250, "ĠÕ¬Õ«Õ¶Õ¥ÖĢ": 6251, "Õ¡ÖĢÕ¹Õ¡Õ¯Õ¡Õ¶": 6252, "ÕĢÕ¡ÕµÕ¡Õ½Õ¿Õ¡Õ¶Õ¨": 6253, "ĠÖĦÕ¶Õ¶Õ¡ÖĢÕ¯Õ¾Õ¥Õ¬": 6254, "ĠÕ£Õ¶Õ¡Õ°Õ¡Õ¿Õ¡Õ¯Õ¡Õ¶": 6255, "ĠÕ¡Õ´Õ½Õ¡Õ£Õ«ÖĢ": 6256, "ĠÕ¼Õ¸ÖĤÕ½Õ¥ÖĢÕ¥Õ¶": 6257, "ĠÕ´Õ¡Õ¯Õ¡ÖĢÕ¤Õ¡Õ¯Õ¸Õ¾": 6258, "ĠÔ³ÖĢÕ«Õ£Õ¸ÖĢÕµÕ¡Õ¶": 6259, "ÕıÕ¥Õ½Õ¡Õ¶ÕµÕ¸ÖĤÕ©": 6260, "ĠÕ¦Õ«Õ¶Õ®Õ¡Õ¼Õ¡ÕµÕ¸Õ²": 6261, "ĠÕ´Õ¥Õ¿Õ¡Õ²": 6262, "ĠÕįÕ¸ÖĤÖĢÕ¥Õ¶": 6263, "34": 6264, "Õ¡Õ¿Öĩ": 6265, "Õ¢Õ«Õ¬": 6266, "ĠÔ¿Õ¸Õ¾Õ¯": 6267, "Õ¥ÕºÕ¿Õ¥Õ´Õ¢Õ¥ÖĢ": 6268, "Ô±ÕĨÕħÕĪÕĴÔ¹": 6269, "ĠÔ´Õ¸ÖĤ": 6270, "Õ¸ÖĤÕ·Õ¡Õ¯": 6271, "Ġ2007": 6272, "ĠÕ«ÖĢÕ¡Õ¾Õ«Õ³Õ¡Õ¯Õ¶Õ¥ÖĢÕ«": 6273, "ĠÕ¥ÖĢÖĩÕ¸ÖĤÕ´": 6274, "ĠÕ°Õ¸ÖĢÕ«Õ¦": 6275, "ĠÕĢÕ¸Õ¾Õ«Õ¯": 6276, "Õ¸ÖĤÖĢÕª": 6277, "Õ¸ÖĤÕ¥Õ¶Õ¸Õ½": 6278, "ep": 6279, "ĠÕ´Õ«Õ£": 6280, "Õ¡Õ¾Õ³": 6281, "ĠÕ¢Õ¥ÖĢÕ´Õ¡Õ¶": 6282, "ĠÕ¬Õ¥Õ¼Õ¶": 6283, "ĠÔ¿Õ¡ÖĢÕ®Õ¸ÖĤÕ´": 6284, "ĠÕ¿Õ¡ÖĢÕ¥Õ¯": 6285, "ĠÕĢÕ¡ÕµÕ¡Õ½Õ¿Õ¡Õ¶Õ¶": 6286, "ĠÕ¡ÕµÕ½ÕºÕ«Õ½Õ«": 6287, "Õ«Õ¹Õ¶Õ¥ÖĢ": 6288, "ĠÔ±ÕµÖĢÕ¥Õ½": 6289, "ĠÕ¡Õ¦Õ¶": 6290, "ĠÕºÕ¡Õ°Õ¥Õ¬Õ¸ÖĤ": 6291, "ĠÕ¢Õ¡ÖģÕ¡ÖĢÕ±Õ¡Õ¯": 6292, "ĠÖĥÕ¸ÕŃÕ°Õ¡Õ¿": 6293, "Õ¥ÕµÕ©": 6294, "ĠÕ°Õ¡Õ¶ÖĢÕ¡Õ°Õ¡Õ¾Õ¡ÖĦ": 6295, "ĠÕ±Õ¥Õ¼ÖĦÕ¢Õ¥ÖĢÕ¸ÖĤÕ´": 6296, "ĠÕ¡Õ¶ÖģÕ¯Õ¡ÖģÖĢÕ¥Õ¬": 6297, "ĠÕ¼Õ¡Õ¦Õ´Õ¡Õ¾Õ¡ÖĢÕ¡Õ¯Õ¡Õ¶": 6298, "ĠÕ¡Õ¶Õ¸ÖĤÕ¶Õ¸Õ¾": 6299, "ĠÕ¾Õ¡ÖĢÕ¯Õ¡Õ¶Õ«Õ·": 6300, "ĠÔµÖĢÕ¥ÖĤÕ¡Õ¶": 6301, "ĠÕįÕ¡Õ°Õ´Õ¡Õ¶Õ¡Õ¤ÖĢÕ¸ÖĤÕ©ÕµÕ¡Õ¶": 6302, "ĠÕ¡Õ¼Õ¶Õ¹Õ¾Õ¸Õ²": 6303, "ĠÕĦÕ¸Õ½Õ¯Õ¾Õ¡ÕµÕ¸ÖĤÕ´": 6304, "ĠÕºÖĢÕ¸ÖĨÕ¥Õ½Õ«Õ¸Õ¶Õ¡Õ¬": 6305, "Õ¡ÕµÕ¤": 6306, "ĠÔ±ÕĦ": 6307, "ĠÔ±Õħ": 6308, "Õ¡Õ¤Õ¡ÖĢÕ«": 6309, "Õ°Õ¡Õ½Õ¡ÖĢÕ¡Õ¯": 6310, "ĠÕ®ÕŃ": 6311, "Õ¡Õ´Õ¢Õ¡ÖĢ": 6312, "ĠÕ¡Õ½Õ¾Õ¡Õ®": 6313, "Ô²Õ¡Õ¶": 6314, "ĠÕºÕ¡Õ°Õ¸ÖĤÕ´": 6315, "ĠÕ¡Õ¶Õ°Õ¥Õ¿": 6316, "ÕĩÔ½": 6317, "lette": 6318, "Õ¡Õ·ÕŃÕ¡Õ¿": 6319, "ĠÕ¯ÖĢÕ©Õ¡Õ°Õ¡Õ´Õ¡Õ¬Õ«ÖĢ": 6320, "ĠÕ¶Õ«Õ½Õ¿Õ«Õ¶": 6321, "ĠÔºÕ¡Õ´Õ¡Õ¶Õ¡Õ¯": 6322, "ĠÕ¥Õ¬Õ¶Õ¥Õ¬Õ¸Õ¾": 6323, "ĠÕºÕ¡Õ¿Õ¾Õ«ÖĢÕ¡Õ¯Õ¸ÖĤÕ©ÕµÕ¡Õ¶": 6324, "ĠÔ¿Õ¡Õ¼Õ¡Õ¾Õ¡ÖĢÕ¸ÖĤÕ©ÕµÕ¡Õ¶": 6325, "ĠÕ¹Õ¡ÖĢÕ¡Õ·": 6326, "ĠÕ«ÖĢÕ¡Õ¾Õ¡Õ½Õ¸ÖĤÕ©ÕµÕ¡Õ¶": 6327, "ĠÕįÕµÕ¸ÖĤÕ¶Õ«ÖĦÕ«": 6328, "Õ¡ÖģÖĢÕ¡Õ®": 6329, "ĠÕ¿Õ¡Õ³": 6330, "ĠÕ£Õ¡Õ¶Õ±": 6331, "ĠÔ±ÖĢÕ£": 6332, "ĠÕ©Õ¡Õ£": 6333, "ĠÕ·ÖĦ": 6334, "ĠÕ¬Õ¥Õ£": 6335, "ÖĢÕ¾Õ¥Õ¬Õ¸ÖĤ": 6336, "Ô²Õ¡ÕªÕ¡Õ¶Õ¸ÖĢÕ¤": 6337, "ĠÕ¶Õ¥ÖĢÕ¯Õ¡ÕµÕ«Õ½": 6338, "Ġ37": 6339, "ĠÕ¢Õ¡Õ¶Õ¥ÖĢÕ¨": 6340, "ĠÕ«Õ¶ÖĦÕ¶Õ¸ÖĤÖĢÕ¸ÖĤÕµÕ¶": 6341, "ĠÕ°Õ¸Õ¤Õ¾Õ¡Õ®Õ¸Õ¾": 6342, "Õ¾Õ¥Õ¬Õ¸ÖĤÖģ": 6343, "Õ¡ÖĦÕ¶Õ¶Õ«Õ¹": 6344, "ĠÕ¾Õ³Õ¡ÖĢÕ¥Õ¬": 6345, "ĠÕ¾Õ¡ÖĢÕ¯Õ¡ÕµÕ«Õ¶": 6346, "ĠÖħÖĢÕ¥Õ¶Õ½Õ¤ÖĢÕ¡Õ¯Õ¡Õ¶": 6347, "ĠÕĦÕ¶Õ¡ÖģÕ¡Õ¯Õ¡Õ¶": 6348, "Õ¡Õ¤ÖĢÕ¢Õ¥Õ»Õ¡Õ¶Õ¡Õ¯Õ¡Õ¶": 6349, "ĠÕ¤Õ¡Õ·Õ¶": 6350, "ĠÕĢÕ¥Õ¼": 6351, "ÕĨÕ¥ÖĢÕ¢": 6352, "ĠÕ®Õ¥ÖĢ": 6353, "ÕıÕ¡ÖĢÕ¡Õ®": 6354, "Ô±ÕĨÔ¿": 6355, "ĠÕ¡Õ½Õ¥Õ¬Õ¸Õ¾": 6356, "ĠÔ¼ÖĢ": 6357, "Õ¡Õ±Õ¸ÖĢ": 6358, "ĠÕ´Õ·Õ¡Õ¯Õ¸ÖĤÕµÕ©": 6359, "ĠÕ´Õ¥Õ²Õ´": 6360, "ĠÔ±ÖĢÕ®": 6361, "ĠÕ¤Õ¡Õ¼Õ¶Õ¡Õ¬Õ¸ÖĤ": 6362, "ĠÕĢÔ±ÕĦÔ±ÕĲ": 6363, "ĠÕ¡Õ¼ÖĩÕ¿ÖĢÕ¡ÕµÕ«Õ¶": 6364, "ĠÕ¿ÖĢÕ¡Õ¶Õ½ÕºÕ¸ÖĢÕ¿Õ«": 6365, "ĠÖħÕªÕ¡Õ¶Õ¤Õ¡Õ¯": 6366, "ĠÕ¡ÖĢÕ¿Õ£Õ¸ÖĢÕ®Õ¶Õ¡ÕŃÕ¡ÖĢÕ¡ÖĢ": 6367, "EWS": 6368, "ram": 6369, "Õ«Õ¶Õ¤": 6370, "ĠÕ¡Õ¶Õ¡Õ¯": 6371, "ĠÕ®Õ¼": 6372, "ĠÕ°Õ¡ÕµÕ¿Õ¡ÖĢ": 6373, "Õ¡ÖĢÕ¡Õ¶Õ¶Õ¥ÖĢÕ«": 6374, "ĠÕ®Õ¡Õ¼Õ¡ÕµÕ¸ÖĤÕ©ÕµÕ¸ÖĤÕ¶Õ«Öģ": 6375, "ĠÕ°Õ¡ÕµÕ¿Õ¡ÖĢÕ¡ÖĢÕ¸ÖĤÕ©ÕµÕ¡Õ¶": 6376, "ĠÔ±Õ¶Õ¿": 6377, "ĠÔ²Õ¥Õ¬Õ¡Õ¼": 6378, "AR": 6379, "ĠÖħÕ²": 6380, "ĠÖħÖĢÕ½": 6381, "ÕĦÕŃÕ«Õ©": 6382, "Õ¡Õ©Öĩ": 6383, "Õ¡Õ¶Õ¤Õ¡ÖĢÕ¿": 6384, "ĠÕ¡Õ¶Õ°Õ¡Õ´": 6385, "ĠÕ¿Õ¥Õ²Õ¥Õ¯Õ¸ÖĤÕ©ÕµÕ¸ÖĤÕ¶": 6386, "ĠÕºÕ¡Õ·Õ¿Õ¸Õ¶Õ¡Õ¿Õ¡ÖĢ": 6387, "196": 6388, "ĠÕ¸ÖĤÕªÕ¨": 6389, "ĠÖĥÕ¸ÖĥÕ¸ÕŃÕ¾Õ¥Õ¬": 6390, "ĠÕ¶Õ¾Õ¥ÖĢ": 6391, "ĠÕ´Õ¥Õ¯Õ¶Õ¡ÖĢÕ¯Õ¥Õ¬": 6392, "ĠÖħÖĢÕ¥Õ¶ÖĦÕ¸ÖĤÕ´": 6393, "ĠÕ£ÖĢÕ¡Õ¶ÖģÕ¾Õ¥Õ¬": 6394, "ĠÔµÖĢÕ¥ÖĤÕ¡Õ¶Õ¸ÖĤÕ´": 6395, "ĠÔ·Õ¤Õ¸ÖĤÕ¡ÖĢÕ¤": 6396, "ĠÔ²ÖĢÕ«Õ¿Õ¡Õ¶Õ«Õ¡ÕµÕ«": 6397, "ĠÕ°ÖĢÕ¡Õ·Õ¡Õ¬Õ«": 6398, "ĠÕ¶Õ¥ÖĢÕ½Õ¸ÖĤÕ´": 6399, "ĠÕ¥ÖĢÕ»Õ¡Õ¶Õ«Õ¯": 6400, "ĠÕ¡Õ¶ÖģÕ¯Õ¡ÖģÕ´Õ¡Õ¶": 6401, "Õ¡Õ¶Õ¾": 6402, "Õ¯Õ¸Õ¿": 6403, "Õ¯Õ¡ÖģÕ¡Õ®": 6404, "ĠÕ£Öģ": 6405, "ĠÔ±Õ¶Õ¶Õ¡": 6406, "Õ¢Õ¡Öģ": 6407, "ĠÕ¥ÖĢÕ¯Õ¯Õ¸Õ²Õ´": 6408, "ÕİÕ¡ÖĢÕ¤": 6409, "ĠÖĨÕ¸Õ¿": 6410, "Ô¼Õ¸ÖĤÕ½": 6411, "ÖĨÕ«": 6412, "ĠÕºÕ¡Õ°ÕºÕ¡Õ¶Õ¸ÖĤÕ©ÕµÕ¡Õ¶": 6413, "Õ¡ÖĢÕªÕ¡Õ¶": 6414, "ĠÕ¿Õ¡ÖĢÕ¡Õ®Õ¾Õ¡Õ®": 6415, "ĠÕ«ÖĢÕ¡Õ¯Õ¡Õ¶Õ¡ÖģÖĢÕ¥Õ¬": 6416, "ÖĢÕµÕ¸ÖĤÕ½": 6417, "ĠÕ¶ÖĢÕ¡Õ¶ÖģÕ«Öģ": 6418, "ĠÕ½Õ¯Õ½Õ¾Õ¥Õ¬": 6419, "ĠÕĪÖĤÖĢ": 6420, "ĠÖĦÕ¡ÕµÕ¬Õ¥ÖĢ": 6421, "ÔµÕįÔ±ÕĨÕħÕĪÕĴÔ¹": 6422, "ĠÕ´Õ¡Õ½Õ¶Õ¡Õ£Õ¥Õ¿Õ¶Õ¥ÖĢÕ«": 6423, "ĠÕ©Õ¥ÖĢÕ©Õ«": 6424, "ĠÕ°Õ¡Õ¶Õ±Õ¶Õ¥Õ¬": 6425, "ĠÕ°ÖĢÕ¡Õ¾Õ«ÖĢÕ¥Õ¬": 6426, "ĠÕ½ÕºÕ¸ÖĢÕ¿Õ«": 6427, "ĠÕ¾Õ¯Õ¡ÕµÕ¸ÖĤÕ´": 6428, "ÕµÕ¡ÖĢÕ¤": 6429, "ĠÕ¯Õ¾": 6430, "ĠÕ¯Õ¡ÖĢÕ´Õ«ÖĢ": 6431, "Õ´Õ¡Õ°": 6432, "Õ¸Õ²Õ¶": 6433, "Õ¡Õ£ÖĢÕ£": 6434, "ĠÕ½Õ¸ÖĤÖĢÕ¢": 6435, "Õ¡ÕŃÕ¡ÕŃÕ¿": 6436, "ĠÖĦÕ¡Õ²Õ¡ÖĦÕ¡ÕµÕ«Õ¶": 6437, "ĠÔ¼Õ¥Õ°": 6438, "Õ³Õ«": 6439, "ÕºÖĢÕ«Õ¬": 6440, "ĠÕķÕ£Õ¿Õ¡Õ£Õ¸ÖĢÕ®Õ´Õ¡Õ¶": 6441, "ĠÕ½Õ¿Õ¥Õ²Õ®Õ¥Õ¬Õ¸ÖĤ": 6442, "ĠÕ°Õ«Õ´Õ¶Õ¾Õ¡Õ®": 6443, "arm": 6444, "ĠÕ¯Õ¸Õ¹Õ¾Õ¸ÖĤÕ´": 6445, "ĠÕ°Õ¡Õ³Õ¡ÕŃÕ¸ÖĢÕ¤": 6446, "ĠÕ£Õ¸ÖĢÕ®Õ¡Õ¯Õ¡Õ¬Õ¸ÖĤÕ©ÕµÕ¡Õ¶": 6447, "Õ¥Õ´Õ«Õ¥ÖĢ": 6448, "ĠÕĦÔ»Õĭ": 6449, "ĠÕ¥Õ¦ÖĢÕ¡ÖĥÕ¡Õ¯Õ«Õ¹": 6450, "ĠÔ¿Õ¸Õ´Õ«Õ¿Õ¡Õ½": 6451, "ĠÔ»Õ¶Õ¿Õ¥ÖĢÕ¶Õ¥Õ¿": 6452, "pp": 6453, "Ġn": 6454, "Õ¡ÕµÕ¥Õ¬Õ«": 6455, "Õ´Õ¡": 6456, "ĠÕĢÕ¡Õ´Õ¢": 6457, "ÕĢÕ¸Õ¯Õ¿Õ¥Õ´Õ¢Õ¥ÖĢÕ«": 6458, "ÔµÕĬ": 6459, "Ô²Õ¡ÖĢÕ«": 6460, "ĠÕ³Õ¡Õ´Öĥ": 6461, "ĠÕ¯Õ¡Õ¦Õ´Õ¾Õ¡Õ®": 6462, "Õ¥Õ½Õ¿Õ¸ÖĢ": 6463, "ĠÕ¬ÖĢÕ«Õ¾": 6464, "ĠÕ°Õ¡Õ½Õ¿Õ¡Õ¿Õ¾Õ¡Õ®": 6465, "ĠÕ¯ÖĢÕ¸Õ¶Õ¡Õ¯Õ¡Õ¶": 6466, "ĠÕ¾Õ«Õ³Õ¡Õ¯Õ¡Õ£ÖĢÕ¸ÖĤÕ©ÕµÕ¸ÖĤÕ¶": 6467, "Õ¢Õ«Õ¬Õ«Õ½Õ«": 6468, "ðŁ": 6469, "ĠÕ°Õ¸Õ¾Õ¡Õ¶": 6470, "ĠÕ´Õ¥Õ¼": 6471, "ĠÔ±Õ¾Õ¥Õ¬Õ«": 6472, "ĠÖĦÕ¡Õ¶Õ¡Õ¯Õ¨": 6473, "ĠÕ¬Õ¾": 6474, "ĠÕ¬Õ¸Õ²": 6475, "ĠÕ°Õ¥Õ¿Õ¡Õ±Õ£": 6476, "ĠÖĥÕ«Õ¬Õ«Õ½Õ¸Öĥ": 6477, "Õ±Õ¥Õ¼": 6478, "ĠÔ»Õ¬": 6479, "ĠÕ¡Õ½Õ¾Õ¸ÖĤÕ´": 6480, "ĠÕ¡Õ´Õ¥Õ¶Õ¡Õ¯Õ¡ÖĢ": 6481, "ĠÕ£Õ¶Õ¡ÖģÕ¥Õ¬": 6482, "ĠÕ¶Õ¥ÖĢÕ¸ÖĤÕª": 6483, "ĠÕ¡ÕµÖģÕ¨": 6484, "Ġ2000": 6485, "ĠÕ´Õ¡Õ¿Õ¶": 6486, "ĠÕ´Õ¡Õ¿Õ¹Õ¥Õ¬Õ«": 6487, "ĠÕ´Õ¡Õ½Õ¶Õ¡Õ¯Õ«ÖģÕ¶Õ¥ÖĢÕ¨": 6488, "ĠÕ¢Õ¡Õ²Õ¯Õ¡ÖģÕ¡Õ®": 6489, "ĠÕ¦Õ¡Õ¶Õ£Õ¾Õ¡Õ®Õ¡ÕµÕ«Õ¶": 6490, "ĠÔ³Ô±Ô±": 6491, "ĠÕ©Õ¥Õ©Öĩ": 6492, "ĠÕ«Õ¶ÖĦÕ¶Õ¡Õ¯Õ¡Õ¼Õ¡Õ¾Õ¡ÖĢÕ´Õ¡Õ¶": 6493, "ce": 6494, "ting": 6495, "ĠÕ°Õ¡ÖĢÕ±Õ¡Õ¯Õ¸ÖĤÕ´": 6496, "Õ¥Õ¬ÖĦÕ¸ÖĤÕ´": 6497, "ĠÕ¤Õ«Õ¶": 6498, "Õ¡Õ°Õ«Õ¿": 6499, "ĠÕ°Õ¡Õ´Õ¢": 6500, "ĠÕŃÕ¡Õ¼Õ¶": 6501, "ĠÕ¡Õ½Õ¸ÖģÕ«": 6502, "ĠÕ¯Õ¡Õ¦Õ´Õ«": 6503, "ĠÕ¿Õ¥Õ²Õ¥Õ¯Õ¡ÖģÖĢÕ¥Õ¬": 6504, "Ô·Õ¤": 6505, "ĠÕ°Õ¡Õ¾Õ¡ÖĦÕ¡Õ¯Õ¡Õ¶Õ¨": 6506, "ĠÕ°Õ¡ÖĢÕ¯Õ«": 6507, "ĠÕ¡Õ¼Õ¡Õ»Õ¶Õ¡Õ°Õ¥ÖĢÕ©": 6508, "ĠÕ¥ÖĢÕ£Õ«": 6509, "ÕģÕ¥Õ¦": 6510, "ĠÕ¯Õ¸ÖĢÕ¸ÖĤÕ½Õ¿": 6511, "ÕĦÕ¡ÖĢÕ¤Õ¸ÖĤ": 6512, "ĠÕ¿Õ¡ÖĢÕ¥Õ¬Õ«Öģ": 6513, "Õ¡Õ·Õ¡Õ¼ÖĦ": 6514, "Õ¡ÕŃÕ¡Õ£Õ®Õ«": 6515, "ÕĢÔµÕıÔµÕİ": 6516, "Ġl": 6517, "ÖĢÕ·": 6518, "Õ¥ÖĢÕ¸Õ«Õ¤": 6519, "ĠÕ¤Õ¸Õ¯": 6520, "ĠÕ¡Õ¶ÕŃ": 6521, "ĠÕ©Õ¡Õ¬": 6522, "ĠÕ©Õ§": 6523, "ÕŃÕ¡Õ²": 6524, "Õ¸ÖĤÕµÕ¿": 6525, "ĠÕ½Õ¿Õ¡Õ¶Õ±": 6526, "ĠÕĬÔµÔ¿": 6527, "ĠÕ¡Õ´Õ¥Õ¶Õ¡Õ°": 6528, "ĠÕ¦Õ£Õ¸ÖĤÕ·": 6529, "ĠÕ¯Õ¡Õ¼Õ¸ÖĤÖģÕ¥Õ¬": 6530, "ĠÕ°Õ¡ÕµÖĢÕ¥Õ¶Õ«ÖĦ": 6531, "ĠÖĥÕ¡Õ½Õ¿Õ¡Õ©Õ¸ÖĤÕ²Õ©": 6532, "ĠÕ¶Õ¡ÕŃÕ¨Õ¶Õ¿ÖĢ": 6533, "ĠÕºÕ¡Õ¬Õ¡Õ¿Õ«": 6534, "ÕĪÖĤÕ²Õ«Õ²": 6535, "ĠÕ´Õ«Õ¡Õ¶Õ£Õ¡Õ´Õ«Öģ": 6536, "ÕĢÔµÕıÔµÕİÔµÕĶ": 6537, "Ð»": 6538, "ĠÕ¯Õ¾Õ¥ÖĢ": 6539, "ĠÕ¡Õ¶Õ»": 6540, "ĠÖĦÕ¡Õ¶Õ¤": 6541, "Õ¾Õ¡Õ®ÖĦÕ¶Õ¥ÖĢÕ«": 6542, "ÔµÕ¾ÖĢ": 6543, "Õ°Õ¥Õ¿": 6544, "ĠÔ¿Ô³": 6545, "ĠÔ´ÖĢÕ¡Õ¶ÖĦ": 6546, "ĠÕķÖĢÕ¥Õ¶": 6547, "ĠÕºÕ¡ÕµÕ´Õ¡Õ¶Õ¡Õ£Õ«ÖĢÕ¨": 6548, "ĠÕ¤ÕºÖĢÕ¸ÖģÕ¨": 6549, "ĠÕºÕ¡ÖĢÕ¸ÖĤÕ¶Õ¡Õ¯": 6550, "ĠPDF": 6551, "ĠÔ»Õ¶Õ¹Õ¸": 6552, "ÕĬÕ¡Õ¿Õ¡Õ°Õ¡Õ¯Õ¡Õ¶": 6553, "ĠÕĥÕ¡Õº": 6554, "ĠÕ¼Õ¥ÕªÕ«Õ½Õ¸ÖĢ": 6555, "ĠÕ°Õ¡Õ´Õ¸Õ¦Õ¾Õ¡Õ®": 6556, "Õ¡Õ¯ÖĢÕ©Õ¡Õ¯Õ¡Õ¶": 6557, "og": 6558, "ĠÕ¯Õ¸ÖĤÖĢÕ½": 6559, "ĠÕ¿ÕŃ": 6560, "ĠÕ£Õ«ÖĢÖĦÕ¨": 6561, "Õ¸Õ¶Õ¿": 6562, "Ô²Õ¸ÖĤÕ¥Õ¶Õ¸Õ½": 6563, "ĠÕ¢Õ¡ÖģÕ¥Õ¬": 6564, "ĠÕ¯Õ¡Õ¿Õ¥Õ£Õ¸ÖĢ": 6565, "ĠÕ°Õ¡Õ¾Õ¡ÖĦÕ¡Õ®": 6566, "ĠCh": 6567, "ĠÕ¦Õ¢Õ¡Õ²Õ¾Õ¡Õ®": 6568, "ĠÔ±Õ¾Õ¡Õ£": 6569, "ĠÕ£Õ¥ÖĢÕ¡Õ¿Õ¥Õ½": 6570, "ĠÖĥÕ¸ÕŃÕ¡Õ¶ÖģÕ¸ÖĤÕ´": 6571, "ĠÔ½Õ¡Õ¹Õ¡Õ¿ÖĢÕµÕ¡Õ¶Õ¨": 6572, "ĠÕ¡Õ¼ÖĩÕ¿ÖĢÕ«": 6573, "ÕıÕºÕ¥Õ¬Õ¸ÖĤ": 6574, "Õ¡ÕµÕªÕ´": 6575, "ĠÕ£Õ¡": 6576, "Õ¡Õ¼Õ¸ÖĤ": 6577, "Ô±Õ°": 6578, "ĠÕįÕ¡Õ¶": 6579, "ĠÕ¸ÖĤÕ¶Õ¡Õ¯": 6580, "ĠÕ¡Õ·ÕŃÕ¡Õ¿Õ¸Õ²": 6581, "Õ¨Õ¶Õ¯Õ¥ÖĢ": 6582, "ĠÕ¯Õ¡Õ¶Õ¡Õ¹": 6583, "ĠÕ¡Õ²Õ´": 6584, "ĠÕ¡Õ²ÖĦÕ¡Õ¿": 6585, "ĠÖĥÕ¡Õ½Õ¿Õ¨": 6586, "ĠÕ°Õ²Õ¥Õ¬": 6587, "ĠÕĦÕ«Õ¡ÕµÕ¶": 6588, "ĠÕ°Õ¥Õ¿Õ¡Õ¦Õ¸Õ¿Õ¸ÖĤÕ©ÕµÕ¸ÖĤÕ¶Õ¶Õ¥ÖĢÕ«": 6589, "ĠÕ½Õ¿Õ¥Õ²Õ®Õ¡Õ£Õ¸ÖĢÕ®Õ¡Õ¯Õ¡Õ¶": 6590, "ĠÕ¥Õ¼Õ¡Õ´Õ½": 6591, "Õ¡ÖĢÕŃÕ«Õ¾": 6592, "ĠÕ½ÖĥÕµÕ¸ÖĤÕ¼ÖĦÕ«": 6593, "ĠMediam": 6594, "ĠÕ´Õ¡ÖĢÕ¿Õ¡Õ°ÖĢÕ¡Õ¾Õ¥ÖĢ": 6595, "ĠÕ¸Õ´Õ¡Õ¶": 6596, "Õ¬Õ¨": 6597, "ÕĨÕ¸ÖĤÕµÕ¶": 6598, "ĠÕºÕ¥Õ¿Õ¸ÖĤÕ©ÕµÕ¸ÖĤÕ¶Õ¨": 6599, "ĠÕ°Õ¡ÖĢÖģÕ¸Õ¾": 6600, "Õ¥ÕµÕ¿": 6601, "info": 6602, "one": 6603, "ĠÕĮÕ¸ÖĤÕ½Õ¡Õ½Õ¿Õ¡Õ¶Õ¸ÖĤÕ´": 6604, "ĠÕ°Õ²Õ«": 6605, "ĠÕ¬Õ¥Õ¦Õ¸ÖĤ": 6606, "ĠÔ»ÖĢÕ¡ÖĦ": 6607, "ĠÕ¡Õ»Õ¡Õ¯ÖģÕ¥Õ¬": 6608, "ĠÕ°Õ¡Õ´Õ¡Õ¬Õ½Õ¡ÖĢÕ¡Õ¶Õ¸ÖĤÕ´": 6609, "ĠÕ¬Õ½Õ¸ÖĤÕ´": 6610, "ĠÕŃÕ¸ÖĢÕ¡Õ£ÖĢÕ¸Õ¾": 6611, "ĠÖĥÕ¡Õ½Õ¿Õ¡Õ©Õ²Õ©Õ¥ÖĢÕ«": 6612, "ĠÕ¯Õ¡Õ©Õ¸Õ²Õ«Õ¯": 6613, "ĠÕ¨Õ¶Õ©Õ¡Õ¶Õ¸ÖĤÕ´": 6614, "ĠÕ£Õ¡Õ²Õ¿Õ¶Õ¡Õ¢": 6615, "ĠÕ¡ÖĢÕ¿Õ¡Õ½Õ¡Õ°Õ´Õ¡Õ¶": 6616, "Õ¶Õ¨": 6617, "ÕµÕ¸ÖĤÕ¿": 6618, "Õ¡ÖĢÕ¸Õ¾": 6619, "ĠÕ¯Õ«Öģ": 6620, "ĠÕ¯Õ¯Õ¡ÖĢÕ¸Õ²": 6621, "Õ¡ÖģÕ¸ÖĤÖģÕ«Õ¹": 6622, "ĠÕ¤Õ«Õº": 6623, "ĠÕ¾Õ¡ÖĢÕ¤": 6624, "ĠÖĦÖĢÕ¥": 6625, "ÕĲÔ´": 6626, "ÕıÕ¶Õ¿Õ¥Õ½": 6627, "ĠÕ¾Õ¥ÖĢÕ¡ÕºÕ¡Õ¿ÖĢÕ¡Õ½Õ¿": 6628, "ĠÕªÕ¡Õ´Õ¡Õ¶": 6629, "ĠÖħÖĢÕ¥ÖĢÕ«": 6630, "Õ¸ÖĤÕ²Õ«": 6631, "ĠÕ¡Õ¶ÖģÕ¶Õ¥Õ¬": 6632, "Õ¸Õ¢Õ¡Õ¬": 6633, "ĠÕ²Õ¥Õ¯Õ¡Õ¾Õ¡ÖĢÕ¶Õ¥ÖĢÕ«": 6634, "ĠÕ¤ÖĢÕ¡Õ´Õ¡Õ¯Õ¡Õ¶": 6635, "ĠÕ¡ÕµÖģÕ«": 6636, "Ġ2006": 6637, "ĠÕ°Õ¡Õ²Õ©Õ¥Õ¬": 6638, "ĠÕ¦Õ¸ÖĢÖĦÕ¥ÖĢÕ«": 6639, "ĠÕºÕ¡Õ¿Õ¡Õ½ÕŃÕ¡Õ¶Õ¡Õ¿Õ¾Õ¸ÖĤÕ©ÕµÕ¸ÖĤÕ¶Õ¨": 6640, "ĠÕ¿Õ¡ÖĢÕ¡Õ®Õ¡Õ·ÖĢÕ»Õ¡Õ¶Õ«": 6641, "ĠÕİÕ¥ÖĢÖģÕ¾Õ¡Õ®": 6642, "Ô¹Õ¸ÖĤÖĢÖĦÕ«Õ¡ÕµÕ«": 6643, "Õ¡Õ¶Õ¸Õ¾": 6644, "Õ¸Õ¨": 6645, "Õ¡ÖĢÕ¸ÖĤÕ¶": 6646, "ĠÖĥÕ¸ÖĤÕ¬Õ«": 6647, "ĠÕįÕ¡ÖĢ": 6648, "Õ¡ÖĢÕ¿Õ¡Õ°Õ¡Õ¶": 6649, "ĠÕ°Õ¡ÖĢÕ¡Õ¾": 6650, "Õ´Õ¢Õ¸Õ²Õ»": 6651, "ÕµÕ¡Õ¬Õ¶Õ¥ÖĢÕ«": 6652, "ĠÕĵÕ¸ÖĦÖĢ": 6653, "ĠÕ´Õ¿Õ¡Õ¤Õ«ÖĢ": 6654, "2011": 6655, "ĠÕĢÕ¡Õ¶ÖĢÕ¡ÕºÕ¥Õ¿Õ¡Õ¯Õ¡Õ¶": 6656, "ĠÕ¥ÖĢÕ¥ÕŃÕ¡ÕµÕ«Õ¶": 6657, "Ô±ÕĦÕĪÕĴÔ¼": 6658, "ĠÕ°ÖĢÕ¡ÕºÕ¡ÖĢÕ¡Õ¯Õ¾Õ¡Õ®": 6659, "ĠÕºÕ¡Õ°Õ¡Õ¶Õ»Õ¥Õ¬": 6660, "ĠÕ¡Õ¶Õ°ÖĢÕ¡ÕªÕ¥Õ·Õ¿Õ¸ÖĤÕ©ÕµÕ¡Õ¶": 6661, "ĠÕºÕ¡ÕµÖĦÕ¡ÖĢÕ¨": 6662, "ÕĨÕ¡ÕŃÕ¸ÖĢÕ¤Õ¨": 6663, "ĠÕ¡ÖĢÕ¿Õ¡Õ½Õ¡Õ¶Õ¸ÖĤÕ©ÕµÕ¸ÖĤÕ¶Õ¨": 6664, "ĠÕ¶Õ¸ÖĢÕ´Õ¡Õ¬": 6665, "Õ¡ÖĢÖĦÕ¸ÖĤÕ¶Õ«ÖĦÕ«": 6666, "Ġ00": 6667, "Õ¶Õ©": 6668, "Õ¾Õ¥ÖĦ": 6669, "ĠÔ±ÕĩÔ½": 6670, "Õ¾Õ¡Õ®ÖĦÕ¨": 6671, "ĠÕ¬ÖĦ": 6672, "ĠÕĦÕ¥ÖĢÕ±Õ¡Õ¾Õ¸ÖĢ": 6673, "ÕĪÔ¼": 6674, "Õ½Õ¿ÖĢÕ«": 6675, "ĠÔ´Õ¸Õ¶Õ¡Õ¬Õ¤": 6676, "ĠÔ±ÕµÕªÕ´": 6677, "ĠÕ¶Õ¥ÖĢÕ¯Õ¡ÕµÕ¡ÖģÕ¶Õ¸Õ²": 6678, "ÖĢÕ©Õ«Õ¼": 6679, "ĠÕ¶Õ¯Õ¡Õ¿Õ«": 6680, "ĠÕºÕ¡Õ¿ÖĢÕ¡Õ½Õ¿Õ¥Õ¬": 6681, "ĠÕ¦Õ£Õ¥Õ½Õ¿": 6682, "ĠÕ¡Õ¶ÖģÕ¯Õ¡ÖģÕ¶Õ¥Õ¬Õ¸ÖĤ": 6683, "ĠÕ´Õ¡Õ¯Õ¡ÖĢÕ¤Õ¡Õ¯Õ¨": 6684, "Ô±ÕįÕıÔ±ÕĨ": 6685, "ĠÕ¤Õ¡Õ·Õ¿Õ¸ÖĤÕ´": 6686, "ĠÖĦÕ¾Õ¥Õ¡ÖĢÕ¯Õ¸ÖĤÕ©ÕµÕ¡Õ¶": 6687, "Ô±Õ·ÕŃÕ¡ÖĢÕ°Õ«": 6688, "Õ¸ÖĤÖĢÕ³": 6689, "Ô±Õ¾Õ¥Õ¬": 6690, "Õ£Õ«Õ¿": 6691, "Õ¡ÕŃÕ¡Õ²": 6692, "ĠÕ©Õ¸ÖĤÕ¬": 6693, "ÕĨÕ¡Õ¾": 6694, "ÕĪÕĩ": 6695, "ĠÕİÔµÕĲ": 6696, "ÖħÕ¤": 6697, "ĠÕĬÕĪÔ±Ô¿": 6698, "Õ¶Õ¡Õ¯Õ¡Õ¦Õ´": 6699, "ĠÕ¡Õ´Õ¥Õ¶Õ¡ÕµÕ¶": 6700, "ĠÕ¯Õ¡ÕºÕ«Õ¿Õ¡Õ¬": 6701, "ĠÕ´Õ¡ÖĢÕ¦Õ¥ÖĢÕ¸ÖĤÕ´": 6702, "ĠÖģÕ¸ÖĤÖģÕ¡Õ¯Õ¸ÖĤÕ´": 6703, "ĠÕĪÖĤÕ²": 6704, "ĠÕ¢Õ¶Õ¸ÖĤÕµÕ©Õ«": 6705, "ĠÕ¶Õ·Õ¡Õ¶Õ¡Õ¯Õ¸ÖĤÕ©ÕµÕ¡Õ¶": 6706, "ĠÕ°Õ¡Õ½Õ¡ÖĢÕ¡Õ¯Õ¡ÕµÕ¶Õ¸ÖĤÕ©ÕµÕ¡Õ¶": 6707, "ÕĪÕĲÕı": 6708, "ĠÕ°Õ¡Õ¦Õ¡ÖĢÕ¡Õ¾Õ¸ÖĢ": 6709, "ĠÕ°Õ¡Õ»Õ¸Õ²Õ¸ÖĤÕ©ÕµÕ¡Õ¶": 6710, "ĠÕ£Õ¥ÖĢÕ¥Õ¦": 6711, "ĠÔµÖĢÕ¯ÖĢÕ¸ÖĢÕ¤": 6712, "ĠÕ¾Õ¡ÕµÖĢÕ¯": 6713, "ĠÕ¦Õ¸ÖĤÕ£Õ¡Õ°Õ¥Õ¼": 6714, "ÖĢÕ¡Õ´Õ¡Õ½Õ¶Õ¸ÖĤÕ©ÕµÕ¸ÖĤÕ¶Õ¶Õ¥ÖĢÕ«": 6715, "ĠÕ¡ÖĢÕµÕ¸ÖĤÕ¶": 6716, "ĠÕĲ": 6717, "ĠÕ¯Õ¯Õ¡Õµ": 6718, "ĠÕ¤Õ¡ÖĢÕº": 6719, "Õ¡Õ¤Õ¡Õ½": 6720, "ÕĦÔ±Ô¿": 6721, "ĠÕĬÔµÕı": 6722, "ĠÕŃÕ¸ÖĢÕ°ÖĢÕ¤Õ¡ÖĢÕ¡Õ¶Õ¸ÖĤÕ´": 6723, "ĠÖģÕ¡Õ¶Õ¯Õ¸ÖĤÕ©ÕµÕ¸ÖĤÕ¶": 6724, "ĠÕ°Õ¡Õ·Õ¾Õ¡Õ¼Õ´Õ¡Õ¶": 6725, "ĠÕºÕ¡Õ¿ÖĢÕ¡Õ½Õ¿Õ¡Õ¯Õ¡Õ´": 6726, "ĠÕĮÕ¸ÖĤÕ½Õ¡Õ½Õ¿": 6727, "ĠÕ°Õ¡Õ¶Õ±Õ¶Õ¡ÕªÕ¸Õ²Õ¸Õ¾Õ¨": 6728, "ĠÕ°Õ«Õ¡Õ¶Õ¡Õ¬Õ«": 6729, "ĠÕ°Õ¸Õ£Õ¥Õ¢Õ¡Õ¶Õ¡Õ¯Õ¡Õ¶": 6730, "ĠÖħÖĢÕ¥Õ¶Õ½Õ¤ÖĢÕ¸ÖĤÕ©ÕµÕ¡Õ´Õ¢": 6731, "ĠÕ¢Õ¶Õ¡Õ£Õ¡Õ¾Õ¡Õ¼Õ¸ÖĤÕ´": 6732, "ĠÕºÕ¡ÕµÕ©ÕµÕ¸ÖĤÕ¶": 6733, "Õ¥Õ¶Õ¡ÕµÕ«Õ¶": 6734, "ĠÕ¤Õ¡ÖĢÕ¸ÖĤÕ´": 6735, "ĠÕĢÕ¡Õ¶Õ¤Õ«Õº": 6736, "ĠÕ°Õ¡Õ´Õ¡ÕŃÕ´Õ¢": 6737, "Õ¥ÖģÖĢÕ¥Öģ": 6738, "ĠÕ°Õ¡ÕµÖĢÕ¨": 6739, "ĠÕ®Õ«Õ®Õ¡Õ²": 6740, "ÕªÕ·": 6741, "ĠÔ¼Õ¸Õ¶Õ¤": 6742, "Õ¸ÖĤÕ¯Õ¨": 6743, "ĠÕ°Õ¥Õ¼Õ¡ÖĢÕ±Õ¡Õ¯Õ¸ÖĤÕ´": 6744, "ĠÕ¨Õ¶Õ¯Õ¥ÖĢÕ¸ÖĤÕ©ÕµÕ¸ÖĤÕ¶": 6745, "Ô¾Õ¡Õ¼Õ¸ÖĤÕ¯": 6746, "ĠÕ¢Õ¶Õ¡Õ¯Õ¡Õ¾Õ¡ÕµÖĢ": 6747, "ĠÕ¢Õ¶Õ¸ÖĤÕ©ÕµÕ¡Õ¶": 6748, "ĠÔ±ÖĢÖĥ": 6749, "ĠÔ±Õ¦Õ¶Õ¡Õ¾": 6750, "ĠÕ·Õ¡Õ°Õ¡Õ£ÖĢÕ£": 6751, "ĠÕ¶Õ½Õ¿Õ¡Õ®": 6752, "ĠÕ°Õ¡Õ¶Õ£Õ¡Õ´Õ¡Õ¶ÖĦÕ¨": 6753, "ĠÕ¤ÖĢÕ¡Õ¶Õ¸Õ¾": 6754, "ĠÔ³Õ¥ÖĢÕ´Õ¡Õ¶Õ«": 6755, "ĠÕ¡Õ¼Õ«Õ©Õ¸Õ¾": 6756, "Õ¥ÕµÖģÕ¡ÖĢÕ«": 6757, "ĠÕ®Õ¡ÕµÖĢÕ¡Õ°Õ¥Õ²": 6758, "ÕĨÕ¥ÖĢÕ¢Õ¥Õ¼Õ¶Õ¥Õ¬": 6759, "Õ¥Õ¸Õ¶": 6760, "ĠÕ¯Õ¸Õ¬": 6761, "Õ´Õ¥Õ¶": 6762, "ĠÕ¿Õ«Õ¯Õ«Õ¶": 6763, "ĠÕ¢Õ¥Õ¼": 6764, "Ô±Õĭ": 6765, "Õ¡Õ¦Õ«Õ¬": 6766, "ĠÕ·Õ¥ÖĢÕ¿": 6767, "ĠÕ«ÖĢÕ¡Õ£Õ¸ÖĢÕ®": 6768, "ĠÕ°Õ¡ÕµÕ¥Öģ": 6769, "ĠÕ¾Õ¥ÖĢÕ¶": 6770, "ĠÖħÖĢÕ¥ÖĢ": 6771, "Ô´Õ¡": 6772, "ĠÕŃÕ¡Õ²Õ¥ÖĢÕ«": 6773, "ĠÕ¿Õ¡ÖĢÕ¡Õ®ÖĦÕ«": 6774, "Õ¡Õ·Õ«Õ¶Õ£Õ¿": 6775, "ĠÕ¡Õ·ÕŃÕ¡Õ¿Õ¡Õ¶ÖĦÕ¶Õ¥ÖĢÕ«Õ¶": 6776, "ĠÕĪÖĤÕ½": 6777, "ĠÕ°Õ¡Õ¶ÖĢÕ¡ÖĦ": 6778, "ĠÕºÕ¡Õ¿ÖĢÕ¡Õ½Õ¿Õ¾Õ¡Õ®": 6779, "ĠÕ·Õ¶Õ¸ÖĢÕ°Õ¡Õ¯Õ¡Õ¬": 6780, "ĠÕ¨Õ¶Õ¿Õ¡Õ¶Õ«ÖĦÕ¨": 6781, "ĠÖĨÕ«Õ¶Õ¡Õ¶Õ½Õ¶Õ¥ÖĢÕ«": 6782, "ĠÕ¢Õ¡Õ¶Õ¯Õ¡ÕµÕ«Õ¶": 6783, "ĠÕ¡Õ·ÕŃÕ¡Õ¿Õ¡Õ¯Õ«ÖģÕ¶Õ¥ÖĢÕ¨": 6784, "ĠÕĬÕ¸ÖĤÕ¿Õ«Õ¶Õ¨": 6785, "ĠÕĬÕ¸ÖĤÕ¿Õ«Õ¶Õ«": 6786, "ĠÔµÕ¯Õ¥Õ²Õ¥Öģ": 6787, "ĠÕĪÕ½Õ¿Õ«Õ¯Õ¡Õ¶Õ¸ÖĤÕ©ÕµÕ¡Õ¶": 6788, "ĠâĢĭâĢĭ": 6789, "ÖĢÕ¡Õ£Õ¡Õ®Õ¸Õ¿": 6790, "ĠÕ¡Õ¶Õ¡Õ¯Õ¶Õ¯Õ¡Õ¬": 6791, "ec": 6792, "ĠÕ°Õ¡Õ´Õ¡Õ¿Õ¥ÖĦÕ½Õ¿": 6793, "ĠÖĥÕ¬": 6794, "ĠÔµÖĤ": 6795, "Ô³Õ¡Õ²Õ¿Õ¶Õ«Õ¸ÖĤÕ©ÕµÕ¡Õ¶": 6796, "Õ¸ÖĤÕ¯Õ«": 6797, "ĠÕŃÕ´Õ¢Õ¡Õ£Õ«ÖĢ": 6798, "ĠÕ°Õ¶Õ¡ÖĢÕ¡Õ¾Õ¸ÖĢÕ¸ÖĤÕ©ÕµÕ¸ÖĤÕ¶Õ¶Õ¥ÖĢ": 6799, "ĠÕ£Õ¡Õ¬Õ¸ÖĤÕ½Õ¿": 6800, "ĠÕĦÕ«ÖĢÕ¦": 6801, "ĠÕ£Õ¶Õ¡Õ°Õ¡Õ¿Õ¥Õ¬": 6802, "ĠÕªÕ¡Õ´Õ¯Õ¥Õ¿Õ¨": 6803, "ĠÕİÖĢÕ¡Õ½Õ¿Õ¡Õ¶Õ¸ÖĤÕ´": 6804, "ĠÕ¾Õ¡Õ³Õ¡Õ¼ÖĦÕ«": 6805, "ĠÕĢÕ¸Õ¾Õ°Õ¡Õ¶Õ¶Õ«Õ½ÕµÕ¡Õ¶": 6806, "ÕĬÕ¥Õ¿Õ¡Õ¯Õ¡Õ¶": 6807, "ĠÕ«Õ´Õ¡Õ½Õ¿Õ¸Õ¾": 6808, "ĠÕĦÕŃÕ«Õ©Õ¡ÖĢÕµÕ¡Õ¶Õ¨": 6809, "ĠÕ¥Õ¯Õ¡Õ´Õ¸ÖĤÕ¿Õ¶Õ¥ÖĢÕ«": 6810, "ĠÕ¬Õ«ÖģÕ¥Õ¶Õ¦": 6811, "ĠÕ»Õ¥ÖĢÕ´Õ¡Õ½Õ¿Õ«Õ³": 6812, "ĠÕ¡ÖĢÕµÕ¡Õ¶": 6813, "ĠÕ¡ÖĢÕŃÕ«Õ¾": 6814, "Õ¸ÖĤÕ¶Öģ": 6815, "ĠÕĢÕĶ": 6816, "ĠÕ½Õ¡Õ¼": 6817, "Õ©Õ¸ÖĤÖĢÖĦÕ¡Õ¯Õ¡Õ¶": 6818, "ÕĢÕ¡ÖĢÕ£Õ¥Õ¬Õ«": 6819, "ĠÖĦÕ¡Õ»": 6820, "Õ«Õ½ÕµÕ¡Õ¶": 6821, "Õ¸ÖģÕ¨": 6822, "ĠÕĢÕ¡ÕµÖĢÕ¥Õ¶": 6823, "Õ¶Õ¤Õ¯": 6824, "ĠÕİÕ¡Õµ": 6825, "ĠÕİÕ«Õ£Õ¥Õ¶": 6826, "ĠÖħÕ£Õ¶Õ¡Õ¯Õ¡Õ¶": 6827, "ĠÕºÕ¡ÕµÕ´Õ¡Õ¶Õ¶Õ¥ÖĢÕ«": 6828, "ĠÕ¡Õ¦Õ¡Õ¿Õ¾Õ¥Õ¬": 6829, "ĠÕ´Õ¡Õ½Õ¶Õ¡Õ¯ÖģÕ¸ÖĤÕ©ÕµÕ¸ÖĤÕ¶Õ¨": 6830, "ĠÕ¤Õ¡Õ½Õ¡Õ¾Õ¡Õ¶Õ¤": 6831, "ĠÕ°Õ¡Õ½Õ¿Õ¡Õ¿Õ¸ÖĤÕ´": 6832, "ĠÕ¹Õ¡ÖĥÕ¨": 6833, "ĠÕ£ÖĢÕ¡Õ¶ÖģÕ¾Õ¡Õ®": 6834, "ĠÕŃÕ¡ÕŃÕ¿Õ¸ÖĤÕ´": 6835, "ĠÕ©Õ¡ÖĥÕ¡Õ¶ÖģÕ«Õ¯": 6836, "ĠÖĦÖĢÕ«Õ½Õ¿Õ¸Õ¶Õ¥": 6837, "ĠÔ±ÖĢÕ·Õ¡Õ¯": 6838, "ĠÕ½ÕºÕ¡Õ¼Õ¶Õ¡Õ¬Õ«ÖĦ": 6839, "ĠÕ°Õ¸Õ¢": 6840, "ĠÕ½Õ¸Öģ": 6841, "ÕĢÕ¡Õ¯": 6842, "Ô±Õ·": 6843, "Õ¥ÖģÕ¾Õ¥Õ¬": 6844, "ĠÕĬÔ±Õı": 6845, "Õ¡ÖĢÕ¡Õ¶Õ¶Õ¥ÖĢ": 6846, "ĠÕ¸ÖĢÕ¸Õ¶Õ¸ÖĤÕ´": 6847, "ers": 6848, "ĠÖħÕ£Õ¿Õ«Õ¶": 6849, "ĠÕ°Õ¡Õ¶Õ¤Õ«ÕºÕ´Õ¡Õ¶Õ¨": 6850, "ĠÔ±Õ¶Õ»": 6851, "ĠÕ°Õ¸Õ£Õ«": 6852, "ĠÕ¤ÖĢÕ¡Õ´Õ¸Õ¾": 6853, "ĠÕ°Õ¡Õ¾Õ¡ÖĦÕ¥Õ¬": 6854, "ĠÕ¾Õ¡ÖĢÕ¸ÖĤÕµÕ©": 6855, "ĠÕ©Õ¸Õ²Õ¡ÖĢÕ¯": 6856, "ĠÕ¦Õ¸Õ°Õ¾Õ¡Õ®": 6857, "ÕĨÕ¡ÕŃÕ¸ÖĢÕ¤": 6858, "ĠÕ´Õ¡Õ¶Õ¯Õ¡Õ¯Õ¡Õ¶": 6859, "ĠÕ°Õ«Õ´Õ¶Õ¡Õ¤ÖĢÕ¡Õ´Õ¨": 6860, "ĠÕ¿Õ¥Õ²Õ¥Õ¯Õ¡Õ¿Õ¾Õ¸ÖĤÕ©ÕµÕ¸ÖĤÕ¶Õ¨": 6861, "ĠÕ¢ÕªÕ·Õ¯": 6862, "Õ¡Õ¯Õ¡Õ¿Õ¡ÖĢÕ¸Õ²Õ¡Õ¯Õ¡Õ¶": 6863, "ĠÔ½Õ¡Õ¹Õ¡Õ¿ÖĢÕµÕ¡Õ¶Õ«": 6864, "ĠÕĦÕ¡ÖĢÕ¿Õ«ÖĢÕ¸Õ½ÕµÕ¡Õ¶Õ¨": 6865, "ÖĢÕ¥ÖģÕ«Õ¶": 6866, "ĠÕ¯Õ¡Õ°": 6867, "ĠÕ¸Õ¿Õ¶": 6868, "Õ¯Õ¦Õ¢": 6869, "ĠÕ½ÖģÕ¥Õ¶": 6870, "Õ¹Õ¸ÖĤÕ´": 6871, "Õ¾Õ¡Õ®ÖĦÕ«": 6872, "ĠÕĦÕ¡Õ¿": 6873, "ÕĨÕĪÕĲ": 6874, "Õ¡Õ¾Õ¸ÖĢÕ¥Õ¬Õ¸ÖĤ": 6875, "Õ«Õ¬Õ«Õ»": 6876, "ÖĨÕ¸Õ¶": 6877, "Õ¸Õ´Õ«": 6878, "ĠÕ¯Õ¸Õ²Õ´Õ¥ÖĢÕ«": 6879, "ĠÕ¨Õ¶Õ¯Õ¥ÖĢÕ¸Õ»Õ¨": 6880, "ĠÕ°Õ¡Õ´Õ¡Õ±Õ¡ÕµÕ¶Õ¡Õ£ÖĢÕ«": 6881, "ĠÖĦÕ¡Õ¶Õ¦Õ«": 6882, "ĠÕ©Õ¸Õ²Õ¶Õ¥Õ¬": 6883, "ĠÕ¡Õ½Õ¿Õ¥ÖĢÕ¸Õ«Õ¤": 6884, "Ġpro": 6885, "ĠÕ¯Õ£Õ¡": 6886, "ĠÕ¢Õ«Õ¦Õ¶Õ¥Õ½Õ«": 6887, "ĠÖħÕ¿Õ¡ÖĢÕ¥ÖĢÕ¯ÖĢÕµÕ¡": 6888, "ĠÕ¦Õ¥Õ¯Õ¸ÖĤÖģ": 6889, "ĠâĦĸ": 6890, "ĠÕ¹Õ¡ÖĢÕ¡Õ·Õ¡Õ°": 6891, "Õ¸ÖĤÕ©Õ¥": 6892, "ĠÕ´Õ¡Õ²Õ©": 6893, "Õ¥Õ¿Õ¡ÕµÕ«Õ¶": 6894, "ĠÕ¿Õ«Õ¥Õ¦Õ¥ÖĢ": 6895, "Ô±ÕºÖĢÕ«Õ¬Õ«": 6896, "ĠÕ¤Õ¶Õ¥Õ¬": 6897, "Õ¡Õ£ÖĢÕ¥ÖĢ": 6898, "ĠÔ¿ÖĢÕ©": 6899, "ĠÕ¸ÖĤÕ¶Õ¥ÖĦ": 6900, "ĠÕ¡ÕµÕ¶Õ¸ÖĤÕ¡Õ´Õ¥Õ¶Õ¡ÕµÕ¶Õ«Õ¾": 6901, "ĠÕ¨Õ¶Õ©Õ¡ÖģÕ¡Õ¯Õ¡ÖĢÕ£": 6902, "ĠÕ¿Õ¥Õ²Õ¥Õ¯Õ¸ÖĤÕ©ÕµÕ¸ÖĤÕ¶Õ¶Õ¥ÖĢÕ«": 6903, "ĠÕŃÕ¸ÖĢÕ°ÖĢÕ¤Õ¡Õ¯Õ¡Õ¶": 6904, "ĠÕ¨Õ¶Õ¤Õ¸ÖĤÕ¶Õ¥Öģ": 6905, "ĠÕ¶Õ¯Õ¡Õ¿Õ¥Õ¬": 6906, "ĠÕºÖĢÕ¡Õ¯Õ¿": 6907, "ÔµÖĢÕ«Õ¿Õ¡Õ½Õ¡ÖĢÕ¤": 6908, "ĠÕĢÕ¡ÖĢÕ¸ÖĤÕ©ÕµÕ¸ÖĤÕ¶ÕµÕ¡Õ¶": 6909, "ĠÕ¢Õ¡ÕªÕ¡Õ¶Õ¸ÖĢÕ¤": 6910, "ĠÕĢÖĢÕ¡Õ¹": 6911, "ĠÕ¶Õ¥ÖĢÕ¡Õ¼ÕµÕ¡Õ¬": 6912, "Õ¥ÖĢÕµÕ¡Õ¶": 6913, "ĠÕ¯Õ¸Õ´ÕºÕ¸Õ¦": 6914, "ĠÕĦÕ¸ÖĤÖĢÕ¡Õ¤": 6915, "Õ¡ÖĢÕ¡Õ£": 6916, "Õ¡ÖĢÕ¬": 6917, "ĠÕ¸ÖĤÕ¦": 6918, "Õ«ÖĢÕ¡Õ¯Õ¡Õ¶": 6919, "ĠÕĦÔ±ÕĦÕĪÕĴÔ¼": 6920, "ĠÕįÖĢÕ¢": 6921, "ÕĦÕ«Õ»": 6922, "ĠÕ¡Õ¼Õ¡Õ»Õ¡Õ¶Õ¸ÖĤÕ´": 6923, "ĠÕ¡ÕµÕ¶Õ¸ÖĤÕ°Õ¥Õ¿Öĩ": 6924, "ĠÕİÕ¡Õ¦Õ£Õ¥Õ¶": 6925, "ÖħÕ¶Õ¡Õ¯Õ¡Õ¶": 6926, "Õ«Õ£Õ¡ÖĢÕŃ": 6927, "Õ¡Õ¢Õ¡Õ¶Õ¸ÖĤÕ©ÕµÕ¸ÖĤÕ¶": 6928, "Õ¿Õ¶Õ¿Õ¥Õ½": 6929, "ĠÖħÕ£Õ¿Õ¾Õ¥Õ¬": 6930, "ĠÕ¦Õ¡ÖĢÕ£Õ¡ÖģÕ¸ÖĤÕ´Õ¨": 6931, "ĠÕ°Õ¸ÖĤÕ¶Õ¾Õ¡ÖĢ": 6932, "ĠÕ¡Õ¶Õ¸ÖĤÕ¶Õ«Öģ": 6933, "ĠÕ¥ÖĢÕ¡ÕªÕ·Õ¿Õ¸ÖĤÕ©ÕµÕ¡Õ¶": 6934, "ĠÕĢÕ«Õ´Õ¶": 6935, "ĠÕ¶Õ¡Õ°Õ¡Õ¶Õ£Õ«": 6936, "ĠÔ³ÕµÕ¸ÖĤÕ´ÖĢÕ«Õ¸ÖĤÕ´": 6937, "ĠÕ¯Õ¸ÖĤÕ¿Õ¡Õ¯": 6938, "Ñĭ": 6939, "Ġre": 6940, "ÖĤÖĢ": 6941, "Õ´Õ«Õ¯": 6942, "Õ¡ÖģÕ¡": 6943, "ÕĦÕ¸Õ½Õ¯": 6944, "ÕĪÕ¾": 6945, "ÕĪÕĴÕį": 6946, "Õ¸ÕµÕ«Õ¶": 6947, "ĠÕ¿Õ¥Õ½Õ¡Õ°Õ¸Õ¬Õ¸Õ¾": 6948, "ĠÕ½Õ¡Õ°Õ´Õ¡Õ¶Õ¸ÖĤÕ´": 6949, "ĠÕºÕ¡Õ·Õ¿Õ¸Õ¶Õ¡ÕºÕ¥Õ½": 6950, "Õ¥Õ£ÖĢ": 6951, "ĠÕ¤Õ¡ÖĢÕ±Õ¶Õ¸ÖĤÕ´": 6952, "ome": 6953, "ĠÕ¡ÖĢÕ¤ÕµÕ¸": 6954, "Õ£Õ¿Õ¡Õ¯Õ¡ÖĢ": 6955, "ĠÕ¨Õ¶Õ¯Õ¶Õ¸ÖĤÕ´": 6956, "ĠÕĢÕ¡ÖĢÕ¸ÖĤÕ©ÕµÕ¸ÖĤÕ¶ÕµÕ¡Õ¶Õ«": 6957, "ĠÕ¢Õ¡Õ¶Õ¡Õ¯ÖģÕ¸ÖĤÕ©ÕµÕ¸ÖĤÕ¶Õ¶Õ¥ÖĢÕ«": 6958, "EN": 6959, "Õ¶Õ¾Õ¡Õ®": 6960, "Õ«Õ¸": 6961, "ÕµÕ¸": 6962, "Õ¥ÖĢÖĦÕ«Õ¶": 6963, "Õ¿Õ¸Õ´": 6964, "Õ´Õ¸Õ¶": 6965, "Õ¡ÖģÕ¶Õ¥Õ¶": 6966, "ĠÕĢÕ¼Õ¸Õ´": 6967, "Õ¡Õ²Õ¯": 6968, "ĠÕŃÕ¥Õ²": 6969, "Õ¡Õ¤Õ«Õ¿": 6970, "Õ«ÖĢÕ«": 6971, "ĠÕºÕ¡Õ¿Õ«Õ¾": 6972, "Õ»Õ¡ÕŃ": 6973, "ĠÕĨÕ¥ÖĢÕ½": 6974, "ĠÕ¡Õ´Õ¸ÖĤÖĢ": 6975, "Ô±ÕĨÔ³": 6976, "Ġ38": 6977, "ĠÕ¡ÖĢÕ¥Öģ": 6978, "ĠÕ¯Õ¡Õ¦Õ´Õ¡Õ¯Õ¥ÖĢÕºÕ¸ÖĤÕ©ÕµÕ¸ÖĤÕ¶Õ¨": 6979, "ĠÕ¢Õ¡ÖĢÕ±ÖĢÕ¡Õ½Õ¿Õ«Õ³Õ¡Õ¶": 6980, "ank": 6981, "ont": 6982, "ĠÕµÕ¸Õ©": 6983, "ĠÕ¾Õ¥ÖĢÕ»Õ«Õ¶Õ½": 6984, "ĠÕ¤ÕºÖĢÕ¸ÖģÕ¡Õ¯Õ¡Õ¶": 6985, "ĠÕ·Õ¡ÖĢÕ¸ÖĤÕ¶Õ¡Õ¯Õ¥Õ¬Õ¸ÖĤ": 6986, "ĠÕ¤Õ¡Õ¿Õ¡ÖĢÕ¡Õ¶Õ¸ÖĤÕ´": 6987, "ĠÕ¯Õ¡ÖĢÕ®Õ«ÖĦÕ¶Õ¥ÖĢÕ¨": 6988, "ĠÕ¤Õ¥ÖĢÕ¡Õ¯Õ¡Õ¿Õ¡ÖĢ": 6989, "ĠÖĥÕ¡Õ¯Õ¥Õ¬": 6990, "ĠÕ¿Õ¸ÖĤÕ¶Õ¨": 6991, "ĠÕįÕ«ÖĢÕ«Õ¡ÕµÕ¸ÖĤÕ´": 6992, "ĠÕ¢Õ¶Õ¡Õ¯Õ«Õ¹Õ¶Õ¥ÖĢÕ«": 6993, "ĠÕ¾Õ¡ÕµÖĢÕ¸ÖĤÕ´": 6994, "Õ¶Õ¶Õ¤": 6995, "Õ½Õ¥Öĥ": 6996, "ĠÕ¾Õ¡ÖĢÕºÕ¥Õ¿": 6997, "ĠÕ©Õ¸ÖĤÕ¶": 6998, "ĠÖĥÕ¡ÕµÕ¬": 6999, "ĠÕĨÕ¸Õ¾": 7000, "ĠÔ²Õ¡Öģ": 7001, "ĠÔ²Õ¡Õ£ÖĢ": 7002, "ĠÖĦÕ¡Õ²Õ¡ÖĦÕ¡ÖģÕ¸ÖĤ": 7003, "ÕİÔµÔ¼": 7004, "Ô¼Õ¸ÖĤÖĢÕ¥ÖĢ": 7005, "ĠÕ¯Õ¡ÕµÕ¡ÖģÕ¥Õ¬": 7006, "Ô±ÕĲÕģ": 7007, "Ô½Õ¸Õ½": 7008, "ĠÕºÕ¡Õ·Õ¿Õ¸Õ¶Õ«Öģ": 7009, "ĠÕ¥Õ¶Õ©Õ¡Õ¤ÖĢÕ¸ÖĤÕ´": 7010, "ĠÕ¯Õ¸Õ¶Õ½": 7011, "ĠÕ½Õ¥ÖĥÕ¡Õ¯Õ¡Õ¶Õ¸ÖĤÕ©ÕµÕ¡Õ¶": 7012, "ĠÕ¨Õ¶Õ¯Õ¥Õ¬": 7013, "ĠÕºÕ¡Õ¿Õ¾Õ«ÖĢ": 7014, "ĠÕ¯Õ¥Õ¿Õ¸Õ¾": 7015, "ĠÕ£Õ¥Õ²Õ¡ÖĢÕ¾Õ¥Õ½Õ¿Õ¡Õ¯Õ¡Õ¶": 7016, "ĠÕ¥ÖĢÕ»Õ¡Õ¶Õ¯": 7017, "Õ¸ÖĢÕ¸Õ¶Õ´Õ¡Õ¶": 7018, "ĠÕĻ": 7019, "ĠÕºÕ²": 7020, "ĠÕºÕ¸ÖĢÕ¿": 7021, "Õ«ÖģÕ½": 7022, "Õ«Õ¿Õ¡Õ¶": 7023, "ĠÕ°Õ¡ÕµÕ¥ÖĢÕ¨": 7024, "ĠÔ³Õ¡Õ¢ÖĢÕ«": 7025, "ĠÕ¿Õ¥Õ²Õ¡Õ¤ÖĢÕ¥Õ¬": 7026, "ÕįÕ¸ÖĤÖĢÕ¢": 7027, "Õ¸Õ¿Õ«": 7028, "ĠÖĥÕ¸ÕŃÕ¾Õ¡ÖĢÕ¹Õ¡ÕºÕ¥Õ¿": 7029, "Õ«Õ¡Õ¶Õ¥ÖĢÕ¨": 7030, "ĠÕ¡Õ¶Õ¤Õ¡Õ´Õ¶Õ¥ÖĢÕ«Õ¶": 7031, "ĠÕ°Õ²Õ¸ÖĤÕ´Õ¶Õ¥ÖĢÕ¨": 7032, "ĠÔ±ÖĢÕ¡ÕµÕ«Õ¯": 7033, "ĠÕ¡Õ¯Õ¿Õ¥ÖĢÕ«": 7034, "ĠÕ±ÖĩÕ¡Õ¹Õ¡Öĥ": 7035, "ĠÕ¶ÕµÕ¸ÖĤÕ©Õ«": 7036, "ĠÕ¡Õ¾Õ¡ÖĢÕ¿Õ¾Õ¥Õ¬": 7037, "ĠÕ¬Õ«Õ¸Õ¾Õ«Õ¶": 7038, "ĠÕ£Õ¿Õ¡Õ®": 7039, "ĠÕ¡Õ³Õ«": 7040, "Õ¸ÕµÕ¥Õ´Õ¢Õ¥ÖĢ": 7041, "ĠÕ¿Õ²Õ¡Õ´Õ¡ÖĢÕ¤Õ¸ÖĤ": 7042, "ĠÕ´Õ¥ÖĦÕ¥Õ¶Õ¡Õ¶": 7043, "ĠÕ¯Õ¥Õ¶Õ¤Õ¡Õ¶Õ«": 7044, "ĠÕ¾Õ¥ÖĢÕ¡Õ°Õ½Õ¯Õ¸Õ²Õ¸ÖĤÕ©ÕµÕ¡Õ¶": 7045, "ĠÕ´Õ¥Õ¶Õ¡Õ¯": 7046, "ĠÕ½ÖĢÕ¿Õ«": 7047, "ĠÕĢÕ¸Õ¾Õ½Õ¥Öĥ": 7048, "ĠÕ¢Õ¥ÖĢÕ¾Õ¥Õ¬": 7049, "ĠÕ¬Õ¥Õ¦Õ¾Õ¸Õ¾": 7050, "ĠÕ©Õ¼Õ«Õ¹": 7051, "ĠÕĢÔµÕı": 7052, "Õ´Õ¡Õ¶Õ¶": 7053, "ĠÕ°Õ¡Õ´Õ¡Õ°Õ¡ÕµÕ¯Õ¡Õ¯Õ¡Õ¶": 7054, "Õ«ÖĢÕ¡ÕŃ": 7055, "ĠÕ°Õ¡Õ¶ÖĦ": 7056, "ĠÕĨÕ¡Õ«": 7057, "ĠÕ«Õ¶Õ¹ÕºÕ«Õ½Õ«Õ¶": 7058, "ĠÕ´Õ«Õ»Õ¶": 7059, "ĠÕ½Õ¿Õ¡Õ¶Õ¤Õ¡ÖĢÕ¿": 7060, "Õ¼Õ¡Õ¶Õ¨": 7061, "ĠÔ±ÕµÕ¸": 7062, "ĠÔ¹Õ¡Õ£Õ¡Õ¾Õ¸ÖĢ": 7063, "ĠÕĪÖĢÕºÕ¥Õ½": 7064, "ĠÕŃÕ´Õ¢Õ¥ÖĢÕ«": 7065, "ĠÕ°Õ«Õ´Õ¶Õ¡ÖĢÕ¯": 7066, "ĠÕīÕ¥ÕŃ": 7067, "ĠÕ¶ÕµÕ¸ÖĤÕ©Õ¡Õ¯Õ¡Õ¶": 7068, "ĠÕ·Õ¡Õ°Õ¡Õ£Õ¸ÖĢÕ®Õ´Õ¡Õ¶": 7069, "ĠÕ½Õ¸Õ¾Õ¸ÖĢÕ¡Õ¢Õ¡ÖĢ": 7070, "ĠÕ£Õ¸ÖĤÕ´Õ¡ÖĢÕ«": 7071, "ĠÕ¯Õ¡Õ¶Õ¸Õ¶Õ¶Õ¥ÖĢÕ¨": 7072, "Ġthe": 7073, "ĠÔ±ÖĢÕ¤ÕµÕ¸ÖĤÕ¶": 7074, "ÕıÕºÕ¥Õ¬": 7075, "ĠÕ°Õ¥Õ²Õ«Õ¶Õ¡Õ¯Õ«": 7076, "ĠÕ¯ÖĢÕ³Õ¡Õ¿": 7077, "ĠÔ¿Õ¸Õ¿Õ¡ÕµÖĦÕ«": 7078, "Õ¡Õ§Õ¶Õ¥ÖĢÕ£": 7079, "Õ¡ÖĢÕ¿Õ¡Õ°Õ¡Õ¶Õ¥Õ¬": 7080, "))": 7081, "Õ¸ÖĤÖĦÕ«": 7082, "Õ©Õ¡Õ¶Õ£": 7083, "ĠÕ°Õ¥Õ¿Õ¡ÖĦÕ¶Õ¶": 7084, "ĠÕ£Õ¸ÖĢÕ®Õ¥ÖĢ": 7085, "ĠÕİÕ¡Õ°Õ¡Õ¶": 7086, "ĠÔ¼Õ«Õ¢Õ¡Õ¶": 7087, "ĠÕıÔ±ÕĲ": 7088, "ĠÕıÕ¡ÖĢÕ¡Õ®": 7089, "ĠÕķÕ°Õ¡Õ¶": 7090, "ĠÕ°Õ¡Õ´Õ¡Õ¯Õ¡ÖĢÕ£Õ¥ÖĢÕ«": 7091, "ĠÖĥÕ¡Õ½Õ¿Õ¡ÖģÕ«": 7092, "ÕµÕ¸ÖĤÕ¦": 7093, "ĠÔ±Õ¤ÖĢÕ¢Õ¥Õ»Õ¡Õ¶Õ¸ÖĤÕ´": 7094, "ĠÕ¶Õ¡ÕŃÕ¡Õ¿Õ¥Õ½Õ¸ÖĤÕ´": 7095, "ĠÕ£Õ¸ÖĤÕµÖĦ": 7096, "ĠÕ¡Õ²Õ»Õ«Õ¯Õ¨": 7097, "ĠÕ°Õ¡ÖĢÕ±Õ¡Õ¯Õ¾Õ¸Õ²": 7098, "ĠÕ·Õ¸ÖĤÕ¯Õ¡ÕµÕ«": 7099, "ĠÕºÕ¡Õ¿Õ¡Õ°Õ¡Õ¯Õ¡Õ¶": 7100, "ĠÕ¯Õ¿ÖĢÕ¸ÖĤÕ¯": 7101, "ĠÕ£Õ¡Õ²Õ¿Õ¶Õ¡Õ¢Õ¡Õ¼Õ¨": 7102, "ĠÕ¡ÖĢÕ®": 7103, "ÖĢÕ¸ÖĤÕ¶": 7104, "ĠÕ°Õ¥Õ¶": 7105, "ĠÕºÕ¡Õ·Õ¡ÖĢ": 7106, "Õ¬Õ¸Õ¾": 7107, "Õ¡Õ¼Õ¡Õ¤Õ«": 7108, "ĠÕ¡Õ¶Õ«Õ´": 7109, "Õ¡ÖĦÕ¡Õ²Õ¡ÖĦÕ¡Õ¯Õ¡Õ¶": 7110, "ĠÕįÕ¡ÖĨ": 7111, "ĠÔ¿Õ¡ÕµÖĦÕ«": 7112, "ĠÔ²Õ¬": 7113, "ÕįÕ¸ÖĤÕµÕ¶": 7114, "ĠÕ¡Õ·ÕŃÕ¡Õ¿Õ¡Õ¿Õ¥Õ²": 7115, "ĠÕ³ÕµÕ¸ÖĤÕ²": 7116, "Ô¹Õ¥": 7117, "ĠÕ¨Õ¶Õ¤Õ¸ÖĤÕ¶Õ´Õ¡Õ¶": 7118, "Ô±Õ¶Öģ": 7119, "ĠÕªÕ¸Õ²Õ¸Õ¾ÖĢÕ¤Õ¡Õ¾Õ¡ÖĢÕ¡Õ¯Õ¡Õ¶": 7120, "ĠÕ¹Õ¸ÖĤÕ¶Õ¥Õ¶ÖĦ": 7121, "ĠÕ¿Õ¶ÖħÖĢÕ«Õ¶": 7122, "ĠÕ£Õ¶Õ¡Õ°Õ¡Õ¿Õ´Õ¡Õ¶": 7123, "ĠÕ¿Õ¶ÖħÖĢÕ¥Õ¶Õ¨": 7124, "ĠÕ¡Õ¼Õ¸Õ²Õ»Õ¡Õ¯Õ¡Õ¶": 7125, "ĠÖĦÕ¡Õ²Õ¡ÖĦÕ¡ÖģÕ«Õ¶Õ¥ÖĢÕ¨": 7126, "ĠÕ¾Õ«ÖĢÕ¡Õ°Õ¡Õ¿": 7127, "ĠÕ¶Õ¡ÕŃÕ¡Õ±Õ¥Õ¼Õ¶Õ¸ÖĤÕ©ÕµÕ¡Õ¶": 7128, "ĠÔ¸Õ¶Õ¤Õ°Õ¡Õ¶Õ¸ÖĤÖĢ": 7129, "ĠÕ¦ÖĢÕ¸ÖĤÖģÕ¥Õ¬": 7130, "ĠÕ¯Õ¸Õ¼Õ¸ÖĤÕºÖģÕ«Õ¡ÕµÕ«": 7131, "ÕĦÕ¡ÕµÕ«Õ½Õ«": 7132, "ÖĢÕ¡Õ¶Õ¯Õ¸ÖĨ": 7133, "ĠÖħÖĢÕ¾Õ¡Õ¶Õ«Öģ": 7134, "ĠMediamall": 7135, "ĠÕ¤Õ¸ÖĤÕ¼": 7136, "ĠÔ±ÕŃ": 7137, "ĠÕŃÖĢÕ¡ÕŃ": 7138, "Õ¡Õ¾Õ¸ÖĢÕ¸ÖĤÕ´Õ¶Õ¥ÖĢÕ«": 7139, "ÕĪÕ½Õ¯": 7140, "ĠÕ°ÖĢÕ¡Õ°Õ¡Õ¶Õ£": 7141, "Ô±ÕĲÕı": 7142, "ĠÕ¡Õ¶Õ±ÖĢÖĩ": 7143, "Õ¡Õ¶Õ¶Õ¡": 7144, "ĠÕ«Õ¶ÖĦÕ¶Õ¡Õ½": 7145, "Ô»Õ¶Õ¹Õ¸": 7146, "Ġ2005": 7147, "ĠÕ¿ÖĢÕ¡Õ´Õ¡Õ¤ÖĢÕ¸ÖĤÕ´": 7148, "ĠÕ¸Õ½Õ¿Õ«Õ¯Õ¡Õ¶Õ¸ÖĤÕ©ÕµÕ¸ÖĤÕ¶Õ¨": 7149, "ĠÕ¡ÕµÖģÕ¥Õ¬Õ¥ÖĦ": 7150, "ĠÕ¡Õ´Õ½Õ¡Õ©Õ«Õ¾": 7151, "Õ¥Õ¶Õ¿Õ«Õ¶": 7152, "ĠÕ°Õ¥Õ¼Õ¸ÖĤÕ½Õ¿Õ¡Õ¿Õ¥Õ½": 7153, "Õ¸ÖĢÕ¾Õ¡Õ®": 7154, "ĠArm": 7155, "ĠÕ¡Õ¾Õ¿Õ¸Õ´Õ¥ÖĦÕ¥Õ¶Õ¡Õ¶": 7156, "ĠÖĦÕ¡Õ²ÖģÕ¯": 7157, "ĠÔ³ÖĢÕ¡Õ¶ÖģÕ¾Õ¥Õ¬": 7158, "ĠÕ¿Õ¡ÖĢÕ¢Õ¥ÖĢÕ¾Õ¸ÖĤÕ´": 7159, "Õ¥ÖĢÕ«Õ´": 7160, "ĠÕ´Õ¡Õ·": 7161, "ĠÕ¯Õ®": 7162, "Õ¡Õ¾Õ¥ÖĢÕ¤": 7163, "Õ¡ÖģÕ¸ÖĤÕ©ÕµÕ¡Õ¶": 7164, "ĠÔ±Õ¤": 7165, "ĠÕ¾Õ¥ÖĢÕ¨": 7166, "ĠÕ¾Õ¡Õ¦": 7167, "Õ²Õ©Õ¥ÖĢ": 7168, "ĠÕĦÕ¡Õ·Õ¿": 7169, "ĠÕ¿Õ¡ÖĢÖĢ": 7170, "ĠÕ¡Õ¾Õ¡Õ¦": 7171, "ĠÕ©Õ¥Öĩ": 7172, "ĠÕ·ÖĢÕ»Õ¡Õ¯Õ¡": 7173, "ĠÕĵÕ¡Õ½Õ¿": 7174, "Ġ48": 7175, "ĠÕ£Õ¶Õ¡": 7176, "ĠÕ´Õ·Õ¡Õ¯Õ¸ÖĤÕ´": 7177, "ore": 7178, "ĠAl": 7179, "ĠÕ¡ÕµÖģÕ¸Õ¾": 7180, "ÕĵÕ¡Õ·Õ«Õ¶": 7181, "ĠÕ¹Õ¸ÖĤÕ¶Õ¥Öģ": 7182, "ĠÕ¯Õ¡Õ¼Õ¸ÖĤÖģÕ´Õ¡Õ¶": 7183, "ĠÕ¢Õ¡Õ¼Õ¨": 7184, "ĠÖĦÕ¡Õ²Õ¡ÖĦÕ¡ÖģÕ«Õ¶Õ¥ÖĢÕ«Õ¶": 7185, "ĠÕ¥ÖĢÖĩÕ¸ÖĤÕµÕ©": 7186, "ĠÕ®Õ¡ÕŃÕ½Õ¥ÖĢÕ«": 7187, "ĠÕĶÖĢÕ«Õ½Õ¿Õ¸Õ½Õ«": 7188, "Ô¸Õ¶Õ¤Õ¸ÖĤÕ¶": 7189, "ĠÖģÕ¥Õ²Õ¡Õ½ÕºÕ¡Õ¶Õ¸ÖĤÕ©ÕµÕ¸ÖĤÕ¶Õ¨": 7190, "ĠZ": 7191, "Ġav": 7192, "ÖĢÕ«Õ´": 7193, "Õ¶Õ¾Õ¥Õ¬": 7194, "Õ¡Õ´Õ¡ÖĢ": 7195, "ĠÕ£Õ¸ÖĤÕ¶": 7196, "ĠÕ¹Õ¤": 7197, "Õ¡ÖĢÕ±Õ¸Õ¾": 7198, "ĠÔ¿Ô±ÕĮ": 7199, "ĠÔ¼Õ«Õ¬Õ«Õ©": 7200, "ÖĨÕ¸Õ¿Õ¸": 7201, "Ô¶Õ«Õ¶": 7202, "ĠÕ¯Õ¡Õ¼Õ¡Õ¾Õ¡ÖĢÕ¸ÖĤÕ´": 7203, "ĠÕīÕ¶Õ¡ÕµÕ¡Õ®": 7204, "ĠÕ¢Õ¡ÖĢÕ¸ÕµÕ¡Õ¯Õ¡Õ¶": 7205, "ĠÕ°Õ¸Õ£Õ¸ÖĤ": 7206, "ĠÕ©Õ¸Õ²Õ¥Õ¬": 7207, "ĠÕ¡Õ¾Õ¿Õ¸Õ¾": 7208, "Õ¸Õ¬Õ¸Õ£Õ«Õ¡Õ¯Õ¡Õ¶": 7209, "ĠÕĳÕ¡Õ¶Õ¯": 7210, "Õ¥Õ¿ÖĢÕ¾Õ¡ÖĢ": 7211, "ĠÕ¸ÖĤÕ½Õ¡Õ¶Õ¸Õ²": 7212, "ĠÕ¿Õ¥ÕŃÕ¶Õ¸Õ¬Õ¸Õ£Õ«Õ¡Õ¯Õ¡Õ¶": 7213, "ĠÕ´Õ¡Õ¶ÖĢÕ¡Õ´Õ¡Õ½Õ¶Õ¥ÖĢ": 7214, "ĠÕ£ÖĢÕ¡Õ¤Õ¡ÖĢÕ¡Õ¶": 7215, "ĠÕ½Õ¸ÖĤÕ¢ÕµÕ¥Õ¯Õ¿": 7216, "Ô¾Õ¡Õ¼Õ¸ÖĤÕ¯ÕµÕ¡Õ¶": 7217, "60": 7218, "Õ¬Õ¸ÖĢ": 7219, "ĠÕ¾Õ¥Õ³": 7220, "Õ¸Õ¶Õ¶": 7221, "ĠÕįÕ¡Õ¶Õ¯Õ¿": 7222, "ĠÕįÕ¥Õ¢Õ¡Õ½Õ¿": 7223, "ĠÔ²Õ¡ÖĢ": 7224, "ĠÔ»Õ·ÕŃÕ¡Õ¶": 7225, "ĠÔ¼Õ«Õ£": 7226, "Ġ33": 7227, "ĠÕ¯Õ¡ÕµÖĦÕ¥ÖĢÕ¨": 7228, "ĠÕ¡Õ¶Õ±Õ¶Õ¡Õ¯Õ¡Õ¦Õ´": 7229, "ĠÕ¾Õ¥ÖĢÕ»Õ¡ÕºÕ¥Õ½": 7230, "Õ¥ÖĢÕ´Õ¡Õ¶Õ¡Õ¯Õ¡Õ¶": 7231, "Ġ150": 7232, "Õ¥Õ¢Õ¸ÖĤÕ¶Õ«": 7233, "ĠÕ©Õ¸Õ²Õ¶Õ¸ÖĤÕ´": 7234, "Õ¥Õ¯Õ¿Õ¸ÖĢ": 7235, "oun": 7236, "ĠÕ£ÖĢÕ¡Õ¶ÖģÕ´Õ¡Õ¶": 7237, "ĠÕ«ÖĢÕ¡Õ¤Õ¡ÖĢÕ±Õ¸ÖĤÕ©ÕµÕ¸ÖĤÕ¶Õ¶Õ¥ÖĢÕ«": 7238, "ĠÕ¸ÖĤÕ½Õ¸ÖĤÖģÕ´Õ¡Õ¶": 7239, "ĠÔ±Õ¶Õ¤ÖĢÕ¡Õ¶": 7240, "ĠÔ¿Õ¡ÕµÖĦÕ¸ÖĤÕ´": 7241, "ĠÕ¢Õ¶Õ¡Õ£Õ¡Õ¾Õ¡Õ¼": 7242, "Õ¸ÖĢÕºÕ¸ÖĢ": 7243, "Õ¡Õ¶Õ¥": 7244, "Õ¡Õ¶Õ©": 7245, "Õ¡Õ´Õ¥ÖĢÕ±": 7246, "Õ¥ÖĢÕ°": 7247, "ÖĩÕ¸ÖĤÕ´": 7248, "ĠÕ©Õ«ÖĢÕ¡ÕŃ": 7249, "ĠÕ«ÖĢÕ¡Õ¦Õ¥Õ¯": 7250, "ĠÕĦÕ¡ÖĢÕ¯": 7251, "Ô»Õ¶Õ±": 7252, "ĠÔ¿Õ¢": 7253, "ĠÕĨÖĢÕ¡Õ¶": 7254, "ĠÕ«Õ¶Õ¹ÕºÕ«Õ½Õ«": 7255, "ĠÔ²Õ¸Õ¬": 7256, "ÖħÕ²": 7257, "Õ¡Õ¶Õ¤Õ«": 7258, "ĠÕ¡Õ½Õ¥Õ´": 7259, "ĠÕºÕ¡Õ°Õ¥Õ½Õ¿": 7260, "ĠâĢķ": 7261, "ĠÕ¾Õ¥ÖĢÕ»Õ¸ÖĤÕ´": 7262, "ĠÔ¶Õ«Õ¶": 7263, "ĠÕ¤Õ¡Õ½Õ¡Õ¯Õ¡Õ¶": 7264, "Õ¡Õ£Õ«Õ¿Õ¸ÖĤÕ©ÕµÕ¸ÖĤÕ¶": 7265, "ĠÖħÕ£Õ¿Õ¡Õ£Õ¸ÖĢÕ®Õ¾Õ¸ÖĤÕ´": 7266, "ĠÕ°Õ¡Õ´Õ¡ÕµÕ¶ÖĦÕ¸ÖĤÕ´": 7267, "ĠÕ¥ÖĢÕ«Õ¿Õ¡Õ½Õ¡ÖĢÕ¤Õ¶Õ¥ÖĢÕ«": 7268, "ĠÕ°Õ¡Õ¾Õ¡Õ¿Õ¡ÖĢÕ´": 7269, "ĠÕ¶Õ¾Õ¡Õ¦Õ¥Õ¬": 7270, "ĠÕ¡Õ¶Õ¤ÖĢÕ¡Õ¤Õ¡Õ¼Õ¶Õ¡Õ¬Õ¸Õ¾": 7271, "ĠÖħÕ£Õ¶Õ¸ÖĤÕ©ÕµÕ¡Õ´Õ¢": 7272, "ĠÕ¡Õ¦Õ¤Õ¥ÖģÕ¸ÖĤÕ©ÕµÕ¡Õ¶": 7273, "ĠÕ¾Õ¡ÕŃÕ¥Õ¶Õ¸ÖĤÕ´": 7274, "ĠÕ£Õ¡Õ£Õ¡Õ©Õ¶": 7275, "ĠÖĥÕ¶Õ¿ÖĢÕ¸ÖĤÕ´": 7276, "ĠÕ°Õ¡Õ¾Õ¡Õ¶Õ¡Õ¢Õ¡ÖĢ": 7277, "Ô·Õ»Õ«": 7278, "ex": 7279, "Õ¸ÖĤÕ¥Õ¬": 7280, "Õ¡ÕµÕ¿Õ¶": 7281, "ĠÕ°Õ¥ÖĦÕ«Õ¡Õ©": 7282, "Õ´Õ«Õ»": 7283, "ĠÕ¿Õ¸Õ´Õ½": 7284, "ĠÕ¡Õ©": 7285, "ĠÕ¤Õ¡ÕªÕ¡Õ¶": 7286, "ĠÔ±Ô»ÕĨ": 7287, "ĠÕĢÕ¡Õ½": 7288, "ĠÕ½Õ«Õ´": 7289, "ĠÕ¾Õ¥ÖĢÕ½": 7290, "Õ¡Õ¤Õ¡Õ¤Õ¡ÖĢÕ«": 7291, "Ô»Õĳ": 7292, "ĠÔ²Õ¡ÖĢÕ½": 7293, "ĠÖģÕ¶Öģ": 7294, "ĠÕıÕ¡Õ¾Õ¸ÖĤÕ·Õ«": 7295, "ĠÕ¢Õ¸Õ¬Õ¸ÖĢÕ¸Õ¾Õ«Õ¶": 7296, "Ġ45": 7297, "ĠÕ¯Õ¡Õ¦Õ´Õ¡Õ¯Õ¥ÖĢÕºÕ¸ÖĤÕ©ÕµÕ¸ÖĤÕ¶": 7298, "ĠÕ°Õ¡Õ½Õ¿Õ¡Õ¿Õ¥Õ¬Õ¸ÖĤ": 7299, "ĠÕ¡Õ¶ÖģÕ¯Õ¡ÖģÕ¾Õ¸ÖĤÕ´": 7300, "ĠÕ°Õ¡Õ½ÖģÖĢÕ¥Õ¬": 7301, "ĠÕ½Õ¯Õ¦Õ¢Õ¸ÖĤÕ´": 7302, "ÔµÖĢÖĩÕ¡Õ¶Õ¸ÖĤÕ´": 7303, "ĠÕ¯Õ¡Õ¶Õ¸Õ¶Õ¡Õ¯Õ¡ÖĢÕ£": 7304, "Õ¡Õ¸ÖĤÕ¤": 7305, "ĠÕ£Õ¸ÖĢÕ®Õ¡Õ¯Õ¡Õ¬Õ¸ÖĤÕ©ÕµÕ¸ÖĤÕ¶Õ¨": 7306, "ĠÕ®Õ¡ÕŃÕ½Õ¥ÖĢÕ¨": 7307, "ĠÕĦÕ¡ÖĢÕ£Õ¡ÖĢÕµÕ¡Õ¶Õ¨": 7308, "ational": 7309, "ĠÖĥÕ¡ÕŃÕ½Õ¿": 7310, "ĠÔ»Õ½ÖĢÕ¡ÕµÕ¥Õ¬": 7311, "wit": 7312, "Õ¡Õ¿Õ¡Õ¯Õ«": 7313, "Õ¥Õ¿ÖĢ": 7314, "Õ¥Õ¿Õ«Õ¯Õ¡ÕµÕ«": 7315, "ĠÕ¿ÖĢ": 7316, "ĠÕ¾Õ©Õ¡ÖĢÕ«": 7317, "ĠÕ¹Õ¯Õ¡ÖĢÕ¸Õ²": 7318, "ĠÕĦÖĢÖģ": 7319, "ĠÕįÕ¥Õµ": 7320, "ÕĦÖĢÖģ": 7321, "Õ¡Õ¾Õ¸ÖĢÕ«": 7322, "ĠÕ¡Õ¼Õ¡Õ»Õ«Õ¯Õ¡ÕµÕ¸ÖĤÕ´": 7323, "ĠÕİÕ¡Õ·Õ«Õ¶Õ£Õ¿": 7324, "Õ«Õ¬Õµ": 7325, "Õ¡Õ¾Õ¡ÖĢÕ«": 7326, "Õ¥Õ¶ÖģÕ¡Õ²": 7327, "ĠÕĶÕ¸Õ´": 7328, "2010": 7329, "ĠÕ¯Õ¬Õ«Õ¶Õ¥ÖĢ": 7330, "ĠTimes": 7331, "Õ«Õ½Õ¯Õ¸Õº": 7332, "ĠÕ¡ÕºÖĢÕ¸Õ²": 7333, "ĠÔ±ÖĢÕ´Õ¥Õ¶Õ«Õ¡": 7334, "ĠÕ·ÖĢÕ»Õ¡Õ¶Õ¡Õ¾Õ¡ÖĢÕ¿": 7335, "ĠÕºÕ¡Õ¿Õ£Õ¡Õ´Õ¡Õ¾Õ¸ÖĢÕ¶Õ¥ÖĢÕ«": 7336, "2008": 7337, "ĠÕ£Õ¸Õ¿Õ¸ÖĤÕ´": 7338, "ĠÔ¿Õ¡Õ¶Õ¡Õ¤": 7339, "ÕĶÕ¡Õ²Õ¡ÖĦÕ¡ÖģÕ«Õ¡Õ¯Õ¡Õ¶": 7340, "ĠÕ°Õ¡Õ´Õ¡Õ¿Õ¥ÖĦÕ½Õ¿Õ¸ÖĤÕ´": 7341, "cr": 7342, "mail": 7343, "ue": 7344, "Ġhttp": 7345, "Õ¡Õ¶ÖĦÕ¸ÖĤÕ´": 7346, "Õ¸ÖĤÕ©ÕµÕ¡": 7347, "Õ¸Õ²Õ¸ÖĤÕ©ÕµÕ¡Õ´Õ¢": 7348, "ĠÕ¿Õ«Õ¯Õ¶": 7349, "ĠÕĦÕ·Õ¡Õ¯": 7350, "ĠÕĦÕ¡Õ¤ÖĢÕ«Õ¤": 7351, "Õ¡ÖĢÕ¡ÖĢÕ¶Õ¥ÖĢÕ¨": 7352, "ĠÕ¯Õ¡Õ¦Õ´Õ¨": 7353, "ĠÕ¸ÖĢÕ¸Õ·Õ¸ÖĤÕ´Õ¶Õ¥ÖĢ": 7354, "ĠÕªÕ¸Õ²Õ¸Õ¾Õ¡Õ®": 7355, "ĠÕ¡Õ¶Õ¤Õ¡Õ´Õ¶Õ¥ÖĢ": 7356, "ĠÕ¥Õ¶Õ©Õ¡Õ¯Õ¡Õ¼Õ¸ÖĤÖģ": 7357, "ĠÕ°Õ¡Õ´Õ¡Õ±Õ¡ÕµÕ¶Õ¡Õ£Õ«ÖĢÕ¨": 7358, "Õ¡Õ¯Õ¡ÕµÖĦÕ¸ÖĤÕ´": 7359, "ĠÕ¯Õ¸Õ´Õ¸ÖĤÕ¶": 7360, "Õ«Õ»Õ¸ÖģÕ¡Õ¼": 7361, "Ġ1999": 7362, "ĠÕ¿Õ¥Õ½Õ¡Õ¯Õ¥Õ¿Õ¶Õ¥ÖĢÕ¨": 7363, "ĠÕºÖĢÕ¸ÖĨÕ¥Õ½Õ¸ÖĢ": 7364, "ĠÕ«Õ¢ÖĢÖĩ": 7365, "ĠÕ¢Õ¡ÖĢÕ¥Õ£Õ¸ÖĢÕ®Õ¡Õ¯Õ¡Õ¶": 7366, "ĠÕ°Õ¸ÖĢÕ«Õ¦Õ¸Õ¶Õ¡Õ¯Õ¡Õ¶": 7367, "ÖĢÕ¡Õ£Õ¡Õ®Õ¸Õ¿Õ¶Õ«": 7368, "IN": 7369, "Õ¸ÖĤÕ´Õ¶Õ¥ÖĢÕ«Öģ": 7370, "Õ¡Õ¿Õ¶Õ¥ÖĢÕ«": 7371, "Õ¯Õ¡Õº": 7372, "ĠÕ¤Õ¡Õ¼Õ¶Õ¡": 7373, "Õ¡Õ½Õ¿Õ¡Õ¿": 7374, "ĠÕŃÕ¸Öģ": 7375, "Õ¡Õ·Õ¾Õ«": 7376, "ĠÕ£Õ¸ÖĢÕ®Õ¥ÖĢÕ¨": 7377, "ÖħÕ½": 7378, "Õ«Õ¬Õ«Õ¶": 7379, "ĠÕ¶Õ¸ÖĢÕ¡Õ¶Õ·Õ¡Õ¶Õ¡Õ¯": 7380, "Ô½Õ¸ÖĢÕ°ÖĢÕ¤": 7381, "ĠÕ°Õ¡Õ¶Õ¤Õ«ÕºÕ¸ÖĤÕ´Õ¶Õ¥ÖĢ": 7382, "ĠÕºÕ¡Õ¿Õ³Õ¥Õ¶": 7383, "ĠÕ°Õ²Õ´Õ¡Õ¶": 7384, "ĠÕ¹Õ¸ÖĤÕ¶Õ¥Õ´": 7385, "ĠÕ¤Õ«Õ¿Õ¥Õ¬": 7386, "ĠÕ·ÖĢÕ»Õ¡Õ¶Õ¡Õ¼": 7387, "ĠÕ´Õ¡Õ½Õ¶Õ¡Õ¯Õ«ÖģÕ¶Õ¥ÖĢÕ«Õ¶": 7388, "ĠÕ¢Õ¸Õ¾Õ¡Õ¶Õ¤Õ¡Õ¯Õ¸ÖĤÕ©ÕµÕ¡Õ¶Õ¨": 7389, "ĠÔ²Õ¡Õ²ÖĢÕ¡Õ´ÕµÕ¡Õ¶": 7390, "ĠÕ´Õ¡ÖĦÕ¸ÖĤÖĢ": 7391, "ĠÕĤÕ¡Õ¦Õ¡ÕŃ": 7392, "ĠÕ¿Õ¡Õ¼Õ¡Õº": 7393, "Ô²Õ¡ÕªÕ¡Õ¶Õ¸ÖĢÕ¤Õ¡Õ£ÖĢÕ¾Õ¥Õ¬": 7394, "SS": 7395, "áĥ": 7396, "Ġy": 7397, "Õ¡Õ¶Õ¸ÖĢÕ¸Õ£": 7398, "Õ¥ÖĢÖĦ": 7399, "Õ¸ÖĤÕ´Õ¶Õ¥ÖĢÕ«Õ¶": 7400, "Õ¡Õ°Õ¡Õ¶Õ¸ÖĤÕ´": 7401, "ĠÔ±ÕĬÕĢ": 7402, "Õ¡Õ¶Õ«Õ¿Õ¡ÖĢ": 7403, "ĠÕ·Õ¶Õ¹": 7404, "ÕĨÕ¥ÖĢÕ¯Õ¡Õµ": 7405, "ÕĪÕ²Õ»": 7406, "Õ¸ÖĤÕ½Õ¿ÖĢ": 7407, "ĠÔ²Õ¡Õ¯Õ¸": 7408, "ĠÕ¡ÖĢÕ¤Õ«Õ¡Õ¯Õ¡Õ¶": 7409, "Õ¥Õ¦Õ«": 7410, "ĠÕ¼Õ¥Õ½Õ¿Õ¸ÖĢ": 7411, "ĠÕ¨Õ¶Õ©Õ¡ÖģÖĦÕ¨": 7412, "ĠÕ¢Õ¡ÖĢÕ±ÖĢÕ¡Õ±Õ¡ÕµÕ¶": 7413, "ĠÕŃÕ¶Õ¤Õ«ÖĢÕ¶": 7414, "ĠÕ°Õ¡Õ´Õ¡Õ±Õ¡ÕµÕ¶Õ¸ÖĤÕ©ÕµÕ¡Õ¶": 7415, "ĠÕ¬Õ«Õ¶Õ¥Õ¬Õ¨": 7416, "ĠÕ°Õ¡Õ¶Õ¤Õ«Õ½Õ¡ÖģÕ¸Õ²": 7417, "ree": 7418, "ĠÕ£Õ¸ÖĢÕ®Õ¨Õ¶Õ¯Õ¥ÖĢÕ¶Õ¥ÖĢÕ«": 7419, "ĠÕ±Õ¡ÕµÕ¶Õ¨": 7420, "ĠÕ°Õ¡Õ¶ÖĢÕ¡Õ£Õ«Õ¿Õ¡ÖĢÕ¡Õ¶Õ«Öģ": 7421, "ĠÕ¹Õ°Õ¡Õ´": 7422, "ĠÕ°Õ¡Õ¶ÖģÕ¡Õ£Õ¸ÖĢÕ®Õ¸ÖĤÕ©ÕµÕ¡Õ¶": 7423, "ĠÕĬÕ¥Õ¿ÖĢÕ¸Õ½ÕµÕ¡Õ¶Õ¨": 7424, "ĠÕ´Õ¡Õ¿Õ¡Õ¯Õ¡ÖĢÕ¡ÖĢ": 7425, "ĠÔµÕ¾ÖĢÕ¡Õ´Õ«Õ¸ÖĤÕ©ÕµÕ¡Õ¶": 7426, "ĠÕŃÕ¡ÖĥÕ¡Õ¶Õ´Õ¡Õ¶": 7427, "ĠÕ¡ÖĢÕ¾Õ¡Õ®": 7428, "Õ¥Õ¡ÕµÕ«": 7429, "Õ«Õ¶Õ¶": 7430, "ĠÕ´Õ¡Õ©Õ¥Õ´Õ¡Õ¿": 7431, "ĠÕ¿Õ¡Õ¶Õ«": 7432, "Õ¥Õ²Õ´": 7433, "ÕĦÕ·Õ¿Õ¡Õ¯Õ¡Õ¶": 7434, "Õ¥Õ´Õ¨": 7435, "Õ¡Õ£ÖĢÕ¥ÖĢÕ«": 7436, "ĠÔ´Õ¥": 7437, "ÕİÕ¡Õ¶": 7438, "Ġ2019": 7439, "ĠÔ¹Õ¥Õ°": 7440, "ĠÕ¢Õ¡ÖģÕ¾Õ¥Õ¬": 7441, "ĠÕ¿Õ¡ÖĢÕ¡Õ®ÖĦÕ¶Õ¥ÖĢÕ«": 7442, "ĠÕ¡ÖĢÕ¥ÖĤ": 7443, "Õ¥Õ¤Õ¡ÖĢÕ±": 7444, "Õ«Õ¡Õ¶Õ¡": 7445, "ĠÕ¤Õ¡Õ¿Õ¡ÖĢÕ¯": 7446, "Õ¸Õ¼Õ¶": 7447, "ĠÕ°Õ¡Õ´Õ¡ÕµÕ¶ÖĦÕ¡ÕµÕ«Õ¶": 7448, "ĠÕ¡Õ¾Õ¿Õ¸Õ¢": 7449, "ĠÕ¢Õ¡Õ¼Õ¡ÖĢÕ¡Õ¶": 7450, "ĠÕ¯Õ´Õ¡Õ½Õ¶": 7451, "ĠÕ·Õ¡Õ¢Õ¡Õ©Õ¾Õ¡": 7452, "Õ¡Õ¯Õ¿Õ«Õ¾": 7453, "ĠÕ¡Õ´Õ¥ÖĢÕ«Õ¯Õ¡ÖģÕ«": 7454, "Õ¡Õ´ÕµÕ¡Õ¯Õ¨": 7455, "ÕĢÕ«Õ´Õ¡": 7456, "evan": 7457, "ĠÕ¯Õ¥ÖĢÕ¡Õ¯": 7458, "ight": 7459, "ÖĢÕ¥Õµ": 7460, "Õ¾Õ¥Õ¶Öģ": 7461, "Õ¸ÖĢÕ«Õ½": 7462, "ĠÕ¾Õ«Õ¦": 7463, "ĠÕ¾Õ¥Õ¢": 7464, "ĠÕ¡Õ¶Öĥ": 7465, "ĠÖĦÕ¡Õ°Õ¡Õ¶": 7466, "Ô±ÕĨÔ±Ô¿": 7467, "ĠÕ«Õ¶ÖĨÕ¸ÖĢÕ´": 7468, "ĠÕŃÕ¡Õ²Õ¡ÖģÕ¸Õ²": 7469, "Õ¥Õ¤Õ«": 7470, "ĠÕ¾Õ¡ÖĢÕ¸ÖĤÕ´": 7471, "ĠÔ¹Õ¸ÖĤÖĢÖĦÕ«Õ¡": 7472, "ĠÕ°Õ¡Õ»Õ¸Õ²Õ¾Õ¥Õ¬": 7473, "out": 7474, "ĠÕ´Õ¡ÕµÖĢÕ¨": 7475, "ĠÔ±Õ¢Õ¸Õ¾ÕµÕ¡Õ¶": 7476, "ĠÕ°Õ¡ÕµÖĢÕ¥Õ¶Õ«ÖĦÕ«": 7477, "ĠÕ£Õ¸ÖĢÕ®Õ¨Õ¶Õ¯Õ¥ÖĢÕ¸ÖĤÕ©ÕµÕ¡Õ¶": 7478, "ĠÕ½Õ¶Õ¶Õ¤Õ«": 7479, "ĠÔ¾Õ¡Õ¼Õ¸ÖĤÕ¯ÕµÕ¡Õ¶Õ«": 7480, "ĠÕ¡Õ£ÖĢÕ¥Õ½": 7481, "Ð¼": 7482, "Õ¡ÖĢÕ¡ÖĢÕ´Õ¡Õ¶": 7483, "Õ¸ÖĤÕ¶Õ¥ÖĢÕ¨": 7484, "ĠÕĢÕ¸Õ¬": 7485, "ĠÕ¡Õ¼Õ¥ÖĤ": 7486, "ĠÔ²ÖĢÕµÕ¸ÖĤÕ½": 7487, "Õ¦Õ«Õ¶": 7488, "Õ¡Õ¶ÖĦÕ¶Õ¥ÖĢÕ¨": 7489, "Õ¥ÖĤÕ¸Õ¶": 7490, "ĠÕ¡ÕµÕ¬Õ¥ÖĤ": 7491, "ĠÕ¡ÖĢÕ¿Õ«Õ½Õ¿": 7492, "ĠÕ¶Õ¸ÖĢÕ¸ÖĤÕ©ÕµÕ¸ÖĤÕ¶Õ¶Õ¥ÖĢ": 7493, "ĠÕĶÕ¡Õ¶Õ«": 7494, "ĠÕ½Õ¡Õ°Õ´Õ¡Õ¶Õ«Õ¶": 7495, "ĠÕ¢Õ¶Õ¡Õ¯Õ¥Õ¬Õ«": 7496, "ĠÔ±Õ¶Õ¡Õ°Õ«Õ¿": 7497, "ĠÕºÕ¡ÖĢÕ¦Õ¾Õ¥Õ¬": 7498, "ĠÕ£Õ¬ÕŃÕ¡Õ¾Õ¸ÖĢÕ¡Õ®": 7499, "ĠÕ·Õ¡ÖĢÕ¸ÖĤÕ¶Õ¡Õ¯Õ¡Õ¯Õ¡Õ¶": 7500, "ĠÕ³Õ¡Õ¶Õ¡Õ¹Õ¾Õ¥Õ¬": 7501, "ÕºÕ«Õ½Õ«ÖĦ": 7502, "ĠÕºÕ¡ÕµÖĦÕ¡ÖĢÕ¥Õ¬": 7503, "ÕºÕ«Õ¸Õ¶Õ¶Õ¥ÖĢÕ«": 7504, "ĠÕ«Õ´Õ¡Õ¶Õ¡Õ¬": 7505, "Õ¡ÖĢÕ¤ÕµÕ¸ÖĤÕ¶Õ¡Õ¢Õ¥ÖĢ": 7506, "ĠÕŃÕ¸Õ°Õ¡Õ¶Õ¸Öģ": 7507, "ĠÕ¡ÖĢÕ¯": 7508, "Õ¡ÖģÕ¸Õ¬": 7509, "Õ¸ÖĢÕ¢": 7510, "ĠÕĢÖĢÕ¡Õ¶Õ¿": 7511, "ĠÕ½Õ¸Õ¾": 7512, "Õ¡Õ¢Õ¸ÖĤÕª": 7513, "ĠÕ±Õ£": 7514, "ĠÕİÕ¡Õ²": 7515, "ĠÕ´Õ«Õ»Õ¡Õ¾Õ¡ÕµÖĢ": 7516, "ÕªÕ¡Õ¶": 7517, "Õ¸ÖĢÕ°Õ¸ÖĤÖĢÕ¤": 7518, "ĠÕ¼Õ¥Õ¯": 7519, "ÖĢÕ¢Õ¡Õ©": 7520, "ĠÕ»Õ¸Õ¯": 7521, "ĠÕ¡Õ¼Õ¡Õ»Õ«Õ¶Õ¨": 7522, "ĠÕ´Õ¡Õ½Õ¶Õ¡Õ¯ÖģÕ¸ÖĤÕ©ÕµÕ¡Õ¶": 7523, "ĠÕ°Õ¥Õ¿ÖĩÕ¥Õ¬": 7524, "ĠÕ¶Õ´Õ¡Õ¶Õ¡Õ¿Õ«Õº": 7525, "ÖĢÕ¡Õ¶Õ½ÕºÕ¸ÖĢÕ¿": 7526, "ity": 7527, "ĠÕ¤ÕºÖĢÕ¸ÖģÕ¶Õ¥ÖĢÕ«": 7528, "ĠÕ¤ÕºÖĢÕ¸ÖģÕ¶Õ¥ÖĢÕ¨": 7529, "ĠÕ¡Õ¶Õ°ÖĢÕ¡ÕªÕ¥Õ·Õ¿Õ¸ÖĤÕ©ÕµÕ¸ÖĤÕ¶Õ¨": 7530, "ĠÕ³Õ¡Õ¶Õ¡ÕºÕ¡ÖĢÕ°Õ¡ÕµÕ«Õ¶": 7531, "ĠÕ¡Õ¦Õ¤Õ¥ÖģÕ¸ÖĤÕ©ÕµÕ¸ÖĤÕ¶Õ¨": 7532, "ĠÕºÕ¡Õ¿Õ¾Õ«ÖĢÕ¡Õ¯Õ¸ÖĤÕ©ÕµÕ¸ÖĤÕ¶Õ¨": 7533, "ĠÕ°Õ½Õ¯Õ¡ÕµÕ¡Õ¯Õ¡Õ¶": 7534, "ĠÕ¡Õ¯Õ¡Õ¶Õ»": 7535, "ĠÕ±Õ£Õ¿Õ¸ÖĤÕ´": 7536, "ĠÔ±Õ°Õ¡": 7537, "ĠÔ±Õ¾Õ¥Õ¬Õ«Õ¶": 7538, "ĠÕ¯ÖĦ": 7539, "ĠÕ¶ÖĢÕ¢": 7540, "ĠÕ¿Õ¸Õ¶Õ«": 7541, "Ô±ÖĢÕ¡Õ¯Õ¡Õ¶": 7542, "ÕĢÔ±ÕĨ": 7543, "Õ¡Õ½Õ¿Õ«Õ¯": 7544, "ĠÕŃÕ¸Õ¶": 7545, "Õ¥ÖģÕ¡Õ®": 7546, "ĠÕ¹Õ¥": 7547, "Õ¥Õ¯Õ¿ÖĢÕ¸Õ¶Õ¡ÕµÕ«Õ¶": 7548, "ĠÕ¿Õ¡ÖĢÕ¥Õ¤Õ¡ÖĢÕ±": 7549, "ÕıÕ¥ÖĦÕ½Õ¿": 7550, "ĠÕ¯Õ¡ÖĢÕ¸Õ²Õ¡Õ¶Õ¡": 7551, "ĠÕıÕ¡ÖĢ": 7552, "ĠÔ¹Õ¸ÖĢ": 7553, "Õ¡Õ±Õ¥ÖĤ": 7554, "ĠÕĶÖĢÕ«": 7555, "ĠÕ´Õ¿Õ¶Õ¥Õ¬Õ¸ÖĤ": 7556, "ĠÕ½ÕºÕ¡Õ¼Õ¶": 7557, "ĠÕ¿Õ¡Õ¬Õ¸Õ¾": 7558, "ĠÖħÕ£Õ¿Õ¡Õ£Õ¸ÖĢÕ®Õ¸ÖĤÕ´Õ¨": 7559, "Ô±Õ¼Õ¸Õ²Õ»": 7560, "ĠÕ¯Õ«ÖĢÕ¡Õ¼Õ¥Õ¬": 7561, "ĠÕ¢Õ¡ÖģÕ¡Õ¼Õ¸ÖĤÕ©ÕµÕ¡Õ´Õ¢": 7562, "ĠÕĤÕ¡ÖĢÕ¡Õ¢Õ¡Õ²Õ«Öģ": 7563, "ĠÕ¡ÖĢÕªÕ¥ÖĦÕ¶Õ¥ÖĢÕ«": 7564, "ÕĢÕ¡Õ¶ÖĢÕ¡ÕµÕ«Õ¶": 7565, "Õ¢Õ¥ÖĢÕ¥Õ¬": 7566, "ĠÕ¤Õ«ÖĢÖĦÕ¸ÖĢÕ¸Õ·Õ¸ÖĤÕ´Õ¨": 7567, "ĠÕ¡ÕºÖĢÕ«Õ¬ÕµÕ¡Õ¶": 7568, "ĠÕ¢Õ¶Õ¡ÕºÕ¡Õ°ÕºÕ¡Õ¶Õ¸ÖĤÕ©ÕµÕ¡Õ¶": 7569, "99": 7570, "\\\\": 7571, "Â£": 7572, "Õ¸ÖĦÕ«": 7573, "ĠÖĦÖĢÕ¤": 7574, "Õ«Õ¯Õ¸Õ½": 7575, "ĠÕ£Õ¸ÖĢÕ®Õ¥ÖĢÕ¸Õ¾": 7576, "Õ¥ÖĦÕ·Õ¡Õ¢Õ©Õ«": 7577, "ÖĢÕ¾Õ¥Õ½Õ¿": 7578, "ÕįÖĩ": 7579, "ĠÕ°Õ¡Õ¾Õ¡Õ½Õ¿Õ«": 7580, "ĠÕĪÕ½Õ¯": 7581, "Â»,âĢĵ": 7582, "Õ¥ÕµÕ©Õ«Õ¾": 7583, "ĠÕ»Õ¡ÖĢÕ¤": 7584, "ĠÕ®Õ¡Õ¼Õ¡ÕµÕ¸ÖĤÕ©ÕµÕ¸ÖĤÕ¶Õ¶Õ¥ÖĢÕ¨": 7585, "ÕĳÕ¥ÖĢÕ¥Õ¯Õ¡ÕµÕ«Õ¶": 7586, "ĠÕ·Õ¶Õ¸ÖĢÕ°Õ¡Õ¾Õ¸ÖĢÕ¥Õ¬": 7587, "ĠÕ·Õ¶Õ¸ÖĢÕ°Õ¡Õ¾Õ¸ÖĢÕ¡Õ¯Õ¡Õ¶": 7588, "ĠÕ¬Õ¸ÖĤÕ®Õ¸ÖĤÕ´Õ¶Õ¥ÖĢ": 7589, "ĠÕµÕ¸ÖĤÖĢÕ¡Õ°Õ¡Õ¿": 7590, "ÕĢÕ¡Õ´Õ¡Õ¶Õ´Õ¡Õ¶": 7591, "ĠÕĢÕ¡Õ¯Õ¸Õ¢ÕµÕ¡Õ¶": 7592, "ÕıÕ¥Õ½ÖĦÕ¨": 7593, "email": 7594, "ĠÕºÕ¡Õ·Õ¿Õ¸Õ¶ÕµÕ¡Õ¶Õ¥ÖĢÕ«": 7595, "ÕİÕ«ÖĦÕ«ÕºÕ¥Õ¤Õ«Õ¡ÕµÕ«": 7596, "ĠÕ¢Õ»Õ»Õ¡ÕµÕ«Õ¶Õ¸Õ¾": 7597, "ĠÕĶÖĢÕ«Õ¥ÕµÕ©Õ«Õ¾": 7598, "Õ¸ÖĤÖĢÕ¯": 7599, "ĠÕ°ÖĢÕ©Õ«Õ¼": 7600, "Õ¡ÖĢÕ¶Õ¥ÖĢ": 7601, "Õ¡Õ´Õ¡Õ¶": 7602, "ĠÕ¿ÖĢÕ¾Õ¸Õ²": 7603, "ĠÕºÕ¸": 7604, "ĠÔ±Ô¶": 7605, "Õ¡Õ¬Õ«Õ¶": 7606, "ĠÕ¬Õ¡Õ¢Õ¸ÖĢÕ¡Õ¿Õ¸ÖĢ": 7607, "ĠÕĦÕ¥Õ¦": 7608, "ĠÕ¶Õ¡ÕŃÕ¡ÕºÕ¥Õ½": 7609, "ĠÕ¯Õ¡Õ´Õ¡Õ¾Õ¸ÖĢ": 7610, "erevan": 7611, "ĠÕ°Õ¶Õ¡ÖĢÕ¡Õ¾Õ¸ÖĢÕ¸ÖĤÕ©ÕµÕ¸ÖĤÕ¶Õ¨": 7612, "Õ¡Õ¿Õ¥Õ½Õ¡Õ¯": 7613, "ĠÕ´Õ¡Õ½Õ¶Õ¡Õ¯ÖģÕ¡ÕµÕ«Õ¶": 7614, "ĠÕ´ÖĢÖģÕ¡Õ¯Õ«Öģ": 7615, "ĠÕ¬Õ¸ÖĤÕ®Õ¥Õ¬Õ¸ÖĤ": 7616, "ĠÕ¥ÖĢÕ£Õ¨": 7617, "ĠRe": 7618, "ĠÕ¸ÖĢÕ¤Õ¸ÖĤ": 7619, "ĠÔ±ÖĢÖĩÕ¥Õ¬ÕµÕ¡Õ¶": 7620, "ÕĬÕ¥Õ¿ÖĦ": 7621, "ĠArmenia": 7622, "ĠÕ°Õ¡ÖĢÕ©Õ¡Õ¯": 7623, "Ô±Õ¤ÖĢÕ¢Õ¥Õ»Õ¡Õ¶Õ«": 7624, "ĠÕĦÔ±ÕĲÔ¶": 7625, "ĠÔ²Õ¡ÖĢÕ½Õ¥Õ²": 7626, "se": 7627, "Õ¡Õ½ÕµÕ¡Õ¶Õ«": 7628, "Õ¡Õ°Õ¥Õ¿": 7629, "ĠÕ©Õ¡Õ¿Õ¥ÖĢ": 7630, "Õ«Õ½ÕµÕ¡Õ¶Õ¨": 7631, "ĠÕĦÕ¡ÖĦÕ½": 7632, "ÕĦÕ¡ÕµÖĢ": 7633, "ĠÔµÔ¿": 7634, "ĠÔµÕ£Õ«ÕºÕ¿": 7635, "ÕıÔ²": 7636, "ĠÔ´Õ¡Õ¿": 7637, "Ġ32": 7638, "ĠÕ½ÕºÕ¡Õ¼Õ¶Õ¸ÖĤÕ´": 7639, "ĠÕĦÕ«Õ¸ÖĤÕ©ÕµÕ¡Õ¶": 7640, "ĠÕħÕ¸ÖĤÖĢÕ«": 7641, "ĠÕ½ÕºÕ¡Õ½Õ¡ÖĢÕ¯": 7642, "ĠÕ©Õ¥Õ´Õ«": 7643, "Õ¸ÖĢÕ¸Õ·Õ´Õ¡Õ¶": 7644, "ĠÕ¥ÖĢÖĩÕ«": 7645, "ĠÕªÕ¡Õ´Õ¯Õ¥Õ¿Õ¸Õ¾": 7646, "ĠÔ½Õ¡Õ¹Õ¡Õ¿Õ¸ÖĤÖĢ": 7647, "ĠÕ¢Õ¡ÖģÕ¡Õ°Õ¡ÕµÕ¿Õ¥Õ¬": 7648, "ash": 7649, "wiki": 7650, "ĠÖĥÕ¡Õ½Õ¿Õ¡Õ©Õ²Õ©Õ¥ÖĢÕ¨": 7651, "ie": 7652, "nik": 7653, "ĠÕ°Õ¡Õ·Õ¿": 7654, "Õ¡ÖģÕ¥": 7655, "ĠÕ½Õ¡Õ°Õ´": 7656, "ĠÕ¾Õ¡ÖĢÕ¡Õ¯": 7657, "ĠÕĦÕ¸Õ¶": 7658, "ĠÔ³ÕµÕ¸ÖĤÕ²": 7659, "ĠÔ»ÕĨ": 7660, "Õ³Õ¡Õ¼": 7661, "Ô¹Õ¸Õ²": 7662, "ÕĬÕ¡ÖĢÕ¦": 7663, "ÖħÖĢÕ¥Õ«Õ¶": 7664, "ĠÕ¡Õ¶Õ¾Õ¡Õ¶Õ¸ÖĤÕ´Õ¨": 7665, "ĠÕŃÕ¸ÖĢÕ°ÖĢÕ¤Õ¡ÕµÕ«Õ¶": 7666, "Õ¡Õ¿Õ¾Õ¸ÖĤÕ©ÕµÕ¡Õ¶": 7667, "ĠÕ®ÖĢÕ¡Õ£ÖĢÕ¸ÖĤÕ´": 7668, "Õ¡Õ¬Õ«ÖĨ": 7669, "ĠÕħÕ¸ÖĤÖĢÕ¡ÖĦÕ¡Õ¶Õ¹ÕµÕ¸ÖĤÖĢ": 7670, "Õ¸ÖĤÕ£Õ¡Õ¬": 7671, "ÕºÕ¥Õ¿Õ¡Õ¯Õ¡Õ¶": 7672, "ĠÕ°Õ¥Õ¼Õ¸ÖĤÕ½Õ¿Õ¡Õ¼Õ¡Õ¤Õ«": 7673, "ĠÕ°Õ¥Õ¿Õ¥ÖĤÕ¡Õ¶ÖĦÕ¸Õ¾": 7674, "ĠÕ¯Õ¸Õ´Õ«Õ¿Õ¥": 7675, "Ô¿Õ¡ÕºÕ¾Õ¡Õ®": 7676, "ĠÕŃÕ¡Õ¹Õ´Õ¥ÖĢ": 7677, "ĠÕŃÕ¸Õ½ÖĦÕ¥ÖĢÕ¸Õ¾": 7678, "ĠÕ¹Õ¸ÖĢÖĢÕ¸ÖĢÕ¤": 7679, "ĠÕ¡ÕºÕ¡Õ£Õ¡Õ¶": 7680, "ĠÕĢÕ¡Õ»Õ¸ÖĢÕ¤Õ¨": 7681, "ĠÕºÕ¡ÖĢÕ£ÖĩÕ¡Õ¿": 7682, "ÔµÖĢÕ¥Õ¯Õ¸ÕµÕ¡Õ¶": 7683, "ĠÕ¿Õ¥Õ²Õ¡Õ¯Õ¡ÕµÕ¾Õ¡Õ®": 7684, "100": 7685, "Video": 7686, "Õ¶Õ¡ÕµÕ«Õ¶": 7687, "Õ¥Õ¿Õ¡Õ¯Õ¡Õ¶": 7688, "ĠÕ¡ÕµÕ¢": 7689, "Õ¥Õ²Õ¡ÖĥÕ¸ÕŃ": 7690, "ÕĢÕ¥Õ¼": 7691, "Ô³ÕµÕ¸ÖĤÕ²": 7692, "Õ¡ÖĢÕ¾Õ¡": 7693, "Õ¡ÖĢÕ¾Õ¥Õ¬Õ¸ÖĤ": 7694, "Ô´Õ¡Õ½": 7695, "Õ¸ÕµÕ¡Õ¶Õ¶": 7696, "ĠÕ¡Õ´Õ¥Õ¶Õ¡Õ¢": 7697, "ĠÕ©Õ¾Õ¡Õ¯Õ¡Õ¶Õ¨": 7698, "ĠÕ½Õ¡Õ°Õ´Õ¡Õ¶Õ¥Õ¬": 7699, "ĠÕ¡Õ·ÕŃÕ¡Õ¿Õ¡Õ¶ÖĦÕ«Öģ": 7700, "ĠÕīÕ¡ÖĢ": 7701, "ĠÕ«Õ·ÕŃÕ¡Õ¶Õ¸ÖĤÕ©ÕµÕ¸ÖĤÕ¶": 7702, "ĠÕ£Õ¸ÖĢÕ®Õ¸Õ²Õ¸ÖĤÕ©ÕµÕ¡Õ¶": 7703, "ĠÕ¾Õ¡ÖĢÖĦ": 7704, "ĠÕ¦Õ¸ÖĢÕ¡Õ¯Õ¸Õ¹": 7705, "ĠÕ£Õ®Õ¸ÖĤÕ´": 7706, "ĠÕ¾Õ¡ÕµÖĢÕ«": 7707, "ĠÕ°Õ¥Õ²Õ¡ÖĥÕ¸ÕŃÕ¸ÖĤÕ©ÕµÕ¡Õ¶": 7708, "ĠÕ°ÖĢÕ¡Õ¾Õ«ÖĢÕ¸ÖĤÕ´": 7709, "ĠÕ¡ÕºÕ¡Õ£Õ¡ÕµÕ«": 7710, "ĠÕĩÕ¾Õ¥ÕµÖģÕ¡ÖĢÕ«": 7711, "ÕĢÕ¡Õ»Õ¸ÖĢÕ¤": 7712, "ĠÕ°Õ«Õ´Õ¶Õ¡ÕŃÕ¶Õ¤Õ«ÖĢ": 7713, "ĠÕ¿Õ¥Õ²Õ¥Õ¯Õ¡ÖģÖĢÕ«Õ¶": 7714, "ĠÕ¦Õ¾Õ¡ÖĢÕ³Õ¡Õ¬Õ«": 7715, "Ġand": 7716, "Õ¶Õ¡Õ¦": 7717, "Õ«Õ¶Õ¥ÖĢÕ«Õ¶": 7718, "ĠÕ¯Õ«Õ¬": 7719, "ĠÕ¸Õ¶Öģ": 7720, "ĠÕ£Õ¥ÖĢÕ´Õ¡Õ¶": 7721, "Õ¬Õ¡": 7722, "Õ¡Õ¬ÕµÕ¡Õ¶Õ¨": 7723, "ĠÕ½Õ¸ÖĤÖĢÕ³": 7724, "Õ´Õ¡Õ¶ÕµÕ¡Õ¶": 7725, "ĠÕ°Õ¡Õ´Õ¡Õ¼": 7726, "ĠÕŃÕ¡Õ¢": 7727, "ĠÕŃÕ¸ÖĢÕ¨": 7728, "ÖīâĢĶ": 7729, "Õ¥Õ¯Õ¿Õ¥Õ´Õ¢Õ¥ÖĢ": 7730, "ĠÕ¦Õ¸ÖĤÕ¿": 7731, "ĠÕ¡Õ¼Õ¡Õ»Õ¨Õ¶Õ©Õ¡Öģ": 7732, "ĠÕ½Õ¿Õ¡ÖģÕ¾Õ¸ÖĤÕ´": 7733, "Õ«ÕºÕ«": 7734, "ĠÕĵÕ¸ÖĢÕ±": 7735, "ĠÕŃÕ¸Õ½ÖĦÕ«": 7736, "ĠÕ¿Õ¡ÖĢÕ¡Õ®ÖĦÕ¨": 7737, "Õ¥ÕµÕ«": 7738, "ind": 7739, "ĠÕªÕ¸Õ²Õ¸Õ¾Õ¸ÖĤÕ´": 7740, "ĠÕ¥ÖĢÕ¯ÖĢÕ¶Õ¥ÖĢ": 7741, "ĠÕ®ÖĢÕ¡Õ£ÖĢÕ¸Õ¾": 7742, "ÖĦÕ¡Õ¶Õ·": 7743, "ĠÕ½Õ¯Õ½Õ¾Õ¸ÖĤÕ´": 7744, "ĠÕ¯ÕµÕ¡Õ¶ÖĦÕ«Õ¶": 7745, "ĠÕ³Õ¡Õ¶Õ¡ÕºÕ¡ÖĢÕ°Õ«": 7746, "Ô±Õ¼Õ¡Õ¾Õ¸Õ¿ÕµÕ¡Õ¶": 7747, "ĠÕ¤Õ«Õ¿Õ¸ÖĤÕ´": 7748, "ĠÖĥÕ¸ÕŃÕ¡Õ¶ÖģÕ¥Õ¬": 7749, "ĠÔ²Õ¡Õ¢Õ¬": 7750, "ĠÕ©Õ¡ÖĢÕ£Õ´Õ¡Õ¶Õ¸ÖĤÕ©ÕµÕ¸ÖĤÕ¶Õ¨": 7751, "ĠÕĢÔ±ÕĲÕĳ": 7752, "tect": 7753, "ĠÕ¯Õ¸Õ¡Õ¬Õ«Öģ": 7754, "ĠÕ¾Õ¥ÖĢÕ¡Õ¢Õ¥ÖĢÕ¾Õ¸ÖĤÕ´": 7755, "ĠChatrou": 7756, "ĠChatroulette": 7757, "Ġ%": 7758, "Õ¯Õ¶": 7759, "Ô±Õ¢": 7760, "Õ¡Õ¬Õ¸ÖĤÕ®": 7761, "Õ¸Õ¶Õ·": 7762, "Ô»Õ¶Õ¿": 7763, "Ô¿Õ¥Õ¶Õ¿ÖĢÕ¸Õ¶": 7764, "ĠÕĬÕ¸Õ¬": 7765, "Õ¡Õ¾Õ¡ÖĢÕ¸ÖĤÕ©ÕµÕ¸ÖĤÕ¶": 7766, "ÕĬÔ±ÕĨ": 7767, "ÖħÖĢÕ«Õ¶Õ¡Õ¯Õ¡Õ¶": 7768, "Ġ34": 7769, "ams": 7770, "Ô±ÕĲÕĢ": 7771, "ĠÕ£Õ«Õ¿Õ¥Õ¬Õ«": 7772, "ĠÕ½Õ¯Õ½Õ¥ÖģÕ«Õ¶": 7773, "Õ¿Õ¡Õ¶Õ£Õ¸ÖĤÕ©ÕµÕ¡Õ¶": 7774, "Õ¡Õ¾Õ¸ÖĢÕ´Õ¡Õ¶Õ¨": 7775, "ĠÕ¶Õ«Õ½Õ¿Õ¥ÖĢÕ«": 7776, "ĠÕ¡ÕºÖĢÕ¥Õ¬Õ¸ÖĤ": 7777, "ĠGoogle": 7778, "ĠÕ¾Õ³Õ¡ÖĢÕ´Õ¡Õ¶": 7779, "ĠÕ¶Õ¥ÖĢÕ¤ÖĢÕ¸ÖĤÕ´Õ¶Õ¥ÖĢ": 7780, "ĠÕĢÕ¥Õ¿Õ¸": 7781, "ĠÕ¡ÖĢÕ±Õ¡Õ¯Õ¸ÖĤÖĢÕ¤": 7782, "ĠÕ¬ÖĢÕ¡ÖģÕ¸ÖĤÕ´Õ¶Õ¥ÖĢ": 7783, "Ġinfo": 7784, "ĠÔµÕ¾ÖĢÕ¡Õ½Õ«Õ¡Õ¯Õ¡Õ¶": 7785, "ĠÕ¦Õ£Õ¡ÖģÕ´Õ¸ÖĤÕ¶ÖĦ": 7786, "ĠÔ±Õ¶Õ»Õ¥Õ¬": 7787, "ob": 7788, "Ġa": 7789, "ÖĦÕ¡": 7790, "ĠÕ¿Õ¸Õ¶Õ¡Õ¯Õ¡Õ¶": 7791, "ĠÔ±ÕºÖĢÕ«Õ¬": 7792, "ÕĢÕ¡Õ³Õ¡ÕŃ": 7793, "ĠÕ°Õ¡Õ´Õ¡ÖĢÕªÕ¥ÖĦ": 7794, "Õ¡Õ¦Õ¡ÖĢÕ¤": 7795, "ĠÕ¹Õ¯Õ¡ÖĢ": 7796, "Ġ1000": 7797, "ÔµÕ¯": 7798, "ÔµÔ´": 7799, "ĠÕįÕ¡Õ½Õ¸ÖĤÕ¶": 7800, "Õ¸Õ¬Õ¥Õ»": 7801, "ĠÕ¡ÖĢÕ¿Õ¥ÖĢÕ¯": 7802, "ĠÕºÕ¡Õ°Õ«": 7803, "Õ«ÖĦÕ½": 7804, "ĠÕĩÕ¸ÖĤÕ·": 7805, "ĠÕ£Õ«Õ¿Õ¥Õ´": 7806, "ĠÕ°Õ¶Õ¡ÖĢÕ¡Õ¾Õ¸ÖĢÕ«Õ¶Õ½": 7807, "ĠÕ²Õ¡ÖĢÕ¡Õ¢Õ¡Õ²ÕµÕ¡Õ¶": 7808, "Õ¡ÕªÕ¸Õ²Õ¸Õ¾Õ¨": 7809, "ĠÕ¡Õ´Õ¢Õ¸Õ²Õ»Õ¸Õ¾Õ«Õ¶": 7810, "ĠÖĥÕ¸ÖĥÕ¸ÕŃÕ¸ÖĤÕ©ÕµÕ¡Õ¶": 7811, "ĠÕ¡Õ»Õ¡Õ¯ÖģÕ¸ÖĤÕ©ÕµÕ¸ÖĤÕ¶Õ¨": 7812, "ĠÕ°Õ¡Õ¶Õ¤Õ«Õ½Õ¡Õ¿Õ¥Õ½": 7813, "ros": 7814, "ĠÕ¢Õ¶Õ¡Õ¯Õ«Õ¹Õ¶Õ¥ÖĢÕ¨": 7815, "Õ¡Õ¾Õ¡ÕµÖĢÕ¸ÖĤÕ´": 7816, "ĠÔ±Õ½Õ¿Õ¾Õ¡Õ®Õ¡Õ·": 7817, "ĠÕ´ÖĢÖģÕ¡Õ¶Õ¡Õ¯Õ«": 7818, "ĠÕŃÕ¸ÖĤÕ½Õ¡ÖĥÕ¥Õ¬": 7819, "ĠÕ¡ÖĢÖĦÕ¡Õµ": 7820, "ĠÔ·ÖĢÕ¤Õ¸Õ²Õ¡Õ¶Õ¨": 7821, "BC": 7822, "iz": 7823, "ĠÕ¡Õ¶Õ«": 7824, "Õ¿Õ¨": 7825, "Õ¿Õ¸ÖĤÖĢ": 7826, "ĠÕ¯Õ¦": 7827, "Õ¸ÖĤÕ¶Õ¥ÖĢ": 7828, "Õ¶Õ¥ÖĢÕ«Õ½": 7829, "ĠÕĢÕ¶Õ¡ÖĢÕ¡Õ¾Õ¸ÖĢ": 7830, "ÕŃÕ¸ÖĢÕ°ÖĢÕ¤": 7831, "Õ¡Õ¤Õ¸ÖĤÕ¬": 7832, "ĠÕ¡Õ¼Õ¡Õ»Õ¡ÖģÕ¶Õ¸ÖĤÕ´": 7833, "ĠÕ¿Õ¡ÖĢÖħÖĢÕ«Õ¶Õ¡Õ¯": 7834, "ĠÕĬÕ¡ÕµÕ´Õ¡Õ¶": 7835, "Ô¸Õ¶Õ¿": 7836, "ĠÕįÕ¡ÖĢÕ£Õ«Õ½": 7837, "ĠÕ¡Õ²ÕµÕ¸ÖĤÕ½": 7838, "ĠÕ°Õ¡Õ¶ÖĢÕ¸ÖĤÕ©ÕµÕ¡Õ¶Õ¨": 7839, "ĠÕºÕ¡ÖĢÕ¦Õ¥Õ¬Õ¸ÖĤ": 7840, "ĠÕ´Õ·Õ¡Õ¯Õ´Õ¡Õ¶": 7841, "ĠÕ¸ÖĢÕ¿Õ¥Õ²Õ«Öģ": 7842, "ĠÕ¾Õ¡ÖĢÕ¥Õ¬": 7843, "ĠÕ¡Õ¾Õ¥Õ¬Õ¸ÖĢÕ¤": 7844, "ĠÕ¶Õ¡ÕŃÕ¡Õ£Õ®Õ¥ÖĢÕ«": 7845, "Õ£ÖĢÕ¥Õ½": 7846, "ĠÕ¢Õ¡Õ¼Õ¥ÖĢÕ¨": 7847, "ĠÕ¡Õ¶Õ¾Õ¡Õ¶Õ¥Õ¬": 7848, "ĠÕºÕ¡Õ¿Õ¥ÖĢÕ¡Õ¦Õ´Õ¨": 7849, "ÕĬÕ¡Õ¿ÖĢÕ¡Õ½Õ¿": 7850, "ĠÕ°Õ¥Õ¼Õ¸ÖĤÕ½Õ¿Õ¡": 7851, "ÐµÐ½": 7852, "ĠÕ¢Õ¸ÖĤÕªÕ´Õ¡Õ¶": 7853, "ĠÕ°Õ¥Õ¼Õ¡ÕŃÕ¸Õ½Õ¡Õ°Õ¡Õ´": 7854, "ĠÕĢÕĶÔ¾": 7855, "ĠÕŃÖĢÕ¡ÕŃÕ¸ÖĤÕ½": 7856, "ĠÕ°Õ¥Õ¼Õ¸ÖĤÕ½Õ¿Õ¡Õ¼Õ¡Õ¤Õ«Õ¸Õ¨": 7857, "ÖĢÕ¡ÕºÕ¡ÖĢÕ¡Õ¯": 7858, "Õ¡ÕµÖĢÕ¨": 7859, "ĠÕ¸ÖĢÕ½": 7860, "Õ´Õ«Õ¶": 7861, "ĠÕ½Õ¥ÖĢÕ«": 7862, "Õ¡ÕºÕ¡Õ²": 7863, "Õ¸Õ¶ÕµÕ¡Õ¶Õ«": 7864, "Õ¸ÖĤÕ½Õ¡Õ²": 7865, "Ô¿Õ¡ÖĢÕ¥Õ¶": 7866, "Õ¡ÖĢÕ±Õ¸ÖĤÕ´": 7867, "ĠÖĦÕ¡Õ²Õ¡ÖĦÕ¶Õ¥ÖĢÕ¸ÖĤÕ´": 7868, "ĠÕ¡ÖĢÕ¿Õ¡ÖģÕ¸Õ¬": 7869, "ĠÕ¶Õ¡ÕŃÕ¡Õ£Õ¡Õ°Õ¶": 7870, "ĠÕ´Õ«Õ»Õ¸ÖģÕ¶Õ¥ÖĢÕ¸Õ¾": 7871, "ĠÕŃÕ¸ÖĢÕ°ÖĢÕ¤Õ¡Õ¶Õ«Õ·": 7872, "ant": 7873, "ĠÔ¶Õ¡ÖĦ": 7874, "Õ¸Õ½Õ¿Õ¸Õ½": 7875, "ĠÕ¤Õ¡ÖĢÕ±Õ¶Õ¥Õ¬Õ¸ÖĤ": 7876, "ĠÕ¶Õ·Õ¡Õ¶Õ¡Õ¯Õ¥Õ¬": 7877, "ĠÔ¾Õ¡Õ¼Õ¡Õµ": 7878, "ĠÕ´Õ¡Õ°Õ¡ÖģÕ¡Õ®": 7879, "ĠÔµÖĢÕ¥ÕŃ": 7880, "ĠÕ¤Õ«Õ¿Õ¸ÖĢÕ¤": 7881, "ÕºÕ¡Õ¿Õ¡Õ½ÕŃÕ¡Õ¶": 7882, "ĠÕ³Õ¡ÖĢÕ¿Õ¡ÖĢÕ¡ÕºÕ¥Õ¿": 7883, "ĠÔ±Õ©Õ¸Õ¼Õ¸Õµ": 7884, "ĠÕ¤Õ¡Õ°Õ¬Õ«Õ³Õ¸ÖĤÕ´": 7885, "ĠÕ½Õ¡Õ¯Õ¡Õ£": 7886, "ÕĦÕ¡Õ´Õ¸ÖĤÕ¬Õ«": 7887, "ÕĵÕ¸ÕŃÕ¥Õ¬": 7888, "Ô³ÕµÕ¸ÖĤÕ´ÖĢÕ«": 7889, "ÕĩÔ±Ô¿ÕĪÕĴÕħÔ¹": 7890, "Ġprotect": 7891, "ÕµÕ¸ÖĤÕ®": 7892, "Õ¡Õ¯Õ¡Õ¶Õ¶Õ¥ÖĢÕ¨": 7893, "Õ¸ÖĤÕ©ÕµÕ¡Õ¶Õ¶": 7894, "Õ¥Õ²Õ¥Õ¶": 7895, "ÕĢÕ¡Õ¿": 7896, "Õ¼Õ¸ÖĤÕ½Õ¡Õ¯Õ¡Õ¶": 7897, "Ô´Õ¥Õ¯Õ¿Õ¥Õ´Õ¢Õ¥ÖĢÕ«": 7898, "ĠÖĨÕ¸ÖĢÕ¸ÖĤÕ´": 7899, "Õ¸Õ£Õ´Õ¡Õ¶": 7900, "ĠÕ´Õ¥Õ»Õ¢Õ¥ÖĢÕ¸ÖĤÕ´Õ¶Õ¥ÖĢ": 7901, "ĠÕĶÕ¡ÖĢÕ¤": 7902, "Ô¸ÕĨ": 7903, "ĠÕ¨Õ¶Õ¿ÖĢÕ¸ÖĤÕ©ÕµÕ¸ÖĤÕ¶Õ¨": 7904, "ĠÕ£Õ«Õ¿Õ¥Õ¶": 7905, "ĠÕ°Õ¡Õ´Õ¡Õ¯Õ¡ÖĢÕ£Õ¸Õ²": 7906, "ĠÖģÕ¸ÖĤÖģÕ¡Õ¯Õ¨": 7907, "ĠÕīÕ§": 7908, "ĠÕ¢Õ¡ÖĢÕ±ÖĢÕ¡ÖģÕ´Õ¡Õ¶": 7909, "ĠÕ¬ÖĢÕ¡ÖģÕ¶Õ¥Õ¬": 7910, "itik": 7911, "Ġ2004": 7912, "ĠÕ¯Õ«ÖĢÕ¡Õ¼Õ´Õ¡Õ¶": 7913, "ack": 7914, "ĠÕ¯Õ¸ÖĤÕ¶Õ¥Õ¶Õ¡Õ¶": 7915, "ĠÔ±Õ·ÕŃÕ¡Õ¿": 7916, "ĠVideo": 7917, "ĠÕ¯Õ¶Õ¸Õ»Õ¨": 7918, "Ô¸Õ¶Õ¤Õ°Õ¡Õ¶Õ¸ÖĤÖĢ": 7919, "ĠÕĬÕ¡Õ·Õ¿ÖħÕ¶Õ¡Õ¯Õ¡Õ¶": 7920, "ĠÕ£ÕµÕ¸ÖĤÕ²Õ¡Õ¿Õ¶Õ¿Õ¥Õ½Õ¡Õ¯Õ¡Õ¶": 7921, "ĠÕ°Õ¡ÖĢÕ´Õ¡ÖĢÕ¡Õ¾Õ¥Õ¿": 7922, "ĠÕ¯Õ¸Õ¼Õ¸ÖĤÕºÖģÕ«Õ¸Õ¶": 7923, "ÕİÕ«ÖĦÕ«ÕºÕ¥Õ¤Õ«Õ¡ÕµÕ«Öģ": 7924, "ĠÕĢÕ¥Õ¶ÖĢÕ«ÕŃ": 7925, "ĠÕ¤Õ¸Õ¯Õ¿Õ¸ÖĢ": 7926, "ÕĨÕ¡Õ¾Õ¡ÖĢÕ¯Õ´Õ¡Õ¶": 7927, "Õ¸ÖĤÕ©Õ¥Õ¡Õ´Õ¢": 7928, "ÕıÕ¥ÖĦÕ½Õ¿Õ¨": 7929, "Ġprotected": 7930, "The": 7931, "Õ¶Õ¸ÖĤÕ¶Õ¤": 7932, "ÖĦÕ¡Õ²Õ¡ÖĦÕ¡Õ¯Õ¡Õ¶": 7933, "Õ¡Õ´Õ·Õ¡Õ¯Õ¸ÖĤÕ©Õ¡ÕµÕ«Õ¶": 7934, "Õ¡Õ¿Õ«Õ¶": 7935, "Õ£Õ¡ÖĢ": 7936, "ĠÖĦÕ¸ÖĤÕµÖĢ": 7937, "Õ²Õ¡Õ´Õ¡ÖĢÕ¤": 7938, "ÕĦÕ¸Õ¼": 7939, "Ô»Õ½": 7940, "ĠÕ¿Õ¥Õ²Õ¡Õ´Õ¡Õ½": 7941, "ĠÕİÕ¡ÖĢ": 7942, "ÕĶÕ¡Õ²Õ¡ÖĦÕ¡Õ¯Õ¡Õ¶": 7943, "ĠÕ´Õ¿Õ¶Õ¥Õ¬": 7944, "ĠÕ¥Õ¯Õ¡Õ®": 7945, "ĠÕ¥ÖĢÕ¯ÖĢÕ¶Õ¥ÖĢÕ«Öģ": 7946, "ĠÖģÕ¡Õ¶Õ¯Õ¨": 7947, "are": 7948, "Ô·Ô¿": 7949, "ĠÔ±Õ¤ÖĢÕ¢Õ¥Õ»Õ¡Õ¶": 7950, "ĠÕ¯Õ¸Õ¹Õ¸ÖĤÕ´": 7951, "ĠÕ¢Õ¡Õ¶Õ¡Õ¯Õ¨": 7952, "ĠÕ¡Õ´Õ«Õ½Õ¶Õ¥ÖĢÕ«Õ¶": 7953, "ĠÕ¡ÖĢÕ±Õ¡Õ¶Õ¡Õ£ÖĢÕ¾Õ¥Õ¬": 7954, "ĠÕ·Õ«Õ¶Õ¡ÖĢÕ¡ÖĢ": 7955, "ĠÔ³ÕµÕ¸ÖĤÕ´ÖĢÕ¸ÖĤ": 7956, "ĠÕ©Õ¡Õ¿ÖĢÕ¸Õ¶": 7957, "ĠÖĦÕ¡ÖĢÕ¿Õ¸ÖĤÕ²Õ¡ÖĢÕ«": 7958, "ĠÔ»Õ½ÖĢÕ¡ÕµÕ¥Õ¬Õ«": 7959, "ĠÕ¿Õ¡Õ²Õ¡Õ¶Õ¤": 7960, "Õ¡Õ£Õ«Õ®Õ¨": 7961, "ĠÕ¡ÖĢÖģÕ¡ÕŃ": 7962, "ÖĢÕ¡Õ¤Õ¡Õ¼Õ¶Õ¡Õ¬Õ¸Õ¾": 7963, "Õ¡Õ¶Õ¡ÕµÕ«": 7964, "Õ²Õ¡Õ¯Õ«": 7965, "ĠÔ³Õ¬": 7966, "ĠÕ¾Õ¥ÖĢÕ¡ÕºÕ¡Õ°": 7967, "ĠÖģÕ¥ÖĢÕ¥Õ¯Õ¡ÕµÕ«Õ¶": 7968, "Õ¡Õ©Õ¡Öĥ": 7969, "ĠÕĬÔ²": 7970, "ĠÕ¶Õ¥ÖĢÕ¯Õ¡ÕµÕ¸ÖĤÕ´Õ½": 7971, "Õ«Õ½Õ¿Õ¶Õ¥ÖĢÕ«": 7972, "Ô±ÕħÔ»": 7973, "ĠÔ±Õ¶Õ¯Õ¡ÕŃ": 7974, "ĠÕŃÕ¶Õ¤Õ«ÖĢÕ¶Õ¥ÖĢÕ«Õ¶": 7975, "ĠÕ¦Õ«Õ¶Õ¾": 7976, "ÕĳÕ¡Õ¶Õ¯": 7977, "Õ«Õ¤Õ¥Õ¸": 7978, "ĠÕ®Õ¶Õ¸ÖĤÕ¶Õ¤": 7979, "ĠÕĭÕ¸Õ¶": 7980, "ĠÕ«ÖĢÕ¡Õ¾Õ«Õ³Õ¡Õ¯Õ¸ÖĤÕ´": 7981, "Õ¡Õ¿ÖĢÕ¥Õ¬Õ«": 7982, "ĠÕ°Õ¡ÕµÖĢÕ¥Õ¶Õ¡Õ¯Õ«Öģ": 7983, "ĠÕ¾Õ¡ÕµÖĢÕ¨": 7984, "ĠÔ·Õ¤Õ¾Õ¡ÖĢÕ¤": 7985, "ĠÕ°Õ«Õ¡Õ½": 7986, "ĠÕ°Õ½Õ¯Õ¸Õ²Õ¸ÖĤÕ©ÕµÕ¡Õ¶": 7987, "ĠÔ¾Õ¡Õ¼Õ¸ÖĤÕ¯ÕµÕ¡Õ¶Õ¨": 7988, "ĠÕºÕ¡ÖĢÕ¿Õ¡Õ¯Õ¡Õ¶Õ¸ÖĤÕ©ÕµÕ¸ÖĤÕ¶Õ¶Õ¥ÖĢÕ¨": 7989, "ĠÕ©Õ¸ÖĤÕµÕ¬Õ¡Õ¿ÖĢÕ¡Õ£ÖĢÕ«": 7990, "ĠÖĦÖĢÕ¥Õ¡Õ¯Õ¡Õ¿Õ¡ÖĢÕ¸Õ²Õ¡Õ¯Õ¡Õ¶": 7991, "ĠÔ¿Ô±ÕĮÔ±ÕİÔ±ÕĲ": 7992, ",,": 7993, "ly": 7994, "Õ¡ÕµÕ¡Õ¶Õ«": 7995, "Õ¡Õ®Õ¨": 7996, "ĠÕ½Õ¸ÖĤÖĢ": 7997, "ĠÕ«ÖĢÕ¸ÖĦ": 7998, "ĠÕ£Õ¸ÖĢÕ®Õ¡ÖĢ": 7999, "ĠÕĨÕĪÕĲ": 8000, "ĠÕ¡Õ´Õ¡Õ¼Õ¡ÕµÕ«Õ¶": 8001, "Õ¡ÖĥÕ·Õ¿": 8002, "Õ¡Õ¿Õ¡ÖĢÕ«Õ´": 8003, "ĠÕ°Õ¡Õ½Õ¯Õ¡Õ¶": 8004, "ĠÕºÕ¡Õ·Õ¿ÕºÕ¡Õ¶Õ«": 8005, "ĠÕºÕ¡Õ°Õ«Öģ": 8006, "ĠÕ°Õ¡Õ¾Õ¡Õ½Õ¿": 8007, "ÔµÕĲÔ¸": 8008, "ĠÕ½Õ¯Õ¡Õ¶Õ¤": 8009, "ĠÕ¥ÖĢÕ¯ÖĢÕ¶Õ¥ÖĢÕ¨": 8010, "ĠÕ°Õ¡Õ¯Õ¡Õ¼": 8011, "ĠÕ°Õ¡ÕµÕ¿Õ¶Õ¾Õ¸ÖĤÕ´": 8012, "ĠÕ·Õ¶Õ¸ÖĢÕ°Õ¡Õ¾Õ¸ÖĢ": 8013, "Ġ2003": 8014, "ĠÔ±Õ¬Õ¢": 8015, "Ġ08": 8016, "ĠÕ¡Õ¶Õ°ÖĢÕ¡ÕªÕ¥Õ·Õ¿Õ¸ÖĤÕ©ÕµÕ¸ÖĤÕ¶": 8017, "ĠÕ·Õ¡Õ°Õ¡Õ£Õ¸ÖĢÕ®": 8018, "ĠÕ¡Õ¶ÖģÕ¯Õ¡ÖģÕ¾Õ¥Õ¬": 8019, "ĠÕ«ÖĢÕ¥Õ¶Õ«Öģ": 8020, "ĠÕ¡ÖĢÖĩÕ´Õ¿ÕµÕ¡Õ¶": 8021, "ĠÕ°Õ¡Õ¯Õ¡Õ¼Õ¡Õ¯Õ¸ÖĢÕ¤Õ«": 8022, "ĠÕ´Õ¸ÖĤÕ¿ÖĦÕ«": 8023, "ĠÕ¯Õ¸ÖĢÕ®Õ¡Õ¶": 8024, "Õ½ÕºÕ¡Õ½Õ¥Õ¬Õ«": 8025, "ĠÕ¡Õ½Õ¿Õ«Õ³Õ¡Õ¶Õ«": 8026, "Õ¸Õ¶Õ·ÕµÕ¡Õ¬": 8027, "Õ¸ÖĤÕ´Õ¶Õ¥ÖĢÕ¶": 8028, "Õ«Õ¶Õ£Õ¡ÕµÕ«Õ¶": 8029, "Õ¡ÕºÕ¿": 8030, "ÕĢÕ¸Õ¾Õ°Õ¡Õ¶Õ¶": 8031, "Õ¡ÖĢÕ¿Õ¸ÖĤÕ²": 8032, "ĠÕ´Õ«Õ»Õ¸ÖĤÕ¯Õ¡ÕµÕ«Õ¶": 8033, "Õ¡ÖĥÕ¡Õ¼": 8034, "Ô²Õ¶Õ¡Õ¯": 8035, "Õ¸ÖĤÕ¬Õ²": 8036, "ĠÕ°Õ¡ÖĢÖģÖĢÕ¥Öģ": 8037, "ĠÕ¶Õ¥ÖĢÕ¯Õ¡ÕµÕ¡ÖģÖĢÕ¡Õ®": 8038, "ÕħÔ±ÕĨÔ»": 8039, "ĠÕ¡Õ´Õ¥Õ¶Õ«Öģ": 8040, "ĠÕ¤Õ¥ÕºÖĦÕ¥ÖĢ": 8041, "ĠÕ¥Õ²Õ¥ÖĦ": 8042, "ĠÕ¨Õ¶Õ¿ÖĢÕ¸ÖĤÕ©ÕµÕ¸ÖĤÕ¶": 8043, "ĠÕ¨Õ¶Õ¯Õ¥ÖĢÕ¶Õ¥ÖĢÕ«": 8044, "Ô¾Õ¡Õ¼Õ¡Õµ": 8045, "ĠÕ«ÖĢÕ¡Õ¯Õ¡Õ¶Õ¡ÖģÕ¸ÖĤÕ´Õ¨": 8046, "ory": 8047, "ĠÕ¨Õ¶Õ¿ÖĢÕ¾Õ¡Õ®": 8048, "ĠÕ´Õ¡ÖĢÕ´Õ¶Õ¡Õ¯Õ¡Õ¶": 8049, "ĠÕ¦Õ£Õ¡ÖģÕ¸Õ²": 8050, "Õ¡Õ¯Õ¡ÕµÕ¸ÖĤÕ©ÕµÕ¡Õ¶": 8051, "ĠÕ¡Õ¾Õ¥Õ¬Õ¡ÖģÕ¶Õ¥Õ¬": 8052, "ĠÕĦÕ¡Õ¶ÖĢÕ¡Õ´Õ¡Õ½Õ¶Õ¸ÖĤÕ©ÕµÕ¸ÖĤÕ¶Õ¶Õ¥ÖĢÕ«": 8053, "ÕĢÕ¥Õ¿Õ¡ÖĦÖĢÖĦÕ«ÖĢ": 8054, "ĠÕ¶ÕºÕ¡Õ½Õ¿Õ¥Õ¬": 8055, "ĠÕ¢Õ¸Õ¬Õ¸ÖĢÕ½": 8056, "ĠÕ¨Õ¶Õ¤Õ£Õ®Õ¥Öģ": 8057, "ĠÕ¡Õ¼Õ¶Õ¹Õ¸ÖĤÕ©ÕµÕ¡Õ´Õ¢": 8058, "Ô±ÖĢÕ¤Õ¥Õ¶": 8059, "ĠÕºÕ¡Õ¿Õ¡Õ½ÕŃÕ¡Õ¶Õ¸ÖĤÕ´": 8060, "ĠÕ¢Õ¡ÖģÕ¡Õ¯Õ¡ÕµÕ¸ÖĤÕ©ÕµÕ¡Õ¶": 8061, "ĠÕķÕĲÔµÕĨ": 8062, "ĠÖħÖĢÕ°Õ¶": 8063, "ĠÕ£Õ¥ÖĢÕ¥Õ¦Õ´Õ¡Õ¶": 8064, "ĠÕĶÕ¸Õ´Õ¸Õ¶Õ½": 8065, "ax": 8066, "Õ¥Õ¹": 8067, "ĠÕ°Õ¸Õ¿": 8068, "ĠÔ±ÕĢ": 8069, "ÕĢÕ¸Õ£": 8070, "ÕįÕ¡Õ°Õ´Õ¡Õ¶": 8071, "ĠÕıÕ«ÖĢ": 8072, "ĠÕ®Õ¡Õ¼Õ¡ÕµÕ¸Õ²Õ¡Õ¯Õ¡Õ¶": 8073, "ativ": 8074, "ĠÖĥÕ¸ÖĥÕ¸ÕŃÕ¸ÖĤÕ©ÕµÕ¸ÖĤÕ¶Õ¶Õ¥ÖĢÕ¨": 8075, "ĠÕ·ÖĢÕ»Õ¡Õ¶Õ¡Õ¼Õ¸ÖĤÕ©ÕµÕ¡Õ¶": 8076, "ĠÕ½Õ¯Õ¦Õ¢Õ«Õ¶": 8077, "ĠÕ¡Õ¦Õ£Õ«": 8078, "ĠÕ¿Õ¥Õ²Õ¡ÖĥÕ¸ÕŃÕ¥Õ¬": 8079, "ĠÕ¡Õ²Õ¢ÕµÕ¸ÖĤÖĢÕ¨": 8080, "ĠÕ½Õ¶Õ¸ÖĤÕ¶Õ¤": 8081, "ĠÕªÕ¸Õ²Õ¸Õ¾Õ¸ÖĤÖĢÕ¤Õ¶Õ¥ÖĢÕ«": 8082, "ĠÕ¾Õ¡ÖĢÕ±Õ¡Õ¯Õ¡Õ¬": 8083, "ĠÕįÕ¿Õ¥ÖĥÕ¡Õ¶": 8084, "ĠÕ¾Õ¥ÖĢÕ¡Õ¯Õ¡Õ¶Õ£Õ¶Õ´Õ¡Õ¶": 8085, "ĠÔ³Õ¥Õ²Õ¡ÖĢÖĦÕ¸ÖĤÕ¶Õ«ÖĦÕ«": 8086, "ĠÕ¢Õ¶Õ¡ÕºÕ¡Õ°ÕºÕ¡Õ¶Õ¡Õ¯Õ¡Õ¶": 8087, "ĠÕ°Õ¥Õ²Õ«Õ¶Õ¡Õ¯Õ¨": 8088, "ĠÕĦÕ¡Õ½Õ¶Õ¡Õ¾Õ¸ÖĢÕ¡ÕºÕ¥Õ½": 8089, "Ô±Ô¶Ô³Ô±ÕħÔ»ÕĨ": 8090, "ÕĬÕ¡Õ·Õ¿Õ¸Õ¶Õ¡Õ¯Õ¡Õ¶": 8091, "ĠÕĢÕ²Õ´Õ¡Õ¶": 8092, "Ġde": 8093, "ĠÕ¯Õ¸ÖĤÕ¦": 8094, "Õ¸ÖĤÕ¶Õ£": 8095, "Õ¡Õ¾Õ¡Õ¦": 8096, "Õ¸Õ¾Õ¡": 8097, "Õ¸ÖĢÕ¡Õ¯": 8098, "ĠÕ£Õ¡ÖĢÕ¶": 8099, "ĠÕĢÕ¡Õ¬": 8100, "ĠÕ¾Õ¯Õ¡Õ¶": 8101, "ÖĩÕ«Õ¶": 8102, "Õ¥Õ¯Õ¸ÖĤÕ¦": 8103, "ÕĪÔ½": 8104, "âĢľ": 8105, "Õ¸ÖĤÖĢÕ«Õ¶": 8106, "ĠÔµÔ½": 8107, "Õ¡Õ¯ÖģÕ¥Õ¬": 8108, "ÖĢÕ¡Õ´Õ¡Õ½": 8109, "ĠÕ¿Õ¥Õ½Õ¸ÖĤÕ©ÕµÕ¸ÖĤÕ¶": 8110, "ĠÕ¡Õ´Õ¥Õ¶Õ«": 8111, "ame": 8112, "Õ¨Õ¶Õ¿ÖĢ": 8113, "ĠÕŃÕ¸Õ½Õ¡Õ¯Öģ": 8114, "ĠÕ¢Õ¸Õ¬Õ¸ÖĢÕ¶": 8115, "ĠÕ·Õ¡ÖĢÖĦÕ¸ÖĤÕ´": 8116, "ĠÕ¨Õ¶Õ©Õ¡ÖģÕ¸Õ²": 8117, "ĠÕ´Õ«Õ¡ÕµÕ¶Õ¡Õ¯": 8118, "Õ¡Õ¢Õ¥ÖĢÕ¤": 8119, "ĠÕ¡Õ²Õ¥Õ¿": 8120, "Õ¥Õ¯Õ¿Õ«Õ¾": 8121, "Õ¥ÖĢÕ¾Õ¡Õ®": 8122, "ĠÕİÖĢÕ¡Õ½Õ¿Õ¡Õ¶": 8123, "ĠÕ¿Õ²Õ¡Õ´Õ¡ÖĢÕ¤Õ¨": 8124, "Õ¡Õ¿Õ¸ÖĤÕ¶Õ¥ÖĢÕ«": 8125, "ĠÕ¡Õ°Õ¡Õ¢Õ¥Õ¯Õ¹Õ¡Õ¯Õ¡Õ¶": 8126, "Ô¼Õ¡Õ¾Õ¡Õ£Õ¸ÖĤÕµÕ¶": 8127, "ĠÕĢÕ«Õ½Õ¸ÖĤÕ½": 8128, "Õ´Õ¥Õ¼Õ¡ÕµÕ«Õ¶": 8129, "ÕĦÕŃÕ«Õ©Õ¡ÖĢ": 8130, "Ô±Õ°Õ¡": 8131, "],": 8132, "ah": 8133, "Õ¡Õ¶Õ¸ÖĤÕ©ÕµÕ¸ÖĤÕ¶": 8134, "Õ¿Õ¸Õ¿": 8135, "ĠÕ°Õ¥Õ®": 8136, "ĠÕ¯Õ¸Õº": 8137, "Õ´Õ¸ÖĤÕ¶ÖĦÕ«": 8138, "Õ¡Õ¯Õ¡Õ¶Õ¶Õ¥ÖĢ": 8139, "Õ¡ÖģÕ¶Õ¥Õ¶ÖĦ": 8140, "Õ¬Õ«Õ£Õ¡ÖĢÕŃ": 8141, "ĠÕĢÕ¥Õ²Õ«Õ¶Õ¡Õ¯": 8142, "ĠÕ½Õ¥Õº": 8143, "ĠÕ¡Õ¶Õ¶Õ¡ÕŃ": 8144, "ĠÕŃÕ½Õ¿": 8145, "ÕĨÕ¡ÕŃÕ¡Õ£Õ®Õ«": 8146, "ÕĦÕ¥Õ¯Õ¶Õ¡Õ¢Õ¡Õ¶": 8147, "Õ°ÖĢÕ¡ÕªÕ¥Õ·Õ¿": 8148, "ĠÔ²Õ«Õ¦Õ¶Õ¥Õ½": 8149, "ĠÕ¸ÖĤÕ¶Õ¥Õ«Õ¶": 8150, "Õŀ,": 8151, "Ô¹ÖĢÕ¡Õ´Öĥ": 8152, "ĠÕ¯Õ¡ÕµÕ¡ÖģÕ¡Õ¾": 8153, "Ô±Ô¿Õĳ": 8154, "ÕĮÔ´": 8155, "ĠÖģÕ¡Õ¶Õ¯Õ¡Õ¬Õ«": 8156, "ĠÕ´Õ«Õ¶Õ¹Õ¤Õ¥Õ¼": 8157, "ĠÕ¯Õ¡Õ¼Õ¡Õ¾Õ¡ÖĢÕ¸ÖĤÕ©ÕµÕ¸ÖĤÕ¶": 8158, "ĠÕ¡Õ¼Õ¡Õ»Õ¶Õ¡ÕµÕ«Õ¶": 8159, "ĠÕ¿ÖĢÕ¡Õ´Õ¡Õ¤ÖĢÕ¾Õ¡Õ®": 8160, "ĠÕ¿Õ²Õ¡": 8161, "ĠÔ±ÖĢÕ¿Õ¡Õ·": 8162, "ÔµÖĢÕ¥ÕŃ": 8163, "ĠÕ´Õ¡ÖĢÕ´Õ«Õ¶Õ¶Õ¥ÖĢÕ¨": 8164, "ĠÕ¯Õ¿Õ¸ÖĢ": 8165, "ĠÕ¥ÖĢÕ¥ÕŃÕ¡Õ¶Õ¥ÖĢ": 8166, "ÔµÖĢÕ¯Õ«ÖĢ": 8167, "ĠÕ£Õ¡Õ²Õ¡ÖĥÕ¡ÖĢÕ¨": 8168, "ĠÕ¯Õ¸ÖĢÖģÖĢÕ¥Õ¬": 8169, "akh": 8170, "ĠÕ¼Õ¥ÕªÕ«Õ´Õ«": 8171, "Õ¡Õ¤ÖĢÕ¾Õ¸Õ²": 8172, "ĠÕ¾Õ¥ÖĢÕ¡Õ¢Õ¥ÖĢÕ´Õ¸ÖĤÕ¶ÖĦ": 8173, "Õ¸ÖĤÕ¶Õ¯Öģ": 8174, "ĠÕĳÕ¥Õ²Õ¡Õ½ÕºÕ¡Õ¶Õ¸ÖĤÕ©ÕµÕ¡Õ¶": 8175, "io": 8176, "ĠÕ°Õ¡ÖĥÕ·Õ¿": 8177, "Õ´Õ¡Õ½": 8178, "Õ¡Õ¯Õ¡Õ¶Õ¶Õ¥ÖĢÕ«Õ¶": 8179, "ĠÕĢÕ¶Õ¤Õ¯": 8180, "Õ¥Õ½Õ©": 8181, "ĠÕ¡Õ¶Õ¥Õ¬Õ¸Õ¾": 8182, "ĠÕ¡Õ¶Õ¿Õ¥Õ½": 8183, "ĠÕ°Õ¡Õ´Õ¡Õ¯": 8184, "ÕŃÕ¸ÖĤÕ´": 8185, "ĠÕ¹ÕŃ": 8186, "ĠÕĦÕ¥Õ²": 8187, "ĠÕ¨Õ¶Õ±Õ¥Õ¼": 8188, "Ô¿ÔµÕĲ": 8189, "Õ¸Õ¬Õ«Õ¿": 8190, "ĠÕ£Õ¸ÖĢÕ®Õ«Õ¶": 8191, "ĠÔ¿Õ¡Õ¿": 8192, "ĠÕĨÕ¸ÕµÕ¥Õ´Õ¢Õ¥ÖĢÕ«": 8193, "ĠÕ«Õ¶Õ¹ÕºÕ«Õ½Õ«ÖĦ": 8194, "ÕįÕ¸ÖģÕ«Õ¡Õ¬Õ¡Õ¯Õ¡Õ¶": 8195, "ĠÕİÕ«Õ¯": 8196, "ĠÕ¯Õ¡Õ¼Õ¡Õ¾": 8197, "Õ¨Õ¶Õ©Õ¡ÖģÕ«": 8198, "Ġ55": 8199, "ĠÕ¯Õ¡Õ¦Õ´Õ¡Õ¯Õ¥ÖĢÕºÕ¥Õ¬Õ¸ÖĤ": 8200, "Õ¸ÖĤÕ·Õ¡Õ¢Õ©Õ«": 8201, "ĠÕ¯Õ¡Õ¼Õ¡Õ¾Õ¡ÖĢÕ¸ÖĤÕ©ÕµÕ¡Õ¶Õ¨": 8202, "ĠÕ£Õ¿Õ¶Õ¾Õ¥Õ¬Õ¸ÖĤ": 8203, "ĠÕ¯Õ¡ÖĢÖĩÕ¸ÖĢÕ¡Õ£Õ¸ÖĤÕµÕ¶": 8204, "ĠÕ¡Õ¶ÖģÕ¯Õ¡ÖģÕ¶Õ¸ÖĤÕ´": 8205, "ĠÕ¦Õ¢Õ¡Õ²Õ¥ÖģÕ¶Õ¸ÖĤÕ´": 8206, "ĠÔ±ÖĢÕ¿Õ¡ÖĦÕ«Õ¶": 8207, "ĠÕ¡Õ´Õ½Õ¡Õ¯Õ¡Õ¶": 8208, "ĠÕĢÕ¡Õ´Õ¡ÕµÕ¶": 8209, "ĠÕ°Õ¡ÕµÖĢÕ¥Õ¶Õ«": 8210, "2009": 8211, "ĠÕ¡Õ¯Õ¸ÖĤÕ´Õ¢Õ¨": 8212, "ĠÕ®Õ¡Õ¶Õ¸Õ©Õ¡Õ¶Õ¡Õ¬": 8213, "ĠÕ°Õ¡Õ´Õ¡Õ£Õ¸ÖĢÕ®Õ¡Õ¯ÖģÕ¸ÖĤÕ©ÕµÕ¸ÖĤÕ¶": 8214, "ĠÕĢÕ¡Õ¯Õ¸Õ¢ÕµÕ¡Õ¶Õ«": 8215, "ĠÕĦÕ¸Õ½Õ¯Õ¾Õ¡": 8216, "ĠÕ¬Õ«Õ¡Õ¦Õ¸ÖĢÕ¸ÖĤÕ©ÕµÕ¸ÖĤÕ¶Õ¶Õ¥ÖĢÕ¨": 8217, "ĠÕİÕ¡ÕµÕ¸Öģ": 8218, "90": 8219, "Õ¥ÖĢÕ¡Õ¶Õ½": 8220, "Õ¡ÖĢÕ¶Õ¥ÖĢÕ«": 8221, "ĠÕ¯Õ¥ÖĢÕ¿": 8222, "ĠÕ«Õ¿Õ¡Õ¬": 8223, "ĠÕ£Õ¥Õ¿Õ«": 8224, "Õ¡Õ°Õ¸Õ½": 8225, "ÕĢÕ¸ÖĤÕ¬Õ«Õ½Õ«": 8226, "ĠÕĦÕµÕ¸ÖĤÕ½": 8227, "Ô´Õ¡Õ¿": 8228, "Ġ400": 8229, "Õ¡Õ·Õ«Õ¶Õ¸ÖĤÕ©ÕµÕ¡Õ¶": 8230, "ĠÔ±Õ¤ÖĢÕ¢Õ¥Õ»Õ¡Õ¶Õ«Õ¶": 8231, "ĠÔµÖĢÕ«Õ¿Õ¡Õ½Õ¡ÖĢÕ¤": 8232, "ĠÕ°Õ¥Õ¿Õ¡ÖĦÖĢÖĦÖĢÕ¾Õ¡Õ®": 8233, "ĠÕ°Õ¡Õ½ÖģÕ¶Õ¥Õ¬": 8234, "ĠÕ¸ÖĤÕ·Õ¡Õ¤ÖĢÕ¸ÖĤÕ©ÕµÕ¸ÖĤÕ¶Õ¨": 8235, "ĠÕĢÔ±ÕħÔ±ÕįÕıÔ±ÕĨ": 8236, "ĠÔ±Õ¢ÖĢÕ¡Õ°Õ¡Õ´ÕµÕ¡Õ¶Õ¨": 8237, "ĠÕ¡ÖĢÕ°Õ¥Õ½Õ¿Õ¡Õ¯Õ¡Õ¶": 8238, "ĠÕĢÕ¡Õ½Õ¡ÖĢÕ¡Õ¯Õ¸ÖĤÕ©ÕµÕ¸ÖĤÕ¶": 8239, "ĠÕ°Õ¡Õ´Õ¡ÖģÕ¡Õ¶ÖģÕ¸ÖĤÕ´": 8240, "77": 8241, "ÖĦÕ¡Õ²Õ¡ÖĦ": 8242, "ĠÕ¡Õ®": 8243, "Õ¡Õ®Õ¡Õ¾Õ¡Õ¬": 8244, "Õ«Õ¯ÕµÕ¡Õ¶": 8245, "ÕĦÕ¿": 8246, "Õ¡ÖĢÕ£Õ¡Õ¾Õ¡Õ³": 8247, "ĠÕĬÕ¡ÖĢ": 8248, "ÕªÕ¾Õ¡ÖĢ": 8249, "Ô²Õ¡Õª": 8250, "Ô¼Õ¸ÖĤÕµÕ½": 8251, "ĠÕ¿Õ¥Õ½ÖĦ": 8252, "ĠÖĥÕ¸ÕŃÕ¡Õ¤Õ¡ÖĢÕ±": 8253, "ĠÕŃÕ¸ÖĢÕ°ÖĢÕ¤Õ¡Õ¶Õ·": 8254, "ĠÕ¯ÕµÕ¡Õ¶ÖĦÕ«Öģ": 8255, "ĠÕ«Õ·ÕŃÕ¸Õ²": 8256, "ĠÕºÕ¡ÖĢÕ¦Õ¡Õ¢Õ¡Õ¶Õ¸ÖĤÕ´": 8257, "ĠÕ´Õ·Õ¡Õ¯Õ¥Õ¬": 8258, "ĠÕ½Õ«ÖĢÕ¸Õ¾": 8259, "ÕĪÕĴÔ¹ÕħÕĪÕĴÕĨÕĨÔµÕĲÔ»": 8260, "ĠÕ°Õ¡Õ½ÖģÕ¥Õ«Õ¶": 8261, "ĠÕ¸ÖĤÕ·Õ¡Õ¤Õ«ÖĢ": 8262, "ĠÕ°Õ«Õ¾Õ¡Õ¶Õ¤Õ¸ÖĤÕ©ÕµÕ¸ÖĤÕ¶Õ¶Õ¥ÖĢÕ«": 8263, "ĠÕ¥Õ¬Õ¸ÖĤÕµÕ©Õ¨": 8264, "Õ¡Õ½Õ¯Õ¡Õ¶Õ¡Õ¬Õ«": 8265, "ĠList": 8266, "ĠÕİÕ¡ÖĢÕ¤Õ¡Õ¶ÕµÕ¡Õ¶Õ¨": 8267, "ĠÕ¯Õ«Õ½Õ¡ÕºÕ¡Õ·Õ¿ÕºÕ¡Õ¶": 8268, "Õ¡Õ¦Õ£Õ¥Õ½Õ¿": 8269, "ÔµÕĦÔ²": 8270, "ĠÕ¼Õ¡Õ¤Õ«Õ¸Õ¯Õ¡ÕµÕ¡Õ¶": 8271, "ĠÕ°Õ¡ÖĢÕ½Õ¡Õ¶Õ«": 8272, "ĠÕ°Õ¡Õ¾Õ¡Õ¶Õ¡Õ¯Õ¡Õ¶Õ¸ÖĤÕ©ÕµÕ¡Õ´Õ¢": 8273, "ĠÕ©Õ¡ÖĦÖģ": 8274, "ÕıÕĲÕĪÕĨ": 8275, "ĠÕ¿Õ¡ÕºÕ¡Õ¬": 8276, "ĠÔ´Õ«Õ¿Õ¾Õ¥Õ¬": 8277, "Ã©": 8278, "Ð²": 8279, "Õ¶Õ¶Õ¹Õ¡Õ¯Õ¡Õ¶": 8280, "Õ«Õ¸ÖĤÕ´": 8281, "Õ¡ÕµÕ¸ÖĤÕ¶": 8282, "ĠÕ¯Õ¥Õ¶ÖģÕ¡Õ²": 8283, "Ô±ÖĢÕ¡Õ´": 8284, "ĠÕĢÕ¸Õ¯Õ¿Õ¥Õ´Õ¢Õ¥ÖĢÕ«": 8285, "ĠÕ¾Õ¥Õº": 8286, "Â»)": 8287, "ÕĦÕı": 8288, "ĠÕºÕ¡Õ¿Õ«Õª": 8289, "Õ¡ÖĢÕ¡ÖĢÕ«": 8290, "Õ½Õ¯Õ¸ÖĤ": 8291, "ÕºÕ¡Õ¶Õ¸ÖĤÕ©ÕµÕ¸ÖĤÕ¶": 8292, "ĠÔ¼Õ¥ÖĤÕ¸Õ¶": 8293, "Õ¥Õ¦Õ¸ÖĤ": 8294, "Ô¼ÖĢ": 8295, "ĠÕĮÕ¸Õ¶Õ¡Õ¬Õ¤": 8296, "ĠÕ¯Õ¸Õ²Õ´Õ¥ÖĢÕ¨": 8297, "ĠÕ¡Õ´Õ¥Õ¶Õ¡Õ´ÕµÕ¡": 8298, "ĠÕĶÕ¸": 8299, "ĠÕĵÕ¸Õ½Õ¿": 8300, "ĠÕ´Õ¿Õ¡Õ¾Õ¸ÖĢ": 8301, "ĠÕŃÕ´Õ¢Õ¡Õ£ÖĢ": 8302, "ĠÕ¢Õ¡ÖĢÕ¥Õ¶": 8303, "ĠÕ°Õ¡Õ¯Õ¡Õ½": 8304, "ĠÕ«Õ·ÕŃÕ¡Õ¶Õ¸ÖĤÕ©ÕµÕ¸ÖĤÕ¶Õ¶Õ¥ÖĢÕ«Õ¶": 8305, "ĠÕ°ÖĢÕ¡ÕºÕ¡ÖĢÕ¡Õ¯Õ´Õ¡Õ¶": 8306, "ĠÖħÕ£Õ¿Õ¡Õ£Õ¸ÖĢÕ®Õ¥Õ¬Õ¸ÖĤ": 8307, "ĠÕ°Õ¡Õ½Õ¡ÖĢÕ¡Õ¯Õ¸ÖĤÕ©ÕµÕ¸ÖĤÕ¶Õ¨": 8308, "ĠÕ°Õ¡Õ²Õ©Õ¸Õ²": 8309, "ĠÕ°Õ¡Õ²Õ©Õ¡Õ¶Õ¡Õ¯Õ¨": 8310, "ĠÕ°Õ¥Õ¿Õ¡ÖĦÖĢÖĦÖĢÕ¥Õ¬": 8311, "ĠÕ³Õ¡Õ¶Õ¡Õ¹Õ¥Õ¬Õ¸ÖĤ": 8312, "ĠÕ¶Õ¡ÕŃÕ¡Õ£Õ®Õ¥ÖĢÕ¸ÖĤÕ´": 8313, "ĠÕ¤Õ¥ÕºÖĦÕ¥ÖĢÕ¨": 8314, "ĠFree": 8315, "Ô±ÕĮÔ±Õħ": 8316, "ĠÕ´Õ¥ÖĦÕ¥Õ¶Õ¡": 8317, "ĠÕ¸ÖĤÕ½Õ¸ÖĤÕ´Õ¶Õ¡Õ½Õ«ÖĢÕ¥Õ¬": 8318, "ĠÕ°Õ¸ÖĢÕ¤Õ¸ÖĢ": 8319, "Õ¡ÕŃÕ¸ÖĤÕ´Õ¢Õ¨": 8320, "Ġ$": 8321, "ĠÕ¡ÖĢÕ«": 8322, "ĠÕ¶ÕµÕ¡ÖĢÕ¤": 8323, "ĠÕ¿Õ¡Õ¿": 8324, "ĠÕ½Õ¥Õ¶": 8325, "ÖĩÕ«Öģ": 8326, "ĠÕ¹Õº": 8327, "ÕĦÕ¡Õ¶Õ¯": 8328, "Õ¡ÖĢÕ¯Õ¸ÖĤÕ©ÕµÕ¸ÖĤÕ¶": 8329, "Õ¡ÖĢÕ±ÖĢÕ¡Õ£Õ¸ÖĤÕµÕ¶": 8330, "ĠÕĬÕ¸ÖĢÕ¿": 8331, "Ô³Õ¥ÖĢÕ´": 8332, "ĠÕ¯Õ¡Õ´Õ¸ÖĤÖĢÕ»": 8333, "ate": 8334, "ĠÔ±Õ¶Öģ": 8335, "ĠÖĥÕ¡Õ½Õ¿Õ¥ÖĢ": 8336, "ĠÕºÕ¡Õ°Õ¡Õ¶Õ»Õ¶Õ¥ÖĢÕ«Õ¶": 8337, "ĠÕĤÕ¸ÖĤÕ¯": 8338, "ĠÕ¯Õ¸Õ´Õ½": 8339, "ĠÕ¦Õ¸ÖĢÕ¡Õ¾Õ¡ÖĢÕª": 8340, "ment": 8341, "ĠÕ¡ÖĢÕ±Õ¡Õ¶Õ¡Õ£ÖĢÕ¥Õ¬": 8342, "ĠÕ¾Õ³Õ«Õ¼": 8343, "ĠÕ¢Õ¡Õ¶Õ¡Õ¯ÖģÕ¡ÕµÕ«Õ¶": 8344, "ĠÕĢÕ¸Õ¾Õ°Õ¡Õ¶Õ¶Õ«Õ½ÕµÕ¡Õ¶Õ«": 8345, "tern": 8346, "ĠÕ§Õ¶Õ¥ÖĢÕ£Õ¥Õ¿Õ«Õ¯": 8347, "ĠÕ¡Õ·Õ¡Õ¯Õ¥ÖĢÕ¿Õ¶Õ¥ÖĢÕ«": 8348, "hats": 8349, "utnik": 8350, "ĠÕĦÕ¡ÖĢÕ«Õ¡Õ´": 8351, "ĠÕĨÕ¡Õ°Õ¡Õ¶Õ£Õ¶Õ¥ÖĢÕ«": 8352, "Ġchatting": 8353, "ĠÕ¡ÖĢÕ¿Õ¡Õ°Õ¡Õ¶Õ´Õ¡Õ¶": 8354, "ĠÕ¡Õ¶Õ¶Õ¡ÕŃÕ¡Õ¤Õ¥Õº": 8355, "Õ¥Õ¡Õ¬Õ«": 8356, "ĠÕ°Õ¡Õ¬": 8357, "ĠÕ´Õ¥ÖĢÕ¯": 8358, "Õ¯Õ¡ÕµÕ«Õ¶": 8359, "ĠÕ¿Õ¸Õ¶Õ¨": 8360, "ĠÕ¡Õ¸": 8361, "ÖĩÕ¸ÖĢÕ¨": 8362, "Õ¡Õ¢Õ¡ÖĢÕ±": 8363, "Ô»Ô¼": 8364, "ĠÔ¿Ô²": 8365, "ĠÕ«Õ¶Õ¹Õ«Öģ": 8366, "ĠÕ¡ÕºÕ¡Õ£Õ¡ÕµÕ¸ÖĤÕ´": 8367, "Õ¸Õ£Õ¡Õ¶": 8368, "ĠÕªÕ¡Õ´Õ¡Õ¶Õ¡Õ¯Õ¶": 8369, "Ô±ÕµÕ¸": 8370, "ĠÕ£Õ«Õ¿Õ¥ÖĦ": 8371, "ĠÕ¢Õ¡ÖĢÕ±ÖĢÕ¡ÖģÕ¶Õ¥Õ¬": 8372, "ĠÕ¶Õ¯Õ¡Õ¿Õ¥Öģ": 8373, "ĠÕ±Õ¥Õ¼ÖĦÕ«": 8374, "ĠÕ¯ÖĢÕ¸Õ²": 8375, "ĠÔ±Õ½Õ¿Õ²": 8376, "ĠÔ»Õ¶Õ¹ÕºÕ¥": 8377, "ĠÕ¡Õ¶Õ¸ÖĤÕ¶Õ¶Õ¥ÖĢÕ¨": 8378, "ĠÖĦÕ¶Õ¶Õ¡ÖĢÕ¯Õ¸ÖĤÕ´Õ¶Õ¥ÖĢÕ«": 8379, "ĠÔ»ÖĢÕ¡Õ¯Õ¡Õ¶": 8380, "ĠÕ¡Õ»Õ¡Õ¯ÖģÕ¸ÖĤÕ´": 8381, "ĠÖĦÕ¡Õ²Õ¡ÖĦÕ¡ÖģÕ«Õ¶Õ¥ÖĢ": 8382, "ĠÕ£Õ¸ÖĢÕ®Õ¨Õ¶Õ©Õ¡ÖģÕ¸ÖĤÕ´": 8383, "ĠÕ¥ÖĢÕ¡ÕªÕ«Õ·Õ¿": 8384, "ĠÕ°Õ¡Õ¿Õ¾Õ¡Õ®Õ¨": 8385, "ĠÕ¾Õ¥ÖĢÖģÕ¶Õ¥Õ¬": 8386, "ĠÔ½Õ¸ÖĢÕ°ÖĢÕ¤Õ¡ÕµÕ«Õ¶": 8387, "ĠÕ°Õ«Õ·Õ¡Õ¿Õ¡Õ¯Õ«Õ¶": 8388, "ĠÕĦÕ¯ÖĢÕ¿Õ¹ÕµÕ¡Õ¶Õ¨": 8389, "ĠÕĶÔ¿ÕĢ": 8390, "ĠÕ¡Õ¦Õ¶Õ«Õ¾": 8391, "ĠÕĢÕ¡Õ´Õ¢Õ¡ÖĢÕ±Õ¸ÖĤÕ´": 8392, "ĠÕ°Õ¡ÖĥÕ·Õ¿Õ¡Õ¯": 8393, "ne": 8394, "Õ¸Õ¶Õ¥ÖĢ": 8395, "Õ¸Õ¾Õ¶": 8396, "Õ¡Õ£Õ«Õ¶": 8397, "Õ¹Õ«Õ¶": 8398, "ĠÕ°Õ¡Õ´Õ¡ÖĢÕ±Õ¡Õ¯": 8399, "ĠÕ°Õ¡Õ´Õ¡Õ£Õ¸ÖĤÕ´": 8400, "ĠÕ·Õ¥Õ²": 8401, "ĠÖħÕ¬Õ«Õ´ÕºÕ«Õ¡Õ¯Õ¡Õ¶": 8402, "Õ¸ÖĤÕ½Õ¸Õ¾": 8403, "Ô»ÖĢÕ¡Õ¯Õ¡Õ¶": 8404, "Ô¿ÕĲ": 8405, "Ô¿Õ¸Õ´": 8406, "ĠÕ¦Õ¥Õ¶ÖĦÕ«": 8407, "Õ¡Õ£ÖĢÕ¥ÖĢÕ¨": 8408, "Õ¡ÕºÕ¥Õ¿Õ¨": 8409, "Õ¡Õ¶ÖģÕ«Õ¶Õ¥ÖĢÕ«": 8410, "ĠÕİÕ¥ÖĢÕ»": 8411, "ÕıÕ¡ÖĢ": 8412, "ĠÕ¡Õ½Õ¥Õ½": 8413, "ĠÕ°Õ¡ÖĢÖģÕ¶": 8414, "Õ¡ÕºÕ¡Õ¿Õ¡Õ½ÕŃÕ¡Õ¶": 8415, "ĠÔ¶Õ¡ÖĢ": 8416, "ĠÕºÕ¡Õ·Õ¿ÕºÕ¡Õ¶Õ¥Õ¬": 8417, "ĠÕ´ÖĢÖģÕ¡Õ·Õ¡ÖĢ": 8418, "Õ¡ÕºÕ¡Õ°Õ¸Õ¾": 8419, "ĠÕ°Õ¡Õ²Õ¸ÖĢÕ¤Õ¡Õ£ÖĢ": 8420, "ĠÕ±ÖĩÕ¡Õ¾Õ¸ÖĢÕ´Õ¡Õ¶": 8421, "Õ«Õ¶Õ¡Õ¶Õ½Õ¡Õ¯Õ¡Õ¶": 8422, "ĠÕ©Õ¥Õ´Õ¡Õ¶Õ¥ÖĢÕ«": 8423, "ĠÕ³Õ¡Õ¶Õ¡Õ¹Õ¾Õ¡Õ®": 8424, "ĠÕºÖĢÕ¸Öģ": 8425, "ĠÕįÕ¿Õ¡Õ´Õ¢": 8426, "ĠÕ¯Õ¸ÖĤÕ½Õ¡Õ¯ÖģÕ¸ÖĤÕ©ÕµÕ¸ÖĤÕ¶": 8427, "Õ¡Õ¾Õ¡ÕµÖĢÕ«": 8428, "ĠÕ´ÖĢÖģÕ¡Õ¶Õ¡Õ¯Õ¡Õ¢Õ¡Õ·ÕŃ": 8429, "ĠÕ°Õ¡ÖĢÕ±Õ¡Õ¯Õ´Õ¡Õ¶": 8430, "Ð¾Ð²": 8431, "ÕĢÕ¸ÖĤÕ¶Õ«Õ½Õ«": 8432, "ĠÕ¡Õ´Õ¢Õ«Õ¸Õ¶Õ«": 8433, "ĠÕ§Õ¬Õ¥Õ¯Õ¿ÖĢÕ¡Õ§Õ¶Õ¥ÖĢÕ£": 8434, "ĠÕ¥ÖĢÕ¯ÕŃÕ¸Õ½Õ¸ÖĤÕ©ÕµÕ¡Õ¶": 8435, "ĠÕ¡ÖĢÕ¡ÖĢÕ¸Õ²Õ¸ÖĤÕ©ÕµÕ¡Õ¶Õ¨": 8436, "ĠÕ¸Õ´Õ¡Õ¶ÖĦ": 8437, "ĠÕ¾Õ¡ÕµÖĢÕ¯ÕµÕ¡Õ¶": 8438, "ĠÕįÕ¥Õ¢Õ¡Õ½Õ¿Õ¡ÖģÕ«": 8439, "Õ«Õ½Õ¯Õ¸ÕºÕ¸Õ½": 8440, "66": 8441, "ĠÕ¡ÖĢÕ©Õ¶": 8442, "Õ¥Õ¬Õ¡": 8443, "Õ¡Õ£ÖĢÕ¾Õ¸ÖĤÕ´": 8444, "ĠÔ±Õ´Õ¡Õ¶": 8445, "ĠÕ½Õ¥ÖĢÕ¨": 8446, "ÕºÕ¡Õ¿Õ¡Õ¯": 8447, "ÕĪÕħ": 8448, "ĠÔ¿ÔµÕĨ": 8449, "ĠÔ¿Õ¡Õ¦Õ´Õ¡Õ¯Õ¥ÖĢÕº": 8450, "ÕİÔ±Ô¿Ô±ÕĨ": 8451, "ĠÖĥÕ¸ÕŃÕ¶Õ¡ÕŃÕ¡ÖĢÕ¡ÖĢ": 8452, "Ġ47": 8453, "ĠÔµÖĢÖĩÕ¡Õ¶Õ¨": 8454, "Õ¡Õ¥ÖĢÕ©": 8455, "ĠÕ¨Õ¶Õ¿Õ¡Õ¶Õ«ÖĦÕ¸ÖĤÕ´": 8456, "ĠÕĨÕ¸ÖĢÖĦ": 8457, "ÕĢÕ¡Õ´Õ¡ÕµÕ¶": 8458, "Ô±Ô³Ô»Õı": 8459, "ĠÕ¥Õ¶Õ©Õ¡ÖĢÕ¯Õ¾Õ¡Õ®": 8460, "ĠÕ¶ÕºÕ¡Õ½Õ¿Õ¸ÖĤÕ´": 8461, "ĠÕ°Õ¡ÖĢÕ¸ÖĤÖģÕ¾Õ¡Õ®": 8462, "ĠÕ½Õ¥ÖĢÕ¶Õ¤Õ«": 8463, "ĠÕĢÕ¡ÕµÖĢÕ¡ÕºÕ¥Õ¿Õ¡Õ¯Õ¡Õ¶": 8464, "ĠÕ¯Õ¡ÖĢÕ£Õ¡Õ¾Õ«Õ³Õ¡Õ¯": 8465, "ĠÕ¡Õ¯Õ¡Õ¤Õ¥Õ´Õ«Õ¡ÕµÕ«": 8466, "ĠÕ¼Õ¥Õ½Õ¸ÖĤÖĢÕ½Õ¶Õ¥ÖĢÕ«": 8467, "Ô±Õ½Õ¸ÖĤÕ´": 8468, "Ô±Õ½Õ¿Õ¾Õ¡Õ®": 8469, "witter": 8470, "ĠÕįÕ¥ÕµÖĢÕ¡Õ¶": 8471, "ĠÕĶÕ¡ÖĢÕ¤Õ¡Õ·": 8472, ".Â«": 8473, "ry": 8474, "ĠÕ¡ÖĢÕ¾Õ¸ÖĤÕ´": 8475, "ĠÕ§ÕªÕ¡Õ¶": 8476, "ĠÕ¯Õ¡Õ·Õ¡Õ¼ÖĦ": 8477, "Õ¡ÖģÕ¸ÖĤÕ¶": 8478, "ĠÕ¤Õ¡Õ¾Õ¡Õ³": 8479, "ĠÔ±Õ¶Õ«": 8480, "Õ¸Õ¶Õ¡": 8481, "ĠÕ·ÖĦÕ¡Õ¶Õ·": 8482, "Õ«ÖĢÕ¡Õ¶Õ«": 8483, "ĠÕĦÕ¿": 8484, "ÕĦÕ¡Õ¿": 8485, "Õ¡ÖĢÕ¯Õ¨": 8486, "ÕĪÕĮ": 8487, "ĠÔ¿Õ«": 8488, "ĠÖħÖĢÕ¥ÖĢÕ¨": 8489, "Ô±ÕĨÕĶ": 8490, "ĠÕ¨Õ¶Õ¤Õ¡Õ¼Õ¡Õ»": 8491, "ĠÕ°Õ¡Õ½Õ¸ÖĤÕ¶": 8492, "ĠÕ°ÖĢÕ¡Õ¤Õ¡Õ¤Õ¡ÖĢÕ«": 8493, "ĠÕ°Õ¡Õ¾Õ¡Õ½Õ¡ÖĢÕ¡Õ¯": 8494, "ÕµÕ¡Õ¬Õ«": 8495, "ĠÖĥÕ¸ÕŃÕ£Õ¸ÖĢÕ®": 8496, "ĠÕ¸ÖĢÕ¸Õ·Õ¸ÖĤÕ´Õ¶Õ¥ÖĢÕ«": 8497, "ĠÕĩÕ¡Õ´": 8498, "ĠÕ®Õ¡Õ¼Õ¡ÕµÕ¥Õ¬": 8499, "ĠÕ£Õ¶Õ¸Õ¾": 8500, "ĠÕĪÖĤÕ½Õ¿Õ«": 8501, "ĠÕ¤Õ¡ÖĢÕ±Õ¡Õ®": 8502, "ĠÕºÕ¡ÖĢÕ¦Õ¡Õ¢Õ¡Õ¶": 8503, "ĠÕ¾Õ¡ÖĢÕ¸ÖĢÕ¤Õ¨": 8504, "ĠÕ·Õ¡Õ°Õ¥ÖĢÕ¨": 8505, "ĠÕ¢Õ¡Õ¶Õ¡Õ¯Õ¸ÖĤÕ´": 8506, "ÕĪÕĴÕĦÔ¸": 8507, "ĠÕ¡ÖĤ": 8508, "ĠÕ¢Õ¼Õ¶Õ¯": 8509, "ĠÕºÕ¡Õ¿Õ¯Õ¥ÖĢÕ¡ÖģÕ¶Õ¸ÖĤÕ´": 8510, "ĠÕºÕ¡Õ¿Õ¯Õ¥ÖĢÕ¡Õ½ÖĢÕ¡Õ°": 8511, "ĠÕ¡Õ¼Õ¡Õ¶Õ±Õ¶Õ¡ÕºÕ¥Õ½": 8512, "ĠÕ¡Õ²Õ»Õ¯Õ¡": 8513, "2007": 8514, "ĠÕ°Õ¥ÖĢÖĦ": 8515, "ĠÕ¾Õ¥ÖĢÕ¡Õ¤Õ¡ÖĢÕ±Õ¥Õ¬": 8516, "ĠÕ¥Õ²Õ¢Õ¸ÖĢ": 8517, "ĠÔ½Õ¡Õ¹Õ¡Õ¿ÖĢÕµÕ¡Õ¶": 8518, "ĠÕ¡Õ¼Õ¡ÖĢÕ¯Õ¡": 8519, "ĠÕ©Õ¥ÖĢÖĩÕ½": 8520, "ĠÔ½Õ¡Õ²Õ¡Õ¬": 8521, "Õ¡Õ£Õ®Õ«": 8522, "ĠÕ¡Õ¯Õ¶Õ¯Õ¡Õ¬Õ¸ÖĤÕ´": 8523, "ĠÕ¯Õ¡Õ¶ÕŃÕ¡ÖĢÕ£Õ¥Õ¬Õ´Õ¡Õ¶": 8524, "ĠÕ¤Õ«Õ¦Õ¡ÕµÕ¶": 8525, "ĠÕ°Õ¡Õ´Õ¨Õ¶Õ¯Õ¶Õ¸ÖĤÕ´": 8526, "ĠÕ©Õ´ÖĢÕ¡Õ´": 8527, "pple": 8528, "ĠÕ¡ÖĢÕ·Õ¡Õ¾": 8529, "Õ¥ÖĢÖĩ": 8530, "ĠÕ¯ÖĢÕ¥Õ¬": 8531, "Õ¡Õ½Õ¯Õ¥Õ¿": 8532, "Õ´Õ¸ÖĤÕ·": 8533, "ĠÕ¶Õ¸Õ¿": 8534, "Õ¯Õ¥Õ¬": 8535, "ĠÕ¿ÖĢÕ¾Õ¥Õ¬": 8536, "ĠÕ¤ÖĢÕ¾": 8537, "ĠÕ¡Õ¶Õ½ÕºÕ¡Õ½Õ¥Õ¬Õ«": 8538, "ĠÕ°Õ¡Õ´Õ¡Õ°": 8539, "Õ¡Õ¤Õ¡ÖĢÕ¡Õ¶": 8540, "ĠÕ¬ÖĢÕ»": 8541, "Õ¡Õ¾Õ¸ÖĢÕ¶Õ¥ÖĢÕ«": 8542, "Õ¡ÖĢÕ¯Õ¾Õ¡Õ®": 8543, "ĠÔµÕ¬": 8544, "ĠÖģÕ¥ÖĢÕ¥Õ¯": 8545, "ĠÕ¡Õ½Õ¥Õ¶ÖĦ": 8546, "ĠÕıÕı": 8547, "Õ¸Õ£ÖĢÕ¡ÖĨ": 8548, "ĠÕ°Õ¡Õ¾Õ¥ÖĢÕª": 8549, "Ô¸Õ¶Õ¯Õ¥ÖĢ": 8550, "ĠÕ£Õ«Õ¿Õ«": 8551, "ĠÕĸÕ«Õ¬": 8552, "ord": 8553, "ĠÕ¤Õ¡Õ½Õ¡ÖĢÕ¡Õ¶Õ«": 8554, "ĠÕ½Õ¥ÖĥÕ¡Õ¯Õ¡Õ¶Õ¡Õ¿Õ¥ÖĢ": 8555, "ĠÕ¯Õ«ÖĢÕ¡Õ¼Õ¾Õ¸ÖĤÕ´": 8556, "ĠÕ¯Õ«Õ½Õ¸ÖĤÕ´": 8557, "ĠÕ©Õ¾Õ¡ÕµÕ«Õ¶": 8558, "ĠÕ¡Õ¶Õ´Õ¥Õ²": 8559, "ĠÕ¡Õ·Õ¶": 8560, "ĠÕ¡ÖĢÕ¡ÖĢÕ¸Õ²Õ¸ÖĤÕ©ÕµÕ¸ÖĤÕ¶Õ¨": 8561, "Ġth": 8562, "ĠÕıÕ¥Õ½Õ¡Õ¶ÕµÕ¸ÖĤÕ©": 8563, "ĠÖĥÕ¸ÕŃÕ¡ÖĢÕ«Õ¶Õ¥Õ¬": 8564, "Õ¡ÕµÕ½Õ¸ÖĤÕ°Õ¥Õ¿": 8565, "osted": 8566, "Õ¡Õ´Õ©Õ¥ÖĢÖĦÕ«": 8567, "ĠÕ´Õ¡Õ¶Õ¯Õ¡Õ¾Õ¡ÖĢÕªÕ¡Õ¯Õ¡Õ¶": 8568, "ĠÕ¤Õ¡Õ·Õ¶Õ¡Õ¯Õ«Öģ": 8569, "ÕªÕ·Õ¯Õ¡Õ¯Õ¡Õ¶": 8570, "ĠÕ¡Õ¾Õ¿Õ¸Õ¾Õ©Õ¡ÖĢ": 8571, "ĠÕµÕ¸ÖĤÖĢÕ¡Õ°Õ¡Õ¿Õ¸ÖĤÕ¯": 8572, "Õ¡Õ½Õ¯Õ¥Õ¿Õ¢Õ¸Õ¬": 8573, "ER": 8574, "Ð´": 8575, "ĠÕ¡ÖĢÕ£": 8576, "Õ¶Õ¡ÕºÕ¡Õ°": 8577, "ĠÕ´Õ¸Õ¬": 8578, "ĠÕ¯Õ½Õ¯": 8579, "Õ¯Õ«ÖĢ": 8580, "Õ¤Õ¥Õ´": 8581, "Õ¸ÖĢÕ«Õ¶": 8582, "ĠÕĢÕ¡Õ¶Õ±Õ¶": 8583, "Õ¡Õ¬ÕµÕ¡Õ¶": 8584, "ĠÕ¡Õ¶Õ©": 8585, "ĠÕ¡Õ¼Õ°Õ¡Õ½Õ¡ÖĢÕ¡Õ¯": 8586, "ĠÕĦÕ¡ÖĢÕ¦": 8587, "Õ¡Õ¢Õ¬": 8588, "Õ¡Õ¾Õ¸ÖĢÕ¸ÖĤÕ©ÕµÕ¸ÖĤÕ¶Õ¨": 8589, "Õ¸Õ½Õ¸ÖĤÕ´": 8590, "Ô¿Õ¡ÖĢÕ®Õ¸ÖĤÕ´": 8591, "ÕĪÕĴÕĳ": 8592, "ĠÖĥÕ¸ÕŃÕ¥Õ¬Õ¸ÖĤ": 8593, "ĠÕ¢Õ¸Õ¬Õ¸ÖĢÕ«Õ½": 8594, "Ġ46": 8595, "ĠÕ¥Õ¯Õ¡Õ´Õ¿": 8596, "ĠÖĦÕ¶Õ¶Õ¸ÖĤÕ©ÕµÕ¸ÖĤÕ¶": 8597, "ĠÕ£Õ¶Õ¡Õ¬Õ¸ÖĤ": 8598, "ĠÕ¨Õ¶Õ¯Õ¥ÖĢÕ¶Õ¥ÖĢÕ«Õ¶": 8599, "ĠÕ°Õ¡ÕµÕ¿Õ¡ÖĢÕ¡ÖĢÕ¸ÖĤÕ©ÕµÕ¡Õ´Õ¢": 8600, "ĠÕ¤Õ¡Õ¿Õ¡Õ¾Õ³": 8601, "ĠÕ¢Õ¡ÕªÕ«Õ¶Õ¨": 8602, "ÕķÕ£": 8603, "ĠÕ¡Õ¼Õ¡Õ»Õ¶Õ¸ÖĤÕ©ÕµÕ¸ÖĤÕ¶Õ¸ÖĤÕ´": 8604, "ĠÕ°Õ¡Õ²Õ¸ÖĢÕ¤Õ¡Õ£ÖĢÕ¸ÖĤÕ©ÕµÕ¡Õ¶": 8605, "ĠÕºÕ¡ÖĢÕ¡Õº": 8606, "ĠÕ¯Õ«ÖĢÕ¡Õ¯Õ«": 8607, "ĠÕ¡Õ¾Õ¡ÖĢÕ¿Õ¾Õ¥Öģ": 8608, "Õ¸ÖĤÕ¢Õ¡ÖĢ": 8609, "ill": 8610, "ĠÕ´Õ¡Õ¶Õ¯Õ¡ÕºÕ¡ÖĢÕ¿": 8611, "ĠÕ¯Õ¸Õ´Õ«Õ¿Õ¥Õ¶": 8612, "ĠÕ·Õ¥Õ¶ÖĦÕ¨": 8613, "ĠÕ¡ÖĢÕªÕ¡Õ¶Õ¡ÕºÕ¡Õ¿": 8614, "ĠÕ¿ÖĢÕ¡Õ¶Õ½ÖĨ": 8615, "ĠÔ±ÖĢÕ¤Õ¥Õ¶": 8616, "ĠÕ¦Õ«Õ¶Õ®Õ¡Õ¼Õ¡ÕµÕ¸Õ²Õ¶Õ¥ÖĢÕ«": 8617, "ĠÔ±Õ½Õ¿Õ®Õ¸ÖĤÕ¶": 8618, "ĠÕ¼Õ¥ÕªÕ«Õ´Õ¨": 8619, "ĠÕ°Õ¡Õ²Õ©Õ¡Õ¶Õ¡Õ¯Õ«": 8620, "ĠÕĦÕ¡Õ¶Õ¸ÖĤÕ¯ÕµÕ¡Õ¶Õ¨": 8621, "Ô±ÕĩÕı": 8622, "ĠÕ¡Õ¯Õ¡Õ¶Õ¡Õ¿Õ¥Õ½": 8623, "ĠÖħÕ¢ÕµÕ¥Õ¯Õ¿Õ«Õ¾": 8624, "ĠÔ±ÕĮÔ±Õĭ": 8625, "ĠÕ¾Õ¥ÖĢÕ¡Õ¤Õ¡Õ¼Õ¶Õ¸ÖĤÕ´": 8626, "ĠÕ¯Õ¸Õ²Õ´Õ¶Õ¸ÖĢÕ¸Õ·": 8627, "ĠÕ»Õ¥ÖĢÕ´Õ¡Õ½Õ¿Õ«Õ³Õ¡Õ¶Õ¨": 8628, "ÖħÕ²Õ¬": 8629, "Õ¡Õ¶Õ¡Õ´": 8630, "ĠÕ¸Õ¼": 8631, "ĠÕ¢Õ¸ÖĤÕ¶": 8632, "ĠÕ¢Õ¸ÖĤÕµÕ½": 8633, "Õ¥ÖģÕ¶Õ«": 8634, "Õ¡Õ¾Õ¸ÖĢÕ¸ÖĤÕ©ÕµÕ¸ÖĤÕ¶": 8635, "ĠÔ¿Ô±ÕĲ": 8636, "Õ¡Õ¯ÖģÕ¾Õ¡Õ®": 8637, "Õ¡Õ¤ÖĢÕ¸Õ²": 8638, "Ô²Õ¡ÖģÕ«": 8639, "Õ¶Õ¶Õ¡ÖĢÕ¯Õ¸ÖĤÕ´": 8640, "ĠÕ¶Õ¡ÕŃÕ¡ÖĢÕ¡ÖĢÕ«Õ¶": 8641, "ĠÕ¡ÖĢÕ¡Õ¢": 8642, "Ô¾Õ¡Õ¶Õ¸Õ©": 8643, "ĠÕ°Õ«Õ´Õ¶Õ¡Õ¾Õ¸ÖĢ": 8644, "ÕķÕ£Õ¿Õ¡Õ¯Õ¡ÖĢ": 8645, "ĠÕ±Õ¥Õ¼ÖĦÕ¨": 8646, "Ġ75": 8647, "ĠÕºÕ¡Õ¿ÖĢÕ¡Õ½Õ¿Õ¸ÖĤÕ´": 8648, "ĠÕºÕ¡Õ°Õ¡Õ¶Õ»Õ¶Õ¥ÖĢÕ«": 8649, "Ġ2001": 8650, "ÕīÕ¥Õ´": 8651, "ĠÕ¨Õ¶Õ¿Õ¡Õ¶Õ«ÖĦÕ¶Õ¥ÖĢÕ«": 8652, "ĠÔ±ÕµÕ¶ÕºÕ¥Õ½": 8653, "ĠÕĢÕ¡Õ´Õ¡Õ·ÕŃÕ¡ÖĢÕ°Õ¡ÕµÕ«Õ¶": 8654, "ĠÕ¡Õ¦Õ¤Õ¸ÖĤÕ´": 8655, "ĠÔµÖĢÕ¯Õ¸ÖĤ": 8656, "ĠÕ¡ÖĢÕ¾Õ¥Õ½Õ¿Õ¡Õ£Õ¥Õ¿": 8657, "ĠÕ°Õ¡Õ¿Õ¾Õ¡Õ®Õ«": 8658, "ĠÕ½ÕºÕ¡Õ¶Õ¥Õ¬": 8659, "ĠÕĨÕ¡ÕŃÕ¡Õ£Õ¡Õ°Õ¨": 8660, "ĠÕ£ÖĢÕ¡Õ¯Õ¡Õ¶Õ¸ÖĤÕ©ÕµÕ¸ÖĤÕ¶": 8661, "ĠÖģÕ¡Õ¶ÖģÕ«": 8662, "ĠÕİÕ¡Õ°Õ¥": 8663, "ĠÕ¦Õ¡ÖĢÕ´Õ¡Õ¶Õ¡Õ¬Õ«": 8664, "ĠÖħÖĢÕ£Õ¡Õ¶Õ«Õ¦Õ´": 8665, "ĠÔ»Õ¿Õ¡Õ¬Õ«Õ¡ÕµÕ«": 8666, "ĠÕ·Õ¡ÕŃÕ´Õ¡Õ¿Õ«": 8667, "ĠÔ±ÖĢÕ¤ÕµÕ¸ÖĤÕ¶ÖĦÕ¸ÖĤÕ´": 8668, "crip": 8669, "400": 8670, "Õ¡Õ¯Õ¡ÕµÕ¸ÖĤÕ´": 8671, "Õ¿Õ¡ÖĢÕ¡ÖĢ": 8672, "Õ¡ÖĢÕ¥Õ¦": 8673, "ĠÕ¶Õ¡ÕµÕ¥Õ¬": 8674, "Õ¥Õ¿Õ¡": 8675, "ĠÕ¿Õ¸ÖĤÖĢÖĦ": 8676, "ĠÔ±ÕĬ": 8677, "ĠÕ½Õ«": 8678, "ĠÕ½Õ¥ÖĢÕ´": 8679, "Õ²Õ«": 8680, "ĠÖĥÕ¸Õ·": 8681, "ĠÕįÕ¥ÕºÕ¿Õ¥Õ´Õ¢Õ¥ÖĢÕ«": 8682, "Ô¿Ô±Ô¿Ô±ÕĨ": 8683, "ĠÕ£Õ¸ÖĢÕ®Õ¡Õ®": 8684, "ĠÔ¿ÕĲ": 8685, "ĠÔ¿Õ¡ÖĢÕ´Õ«ÖĢ": 8686, "ĠÕ¿Õ¥Õ²Õ¡Õ·Õ¡ÖĢÕª": 8687, "ÕįÕ¡ÖĢÕ£": 8688, "Õ§ÖĢ": 8689, "ĠÕ¥ÖĢÕ¥Õ½": 8690, "Õ½Õ¯Õ«Õ¶": 8691, "Õ¡Õ¶Õ¤Õ¥ÖĢÕ±": 8692, "Õ¡Õ¤ÖĢÕ¸ÖĤÕ´Õ¨": 8693, "Õ¡Õ¿Õ¡ÖĢÕ«": 8694, "Ô²ÖĢ": 8695, "Õ¡ÖĢÕµÕ¡": 8696, "ÕĶÕ¡Õ¶Õ«": 8697, "ĠÕ¯Õ¡ÕºÕ¸ÖĤÕ´": 8698, "ĠÕŃÕ¶Õ¤ÖĢ": 8699, "ĠÕ´Õ¡ÖĢÕ¦Õ¡Õ¤Õ¡Õ·Õ¿": 8700, "ĠÕķÕ¢": 8701, "ĠÕ¯Õ¡Õ¦Õ´Õ¡Õ¯Õ¥ÖĢÕºÕ¸ÖĤÕ©ÕµÕ¸ÖĤÕ¶Õ¶Õ¥ÖĢ": 8702, "ĠÕ´ÖĢÖģÕ¡Õ·": 8703, "ÕĪÖĤÖĢ": 8704, "ĠÕ°Õ¡Õ²Õ©Õ¡Õ°Õ¡ÖĢ": 8705, "ĠÕ°Õ¡Õ¦Õ¾": 8706, "ĠÔµÖĢÕ¸ÖĤÕ½Õ¡Õ²": 8707, "Ô±Ô¼Ô±": 8708, "ĠÕ¥Õ¯Õ¥Õ²Õ¥ÖģÕ¸ÖĤÕ´": 8709, "ĠÕ¿Õ¡Õ½Õ¶Õ¡Õ´ÕµÕ¡Õ¯": 8710, "ĠÕ¯Õ¸ÖĢÖģÖĢÕ¡Õ®": 8711, "abat": 8712, "ĠÕ¸Õ½Õ¯Õ¥": 8713, "ĠÖĥÕ¡Õ¼Õ¡Õ¿Õ¸Õ¶Õ«": 8714, "ĠÕ¹Õ£Õ«Õ¿Õ¥Õ´": 8715, "ĠÕ¬ÖĢÕ¡Õ¿Õ¾Õ¡Õ´Õ«Õ»Õ¸ÖģÕ¶Õ¥ÖĢÕ«": 8716, "ĠÕ¯Õ¸Õ¶ÖĨÕ¬Õ«Õ¯": 8717, "ife": 8718, "ĠÕ½Õ´Õ¡ÖĢÕ©": 8719, "ÕĪÕ½Õ¯Õ¥": 8720, "ĠÕŃÕ¡Õ¹Õ´Õ¥ÖĢÕ¸ÖĤÕ¯": 8721, "ĠÕ¡ÖĢÕ¾Õ¥Õ¬": 8722, "Õ¡Õ´Õ¡ÖĦ": 8723, "Õ¤Õ¡": 8724, "ĠÔ±Õ¤Õ¡Õ´": 8725, "ĠÕ½Õ¡Õ¶": 8726, "ĠÕ¡ÕµÕ¸": 8727, "ĠÖĦÖĢ": 8728, "Õ«Õ¿Õ¡Õ¶Õ¡Õ¯Õ¡Õ¶": 8729, "Ô»ÖĢÕ¡Õ¶": 8730, "ĠÕĨÕµÕ¸ÖĤÕ©": 8731, "Õ¡Õ¤ÖĢÕ¸ÖĤÕ©ÕµÕ¡Õ¶Õ¨": 8732, "Ô´Õ¸ÖĤ": 8733, "ĠÕ¯Õ¡ÕµÕ¡ÖģÖĢÕ¥Õ¬": 8734, "ĠÕ¢Õ¶Õ¡Õ¯Õ¾Õ¸Õ²": 8735, "ĠÕ½Õ¯Õ½Õ¾Õ¥Öģ": 8736, "ĠÕ²Õ¥Õ¯Õ¡Õ¾Õ¡ÖĢÕ¶Õ¥ÖĢÕ¨": 8737, "end": 8738, "ĠÕ°Õ¡Õ¯Õ¡Õ¯": 8739, "ĠÕ¾Õ¡ÖĢÕ¹Õ¡ÕºÕ¥Õ¿Õ«Õ¶": 8740, "Ġ2002": 8741, "ĠÕ°Õ¡Õ²Õ¸ÖĢÕ¤Õ¥Õ¬": 8742, "ĠÕ¯Õ¡Õ¼Õ¸ÖĤÖģÕ¾Õ¥Õ¬": 8743, "ĠÕ¶Õ¥ÖĢÕ¯Õ¡ÕµÕ¡ÖģÕ¸ÖĤÖģÕ«Õ¹Õ¨": 8744, "ĠÖĦÕ¶Õ¶Õ¡ÖĢÕ¯Õ¸ÖĤÕ´Õ¶Õ¥ÖĢ": 8745, "ĠÕ°Õ¡Õ½Õ¯Õ¡Õ¶Õ¡Õ¬Õ«": 8746, "Õ¥ÖĢÕ¬Õ¡Õ¶Õ¤": 8747, "ĠÕŃÕ¡ÕŃÕ¿Õ¥Õ¬": 8748, "ĠÕ®Õ¡Õ¶Õ¸Õ©Õ¡ÖģÕ¥Õ¬": 8749, "Ô±ÖĢÕ´Õ¥Õ¶Õ«Õ¡": 8750, "Ô±Õ·ÕŃÕ¡Õ¿Õ¡Õ¶ÖĦÕ¡ÕµÕ«Õ¶": 8751, "ÕĪÖĢÕ¸Õ·": 8752, "ÕĢÕ¡Õ¶ÖĢÕ¡ÕºÕ¥Õ¿Õ¸ÖĤÕ©ÕµÕ¡Õ¶": 8753, "ĠÕĦÕ¡Õ¶Õ¸ÖĤÕ¯ÕµÕ¡Õ¶": 8754, "Õ¡Õ¿Õ«ÖĢÕ¸Õ»": 8755, "ĠÕĪÕĲÕĪÕĩ": 8756, "ĠÔ»Õ¬Õ°Õ¡Õ´": 8757, "ĠÕ¯Õ¸Õ´ÕºÕ¸Õ¦Õ«Õ¿Õ¸ÖĢ": 8758, "ĠÕ¡Õ©Õ¸Õ¼": 8759, "ĠÕ°Õ¥Õ¼Õ¸ÖĤÕ½Õ¿Õ¡Õ¼Õ¡Õ¤Õ«Õ¸Õ¨Õ¶Õ©Õ¥ÖĢÖģ": 8760, ".),": 8761, "ÐĲ": 8762, "ŃÕ«Õ¾": 8763, "Õ¾Õ«ÖĢ": 8764, "ĠÕ¯ÖħÕ£": 8765, "ĠÕ£Õ«Õ®": 8766, "Õ¡Õ¦Õ¥ÖĢÕ®": 8767, "Õ²Õ¡Õ¶": 8768, "ĠÖĥÕ¸ÖĦ": 8769, "ĠÕįÕºÕ¸ÖĢÕ¿": 8770, "ÕĦÕ¥Õ¦": 8771, "ĠÕ£Õ¸ÖĢÕ®Õ¶": 8772, "Õ§Õ¬": 8773, "Ô³Õ¸Õ¾Õ¡Õ¦Õ¤": 8774, "ĠÕ³Õ·Õ¿": 8775, "Õ¥Õ¦Õ¸ÖĦ": 8776, "ĠÔ¹Õ¸Õ¾": 8777, "...]": 8778, "Õ¸ÖĤÕ²Õ¡ÕµÕ«Õ¶": 8779, "ĠÖħÕ£Õ¸ÖĤÕ¿": 8780, "erk": 8781, "ĠÕ®ÖĢÕ¡Õ£ÖĢÕ«Õ¶": 8782, "Õ¡Õ¬Õ«Õ¡ÕµÕ¸ÖĤÕ´": 8783, "ĠÕ¯Õ¡ÖĢÕ®Õ«ÖĦÕ«": 8784, "ÕĵÕ¥Õ¿ÖĢÕ¾Õ¡ÖĢÕ«": 8785, "ĠÕ½ÕºÕ¡Õ½Õ¥Õ¬": 8786, "Õ¥ÖĢÕ¯Õ¸ÖĤ": 8787, "ĠÕ¡Õ¦Õ£Õ¡Õ¶Õ¸ÖĤÕ¶": 8788, "ĠÕ¯Õ¡Õ¼Õ¸ÖĤÕµÖģÕ«": 8789, "ĠÕºÕ¡ÖĢÕ¢Õ¥ÖĢÕ¡Õ¯Õ¡Õ¶": 8790, "ĠÕ¶Õ¡Õ¾Õ©": 8791, "ĠÕĦÕ¡ÖĢÕ£Õ¡ÖĢÕµÕ¡Õ¶Õ«": 8792, "ube": 8793, "ĠÔ³Õ¡Õ¬Õ½Õ¿": 8794, "ĠÔ±Õ¶Õ£Õ¬Õ«Õ¡ÕµÕ«": 8795, "ĠÕīÕ«Õ¶Õ¡Õ½Õ¿Õ¡Õ¶Õ«": 8796, "ĠÕ¡ÖĢÕ¿Õ¡Õ¤ÖĢÕ¡Õ¶ÖĦÕ«": 8797, "ĠÕ¡Õ¼Õ¯Õ¡ÕµÕ¸ÖĤÕ©ÕµÕ¡Õ¶": 8798, "ĠÔ¿Õ¡Õ©Õ¸Õ²Õ«Õ¯Õ¸Õ½": 8799, "Õ¸Õ¯ÖĢÕ¡Õ¿Õ¡Õ¯Õ¡Õ¶": 8800, "ĠÕ¤Õ¡ÖĢÕºÕ¡Õ½": 8801, "ĠÖĥÕ¬Õ¸ÖĤÕ¦": 8802, "th": 8803, "Õ«Õ¡ÕµÕ«Õ¶": 8804, "Õ¡Õ¯Õ²": 8805, "Õ¥ÖĢÕ¶Õ¥ÖĢÕ«": 8806, "Õ¡Õ¾Õ¥Õ³": 8807, "ĠÖĦÕ¸Õ¬Õ¥Õ»": 8808, "ĠÕ¡Õ¼Õ¸Õ£Õ¡Õ¶": 8809, "ĠÕįÕ¡Õ¬": 8810, "ĠÕ¦Õ¡ÖĢÕ¤": 8811, "Õ½Õ¿Õ¥ÖĢ": 8812, "ĠÕªÕº": 8813, "Õ¸ÖĢÕ¤Õ«Õ¶": 8814, "Õ«Õ¹Õ¶": 8815, "ĠÔ´Õ¡Õ½": 8816, "ÖĨÕ«Õ¬Õ´": 8817, "ĠÕ°ÖĢÕ¡Õ¿": 8818, "ĠÕ°Õ¡Õ¶Õ¤Õ¸ÖĤÖĢÕª": 8819, "ĠÕ²Õ¥Õ¯Õ¡Õ¾Õ¡ÖĢÕ¸ÖĤÕ©ÕµÕ¡Õ¶": 8820, "ĠÔ¿Õ¡ÖĢÕ¸Õ²": 8821, "ĠÕ®Õ¶Õ¸Õ²Õ¶Õ¥ÖĢÕ«": 8822, "ĠÔ±Õ¼Õ¸Õ²Õ»": 8823, "ĠÔ±Õ¾Õ½Õ¿ÖĢÕ«": 8824, "Ġ1992": 8825, "ĠÕ¿Õ¥Õ½Õ¡Õ¯Õ¥Õ¿Õ«": 8826, "ĠÕ¥ÖĢÕ¡ÕªÕ·Õ¿Õ¸ÖĤÕ©ÕµÕ¸ÖĤÕ¶": 8827, "ĠÕ¢Õ¶Õ¡Õ¯Õ¡Õ¶Õ¡Õ¢Õ¡ÖĢ": 8828, "ĠÕ·Õ¿Õ¡Õ¢Õ«": 8829, "ĠÕ£Õ¬Õ¸Õ¢Õ¡Õ¬": 8830, "ĠÕ¡Õ·ÕŃÕ¡Õ¿Õ¡Õ¾Õ¡ÖĢÕ±Õ«": 8831, "ĠÔ²Õ¡ÖĦÕ¾Õ«": 8832, "Ô³Õ«Õ¿Õ¡Õ¯Õ¡Õ¶": 8833, "ĠÕ±Õ¡ÕŃÕ¸Õ²": 8834, "ĠÔ±Õ·ÕŃÕ¡ÖĢÕ°Õ«": 8835, "ĠÕ¯ÖģÕ¡Õ¶Õ¯": 8836, "ĠShabat": 8837, "ĠÕ¯Õ¥Õ¶Õ¤Õ¡Õ¶Õ«Õ¶Õ¥ÖĢÕ«": 8838, "ĠÕ§Õ´": 8839, "Õ¾Õ¥Õ¤": 8840, "Õ´Õ¥Õ¯": 8841, "Õ¡Õ¾Õ³Õ¡ÖĢ": 8842, "ĠÕ¶Õ¸ÖĢÕ¨": 8843, "Õ¥Õ¶Õ¯": 8844, "ĠÕ¢Õ¡": 8845, "ĠÕ©Õ¥Õ¯Õ¸ÖĤÕ¦": 8846, "ĠÖĦÕ´": 8847, "ĠÕ¡Õ¼Õ¶Õ¥Õ¬": 8848, "Õ¸ÖĤÕµÖĦÕ«": 8849, "ÕĨÕ¸ÕµÕ¥Õ´Õ¢Õ¥ÖĢÕ«": 8850, "Õ¡Õ¾Õ¸ÖĢÕ¸ÖĤÕ©ÕµÕ¡Õ´Õ¢": 8851, "ĠÕ´Õ«Õ¡Õ¶Õ·Õ¡Õ¶Õ¡Õ¯": 8852, "ÖħÕ©": 8853, "ĠÔ´Õ¥Õ¼": 8854, "ÕªÕ¥Õ¶Õ¥ÖĢ": 8855, "ĠÕ¨Õ¶Õ¤Õ°": 8856, "ĠÔ¼ÕĲ": 8857, "ĠÕ¡ÕµÕ¬Õ¥ÖĤÕ½": 8858, "Ô¼ÕĤ": 8859, "ĠÕĮÕ¡Õ¦Õ´": 8860, "ĠÕ¸ÖĤÕ²Õ«Õ¶": 8861, "ĠÕ¶Õ¡ÕŃÕ¡Õ£Õ¡Õ°Õ¶Õ¥ÖĢÕ«": 8862, "ĠÕ¡Õ¶ÖģÕ¡Õ¾": 8863, "ĠÕŃÕ¸Õ½ÖĦÕ¥ÖĢÕ¨": 8864, "ĠÕ½Õ¡Õ°Õ´Õ¡Õ¶Õ¾Õ¸ÖĤÕ´": 8865, "ĠÕ¾Õ¡ÖĢÕ¹Õ¸ÖĤÕ©ÕµÕ¸ÖĤÕ¶Õ«Öģ": 8866, "ĠÕ°Õ¥Õ¼Õ¡ÖģÕ¥Õ¬": 8867, "ĠÕ¥Õ¯Õ¡Õ¶": 8868, "Õ¡Õ¼Õ¶Õ¡Õ¶": 8869, "Õ¸ÖĤÕ°Õ¡Õ¶Õ¤Õ¥ÖĢÕ±": 8870, "ĠÕ¤Õ¡Õ½Õ¡Õ¯Õ¡ÖĢÕ£": 8871, "ĠÕ°Õ¸Õ£Õ¥Õ¯Õ¡Õ¶": 8872, "Õ«Õ¤Õ¥ÖĢÕ¬Õ¡Õ¶Õ¤": 8873, "ĠÕ°Õ¡Õ½Õ¿Õ¡Õ¿Õ¾Õ¥Õ¬": 8874, "ĠÕ°Õ¡Õ½Õ¿Õ¡Õ¿Õ¸ÖĤÕ©ÕµÕ¸ÖĤÕ¶Õ¶Õ¥ÖĢÕ«": 8875, "ÕĵÕ¸ÖĢÕ±": 8876, "ĠÕ°Õ¡Õ²Õ©Õ¥Öģ": 8877, "ĠÕ¬Õ¸ÖĤÕ½Õ¡Õ¶Õ¯": 8878, "ĠÕ½Õ¸Õ¾Õ¸ÖĢÕ¸ÖĤÕ´": 8879, "Õ¡Õ¶Õ«Õ·Õ«": 8880, "ĠÖĨÕ«Õ¶Õ¡Õ¶Õ½Õ¡Õ¾Õ¸ÖĢÕ´Õ¡Õ¶": 8881, "Ġ1990": 8882, "ĠÕ´Õ«Õ»Õ¸ÖģÕ¡Õ¼Õ´Õ¡Õ¶": 8883, "ĠÕ±Õ¥Õ¼Õ¶Õ¡ÖĢÕ¯Õ¥Õ¬": 8884, "ĠÕ¿Õ²Õ¡Õ´Õ¡ÖĢÕ¤Õ«Õ¯": 8885, "ĠÕ¡Õ¬Õ¢": 8886, "ĠÕŃÕ¸Õ½Õ¿Õ¡ÖģÕ¥Õ¬": 8887, "ÑģÐº": 8888, "ĠÕ¡Õ¶Õ¿Õ¡ÖĢÕ¢Õ¥ÖĢ": 8889, "ĠÕ´Õ¡ÕµÖĢÕ¡ÖĦÕ¡Õ²Õ¡ÖĦÕ«": 8890, "ĠÕ¥Õ²Õ¡Õ¶Õ¡Õ¯Õ¸Õ¾": 8891, "ĠÕįÕºÕ«Õ¿Õ¡Õ¯": 8892, "ĠÕ°Õ¡Õ¶Õ£Õ¡Õ´Õ¡Õ¶ÖĦÕ¶Õ¥ÖĢÕ¨": 8893, "ĠÕ¾Õ¥ÖĢÕ¡Õ¢Õ¥ÖĢÕ´Õ¸ÖĤÕ¶ÖĦÕ¨": 8894, "ĠÕ¾Õ¥ÖĢÕ¡Õ¯Õ¡Õ¶Õ£Õ¶Õ¥Õ¬": 8895, "ĠÕ¯ÖħÕ£Õ¶Õ«": 8896, "78": 8897, "ri": 8898, "Õ¥ÖĢÕ¡Õ½Õ¡Õ¶": 8899, "ĠÕ´Õ¡Õ¶Õ¤": 8900, "Õ¡Õ¿Õ¸ÖĢÕ«": 8901, "Õ¸ÖĢÕ¯": 8902, "Ô±ÖĢÕ©Õ¸ÖĤÖĢ": 8903, "ĠÕ¡Õ¶ÖħÖĢÕ«Õ¶Õ¡Õ¯Õ¡Õ¶": 8904, "ĠÕ©Õ¥Õ½Õ¿": 8905, "ĠÕĦÕ¥ÖĢÕ¯": 8906, "Õ¡Õ¢Õ¡Öģ": 8907, "Ô¿ÕµÕ¡Õ¶": 8908, "ĠÕ°Õ¡ÕµÕ¥ÖĢ": 8909, "ĠÕĢÕ¡ÕµÕ¿Õ¶Õ«": 8910, "ÕįÖĥÕµÕ¸ÖĤÕ¼": 8911, "ĠÕİÕ¥Õ¶": 8912, "ĠÔ±ÕµÕ¾Õ¡Õ¦": 8913, "ĠÕ°Õ«Õ´ÖĦÕ¸ÖĤÕ´": 8914, "ĠÔ¹Õ¢Õ«Õ¬Õ«Õ½Õ«": 8915, "ÕĬÖĢ": 8916, "Õ¡Õ±Õ¸ÖĢÕ«": 8917, "ĠÕ´Õ¿Õ¥ÖĢÕ«Õ´": 8918, "ĠÕŃÕ´Õ¢Õ¡Õ¯Öģ": 8919, "Õ¡Õ¾Õ¸ÖĢÕ´Õ¡Õ´Õ¢": 8920, "ĠÕ¢Õ¡Õ¦Õ´Õ«ÖģÕ½": 8921, "Õ¨Õ¶Õ¤Õ¸ÖĤÕ¶": 8922, "ĠÕ¢Õ¡Õ¼Õ¥ÖĢ": 8923, "ÔµÕįÕı": 8924, "ĠÕ¥ÖĢÕ¯Õ¡ÖĢÕ¡Õ±Õ£": 8925, "ĠÕŃÕ¸ÖĢÕ°Õ¸ÖĤÖĢÕ¤Õ¶Õ¥ÖĢ": 8926, "ĠÖĥÕ¡Õ½Õ¿Õ¡Õ©Õ²Õ©Õ¥ÖĢ": 8927, "ĠÔ±Õ½Õ¡Õ¿ÖĢÕµ": 8928, "ĠÔµÖĢÕ¯Õ«ÖĢ": 8929, "ĠÕ¦Õ¡Õ¶Õ£Õ¡Õ°Õ¡ÖĢÕ¥Õ¬": 8930, "ĠÕ´Õ¥ÖĦÕ¥Õ¶Õ¡ÕµÕ«": 8931, "ÔµÖĢÕ¯Õ¸ÖĤ": 8932, "ĠÕ£Õ¸ÖĢÕ®Õ«Õ¹Õ¶Õ¥ÖĢÕ«": 8933, "ĠÕĬÕ¥Õ¿ÖĢÕ¸Õ½ÕµÕ¡Õ¶": 8934, "ĠÕ«Õ¶ÖĦÕ½": 8935, "ĠÕªÕ¡Õ¼Õ¡Õ¶Õ£Õ¸ÖĤÕ©ÕµÕ¡Õ¶": 8936, "ĠÔ±ÖĢÕ¿Õ¡Õ½Õ¡Õ¶Õ¥ÖĦ": 8937, "ĠÕŃÕ¡Õ¶Õ£Õ¡ÖĢÕ¸ÖĤÕ´": 8938, "ĠÕ®Õ¡Õ¶Õ¸ÖĤÖģ": 8939, "ĠÔ³Õ¥ÖĢÕ¡Õ£Õ¸ÖĤÕµÕ¶": 8940, "ĠÕ·ÖĦÕ¥Õ²": 8941, "ĠÔ²Õ¡Õ£ÖĢÕ¡Õ¿": 8942, "ĠÕ´Õ¡Õ·Õ¯Õ«": 8943, "ĠÕ¡Õ¼Õ¸Õ£Õ¡Õ¶Õ¸ÖĤÕ©ÕµÕ¡": 8944, "Õ¶Õ«Õ¯": 8945, "Õ¸ÖĤÖĦÕ¸ÖĤÕ´": 8946, "Õ¾Õ¥Õ«": 8947, "ĠÕ¥Õ¾": 8948, "Õ¡Õ¾Õ¨": 8949, "Õ¥Õ¿Õ¨": 8950, "Õ¸Õ¾ÕµÕ¡Õ¶Õ«": 8951, "ĠÕ¢Õ¡Õ¶Õ«Öģ": 8952, "ĠÕĢÕ¥ÖĢ": 8953, "ĠÕĢÔ±Ô¿": 8954, "ĠÕĢÕ¸Õ¯Õ¿Õ¥Õ´Õ¢Õ¥ÖĢ": 8955, "Õ¡Õ¦Õ«": 8956, "Ô¿Õ¡ÖĢÕ¤": 8957, "ÕĲÔ±ÕĦ": 8958, "ĠÖħÖĢÕ¸ÖĦ": 8959, "Ô³Õ¥Õ²": 8960, "ĠÔ¼Õ¥Õ¶": 8961, "ĠÕ¡Õ¶ÖģÕ¶Õ¥Õ¬Õ¸ÖĤ": 8962, "ĠÕ«ÖĢÕ¡Õ¯Õ¡Õ¶Õ¸ÖĤÕ©ÕµÕ¡Õ¶": 8963, "Ô¸ÕĢ": 8964, "Õ¡Õ¾Õ¸ÖĢÕ¾Õ¸Õ²": 8965, "Õ¥Õ©Õ²Õ©": 8966, "ĠÕ¿ÖĢÕ¡Õ´Õ¡Õ¤ÖĢÕ´Õ¡Õ¶": 8967, "ĠÖĦÕ¡ÕµÕ¬Õ¥ÖĢÕ¨": 8968, "ĠÕ¶Õ¡ÕŃÕ¡Õ£Õ®Õ¸ÖĤÕ´": 8969, "Õ¡ÖĢÕ«Õ¶Õ¥": 8970, "ĠÕ¯Õ°Õ¡Õ´": 8971, "ĠÕ¤ÖĢÕ¡Õ¶ÖģÕ«Öģ": 8972, "ĠÕ¨Õ¶Õ¤Õ¸ÖĤÕ¶Õ¥Õ¬Õ¸ÖĤÕ©ÕµÕ¡Õ¶": 8973, "ÔµÖĢÕ¯ÖĢÕ¸ÖĢÕ¤": 8974, "ÕĪÕĤÕĪÕİ": 8975, "ĠÕ¤Õ¡Õ·Õ«Õ¶ÖĦÕ¨": 8976, "Õ¡Õ¯Õ¡Õ¼Õ¸ÖĤÕµÖģ": 8977, "ĠÕ®Õ¡Õ¼Õ¡ÕµÕ¸ÖĤÕ´": 8978, "oto": 8979, "ĠÕ°Õ¡ÖĢÕ£Õ¡Õ¶ÖĦÕ«": 8980, "ĠÕĬÕ¡Õ·Õ¿ÕºÕ¡Õ¶Õ¸ÖĤÕ©ÕµÕ¡Õ¶": 8981, "ĠÔ´Õ¡Õ·Õ¶Õ¸ÖĤÕ©ÕµÕ¡Õ¶": 8982, "Õ¡ÕµÕ¡Õ¶Õ¥": 8983, "ĠÕ¯Õ¸Õ·Õ¿": 8984, "ĠÕ³Õ¡Õ´ÖĥÕ¸ÖĢÕ¤": 8985, "ĠÕĦÕ¡Õ·Õ¿Õ¸ÖģÕ«": 8986, "ÔµÕĦÔ²ÔµÕĲÔ»": 8987, "ĠÕ¢Õ¡ÖĢÕ¥Õ¶ÕºÕ¡Õ½Õ¿": 8988, "70": 8989, "Ġw": 8990, "Õ¸Õ¶Õ¥ÖĢÕ«": 8991, "ÖģÕ¥Õ¬": 8992, "ÕµÕ¡Õ¯Õ¨": 8993, "Õ«Õ¶ÕµÕ¡Õ¶": 8994, "ĠÕ¯Õ½": 8995, "ĠÕ¯Õ¿Õ¥Õ½": 8996, "Õ¡Õ°Õ¡Õ²Õ¸ÖĢÕ¤": 8997, "ĠÔ±Õ»": 8998, "Õ¸Õ¶Õ¶Õ¥ÖĢÕ«": 8999, "ĠÕ©Õ¾Õ«": 9000, "Ô±Õĥ": 9001, "ĠÕŃÕ¬": 9002, "ĠÕ¡Õ¼Õ¡Õ¾Õ¸Õ¿": 9003, "ĠÕİÕ«Õ¥Õ¶": 9004, "ĠÕ¡ÕµÕ½ÖĦÕ¡Õ¶": 9005, "ĠÔ´ÖĢÕ¡Õ¶Öģ": 9006, "ĠÕ¡Õ½Õ¡ÖģÕ«": 9007, "Ô´Õ¡Õ¾Õ«Õ©": 9008, "ĠÕ¶Õ¥ÖĢÕ¯Õ¡ÕµÕ¡ÖģÕ¶Õ¥Õ¬Õ¸Õ¾": 9009, "ĠÕ¶ÖĢÕ¡Õ¶Õ¸Õ¾": 9010, "ĠÕ°Õ¡Õ¾Õ¡Õ¿Õ¡ÖĢÕ«Õ´": 9011, "ĠÕ¸ÖĢÕ¸Õ·Õ¥Öģ": 9012, "ÔºÕ¡Õ¼Õ¡Õ¶Õ£": 9013, "ĠÕºÕ¡Õ·Õ¿Õ¸Õ¶Õ«": 9014, "ĠÕĸÖĢÕ¡Õ¶Õ¯Õ¸ÖĨ": 9015, "ĠÕ°Õ«Õ´Õ¶Õ¡Õ¤ÖĢÕ´Õ¡Õ¶": 9016, "ĠÕºÕ¡Õ·Õ¿ÕºÕ¡Õ¶Õ¡Õ¯Õ¡Õ¶": 9017, "ĠÕ¯ÕµÕ¡Õ¶ÖĦÕ¶": 9018, "ÕµÕ¸ÖĤÕº": 9019, "ĠÕ°Õ¡ÖĢÕ¡Õ¢Õ¥ÖĢÕ¸ÖĤÕ©ÕµÕ¸ÖĤÕ¶Õ¶Õ¥ÖĢÕ¸ÖĤÕ´": 9020, "ĠÕ¸ÖĤÕ·Õ¡Õ£ÖĢÕ¡Õ¾": 9021, "ĠÕ¨Õ¶Õ¿Õ¡Õ¶Õ«ÖĦÕ«Õ¶": 9022, "ĠÕ½Õ¯Õ¦Õ¢Õ¡Õ¶Õ¥": 9023, "ĠÕ¢Õ¡Õ¶Õ¯Õ¨": 9024, "ĠÕ¡Õ¯Õ¸ÖĤÕ´Õ¢Õ¸ÖĤÕ´": 9025, "ĠÖĦÕ¾Õ¥Õ¡ÖĢÕ¯Õ¥Õ¬": 9026, "ĠÕ·Õ«Õ¶Õ¡ÖĢÕ¡ÖĢÕ¡Õ¯Õ¡Õ¶": 9027, "ĠÕ¸ÖĢÕ¡Õ¯ÕµÕ¡Õ¬": 9028, "ĠÕĢÖĢÕ¡ÕºÕ¡ÖĢÕ¡Õ¯": 9029, "ĠÕįÕ¡Õ°Õ´Õ¡Õ¶Õ¡Õ¤ÖĢÕ¡Õ¯Õ¡Õ¶": 9030, "ĠÕ£Õ¶Õ¤Õ¡Õ¯": 9031, "ĠÕ·Õ¸ÖĤÕ¯Õ¡": 9032, "ĠÖĥÕ¡Õ¼Õ¡Õ¿Õ¸Õ¶Õ¨": 9033, "ĠÕ¡Õ¯ÖģÕ«Õ¡": 9034, "ÕĢÕ¸ÖĤÕ¶Õ¾Õ¡ÖĢÕ«": 9035, "ĠÖĨÖĢÕ¡Õ¶Õ½Õ«Õ¡Õ¯Õ¡Õ¶": 9036, "Ô¿Õ¡ÕµÖĦÕ¸ÖĤÕ´": 9037, "Armenian": 9038, "ĠÕŃÕ¥Õ¬Õ¡ÖģÕ«": 9039, "ĠÕ¡Õ¶Õ«Õ´Õ¡Õ½Õ¿": 9040, "ĠÕ¯Õ¸Õ´Õ½Õ¸ÖĤÕ©ÕµÕ¸ÖĤÕ¶": 9041, "ĠÕ¡Õ¸ÖĤ": 9042, "AS": 9043, "Ñĩ": 9044, "ÖĤÕ¡Õ®": 9045, "Õ¸ÖĤÖĢÕ¿": 9046, "Õ¡ÖĢÕ¡Õ¤Õ¡Õ¿Õ¸ÖĤÕ©ÕµÕ¡Õ¶": 9047, "Õ¥Õ¬ÕµÕ¡Õ¶Õ«": 9048, "Õ¡Õ´Õ·Õ¡Õ¯": 9049, "Õ¸Õ²Õ¶Õ¥ÖĢÕ«Öģ": 9050, "Ô±ÖĢÕ": 9051, "ĠÔ±ÖĢÕ¡Õ£Õ¡Õ®Õ¸Õ¿Õ¶Õ«": 9052, "Õ¡Õ¦Õ¶": 9053, "ĠÕ¹Õ¬": 9054, "Õ¡Õ¢Õ¡Õ¶Õ¨": 9055, "ĠÕįÕ¢": 9056, "ÕĦÕ¡Õ½": 9057, "ĠÕ°Õ¡ÕµÕ¥ÖĢÕ«Õ¶": 9058, "ĠÕ¡Õ¼Õ¡Õ»Õ¡ÖģÕ¥Õ¬": 9059, "ĠÕİÔ±ÕĲ": 9060, "ÕıÕĦ": 9061, "ĠÔ´Õ«Õ´": 9062, "ĠÕ´Õ¥Õ¯Õ¿Õ¥Õ²": 9063, "ĠÕ«ÖĢÕ¡Õ¾Õ¡ÕŃÕ¡ÕŃÕ¿": 9064, "ĠÕ¼Õ¸ÖĤÕ¢": 9065, "ĠÕ¡Õ¶ÖģÕ¸ÖĤÕ´": 9066, "Õ¡ÖĢÕµÕ¡Õ¬": 9067, "ĠÕ´Õ¸Õ¿Õ¥Õ¶Õ¸ÖĤÕ´": 9068, "erc": 9069, "ÖĢÕµÕ¡Õ¶Õ¨": 9070, "ĠÖģÕ¸ÖĤÖģÕ¡Õ¢Õ¥ÖĢ": 9071, "ĠÕ¯Õ¡Õ¿Õ¡ÖĢÕ¾Õ¸Õ²": 9072, "Ô±Õ¶Õ£Õ¬": 9073, "ĠÔµÖĢÕ¥Õ¯": 9074, "ĠÕ¡Õ¶Õ¾Õ¿Õ¡Õ¶Õ£Õ¸ÖĤÕ©ÕµÕ¸ÖĤÕ¶Õ¨": 9075, "ĠÔµÕ¾ÖĢÕ¸ÕºÕ¡ÕµÕ¸ÖĤÕ´": 9076, "ĠÕ°Õ¡Õ»Õ¸Õ²Õ¸ÖĤÕ©ÕµÕ¸ÖĤÕ¶": 9077, "ĠÕ¶Õ¡ÕŃÕ¡Õ±Õ¥Õ¼Õ¶Õ¸ÖĤÕ©ÕµÕ¸ÖĤÕ¶Õ¨": 9078, "ĠÕ¬Õ¸ÖĤÕ½Õ¡Õ¶Õ¯Õ¡ÖĢÕ¶Õ¥ÖĢÕ¨": 9079, "agram": 9080, "ĠÖĥÕ¸ÖĤÕ¬Õ¨": 9081, "ĠÕ£Õ¸Õ¿Õ«": 9082, "ĠÔ±Õ¢ÖĢÕ¡Õ°Õ¡Õ´ÕµÕ¡Õ¶Õ«": 9083, "ĠÕ®Õ¡Õ²Õ¯": 9084, "ĠÖħÖĢÕ¥Õ¶Õ½Õ¤ÖĢÕ¸ÖĤÕ©ÕµÕ¡Õ¶": 9085, "ĠÖĨÕ¡Õ¯Õ¸ÖĤÕ¬Õ¿Õ¥Õ¿Õ«": 9086, "ĠÕ¹Õ¬Õ«Õ¶Õ«": 9087, "ĠÕ¯ÖĥÕ¸ÕŃ": 9088, "ĠÕ¥Õ©Õ¥ÖĢÕ¸ÖĤÕ´": 9089, "ĠÕ¹Õ¸ÖĤÕ¶Õ¥ÖģÕ¸Õ²": 9090, "Õ¡Õ¸ÖĤÕ¤ÕµÕ¡Õ¶": 9091, "ÕĦÕıÕį": 9092, "Home": 9093, "sk": 9094, "Õ¡ÖĢÕ¥": 9095, "ĠÕ¯ÕŃ": 9096, "ĠÕ¢Õ¡Õ¾Õ¡ÖĢ": 9097, "Õ¡Õ¬Öģ": 9098, "Õ¢Õ¸ÖĤÖĢÕ£": 9099, "Õ¡Õ¼Õ«": 9100, "ĠÕ¹Õ½Õ¿": 9101, "ĠÔ¿Õ¸Õ½Õ¿": 9102, "ĠÔ¿Ô±ÕĬ": 9103, "ĠÔ´ÖĢÕ¡Õ¶Õ«Öģ": 9104, "Ô¹Õ¡ÖĦ": 9105, "ĠÕªÕ¡Õ´Õ¡Õ¶Õ¡Õ¯Õ¸Õ¾": 9106, "ĠÕ°Õ¡ÖĢÖģÕ¶Õ¸ÖĤÕ´": 9107, "ĠÕ¶Õ¥ÖĢÕ¯Õ¡ÕµÕ¡ÖģÕ¾Õ¸ÖĤÕ´": 9108, "ĠÕ¸ÖĢÕ¸Õ·Õ¸ÖĤÕ´Õ¶": 9109, "ÕĶÖĢÕ«Õ½Õ¿": 9110, "ĠÕ¡Õ¶Õ±Õ«Õ¶": 9111, "ĠÕ«Õ´Õ¡Öģ": 9112, "Õ¡Õ¿Õ¥Õ½Õ«Õ¬": 9113, "ĠÔ¶ÕĪÕĴ": 9114, "ĠÕ°Õ¡Õ¶Õ¤Õ«ÕºÕ¸ÖĤÕ´Õ¶Õ¥ÖĢÕ«": 9115, "ĠÕ°Õ¥Õ¿ÖĩÕ¡Õ¢Õ¡ÖĢ": 9116, "ĠÕ°Õ¸Õ¤Õ¾Õ¡Õ®Õ¸ÖĤÕ´": 9117, "ĠÕ°Õ¡Õ·Õ¾Õ¡Õ¼": 9118, "ĠÕ·Õ¶Õ¸ÖĢÕ°Õ¡Õ¶Õ¤Õ¥Õ½": 9119, "ĠÕ¥ÖĢÕ£Õ«Õ¹": 9120, "Õ¡ÖĢÕ¾Õ¥Õ½Õ¿Õ«": 9121, "ĠÕ¿Õ¸Õ¯Õ¸Õ½Õ¡Õ¤ÖĢ": 9122, "ĠÕ£Õ¸ÖĢÕ®Õ¨Õ¶Õ©Õ¡ÖģÕ«Õ¶": 9123, "ĠÕ£Õ¸ÖĢÕ®Õ¨Õ¶Õ©Õ¡ÖģÕ¶Õ¥ÖĢÕ«": 9124, "ĠÔ»Õ½Õº": 9125, "Õ¡Õ¾Õ¡ÕµÖĢÕ¨": 9126, "ĠÕŃÕ¸Õ½Õ¿Õ¸Õ¾": 9127, "ĠÕĢÖĢÕ¡Õ¦Õ¤": 9128, "ĠÕ°Õ¡Õ¶ÖģÕ¡Õ£Õ¸ÖĢÕ®Õ¸ÖĤÕ©ÕµÕ¸ÖĤÕ¶Õ¶Õ¥ÖĢÕ«": 9129, "ĠÕ¤Õ«Õ´Õ¸ÖĤÕ´Õ«": 9130, "ĠÖģÕ¸ÖĤÖģÕ¡Õ°Õ¡Õ¶Õ¤Õ¥Õ½Õ¨": 9131, "Ġvi": 9132, "____": 9133, "ĠÕ¢Õ¡ÕªÕ¶Õ¥Õ¿Õ¸Õ´Õ½": 9134, "ĠÕ°ÖĢÕ¡ÕªÕ¡ÖĢÕ¡Õ¯Õ¡Õ¶Õ«": 9135, "ÕĦÕ¥Õ»Õ¢Õ¥ÖĢÕ¥Õ¬": 9136, "ĠÕªÕ¡Õ´Õ¡Õ¶Õ¡Õ®": 9137, "ĠÕ¯Õ¯Õ¡ÕµÕ¡Õ¶Õ¡": 9138, "ĠÕ¤Õ¸ÖĤÕ¼Õ¨": 9139, "ĠÕ°Õ¡Õ¾Õ¡Õ½Õ¡ÖĢÕ¡Õ¯Õ·Õ¼": 9140, "88": 9141, "ÖĦÕ¥ÖĢÕ¸Õ¾": 9142, "Õ¯Õ¡Õ¼": 9143, "ĠÕ¡Õ¢": 9144, "Õ¡Õ°Õ¼Õ¹Õ¡Õ¯": 9145, "Õ¡Õ¬Õ«ÖĦ": 9146, "ĠÕ©Õ¸Õ·": 9147, "Õ¡Õ¢Õ¡Õ¶Õ«": 9148, "Õ«Õ¿Õ¡Õ¬Õ«": 9149, "Õ¡ÖĢÕ¯Õ¾Õ¥Õ¬": 9150, "ĠÕ¶Õ¡ÕŃÕ¡ÖĦÕ¶Õ¶": 9151, "ĠÔ¿Õ¬": 9152, "ĠÕ¿Õ¡ÖĢÕ¥Öģ": 9153, "Õ§Õ¿": 9154, "ÖħÕ£Õ¿Õ¡Õ£Õ¸ÖĢÕ®": 9155, "Õ¼Õ¾Õ¡Õ®": 9156, "ĠÔ´Õ«Õ¬Õ«Õ»": 9157, "ĠÔ´Õ¥Õ¯Õ¿Õ¥Õ´Õ¢Õ¥ÖĢ": 9158, "ĠÕ´Õ¥Õ¯Õ¶Õ¸ÖĤÕ´": 9159, "Õ¥ÖĤÕ«": 9160, "Ô´Õ«Õ´": 9161, "ĠÔ¹Õ¡Õ©": 9162, "Õ¸ÖĤÕ¬Õ½": 9163, "ĠÕºÕ¡Õ°ÕºÕ¡Õ¶Õ¸ÖĤÕ´": 9164, "ĠÕ°ÖĢÕ¡Õ¦": 9165, "ĠÕ¿Õ¡ÖĢÕ¡Õ®Õ¾Õ¸ÖĤÕ´": 9166, "ĠÕ°Õ¡Õ´Õ¡Õ¯Õ¡ÖĢÕ£Õ¹Õ¡ÕµÕ«Õ¶": 9167, "ĠÕ¤ÕºÖĢÕ¸ÖģÕ¶Õ¥ÖĢÕ¸ÖĤÕ´": 9168, "ĠÔ±Õ¦Õ£": 9169, "ĠÕ¢Õ¡Õ¦Õ´Õ¡Õ¦Õ¡Õ¶": 9170, "ĠPh": 9171, "ĠÕ¶Õ¯Õ¡ÖĢÕ«Õ¹": 9172, "ĠÕ¡Õ»Õ¡Õ¯ÖģÕ¥Õ¬Õ¸ÖĤ": 9173, "ĠÕ¥Õ¦Õ¡Õ¯Õ«": 9174, "ĠÕ¡Õ³Õ¸ÖĤÖĢÕ¤": 9175, "ĠÕ¯ÖĢÕ¯Õ¶Õ¡Õ¯Õ«": 9176, "ĠÕ¾Õ¡Õ³Õ¡Õ¼Õ¥Õ¬": 9177, "ĠÕ´Õ¥ÖĦÕ¥Õ¶Õ¡Õ¶Õ¥ÖĢÕ«": 9178, "Õ«Õ¦Õ´Õ¨": 9179, "ĠÕ¯Õ¥Õ½Õ«Õ¶": 9180, "ĠÕ©Õ¡Õ¶Õ£Õ¡ÖĢÕ¡Õ¶Õ¸ÖĤÕ´": 9181, "ĠÖĥÕ¸Õ½Õ¿Õ«": 9182, "ĠÕ¿ÖĢÕ¡Õ´Õ¡Õ¤ÖĢÕ¥Õ¬Õ¸ÖĤ": 9183, "ÕĩÕ¶Õ¸ÖĢÕ°Õ¡Õ¯Õ¡Õ¬Õ¸ÖĤÕ©ÕµÕ¸ÖĤÕ¶": 9184, "ĠÕ¼Õ¥Õ¯Õ¸ÖĢÕ¤": 9185, "Õ´Õ¥Õ¤": 9186, "ĠÔ±Õİ": 9187, "ĠÕĢÕ¡Õ²Õ¸ÖĢÕ¤": 9188, "ĠÕ¡Õ¼Õ¡ÕµÕªÕ´": 9189, "ĠÕĦÕ¡Õ°": 9190, "ĠÖĥÕ¡ÕµÕ¿": 9191, "Õ¡ÖĢÕ¯Õ¥Õ¿": 9192, "Õ¡ÖĢÕ¯Õ¸ÖĤÕ©ÕµÕ¡Õ¶": 9193, "Õ°Õ¥ÖĢ": 9194, "Õ¡Õ£ÖĢÕ¡ÕµÕ«Õ¶": 9195, "ĠÕ¡Õ´ÖĢÕ¡Õ£": 9196, "ĠÕºÕ¥Õ¿Õ¨": 9197, "ÖħÖĢÕµ": 9198, "ĠÕ£ÖĢÕ¡Õ¾Õ¥Õ¬": 9199, "ĠÕ¿Õ¥Õ½Õ¡Õ¶Õ¥Õ¬Õ«": 9200, "ÕħÔ±Ô¼": 9201, "Õ¸ÖĤÕ²Õ¸ÖĤ": 9202, "ĠÕ»Õ¸ÖĤÖĢÕ¨": 9203, "ĠÕ¯Õ¡Õ¦Õ´Õ¡Õ¯Õ¥ÖĢÕºÕ¾Õ¥Õ¬": 9204, "ĠÕ¡Õ·ÕŃÕ¡ÖĢÕ°Õ«Õ¶": 9205, "ÕĮÕ¸Õ¢Õ¥ÖĢÕ¿": 9206, "ĠÕ®ÖĢÕ¡Õ£ÖĢÕ¡ÕµÕ«Õ¶": 9207, "ĠÕ°Õ«Õ´Õ¶Õ¡Õ¤ÖĢÕ¾Õ¥Õ¬": 9208, "Ġ65": 9209, "ĠÕ¤Õ¡ÖĢÕ±ÕµÕ¡Õ¬": 9210, "ĠÕµÕ¸ÖĤÕ²": 9211, "ĠÕ®Õ¶Õ¸Õ²Õ¶Õ¥ÖĢÕ¨": 9212, "Ġ07": 9213, "ĠÕ£Õ¸ÖĢÕ®Õ¸ÖĤÕ¶Õ¥Õ¸ÖĤÕ©ÕµÕ¡Õ¶Õ¨": 9214, "ÕĸÔ±": 9215, "ĠÖħÖĢÕ¥Õ¶ÖĦÕ¶Õ¥ÖĢÕ«": 9216, "ĠÕ¬Õ¸ÖĤÕ½Õ¡Õ¶Õ¯Õ¡ÖĢÕ¨": 9217, "ĠNEWS": 9218, "stagram": 9219, "ĠÕ¬Õ«Õ¡Õ¦": 9220, "ĠÖĦÕ¶Õ¶Õ¡ÖĢÕ¯Õ¾Õ¸ÖĤÕ´": 9221, "ĠÕ¯Õ¸Õ¶Õ¾Õ¥Õ¶Öģ": 9222, "ĠÕºÕ¡Õ¿Õ¥ÖĢÕ¡Õ¦Õ´Õ¸ÖĤÕ´": 9223, "ĠÕĥÕ«Õ·Õ¿": 9224, "ĠÕ¾Õ¡ÕµÖĢÕ¥ÖĢÕ¸ÖĤÕ´": 9225, "ĠÕ¡Õ¿Õ¥Õ¬": 9226, "ĠÕ¸ÖĢÕ¡Õ¯Õ¡Õ¾Õ¸ÖĢÕ´Õ¡Õ¶": 9227, "ĠÕİÕ¡Õ¶Õ¥Öģ": 9228, "ĠÕ©Õ¥Õ¯Õ¶Õ¡Õ®Õ¸ÖĤÕ«": 9229, "ĠÕ¤Õ¡Õ¿Õ¡ÕŃÕ¡Õ¦Õ¸ÖĤÕ©ÕµÕ¡Õ¶": 9230, "ĠÕºÕ¡Õ¿Õ¯Õ¥ÖĢÕ¨": 9231, "ĠÕ¶Õ·Õ¡Õ¶Õ¡Õ¾Õ¸ÖĢ": 9232, "ĠÕ·Õ¸ÖĤÕ¯Õ¡Õ¶": 9233, "ĠÕĢÕ¡Õ»Õ¸ÖĢÕ¤": 9234, "ĠÕ¿ÕºÕ¡Õ¾Õ¸ÖĢÕ¸ÖĤÕ©ÕµÕ¸ÖĤÕ¶": 9235, "ĠÕ¢Õ¡ÖģÕ¡Õ¿ÖĢÕ¥Õ¬": 9236, "isher": 9237, "ĠÖħÕ£Õ¿Õ¡Õ¿Õ¥ÖĢÕ¥ÖĢÕ«": 9238, "ĠÕ½Õ¡ÖĢÕ½Õ¡ÖĥÕ¥Õ¬Õ«": 9239, "ĠÕ¡Õ¼Õ¥ÖĤÕ¿ÖĢ": 9240, "MEN": 9241, "ust": 9242, "yr": 9243, "Ġk": 9244, "ÕµÕ¸ÖĦ": 9245, "ĠÕ°Õ¸Õ²Õ«": 9246, "Õ«Õ¶Õ¶Õ¥ÖĢÕ«": 9247, "ĠÕ¯Õ¡Õ²": 9248, "Õ¡Õ¿Õº": 9249, "Õ¡Õ¾Õ¡Õ¯Õ¡Õ¶": 9250, "ĠÕ¿Õ¡Õ½Õ¨": 9251, "ÕºÕ§Õ½": 9252, "ÖĩÕ¡Õ¶Õ«": 9253, "ĠÕ©Öĩ": 9254, "ĠÕ°Õ¡Õ´Õ¡ÕªÕ¸Õ²Õ¸Õ¾Õ«": 9255, "Õ¥ÖģÕ¸ÖĤÕ©ÕµÕ¡Õ¶": 9256, "ÕĨÕµÕ¸ÖĤÕ©": 9257, "Ô»Õ°Õ¡ÖĢÕ¯Õ¥": 9258, "ĠÕ¡Õ¼Õ¡Õ»Õ¡Õ¤ÖĢÕ¾Õ¡Õ®": 9259, "Ô³Õ¬ÕŃ": 9260, "Ô´ÕºÖĢÕ¸Öģ": 9261, "ĠÖĨÕ¸ÖĢÕ´": 9262, "ĠÕ¸ÖĤÕ²Õ¡ÖĢÕ¯Õ¸ÖĤÕ´": 9263, "ĠÕ°Õ¡Õ¶Õ¤Õ¥ÖĢÕ±": 9264, "ĠÕĵÕ¸ÕŃ": 9265, "Õ¡Õ¢Õ¡Õ¶Õ¶Õ¥ÖĢÕ«": 9266, "Ġ42": 9267, "ĠÕĸÕĪÕı": 9268, "ĠÕ°Õ«Õ´Õ¶Õ¡ÖĢÕ¡ÖĢ": 9269, "ĠÕ½Õ«ÖĢÕ¥Õ¬": 9270, "ĠÖħÕ£Õ¿Õ¡Õ£Õ¸ÖĢÕ®Õ¾Õ¥Õ¬": 9271, "ĠÕ°Õ¡Õ½Õ¿Õ¡Õ¿Õ´Õ¡Õ¶": 9272, "ĠÕ¿ÖĢÕ¡Õ´Õ¡Õ¢Õ¡Õ¶": 9273, "ĠÕºÕ¡ÖĢÕ¡Õ£": 9274, "ĠÕ¸Õ½Õ¿Õ«Õ¯Õ¡Õ¶Õ¶Õ¥ÖĢÕ¨": 9275, "ĠÕ¡Õ¼Õ¡Õ»Õ¡ÖĢÕ¯Õ¨": 9276, "ĠÕ¡ÖĢÕ¤ÕµÕ¸ÖĤÕ¶ÖĦÕ¶Õ¥ÖĢ": 9277, "ĠÕ¯Õ¸ÖĢÕ¡Õ®": 9278, "ĠOper": 9279, "ĠÕ¥Õ¶Õ©Õ¡ÖĢÕ¯Õ¾Õ¸ÖĤÕ´": 9280, "ĠÕ¡Õ¾Õ¿Õ¸Õ´Õ¡Õ¿": 9281, "ĠÕ°Õ¶Õ¹Õ¸ÖĤÕ´": 9282, "ĠÕ©Õ¡Õ¿ÖĢÕ¸Õ¶Õ¸ÖĤÕ´": 9283, "ĠÔ²Õ¡ÖĦÕ¾Õ¸ÖĤÕ´": 9284, "ĠÔ²ÖĢÕ«Õ¿Õ¡Õ¶Õ«": 9285, "ĠÕ¡ÕºÖĢÕ«Õ¬Õ«Õ¶": 9286, "ĠÕİÕ¡Õ¶Õ¡Õ±Õ¸ÖĢ": 9287, "ĠÔ²Õ¥Õ¬Õ¡Õ¼Õ¸ÖĤÕ½Õ«": 9288, "ĠÔ¿Õ¸Õ´Õ«Õ¿Õ¡Õ½Õ«": 9289, "ĠÕ¯Õ¡Õ¿Õ¥Õ£Õ¸ÖĢÕ«Õ¡Õ¶Õ¥ÖĢ": 9290, "ĠÕ£Õ¥ÖĢÕ¡Õ¿Õ¥Õ½Õ¹": 9291, "80": 9292, "Tag": 9293, "Â²": 9294, "Õ¶Õ¡Õ®": 9295, "ĠÕ°ÕµÕ¸ÖĤÕ½Õ«Õ½Õ¡ÕµÕ«Õ¶": 9296, "ĠÕ´Õ«Õ¯": 9297, "ĠÕ´Õ¥ÖĢÕ±": 9298, "ĠÕ¥ÖĢÕ¤": 9299, "Õ¡ÖģÕ¾Õ¥Õ¶": 9300, "ĠÕ¢Õ¡Õ·ÕŃ": 9301, "ĠÕĢÕ«Õ¶": 9302, "Õ¢Õ¡ÕŃÕ¿": 9303, "Õ¸Õ¶ÕµÕ¡": 9304, "ĠÕ¹Õ¥Õ¦Õ¸ÖĦ": 9305, "Õ¡Õ¤ÖĢÕµÕ¡Õ¬": 9306, "Õ¸ÖĤÕµÕ¦": 9307, "ĠÕĦÕ¥Õ¬ÖĦ": 9308, "ĠÕįÕ¥ÕºÕ¿Õ¥Õ´Õ¢Õ¥ÖĢ": 9309, "Õ°Õ¡Õ³": 9310, "ĠÔ¿Õ«Õ¬": 9311, "ĠÔ¿Õ¡ÖĢÕ¤Õ¡Õ¬": 9312, "ĠÕĨÕ«Õ¯": 9313, "Õ¡Õ¯ÖģÕ¡ÕµÕ«Õ¶": 9314, "ĠÕ¡ÕµÕ½Õ¸ÖĤÕ°Õ¥Õ¿": 9315, "ÕİÕ¥ÖĢÕ»": 9316, "Õ¥ÖĤÕ¸ÖĢÕ£": 9317, "ĠÕŃÕ¡Õ²Õ¡ÖģÕ¥Õ¬": 9318, "ĠÕ¾Õ¥ÖĢÕ»Õ¶": 9319, "ĠÕ´Õ¡Õ½Õ¶Õ¡Õ¯ÖģÕ¸Õ²": 9320, "ĠÕ´Õ¡ÖĢÕ´Õ¶": 9321, "ĠÕ¡ÖĢÕ¤ÕµÕ¸ÖĤÕ¶ÖĦÕ¨": 9322, "ĠÕ¦Õ¢Õ¡Õ²Õ¾Õ¸Õ²": 9323, "ĠÕ°Õ«Õ¾Õ¡Õ¶Õ¤Õ¸ÖĤÕ©ÕµÕ¡Õ¶": 9324, "Ġ1998": 9325, "ĠÖĨÕ¸ÖĤÕ¿Õ¢Õ¸Õ¬Õ¡ÕµÕ«Õ¶": 9326, "Õ¡Õ¿Õ¸ÖĤÕ«": 9327, "ĠÕ°Õ¡Õ¶ÖģÕ¡Õ¾Õ¸ÖĢ": 9328, "ĠÔ²ÖĢÕ¡Õ¦Õ«Õ¬": 9329, "ÕºÕ¡Õ¿Õ´": 9330, "ĠÕ¯Õ¡ÖĢÕ¤Õ¸ÖĤÕ´": 9331, "ĠÕ¡Õ·Õ¡Õ¯Õ¥ÖĢÕ¿Õ¶Õ¥ÖĢÕ¨": 9332, "ĠÕ¯Õ¸ÖĢÖģÕ¶Õ¸ÖĤÕ´": 9333, "ĠÕ°Õ¡Õ£Õ¥ÖģÕ¡Õ®": 9334, "ĠÕŃÕ¸ÖĤÕ½Õ¡ÖĥÕ¥Õ¬Õ¸ÖĤ": 9335, "ĠÕ¯Õ·Õ¡ÖĢÕ¸ÖĤÕ¶Õ¡Õ¯": 9336, "Õ¡ÕºÕ¡ÖĢÖĥÕ¡Õ¯": 9337, "ĠÕ§Õ¯ÖĢÕ¡Õ¶": 9338, "ĠÕĩÕ¡ÖĢÕ´Õ¡Õ¦Õ¡Õ¶Õ¸Õ¾Õ¨": 9339, "ÕĢÕ¸Õ¾Õ°Õ¡Õ¶Õ¶Õ¥Õ½": 9340, "ĠÔ¿ÔµÕĨÕıÕĲÕĪÕĨ": 9341, "ud": 9342, "Õ«Õ¶Õ¶Õ¥ÖĢ": 9343, "Õ«Õ¶Õ¡Õ¬": 9344, "ĠÕ¯Õ¡Õ¿Õ¡Õ¯": 9345, "ĠÕºÕ¡ÖĢÕ½": 9346, "ĠÕ£ÖĢÕ¡ÖĨ": 9347, "ĠÕ£Õ¥ÖĢÕ´Õ¡Õ¶Õ¡Õ¯Õ¡Õ¶": 9348, "Õ¡Õ£Õ«": 9349, "ĠÕ¢Õ¡Õ¶Õ¨": 9350, "ĠÕ½Õ¥Õ´Õ«Õ¶": 9351, "ĠÕ±Õ«": 9352, "Ô³ÖĢÕ¡Õ¶Öģ": 9353, "Ô²Õ«Õ¦Õ¶Õ¥Õ½": 9354, "ĠÕ¼Õ¥": 9355, "Õ¸ÖĤÕ¬Õ¸ÖĤÕ´": 9356, "ĠÕ¾Õ¡ÖĢÕ¹Õ¸ÖĤÕ©ÕµÕ¸ÖĤÕ¶Õ¸ÖĤÕ´": 9357, "ĠÕ¨Õ¶Õ©Õ¡ÖģÖĦÕ«": 9358, "ĠÕ»Õ¶Õ»": 9359, "ĠÕªÕ¸Õ²Õ¸Õ¾Õ¨": 9360, "ark": 9361, "Õ¡ÕªÕ¸Õ²Õ¸Õ¾Õ«Õ¶": 9362, "ĠÕ¤ÖĢÕ¡Õ´Õ¡Õ·Õ¶Õ¸ÖĢÕ°": 9363, "ĠÕ°ÖĢÕ¡ÕºÕ¡ÖĢÕ¡Õ¯Õ¸ÖĤÕ´Õ¶Õ¥ÖĢÕ«": 9364, "Ô»Õ¶Õ¹Õ¸ÖĤ": 9365, "ĠÕªÕ¸Õ²Õ¸Õ¾ÖĢÕ¤Õ¡Õ¾Õ¡ÖĢÕ¸ÖĤÕ©ÕµÕ¡Õ¶": 9366, "ÖĢÕ¥Õ¶Õ¤": 9367, "ĠÕ´Õ¶Õ¡Õ¬Õ¸ÖĤ": 9368, "ĠPro": 9369, "ĠII": 9370, "ĠÕ¡Õ³Õ¨": 9371, "ĠÕ¾Õ³Õ¡ÖĢÕ¸ÖĤÕ´": 9372, "ĠÕ¾Õ½Õ¿Õ¡Õ°Õ¸ÖĤÕ©ÕµÕ¡Õ¶": 9373, "ĠÕ¯Õ£Õ¿Õ¶": 9374, "ĠÕ¿Õ¸ÖĤÖĢÕ¸ÖĤÕ´": 9375, "Ô¿Õ¡ÕµÖĦÕ¨": 9376, "ĠÕŃÕ¶Õ¡Õ´ÖĦÕ«": 9377, "ĠÕ¯Õ¸Õ¶ÖĨÕ¥ÖĢÕ¡Õ¶Õ½": 9378, "ĠÔµÕ¯Õ¥Õ²Õ¥ÖģÕ¸ÖĤ": 9379, "ĠÕ°Õ¸Õ¯": 9380, "ĠÕ´Õ¡ÖĢ": 9381, "Õ¾Õ«Õ¶": 9382, "ĠÖī": 9383, "ĠÕ¤ÖĢÕ¤": 9384, "Õ£ÕµÕ¸ÖĤÕ²": 9385, "ÕĨÔ»": 9386, "ÔµÖĢÕ£": 9387, "ÕĦÕ·Õ¡Õ¯": 9388, "ÕĪÖĢÕºÕ¥Õ½": 9389, "ĠÕ´Õ«Õ¡Õ¾Õ¸ÖĢÕ¸ÖĤÕ´": 9390, "ĠÕ¡Õ¾Õ¥ÖĢ": 9391, "Õ¡Õ¶ÖĦÕ¶": 9392, "Õ¡Õ¶ÖĦÕ¶Õ¥ÖĢÕ¸Õ¾": 9393, "ĠÕ¡Õ·ÕŃÕ¡Õ¿Õ¸Õ²Õ¶Õ¥ÖĢÕ«": 9394, "ĠÕĮÕ¸Õ´": 9395, "ĠÕĮÕ¡ÖĨ": 9396, "ĠÕ¿Õ¥Õ½Õ¡ÕŃÖģ": 9397, "Ġ39": 9398, "Õ¡ÖĢÕ¡Õ¶Õ¶": 9399, "ĠÕ¯Õ¡ÕºÕ¨": 9400, "ĠÕ©Õ¾Õ¡Õ¯Õ¡Õ¶Õ¶Õ¥ÖĢÕ«": 9401, "ĠÕŃÕ¸ÖĢÕ°ÖĢÕ¤Õ¡ÖĢÕ¡Õ¶Õ¨": 9402, "ĠÕ¥ÖĢÕ¯ÖĢÕ«Öģ": 9403, "ĠÕºÕ¡Õ·Õ¿ÕºÕ¡Õ¶Õ¥Õ¬Õ¸ÖĤ": 9404, "ĠÖģÕ¸ÖĤÖģÕ¡Õ¢Õ¥ÖĢÕ¥Õ¬": 9405, "ĠÕ¦Õ¡ÖĢÕ£Õ¡ÖģÕ¡Õ®": 9406, "ĠAR": 9407, "ĠÕ£ÕµÕ¸ÖĤÕ²Õ¡Õ¯Õ¡Õ¶": 9408, "ĠÕ·Õ¶Õ¸ÖĢÕ°Õ¡Õ¾Õ¸ÖĢÕ¸ÖĤÕ´": 9409, "ĠÕ·Õ¸ÖĤÖĢÕ»Õ¨": 9410, "ĠÕ°Õ¥Õ¿Õ¡ÖĦÖĢÖĦÖĢÕ¸ÖĤÕ´": 9411, "ĠÕ¶Õ¥ÖĢÕ¤ÖĢÕ´Õ¡Õ¶": 9412, "ÕįÕ¿Õ¥Öĥ": 9413, "ĠÐĲ": 9414, "ÕĢÕ¡Õ´Õ¡Õ±Õ¡ÕµÕ¶": 9415, "ĠÕĳÕ¸ÖĤÖģ": 9416, "ĠÕ¯Õ«Õ½Õ¾Õ¥Õ¬": 9417, "age": 9418, "ĠÕ¾Õ«Õ³Õ¡Õ¯Õ¡Õ£ÖĢÕ¡Õ¯Õ¡Õ¶": 9419, "ĠÕ¡Õ¿Õ¡Õ´": 9420, "ĠÕ¾Õ¥ÖĢÖģÖĢÕ¥Õ¬": 9421, "ĠÕ»ÖĢÕ¡ÕµÕ«Õ¶": 9422, "ÕĢÕ«Õ´Õ¶Õ¡Õ¯Õ¡Õ¶": 9423, "ĠÕ£Õ¥ÖĢÕ¡Õ¦Õ¡Õ¶ÖģÕ¸ÖĤÕ´": 9424, "ĠÕĬÕ¸Õ²Õ¸Õ½ÕµÕ¡Õ¶Õ¨": 9425, "ĠÕŃÕ©Õ¡Õ¶": 9426, "ĠÕ¡Õ¶Õ¹Õ¡ÖĥÕ¡Õ°Õ¡Õ½": 9427, "Ô´Õ¥ÕºÖĦÕ«": 9428, "ĠÕ´Õ«Õ£ÖĢ": 9429, "Õ¿Õ¶Õ¿Õ¥Õ½Õ¡Õ¯Õ¡Õ¶": 9430, "ĠÕ¾Õ¥ÖĢÕ½Õ¯Õ½": 9431, "OS": 9432, "ÖĦÕ¡ÖĢ": 9433, "ĠÕ´Õ¸ÖĤÕ¬Õ¿": 9434, "ĠÕ¯Õ¸ÖĢÕºÕ¸ÖĢ": 9435, "Õ¸ÖĢÕ¡": 9436, "Õ¬Õ¡Õ¶": 9437, "ĠÕĢÕĪ": 9438, "Õ¥Õ²Õ¨": 9439, "ÕĢÕµÕ¸ÖĤÕ½Õ«Õ½Õ¡ÕµÕ«Õ¶": 9440, "Ô¿Õ¸Õ¶": 9441, "ĠÕªÕŃÕ¿": 9442, "ÕªÕ«": 9443, "ÕªÕ¤": 9444, "ĠÔ¼Õ¸ÖĤÕ¯": 9445, "ĠÕ¿Õ¥Õ½Õ¶Õ¥Õ¬Õ¸ÖĤ": 9446, "ĠÕºÕ¡Õ°Õ¨": 9447, "Õ¡Õ¯Õ¡ÖĢÕ£Õ¨": 9448, "ĠÔ½Õ¸ÖĢÕ¥Õ¶": 9449, "ĠÕ½Õ¡Õ°Õ´Õ¡Õ¶Õ¨": 9450, "ĠÕ½Õ¡Õ°Õ´Õ¡Õ¶Õ¶Õ¥ÖĢÕ«": 9451, "erv": 9452, "Õ¡Õ¾Õ¸ÖĢÕ¾Õ«": 9453, "les": 9454, "Õ·Õ¿Õ¡Õ¢": 9455, "ĠÕ£Õ¸ÖĢÕ®Õ¸ÖĤÕ¶Õ¥Õ¸ÖĤÕ©ÕµÕ¡Õ´Õ¢": 9456, "ĠÕ°Õ«Õ·Õ¥Õ¬": 9457, "ĠBe": 9458, "ĠÕ¶Õ¡ÕŃÕ¡Õ£Õ®Õ¥ÖĢÕ¨": 9459, "ĠÕ¬ÖĢÕ¡Õ£ÖĢÕ¸Õ²Õ¶Õ¥ÖĢÕ«Õ¶": 9460, "ĠÕ¡Õ´Õ«Õ½Õ¶Õ¥ÖĢÕ«": 9461, "ĠOr": 9462, "Õ¥Õ¶Õ¤Õ«": 9463, "ĠÕ¢Õ¸Õ¾Õ¡Õ¶Õ¤Õ¡Õ¯Õ¸ÖĤÕ©ÕµÕ¸ÖĤÕ¶Õ¨": 9464, "ĠÕ´Õ¥Õ¯Õ¶Õ¡Õ¢Õ¡Õ¶Õ¥Õ¬": 9465, "Ġto": 9466, "ĠÕ¡Õ´Õ¸ÖĤÕ½Õ¶Õ¸ÖĤ": 9467, "ĠÕ°Õ¡Õ´Õ¡ÕµÕ¶ÖĦÕ¶Õ¥ÖĢÕ¸ÖĤÕ´": 9468, "ÕĢÕ¡ÖĢÖģÕ«Õ¶": 9469, "ĠÕ¡ÖĢÕ±Õ¡Õ£Õ¡Õ¶ÖĦÕ¥Õ¬": 9470, "ĠÕİÕ¥ÖĢÕ»Õ«Õ¶Õ½": 9471, "ĠÔ·ÖĢÕ¤Õ¸Õ²Õ¡Õ¶Õ«": 9472, "ĠÔ²Õ¡Õ¶Õ¯Õ«": 9473, "ĠÕĵÕ¡ÖĢÕ«Õ¦Õ¸ÖĤÕ´": 9474, "ĠÕįÖĥÕµÕ¸ÖĤÕ¼ÖĦÕ«": 9475, "ĠÕĢÕ¡Õ¿Õ¸ÖĤÕ¯": 9476, "ĠÖĦÕ«Õ´Õ«Õ¡Õ¯Õ¡Õ¶": 9477, "Ġhttps": 9478, "Õ«Õ¡Õ¤": 9479, "Õ¡Õ¾Õ·": 9480, "Õ¯Õ¡Õ¿": 9481, "Õ¸ÖĢÕ»": 9482, "ĠÖĦÕ¡Õ¶Õ¤Õ¡Õ¯": 9483, "Õ¡ÖĦÕ¶": 9484, "Õ·Õ¡ÖĢÕª": 9485, "ÕĨÖĢÕ¡Õ¶ÖĦ": 9486, "Õ¸Õ½Õ¡Õ¯Õ¡Õ¶": 9487, "Õ¥Õ´Õº": 9488, "Õ«Õ»Õ«": 9489, "ĠÕ¾Õ¥ÖĢÕ¸Õ¶Õ·ÕµÕ¡Õ¬": 9490, "Õ¼Õ«": 9491, "Õ¼Õ¸ÖĤÕ½": 9492, "Ô³Õ¡Õ£Õ«Õ¯": 9493, "Õ¡Õ¤ÖĢÕ«": 9494, "ĠÕ¡ÖĢÕ¿Õ¡Õ£": 9495, "ĠÕ¶Õ¸ÖĢÕ¸ÖĤÕ©ÕµÕ¸ÖĤÕ¶Õ¶Õ¥ÖĢÕ¨": 9496, "ĠÕ°Õ¡Õ¾Õ¡Õ¯": 9497, "ĠÕ´Õ«Õ»Õ¸ÖģÕ¨": 9498, "ÕºÖĢÕ¸Õ´": 9499, "ĠÔ±ÕµÕ½ÕºÕ«Õ½Õ¸Õ¾": 9500, "ĠÕºÕ¡Õ·Õ¿Õ¸Õ¶Õ¶Õ¥ÖĢ": 9501, "ĠÕĸÕ¥ÕµÕ½Õ¢": 9502, "ÕĮÕ¥Õ¡Õ¬Õ«": 9503, "ĠÕ¤Õ¡Õ¿Õ¡Õ¾Õ¡ÖĢÕ¸ÖĤÕ©ÕµÕ¡Õ¶": 9504, "ĠÖģÕ¸ÖĤÖģÕ¡Õ¯": 9505, "ĠÖģÕ¸ÖĤÖģÕ´Õ¸ÖĤÕ¶ÖĦ": 9506, "ĠÔ±Õ¶Õ¯": 9507, "ĠÕ²Õ¥Õ¯Õ¡Õ¾Õ¡ÖĢÕ¶": 9508, "ĠÕºÕ¡Õ¿Õ³Õ¡Õ¼Õ¶Õ¥ÖĢÕ¸Õ¾": 9509, "ĠÕ«Õ¶ÖĦÕ¶Õ¸ÖĤÕ©ÕµÕ¸ÖĤÕ¶Õ¨": 9510, "ĠÕĭÖĢ": 9511, "ĠÕ°Õ¡Õ²Õ¸ÖĢÕ¤Õ´Õ¡Õ´Õ¢": 9512, "ĠÕ´Õ«Õ»Õ¸ÖģÕ¡Õ¼Õ¸ÖĤÕ´Õ¶Õ¥ÖĢÕ¨": 9513, "ĠÕ¤Õ¥ÖĢÕ¡Õ½": 9514, "ĠÔ±ÖĢÕŃÕ«Õ¾": 9515, "ass": 9516, "ĠÔ±ÖĢÖĩÕ¥Õ¬ÖĦ": 9517, "urer": 9518, "ĠÕ¬Õ«Õ¡Õ¦Õ¸ÖĢÕ¸ÖĤÕ©ÕµÕ¸ÖĤÕ¶Õ¶Õ¥ÖĢÕ«": 9519, "ĠÕºÕ¡ÖĢÕ¢Õ¥ÖĢÕ¡Õ¯Õ¡Õ¶Õ¨": 9520, "ĠÕ¡Õ¯Õ¶Õ¡ÖĢÕ¯": 9521, "ĠÕ´Õ¸Õ¿Õ¥ÖģÕ¸ÖĤÕ´": 9522, "Ô²Ô¸ÕĦ": 9523, "Õ¡Õ¤ÖĢÕ¾Õ«": 9524, "ĠÕİÕ¡Õ°Õ¡Õ£Õ¶": 9525, "ĠÖĨÖĢÕ¡Õ¶Õ½Õ«Õ¡ÖģÕ«": 9526, "ĠÕ¡Õ¼Õ¡Õ¶Õ±Õ¶Õ¡Õ°Õ¡Õ¿Õ¸ÖĤÕ¯": 9527, "ĠÔ¹Õ¸ÖĤÕ´Õ¡Õ¶ÕµÕ¡Õ¶": 9528, "ĠÕķÕ½Õ«Õº": 9529, "ĠÕ°Õ¡Õ·Õ´Õ¡Õ¶Õ¤Õ¡Õ´Õ¸ÖĤÕ©ÕµÕ¸ÖĤÕ¶": 9530, "ĠÕīÕ¥Õ´ÕºÕ«Õ¸Õ¶Õ¶Õ¥ÖĢÕ«": 9531, "ĠÕ¡Õ½ÕºÕ¡ÖĢÕ¥Õ¦": 9532, "ĠÕ¡ÖĢÕ¿Õ¡Õ½Õ¡Õ°Õ´Õ¡Õ¶ÕµÕ¡Õ¶": 9533, "ĠÕĬÔµÕıÔ±Ô¿Ô±ÕĨ": 9534, "ĠÔ»Õ½ÕºÕ¡Õ¶Õ«Õ¡ÕµÕ«": 9535, "In": 9536, "net": 9537, "Õ¡ÖĢÕ»": 9538, "ĠÕ´Õ©": 9539, "ĠÕ¯Õ¿Õ¥Õ²": 9540, "Õ¡Õ¿Õ¶Õ¥ÖĢ": 9541, "Õ¡Õ®Õ«": 9542, "Õ¡Õ£Õ¥Õ²": 9543, "Õ¾Õ¡Õ®Õ¸ÖĤÕ©ÕµÕ¡Õ¶": 9544, "Õ«Õ¯ÕµÕ¡Õ¶Õ¨": 9545, "ĠÕĦÕ¡Õ¶Õ¯": 9546, "ĠÕĦÕ¥Õ¯Õ¶Õ¡Õ¢Õ¡Õ¶": 9547, "ĠÕ°Õ¡ÕµÕ°": 9548, "Õ±Õ«": 9549, "Õ¥Õ¬Õ«ÖĦÕ«": 9550, "ĠÔ²Õ¥Õ¼": 9551, "ĠÕ¶Õ¥ÖĢÕ¢": 9552, "ĠÖĦÕ¡Õ²Õ¡ÖĦÕ¡Õ£Õ¥Õ¿": 9553, "Õ¥ÖĤÕ¡Õ¶": 9554, "Ô²Õ¡Õ²": 9555, "Ô´Ô»": 9556, "ĠÔ¹Õ¸Õ²": 9557, "ĠÕ¯Õ¸Õ²Õ´Õ¶Õ¡Õ¯Õ«Öģ": 9558, "ĠÕ´Õ¡ÖĢÕ¤Õ¶": 9559, "ÖĢÕ¿Õ½Õ¥ÖĢ": 9560, "ÖĢÕ«Õ¡ÖĢÖĦ": 9561, "Ġ1915": 9562, "ĠÕŃÕ¡Õ²Õ¡Öģ": 9563, "Ô½Õİ": 9564, "Õ¡ÕºÕ¡Õ¿Õ¯": 9565, "ĠÕ¡Õ¦Õ¡Õ¿Õ¡Õ´Õ¡ÖĢÕ¿": 9566, "ĠÕ¢Õ¶Õ¡Õ¯Õ¹": 9567, "ĠÕ¢Õ¶Õ¡Õ¯Õ¹Õ¸ÖĤÕ©ÕµÕ¸ÖĤÕ¶Õ¨": 9568, "ĠÕ«ÖĢÕ¡Õ¾Õ¸ÖĤÕ¶ÖĦÕ¶Õ¥ÖĢ": 9569, "ÕķÕĲ": 9570, "ĠÕ±Õ¥Õ¼ÖĦÕ¸Õ¾": 9571, "ĠÔ±Õ¬Õ¡Õ¾Õ¥ÖĢÕ¤": 9572, "ĠÕ¡Õ¼Õ¡Õ¶ÖģÖĦÕ¡ÕµÕ«Õ¶": 9573, "ĠÕ´Õ¶Õ¡": 9574, "ĠÕ¯ÖĢÕ¡Õ¯Õ«": 9575, "ĠÖħÖĢÕ¥Õ¶Õ½Õ£": 9576, "ĠÕ¿Õ¸Õ¯Õ¸Õ½Õ«": 9577, "ĠÕ¡Õ³Õ¸ÖĤÕ´": 9578, "ĠÕ°Õ¥Õ²Õ«Õ¶Õ¡Õ¯Õ¶Õ¥ÖĢÕ«": 9579, "ĠÕ£ÖĢÕ¡Õ¶ÖģÕ¥Õ¬": 9580, "Ð¾ÑģÑĤ": 9581, "ĠÕ§Õ¬Õ¥Õ¯Õ¿ÖĢÕ¡Õ¯Õ¡Õ¶": 9582, "ĠÕ¯Õ¸ÖĤÕ½Õ¡Õ¯ÖģÕ¸ÖĤÕ©ÕµÕ¸ÖĤÕ¶Õ¶Õ¥ÖĢÕ«": 9583, "ĠÕ¾Õ¿Õ¡Õ¶Õ£Õ«": 9584, "ĠÕ¿Õ¡ÖĢÕ¢Õ¥ÖĢÕ¡Õ¯Õ¶Õ¥ÖĢÕ¨": 9585, "ĠÕ¤Õ¸Õ¬Õ¡ÖĢÕ¸Õ¾": 9586, "ĠÕ¡Õ¬Õ«ÖĦ": 9587, "ĠÕĢÔ±ÕħÕı": 9588, "ĠÕ¿Õ¸Õ¶Õ¶Õ¡": 9589, "ĠÕ°Õ¡Õ½ÖģÕ¥Õ¸ÖĤÕ´": 9590, "ĠÕ°Õ¶Õ¡Õ£Õ¸ÖĤÕµÕ¶": 9591, "ĠÕ¦Õ¢Õ¸Õ½Õ¡Õ·ÖĢÕ»Õ¸ÖĤÕ©ÕµÕ¡Õ¶": 9592, "ĠÕ°Õ¥Õ¿Õ¡ÖĦÖĢÖĦÖĢÕ¸ÖĤÕ©ÕµÕ¸ÖĤÕ¶": 9593, "Ô±Ô²ÔµÕĲ": 9594, "ĠÔ¹Õ¸ÖĤÕ´Õ¡Õ¶ÕµÕ¡Õ¶Õ«": 9595, "ĠÕĦÕ«Õ»Õ«Õ¶": 9596, "Ô±Õ¶Õ¤ÖĢÕ¡Õ¤Õ¡Õ¼Õ¶Õ¡Õ¬Õ¸Õ¾": 9597, "ĠÕ¯Õ¡ÖĢÕ«Õ¥ÖĢ": 9598, "ĠÕ¬Õ«Õ¡Õ¦Õ¸ÖĢÕ¾Õ¡Õ®": 9599, "ee": 9600, "press": 9601, "Â¬": 9602, "Õ¡ÕµÕ¡Õ©": 9603, "Õ¥Õ¬Õ½Õ«Õ¶": 9604, "ĠÕ¿Õ¥ÖĢÕ´": 9605, "ĠÕĢÕ¡Õ³Õ¡ÕŃ": 9606, "ĠÕ½Õ¡Õ¿Õ¡ÖĢ": 9607, "Õ¢Õ¡Õ¶": 9608, "ÔµÔ½": 9609, "ĠÕ¶Õ¡ÕŃÖħÖĢÕ¥Õ«Õ¶": 9610, "ĠÕ´Õ«Õ¸ÖĤÕ©ÕµÕ¸ÖĤÕ¶Õ¨": 9611, "ĠÔµÕıÕĦ": 9612, "ĠÔ¿Õ«Õº": 9613, "ĠÕĨÕ¡Õ¾": 9614, "ĠÕ¾Õ¥ÖĢÕ¡ÖĢÕ¿": 9615, "ĠÕ¥ÖĢÕ¡ÕŃÕ¿": 9616, "ĠÔ¼Õ¸Õ½": 9617, "Õ¡Õ£Õ¸ÖĢÕ®Õ¡Õ¯Õ¡Õ¶": 9618, "ÖħÖĢÕ¥Õ¶": 9619, "ĠÕ¯Õ¸Õ²Õ´Õ¸ÖĤÕ´": 9620, "Õ¨Õ¶Õ©Õ¥ÖĢ": 9621, "ĠÕ½Õ¡Õ°Õ´Õ¡Õ¶Õ¡ÕµÕ«Õ¶": 9622,
[...]
